{
  "version": "1.0",
  "truncation": null,
  "padding": null,
  "added_tokens": [
    {
      "id": 0,
      "content": "<unk>",
      "single_word": false,
      "lstrip": false,
      "rstrip": false,
      "normalized": false,
      "special": true
    },
    {
      "id": 1,
      "content": "<s>",
      "single_word": false,
      "lstrip": false,
      "rstrip": false,
      "normalized": false,
      "special": true
    },
    {
      "id": 2,
      "content": "</s>",
      "single_word": false,
      "lstrip": false,
      "rstrip": false,
      "normalized": false,
      "special": true
    }
  ],
  "normalizer": {
    "type": "Sequence",
    "normalizers": [
      {
        "type": "Nmt"
      },
      {
        "type": "NFKC"
      },
      {
        "type": "Replace",
        "pattern": {
          "Regex": " {2,}"
        },
        "content": " "
      }
    ]
  },
  "pre_tokenizer": {
    "type": "Metaspace",
    "replacement": "▁",
    "prepend_scheme": "always",
    "split": true
  },
  "post_processor": null,
  "decoder": {
    "type": "Metaspace",
    "replacement": "▁",
    "prepend_scheme": "always",
    "split": true
  },
  "model": {
    "type": "Unigram",
    "unk_id": 0,
    "vocab": [
      [
        "<unk>",
        0.0
      ],
      [
        "<s>",
        0.0
      ],
      [
        "</s>",
        0.0
      ],
      [
        "▁sa",
        -3.0928934237104038
      ],
      [
        "",
        -3.158071506146893
      ],
      [
        "▁ng",
        -3.1655110353892812
      ],
      [
        "▁na",
        -3.4296651202155903
      ],
      [
        "▁ang",
        -3.5025719123269976
      ],
      [
        ",",
        -3.757889799959221
      ],
      [
        "▁mga",
        -3.7798335414863384
      ],
      [
        ".",
        -3.875730579139921
      ],
      [
        "▁",
        -4.087769325148301
      ],
      [
        "▁at",
        -4.18110298303052
      ],
      [
        "▁ay",
        -4.245989563275675
      ],
      [
        "▁isa",
        -4.894798200528799
      ],
      [
        "o",
        -5.087301173616002
      ],
      [
        "s",
        -5.122757662736532
      ],
      [
        "a",
        -5.1773861581951195
      ],
      [
        "▁para",
        -5.229913358140056
      ],
      [
        "-",
        -5.308176371858956
      ],
      [
        "▁kung",
        -5.3307548950664945
      ],
      [
        "▁ito",
        -5.411060657634071
      ],
      [
        "▁hindi",
        -5.498612507022402
      ],
      [
        "▁may",
        -5.603607251889789
      ],
      [
        "▁upa",
        -5.769544925882171
      ],
      [
        "t",
        -5.79913379969776
      ],
      [
        "▁ni",
        -5.803112066093529
      ],
      [
        "▁pa",
        -5.818391148337007
      ],
      [
        "▁ko",
        -5.85965747121754
      ],
      [
        "▁si",
        -5.956310862311996
      ],
      [
        "▁mo",
        -6.050064239896544
      ],
      [
        "▁iyo",
        -6.082671528675224
      ],
      [
        "▁ka",
        -6.119625468206925
      ],
      [
        "i",
        -6.12212323745867
      ],
      [
        "g",
        -6.138676810515028
      ],
      [
        "y",
        -6.179871199874505
      ],
      [
        "▁mula",
        -6.202438418733461
      ],
      [
        "",
        -6.209778235968079
      ],
      [
        "▁ang",
        -6.2208539448266755
      ],
      [
        "",
        -6.233944757540373
      ],
      [
        ":",
        -6.302459737072194
      ],
      [
        "",
        -6.345662585354907
      ],
      [
        "",
        -6.352873918432424
      ],
      [
        "",
        -6.389620983032263
      ],
      [
        "▁kanyang",
        -6.3932237049261555
      ],
      [
        "▁ako",
        -6.393914499316649
      ],
      [
        "▁nang",
        -6.397491248476442
      ],
      [
        "▁dahil",
        -6.4146381176506715
      ],
      [
        "▁the",
        -6.431047249608298
      ],
      [
        "▁mas",
        -6.434277566268193
      ],
      [
        "n",
        -6.469775460787144
      ],
      [
        "▁to",
        -6.488872927682916
      ],
      [
        "▁siya",
        -6.492482404183757
      ],
      [
        "?",
        -6.493266549409485
      ],
      [
        "▁niya",
        -6.529116912197793
      ],
      [
        "",
        -6.5311832901028435
      ],
      [
        "▁lang",
        -6.543318611769376
      ],
      [
        "▁’",
        -6.552790436602246
      ],
      [
        "▁nila",
        -6.571192865481164
      ],
      [
        "▁lahat",
        -6.5795470375571785
      ],
      [
        "▁”",
        -6.587032058768209
      ],
      [
        "d",
        -6.602918790733476
      ],
      [
        "▁rin",
        -6.607108349607209
      ],
      [
        "▁ban",
        -6.61174082398704
      ],
      [
        "",
        -6.611944302440628
      ],
      [
        "▁and",
        -6.617673732142981
      ],
      [
        "▁of",
        -6.621223859580111
      ],
      [
        "▁(",
        -6.628518753432584
      ],
      [
        "▁ari",
        -6.630496480390365
      ],
      [
        "ng",
        -6.637515026143667
      ],
      [
        ")",
        -6.643434084523335
      ],
      [
        "",
        -6.662017494206761
      ],
      [
        "▁ano",
        -6.702297466682056
      ],
      [
        "ing",
        -6.753915262604574
      ],
      [
        "▁tao",
        -6.760796175367409
      ],
      [
        "▁din",
        -6.783389170561341
      ],
      [
        "",
        -6.78592613772919
      ],
      [
        "▁iba",
        -6.786712722976526
      ],
      [
        "",
        -6.786927590603506
      ],
      [
        "▁timbang",
        -6.815335227705885
      ],
      [
        "▁bilang",
        -6.820638140611814
      ],
      [
        "▁wala",
        -6.835964986053336
      ],
      [
        "▁lamang",
        -6.840339718847996
      ],
      [
        ".ang",
        -6.851208733852156
      ],
      [
        "▁ba",
        -6.853013167070674
      ],
      [
        "▁dibdib",
        -6.858555272076861
      ],
      [
        "",
        -6.863304769552704
      ],
      [
        "!",
        -6.872001744177471
      ],
      [
        "e",
        -6.8781048473699595
      ],
      [
        "▁po",
        -6.879493086956661
      ],
      [
        "▁isa",
        -6.882546687248528
      ],
      [
        "▁pain",
        -6.912121973685711
      ],
      [
        "▁\"",
        -6.948693734513762
      ],
      [
        "▁sila",
        -6.952132831242691
      ],
      [
        "▁nito",
        -6.954332179724652
      ],
      [
        "ed",
        -6.964402380811846
      ],
      [
        "▁s",
        -6.976897733496232
      ],
      [
        "▁mo",
        -6.9878650169692715
      ],
      [
        "m",
        -6.993093041433836
      ],
      [
        "s",
        -6.999740010371889
      ],
      [
        "▁in",
        -7.017434592899921
      ],
      [
        "",
        -7.018720928439919
      ],
      [
        "p",
        -7.023816328170954
      ],
      [
        "▁|",
        -7.025120410015779
      ],
      [
        "k",
        -7.034513515205164
      ],
      [
        "",
        -7.034675035206522
      ],
      [
        "▁“",
        -7.052062128368874
      ],
      [
        "▁giit",
        -7.053013795397266
      ],
      [
        "▁ilang",
        -7.067165787273899
      ],
      [
        "▁/",
        -7.0701075239123945
      ],
      [
        "▁tungkol",
        -7.077934140495914
      ],
      [
        "...",
        -7.106703106158902
      ],
      [
        "▁dapat",
        -7.127961019601761
      ],
      [
        "▁mask",
        -7.1366048856376665
      ],
      [
        "▁kaya",
        -7.13709043219429
      ],
      [
        "▁ano",
        -7.150221894321991
      ],
      [
        "",
        -7.150557424507637
      ],
      [
        "▁nila",
        -7.1523536431849415
      ],
      [
        "▁baon",
        -7.165467985473441
      ],
      [
        "▁tulad",
        -7.167698774225158
      ],
      [
        "▁di",
        -7.178065271915727
      ],
      [
        "▁ari",
        -7.181857727574041
      ],
      [
        "▁saan",
        -7.184969743031614
      ],
      [
        "",
        -7.187145004422719
      ],
      [
        "",
        -7.191177451535591
      ],
      [
        "er",
        -7.191830905207004
      ],
      [
        "",
        -7.195588329012564
      ],
      [
        "▁ngunit",
        -7.216981557085131
      ],
      [
        "▁pag",
        -7.222225041962206
      ],
      [
        "▁ina",
        -7.231002546244477
      ],
      [
        "▁rami",
        -7.237423695347394
      ],
      [
        "c",
        -7.242577399755641
      ],
      [
        "▁n",
        -7.256002168839579
      ],
      [
        "▁kay",
        -7.265223200889551
      ],
      [
        "sa",
        -7.267476079903675
      ],
      [
        "",
        -7.270805211019669
      ],
      [
        "▁noon",
        -7.278393544559009
      ],
      [
        "▁mata",
        -7.27916598911631
      ],
      [
        "b",
        -7.306951943246167
      ],
      [
        "ang",
        -7.3478923535854825
      ],
      [
        "▁akin",
        -7.349295874295903
      ],
      [
        "al",
        -7.353762711596092
      ],
      [
        "",
        -7.354805110013126
      ],
      [
        "▁suso",
        -7.357659007921889
      ],
      [
        "▁re",
        -7.3582412909165615
      ],
      [
        "▁hangga",
        -7.379637504796314
      ],
      [
        "na",
        -7.38069878319383
      ],
      [
        "▁tapos",
        -7.381657616193461
      ],
      [
        "▁pin",
        -7.395380519781746
      ],
      [
        "▁araw",
        -7.40056561310821
      ],
      [
        "▁worm",
        -7.401513441149403
      ],
      [
        "▁for",
        -7.405091104506715
      ],
      [
        "",
        -7.419967798856371
      ],
      [
        "▁haba",
        -7.425497047063255
      ],
      [
        "▁buhay",
        -7.434268310637114
      ],
      [
        "l",
        -7.4419345455602794
      ],
      [
        "▁bawat",
        -7.442813590604601
      ],
      [
        "ang",
        -7.443659216990815
      ],
      [
        "▁1",
        -7.44631116989156
      ],
      [
        ":",
        -7.4514059443176865
      ],
      [
        "an",
        -7.451960226348364
      ],
      [
        "▁bago",
        -7.456896017076483
      ],
      [
        "▁amin",
        -7.457201401816844
      ],
      [
        "▁liit",
        -7.458069237632305
      ],
      [
        "▁mukha",
        -7.475582035266244
      ],
      [
        "▁kami",
        -7.475947693875636
      ],
      [
        "▁loob",
        -7.486323353331681
      ],
      [
        "▁nasa",
        -7.490326301203421
      ],
      [
        "▁bata",
        -7.490410674015285
      ],
      [
        "▁kang",
        -7.491987918094322
      ],
      [
        "▁ilalim",
        -7.492053586317505
      ],
      [
        "▁bagay",
        -7.497549972701968
      ],
      [
        "f",
        -7.50227993619662
      ],
      [
        "▁de",
        -7.509455590716197
      ],
      [
        "▁kahit",
        -7.516591832866176
      ],
      [
        "",
        -7.516864649890623
      ],
      [
        "u",
        -7.519122295740452
      ],
      [
        "▁wala",
        -7.520760962156759
      ],
      [
        "r",
        -7.524178058433025
      ],
      [
        "▁nata",
        -7.52490369098642
      ],
      [
        "▁oras",
        -7.534094613201729
      ],
      [
        "▁kailangan",
        -7.5349952326068195
      ],
      [
        "▁ati",
        -7.541366494348781
      ],
      [
        ".sa",
        -7.54840256659344
      ],
      [
        "▁taon",
        -7.551460890222918
      ],
      [
        "▁is",
        -7.552933519305245
      ],
      [
        "▁ngayon",
        -7.55735862501548
      ],
      [
        "",
        -7.577723184426301
      ],
      [
        "▁p",
        -7.580790039032163
      ],
      [
        "▁uri",
        -7.582326629014387
      ],
      [
        "▁tong",
        -7.583224805199968
      ],
      [
        "▁bahagi",
        -7.588256213122756
      ],
      [
        "▁yung",
        -7.588757461240412
      ],
      [
        "▁you",
        -7.591882309812561
      ],
      [
        "▁higit",
        -7.596279962174904
      ],
      [
        "▁panahon",
        -7.598466447509676
      ],
      [
        "▁paraan",
        -7.60287115851377
      ],
      [
        ";",
        -7.6052101892102755
      ],
      [
        "to",
        -7.607776717813236
      ],
      [
        "▁baba",
        -7.615594427703282
      ],
      [
        "▁bago",
        -7.618224618545501
      ],
      [
        "▁alam",
        -7.621287733160306
      ],
      [
        "▁tayo",
        -7.633773872064641
      ],
      [
        "▁buo",
        -7.652441756460394
      ],
      [
        "▁dito",
        -7.671217300400254
      ],
      [
        "▁2",
        -7.672901224806093
      ],
      [
        "on",
        -7.678832665291058
      ],
      [
        "▁ko",
        -7.683951286694972
      ],
      [
        "▁as",
        -7.686365277970479
      ],
      [
        "",
        -7.712441425944755
      ],
      [
        "re",
        -7.714737420024889
      ],
      [
        "▁pero",
        -7.716919481317602
      ],
      [
        "▁sama",
        -7.717223763621087
      ],
      [
        "",
        -7.7174460335504165
      ],
      [
        "▁gusto",
        -7.717669396983563
      ],
      [
        "li",
        -7.71843779636961
      ],
      [
        "▁taon",
        -7.719529842293374
      ],
      [
        "▁anak",
        -7.7245443740452
      ],
      [
        "▁una",
        -7.727256927449819
      ],
      [
        "▁on",
        -7.730174129450075
      ],
      [
        "",
        -7.7310056270821566
      ],
      [
        "▁5",
        -7.731868183519268
      ],
      [
        "▁anuman",
        -7.732352633772329
      ],
      [
        "w",
        -7.733221824118607
      ],
      [
        "▁–",
        -7.734711092662636
      ],
      [
        "▁iyo",
        -7.75088280015788
      ],
      [
        ".“",
        -7.755188773093446
      ],
      [
        "▁laro",
        -7.755990368374336
      ],
      [
        "▁dalawa",
        -7.7616562175469745
      ],
      [
        "▁review",
        -7.763978559503268
      ],
      [
        "▁husay",
        -7.767927624634943
      ],
      [
        "in",
        -7.771278848657801
      ],
      [
        "▁online",
        -7.772393460037952
      ],
      [
        "\"",
        -7.774703657745466
      ],
      [
        "ma",
        -7.77508806291033
      ],
      [
        "▁hindi",
        -7.7786226873259565
      ],
      [
        ".-",
        -7.783914381602015
      ],
      [
        "▁katawan",
        -7.790914118822023
      ],
      [
        "at",
        -7.798804353152914
      ],
      [
        "ka",
        -7.79954474941491
      ],
      [
        "▁‘",
        -7.803758549687039
      ],
      [
        "▁yaon",
        -7.8050896858948455
      ],
      [
        "▁lugar",
        -7.806647910141045
      ],
      [
        "▁be",
        -7.809112103152501
      ],
      [
        "h",
        -7.809871771826533
      ],
      [
        "",
        -7.810830818383819
      ],
      [
        "le",
        -7.8110167230088035
      ],
      [
        "▁gawin",
        -7.812575042276922
      ],
      [
        "▁ina",
        -7.813853024835106
      ],
      [
        "▁bahay",
        -7.817202646386548
      ],
      [
        "▁sakit",
        -7.824853762589891
      ],
      [
        "ly",
        -7.827945623228185
      ],
      [
        "▁sabi",
        -7.828410696799878
      ],
      [
        "▁3",
        -7.836074164549668
      ],
      [
        "▁la",
        -7.840186030001991
      ],
      [
        "",
        -7.844966368405631
      ],
      [
        "▁sarili",
        -7.848145515145054
      ],
      [
        "▁m",
        -7.857922217193888
      ],
      [
        "▁c",
        -7.862478322543531
      ],
      [
        "▁siya",
        -7.862926388262354
      ],
      [
        "▁k",
        -7.864532196750691
      ],
      [
        "ra",
        -7.867082603568106
      ],
      [
        "",
        -7.867202194763893
      ],
      [
        "▁man",
        -7.8681823626610115
      ],
      [
        "▁babae",
        -7.878891466482248
      ],
      [
        "▁me",
        -7.879660109032876
      ],
      [
        "▁kasi",
        -7.879958364362029
      ],
      [
        "es",
        -7.889732103346203
      ],
      [
        "▁talaga",
        -7.900982768710703
      ],
      [
        "▁tapos",
        -7.902547499670359
      ],
      [
        "▁laki",
        -7.909523396773206
      ],
      [
        "x",
        -7.910368545061097
      ],
      [
        "▁bulate",
        -7.913668809300518
      ],
      [
        "pa",
        -7.9188728789086085
      ],
      [
        "",
        -7.927202448908542
      ],
      [
        "▁ako",
        -7.933103499681087
      ],
      [
        "▁it",
        -7.939177604091917
      ],
      [
        "▁r",
        -7.939953259488975
      ],
      [
        "ay",
        -7.940018701418886
      ],
      [
        "la",
        -7.947114403295446
      ],
      [
        "▁parasito",
        -7.957941018135898
      ],
      [
        "▁gamit",
        -7.960872340527475
      ],
      [
        "y",
        -7.961253150267318
      ],
      [
        "▁laki",
        -7.962778729192898
      ],
      [
        "▁that",
        -7.964044824763773
      ],
      [
        "▁pag",
        -7.964324578463652
      ],
      [
        "▁mataas",
        -7.969714439624816
      ],
      [
        "▁kanya",
        -7.970900747232649
      ],
      [
        "▁roon",
        -7.976848955911851
      ],
      [
        "▁bansa",
        -7.976947852083111
      ],
      [
        "▁facial",
        -7.983309981372585
      ],
      [
        "▁ito",
        -7.983368109117389
      ],
      [
        "",
        -7.9841372113053755
      ],
      [
        "sa",
        -7.984903992453528
      ],
      [
        "▁b",
        -7.987068424727061
      ],
      [
        "▁wala",
        -7.989432980188674
      ],
      [
        "▁presyo",
        -7.993440988079929
      ],
      [
        "▁ito,",
        -7.9972931696665075
      ],
      [
        "▁ito.",
        -7.998376927288241
      ],
      [
        "▁with",
        -7.999067028012034
      ],
      [
        "",
        -7.999385154948939
      ],
      [
        "▁d",
        -8.004957727862589
      ],
      [
        "▁so",
        -8.01490207253638
      ],
      [
        "▁10",
        -8.021104624003005
      ],
      [
        "▁rasites",
        -8.022560499888762
      ],
      [
        "s.",
        -8.026274545751368
      ],
      [
        "▁4",
        -8.028144109927245
      ],
      [
        "▁produkto",
        -8.028810424939367
      ],
      [
        "▁or",
        -8.029414440784105
      ],
      [
        "▁video",
        -8.03169079193672
      ],
      [
        "▁iyon",
        -8.032196376914667
      ],
      [
        "",
        -8.03288757130099
      ],
      [
        "▁bilis",
        -8.033492725276048
      ],
      [
        "▁silang",
        -8.043398338398141
      ],
      [
        "",
        -8.045600043887365
      ],
      [
        "▁gawa",
        -8.047487466123442
      ],
      [
        "▁laban",
        -8.054277843337589
      ],
      [
        "ri",
        -8.056752684196706
      ],
      [
        "▁sabi",
        -8.061329328754143
      ],
      [
        "e",
        -8.06411363616939
      ],
      [
        "",
        -8.071840212217182
      ],
      [
        "▁epekto",
        -8.07251610851901
      ],
      [
        "",
        -8.072752842925508
      ],
      [
        "▁gamit",
        -8.073834947014497
      ],
      [
        "▁unahin",
        -8.081355338324714
      ],
      [
        "▁durog",
        -8.090649986601651
      ],
      [
        "",
        -8.094054724446112
      ],
      [
        "▁kain",
        -8.094980000789127
      ],
      [
        "an",
        -8.096295677413524
      ],
      [
        "▁bato",
        -8.097334045810417
      ],
      [
        "da",
        -8.098685043614713
      ],
      [
        "▁kita",
        -8.101990017764155
      ],
      [
        "▁gamot",
        -8.104697159001532
      ],
      [
        "▁ikaw",
        -8.106058056724953
      ],
      [
        "",
        -8.106318191186812
      ],
      [
        "▁ayon",
        -8.106769589871028
      ],
      [
        "▁tulong",
        -8.110638989434031
      ],
      [
        "▁we",
        -8.114042595943129
      ],
      [
        "▁alis",
        -8.116523155854196
      ],
      [
        "▁da",
        -8.11927675593541
      ],
      [
        "▁%",
        -8.119402648560355
      ],
      [
        "▁nais",
        -8.126287851274753
      ],
      [
        "▁lalo",
        -8.128802613509306
      ],
      [
        "▁kaysa",
        -8.12959263329187
      ],
      [
        "▁laraw",
        -8.129817474223097
      ],
      [
        "▁taba",
        -8.144471325768505
      ],
      [
        "",
        -8.145380597391753
      ],
      [
        "▁co",
        -8.14943270065206
      ],
      [
        "",
        -8.151569878347114
      ],
      [
        "ha",
        -8.15190430635093
      ],
      [
        "wa",
        -8.153665164709833
      ],
      [
        "▁labas",
        -8.15449650553549
      ],
      [
        "or",
        -8.154617625825207
      ],
      [
        "de",
        -8.154979090081326
      ],
      [
        "▁up",
        -8.167972126304635
      ],
      [
        "▁bakit",
        -8.171003077218618
      ],
      [
        "en",
        -8.173915515152117
      ],
      [
        "▁do",
        -8.176019754177632
      ],
      [
        "▁balat",
        -8.176179393614701
      ],
      [
        "ga",
        -8.177396254162865
      ],
      [
        "se",
        -8.190259243125844
      ],
      [
        "▁19",
        -8.190556678201304
      ],
      [
        "'",
        -8.191094567241723
      ],
      [
        "▁nya",
        -8.19169821647983
      ],
      [
        "▁husay",
        -8.197313055747873
      ],
      [
        "▁my",
        -8.201514195359248
      ],
      [
        "▁no",
        -8.20752372460839
      ],
      [
        "v",
        -8.210591407643426
      ],
      [
        "it",
        -8.21194555323218
      ],
      [
        "",
        -8.215476327042206
      ],
      [
        "▁rin",
        -8.220627277682706
      ],
      [
        "▁l",
        -8.220701618605968
      ],
      [
        "▁gamit",
        -8.226995286767023
      ],
      [
        "▁ha",
        -8.22766986697986
      ],
      [
        "▁tubig",
        -8.23053859619667
      ],
      [
        "▁pareho",
        -8.231954290859676
      ],
      [
        "ni",
        -8.232155507220767
      ],
      [
        "▁tunay",
        -8.235384170697685
      ],
      [
        "▁diyos",
        -8.236875536825467
      ],
      [
        "▁gamit",
        -8.237047176320829
      ],
      [
        "▁face",
        -8.240656064400957
      ],
      [
        "di",
        -8.241350251715343
      ],
      [
        "▁daw",
        -8.244682951795127
      ],
      [
        "▁gawa",
        -8.244751211717537
      ],
      [
        "th",
        -8.245655694604952
      ],
      [
        "ck",
        -8.247182020034758
      ],
      [
        "▁an",
        -8.248674783914089
      ],
      [
        "ba",
        -8.251190996487043
      ],
      [
        "▁resulta",
        -8.253840931350798
      ],
      [
        "|",
        -8.256678441893524
      ],
      [
        "te",
        -8.256759375800598
      ],
      [
        "▁li",
        -8.257110768526402
      ],
      [
        "▁gigi",
        -8.257921706896303
      ],
      [
        "▁cream",
        -8.259105448779174
      ],
      [
        ").",
        -8.260244197421594
      ],
      [
        "▁pera",
        -8.261118980218171
      ],
      [
        "▁ra",
        -8.263890576603316
      ],
      [
        "",
        -8.266894178953395
      ],
      [
        "▁trabaho",
        -8.267124269146995
      ],
      [
        "▁halaga",
        -8.267798946139033
      ],
      [
        "▁are",
        -8.271549501857677
      ],
      [
        "▁gamit",
        -8.274434291029033
      ],
      [
        "▁ako",
        -8.27527003910007
      ],
      [
        "▁he",
        -8.275481817973244
      ],
      [
        "▁dating",
        -8.276918921666114
      ],
      [
        "▁dali",
        -8.278563057025437
      ],
      [
        "▁ma",
        -8.279949762442081
      ],
      [
        "▁roon",
        -8.281942863341818
      ],
      [
        "mo",
        -8.28954333015051
      ],
      [
        "",
        -8.289793278179522
      ],
      [
        "▁bilang",
        -8.291672696639633
      ],
      [
        "▁your",
        -8.293394002400905
      ],
      [
        "▁dahilan",
        -8.294468206036116
      ],
      [
        "▁problema",
        -8.30013438160319
      ],
      [
        "▁gigi",
        -8.300275417913515
      ],
      [
        "▁com",
        -8.302534459687205
      ],
      [
        "▁al",
        -8.304946130432835
      ],
      [
        "▁serbisyo",
        -8.307852020655545
      ],
      [
        "ent",
        -8.30934133743339
      ],
      [
        "▁bata",
        -8.314885712531241
      ],
      [
        "▁site",
        -8.315500795322153
      ],
      [
        "▁impormasyon",
        -8.31812084035056
      ],
      [
        "▁wala",
        -8.318676078339296
      ],
      [
        "▁lang",
        -8.322200060723944
      ],
      [
        "▁ganda",
        -8.326230384571755
      ],
      [
        "▁roon",
        -8.327580070683615
      ],
      [
        "▁tiyan",
        -8.327645215412877
      ],
      [
        "▁tong",
        -8.32784307842489
      ],
      [
        "▁tanong",
        -8.328011015959015
      ],
      [
        "ro",
        -8.329021305773143
      ],
      [
        "▁gamot",
        -8.33280577824092
      ],
      [
        "▁niya",
        -8.332966076125196
      ],
      [
        ".\"",
        -8.342211357383796
      ],
      [
        "▁'",
        -8.342420183004165
      ],
      [
        "▁bigay",
        -8.34312262499072
      ],
      [
        "▁patuloy",
        -8.344877207776534
      ],
      [
        "",
        -8.345923596160562
      ],
      [
        "",
        -8.34723798465661
      ],
      [
        "▁halos",
        -8.354238694747005
      ],
      [
        "il",
        -8.356079110564897
      ],
      [
        "▁pati",
        -8.356704962538524
      ],
      [
        "▁aral",
        -8.356852790726322
      ],
      [
        "ation",
        -8.357015879393627
      ],
      [
        "▁kamay",
        -8.35837713665412
      ],
      [
        "▁rami",
        -8.365378605380736
      ],
      [
        "",
        -8.365459158469614
      ],
      [
        "do",
        -8.36592496484681
      ],
      [
        "▁by",
        -8.37166175536801
      ],
      [
        "",
        -8.37384894566768
      ],
      [
        "si",
        -8.377948072066687
      ],
      [
        "▁proseso",
        -8.379783747291054
      ],
      [
        "▁gawa",
        -8.384229135641121
      ],
      [
        "▁puso",
        -8.385550825575505
      ],
      [
        "▁gala",
        -8.386221949757271
      ],
      [
        "▁mundo",
        -8.387643618066123
      ],
      [
        "▁ta",
        -8.388616472581175
      ],
      [
        "▁pro",
        -8.38932939869515
      ],
      [
        "",
        -8.39136029220082
      ],
      [
        "▁buwa",
        -8.39175927461401
      ],
      [
        "▁7",
        -8.392320945285633
      ],
      [
        "▁laki",
        -8.393961240270725
      ],
      [
        "▁le",
        -8.394109990695233
      ],
      [
        "▁nila",
        -8.395121377930346
      ],
      [
        "▁can",
        -8.397738906644827
      ],
      [
        "▁lakas",
        -8.397819563285731
      ],
      [
        "",
        -8.402589708092279
      ],
      [
        "▁8",
        -8.403457650988692
      ],
      [
        "j",
        -8.40896900463991
      ],
      [
        "hi",
        -8.409408288523663
      ],
      [
        "▁kayo",
        -8.409657129885542
      ],
      [
        "▁post",
        -8.40968412930326
      ],
      [
        "▁talaga",
        -8.411557907740528
      ],
      [
        "▁gawa",
        -8.411861355319278
      ],
      [
        "is",
        -8.414943836789307
      ],
      [
        "ti",
        -8.416289895715208
      ],
      [
        "▁this",
        -8.419250944163187
      ],
      [
        "kung",
        -8.419662528371353
      ],
      [
        "▁milya",
        -8.425501743503782
      ],
      [
        "▁bili",
        -8.426843526018866
      ],
      [
        "el",
        -8.429451954172775
      ],
      [
        "ing",
        -8.431169719850303
      ],
      [
        "▁us",
        -8.431561545256187
      ],
      [
        "▁f",
        -8.43243534405453
      ],
      [
        "er",
        -8.432524522994884
      ],
      [
        "▁laki",
        -8.438364663087752
      ],
      [
        "▁ti",
        -8.43950859114465
      ],
      [
        "▁sabi",
        -8.44096356076442
      ],
      [
        "▁daan",
        -8.444232117357597
      ],
      [
        "▁dugo",
        -8.444525943711922
      ],
      [
        "▁iba",
        -8.445651724590679
      ],
      [
        "▁casino",
        -8.445733892138792
      ],
      [
        "ko",
        -8.451034218650776
      ],
      [
        "bi",
        -8.451620606624246
      ],
      [
        "▁ligid",
        -8.45178245251273
      ],
      [
        "tu",
        -8.452561168546767
      ],
      [
        "z",
        -8.453078929284686
      ],
      [
        "▁ku",
        -8.453750996955577
      ],
      [
        "▁laman",
        -8.454440091400262
      ],
      [
        "▁mahal",
        -8.457760026088009
      ],
      [
        "",
        -8.45905017649874
      ],
      [
        "▁kpanya",
        -8.462656572364452
      ],
      [
        "▁kita",
        -8.463044062854411
      ],
      [
        "▁000",
        -8.463940269073158
      ],
      [
        "▁pagitan",
        -8.465664251294605
      ],
      [
        "▁nito.",
        -8.465836711455358
      ],
      [
        "▁dalas",
        -8.467847901962385
      ],
      [
        "▁laro",
        -8.469999663946687
      ],
      [
        "▁kulay",
        -8.471009340611223
      ],
      [
        "▁ilang",
        -8.47207925267549
      ],
      [
        "ad",
        -8.472542255433904
      ],
      [
        "so",
        -8.473034067191524
      ],
      [
        "▁linggo",
        -8.47368726397295
      ],
      [
        "",
        -8.474440330931825
      ],
      [
        "id",
        -8.474898428311807
      ],
      [
        "▁—",
        -8.477675797952793
      ],
      [
        "▁kaya",
        -8.48126263929894
      ],
      [
        "▁dagdag",
        -8.482971377670001
      ],
      [
        "ment",
        -8.491300507317591
      ],
      [
        "),",
        -8.49139138566643
      ],
      [
        "▁sya",
        -8.49357374823781
      ],
      [
        "▁6",
        -8.494631977937448
      ],
      [
        "▁slimming",
        -8.496246020669732
      ],
      [
        "",
        -8.499363586246433
      ],
      [
        "bo",
        -8.500144753425133
      ],
      [
        "▁tiyak",
        -8.5014484063148
      ],
      [
        "▁pi",
        -8.50491429116755
      ],
      [
        "▁karaniwan",
        -8.506247101066148
      ],
      [
        "▁surgery",
        -8.507173692745038
      ],
      [
        "▁website",
        -8.515539942337965
      ],
      [
        "▁sarili",
        -8.515671487707504
      ],
      [
        "▁dansa",
        -8.519110428646611
      ],
      [
        "▁kaso",
        -8.523998882885914
      ],
      [
        "▁am",
        -8.526423068201689
      ],
      [
        "▁out",
        -8.52700786668881
      ],
      [
        "▁un",
        -8.52904452931829
      ],
      [
        "▁agad",
        -8.52963592204809
      ],
      [
        "▁tatlo",
        -8.529846172369755
      ],
      [
        "2",
        -8.530276212442164
      ],
      [
        "▁taon",
        -8.531113878081932
      ],
      [
        "▁sagot",
        -8.535185935326401
      ],
      [
        "▁not",
        -8.536631891379608
      ],
      [
        "▁wika",
        -8.538993401522935
      ],
      [
        "▁*",
        -8.540213611488271
      ],
      [
        "▁ilan",
        -8.541608438621346
      ],
      [
        "▁ligtas",
        -8.542551841804531
      ],
      [
        ".ayon",
        -8.543433015545663
      ],
      [
        "yo",
        -8.545493407004203
      ],
      [
        "▁ko.",
        -8.546682260117674
      ],
      [
        "us",
        -8.548500489673897
      ],
      [
        "co",
        -8.550062674376719
      ],
      [
        "▁asawa",
        -8.550753984734351
      ],
      [
        "▁diyeta",
        -8.552218250100632
      ],
      [
        "ve",
        -8.55257571270681
      ],
      [
        "▁pala",
        -8.553127389814309
      ],
      [
        "▁ganap",
        -8.555690943505004
      ],
      [
        "ne",
        -8.556023755217572
      ],
      [
        "▁puno",
        -8.556814096581668
      ],
      [
        "▁ca",
        -8.557277353024194
      ],
      [
        "▁pilipinas",
        -8.5579283513642
      ],
      [
        "▁kailangan",
        -8.559144682093807
      ],
      [
        "▁20",
        -8.559930970815325
      ],
      [
        "",
        -8.561692450361695
      ],
      [
        "▁lu",
        -8.562646580117374
      ],
      [
        "",
        -8.56492920122585
      ],
      [
        "",
        -8.566389529765143
      ],
      [
        "ar",
        -8.567731301063782
      ],
      [
        "▁tina",
        -8.568319108025998
      ],
      [
        "▁pe",
        -8.569092484876906
      ],
      [
        "▁ngunit",
        -8.575741740043084
      ],
      [
        "▁app",
        -8.576338302501354
      ],
      [
        "",
        -8.57647160084392
      ],
      [
        "▁sanhi",
        -8.576841268401767
      ],
      [
        "pe",
        -8.577244039148614
      ],
      [
        "▁mag",
        -8.578090122288545
      ],
      [
        "▁account",
        -8.580159340926746
      ],
      [
        "▁amin",
        -8.580532879394694
      ],
      [
        "ter",
        -8.581113061694081
      ],
      [
        "▁gawa",
        -8.581285158849248
      ],
      [
        "",
        -8.583617626656391
      ],
      [
        ".mga",
        -8.583987308730737
      ],
      [
        "▁ari",
        -8.584333588120531
      ],
      [
        "▁all",
        -8.585621594978203
      ],
      [
        "▁kaibigan",
        -8.590151410885186
      ],
      [
        "▁una",
        -8.59016643816983
      ],
      [
        "od",
        -8.590880308583715
      ],
      [
        "▁baga",
        -8.591884526949746
      ],
      [
        "",
        -8.593696730378845
      ],
      [
        "ca",
        -8.594473051232393
      ],
      [
        "▁customer",
        -8.596409297771729
      ],
      [
        "lu",
        -8.596628843305762
      ],
      [
        "▁30",
        -8.597479539169774
      ],
      [
        "▁w",
        -8.598815823722504
      ],
      [
        "he",
        -8.601003865776935
      ],
      [
        "",
        -8.601849840916417
      ],
      [
        "ang",
        -8.602226554438872
      ],
      [
        "▁kuha",
        -8.604601886967574
      ],
      [
        "▁huwag",
        -8.606450481195818
      ],
      [
        "▁her",
        -8.607036088746565
      ],
      [
        "▁su",
        -8.607122875408454
      ],
      [
        "▁doon",
        -8.607149672786155
      ],
      [
        "▁time",
        -8.611131444799765
      ],
      [
        "▁h",
        -8.611849848282262
      ],
      [
        "▁kilala",
        -8.615761753131242
      ],
      [
        "▁tama",
        -8.618005789403373
      ],
      [
        "ic",
        -8.623246690584196
      ],
      [
        "]",
        -8.624877127474099
      ],
      [
        "▁ro",
        -8.627588479394483
      ],
      [
        "▁gastos",
        -8.628400096555163
      ],
      [
        "▁bago",
        -8.629484823881219
      ],
      [
        "",
        -8.630397373431778
      ],
      [
        "▁ano",
        -8.63385563773316
      ],
      [
        "▁ibig",
        -8.63417247574495
      ],
      [
        "▁gaano",
        -8.637193850713436
      ],
      [
        "▁[",
        -8.639070160191295
      ],
      [
        "▁bar",
        -8.639612155870394
      ],
      [
        "▁ano",
        -8.645769573146993
      ],
      [
        "▁bu",
        -8.646151226020068
      ],
      [
        "▁antas",
        -8.646478536419881
      ],
      [
        "▁bayan",
        -8.648223424186167
      ],
      [
        "me",
        -8.64830766354602
      ],
      [
        "▁ina",
        -8.651747868644733
      ],
      [
        "▁ama",
        -8.65379306134254
      ],
      [
        "▁$",
        -8.653877099240717
      ],
      [
        "",
        -8.65623037344457
      ],
      [
        "▁baka",
        -8.659701032646403
      ],
      [
        "▁tu",
        -8.663568567761613
      ],
      [
        "▁from",
        -8.66552844596001
      ],
      [
        "▁negosyo",
        -8.666104313797241
      ],
      [
        "vi",
        -8.668069956596966
      ],
      [
        "▁salita",
        -8.668730184250668
      ],
      [
        "▁isip",
        -8.669444179096867
      ],
      [
        "▁sapat",
        -8.66953282868256
      ],
      [
        "▁kita",
        -8.669961884710245
      ],
      [
        "",
        -8.670614219884898
      ],
      [
        "▁wrinkles",
        -8.670623365786861
      ],
      [
        "po",
        -8.671119827619384
      ],
      [
        "▁mi",
        -8.671800944177471
      ],
      [
        "▁layo",
        -8.672509799224619
      ],
      [
        "ers",
        -8.674761816585486
      ],
      [
        "▁baon",
        -8.67508543135634
      ],
      [
        "ho",
        -8.677738461768548
      ],
      [
        "▁libre",
        -8.678107332395308
      ],
      [
        "▁batas",
        -8.681725476240068
      ],
      [
        "▁sunod",
        -8.68350821436644
      ],
      [
        "▁noon",
        -8.683837893283188
      ],
      [
        "▁muli",
        -8.687227450298911
      ],
      [
        "am",
        -8.68791649051368
      ],
      [
        "▁gawa",
        -8.689376668314182
      ],
      [
        "▁ki",
        -8.690028722592443
      ],
      [
        "▁daan",
        -8.694301703299164
      ],
      [
        "▁tapos",
        -8.69500268953972
      ],
      [
        "▁lupa",
        -8.695107327991696
      ],
      [
        "▁bukas",
        -8.69525633120718
      ],
      [
        "lo",
        -8.695821173011815
      ],
      [
        "▁se",
        -8.700299563492479
      ],
      [
        "▁harap",
        -8.700536414000034
      ],
      [
        "▁simula",
        -8.7021322753522
      ],
      [
        "▁edad",
        -8.703527073103709
      ],
      [
        "▁babae",
        -8.703844711284525
      ],
      [
        ".kung",
        -8.705689768440891
      ],
      [
        "▁breast",
        -8.707280837371199
      ],
      [
        "▁halimbawa",
        -8.707984027572447
      ],
      [
        "▁halaga",
        -8.708110983778834
      ],
      [
        "ur",
        -8.70924376381117
      ],
      [
        "▁have",
        -8.71161058803071
      ],
      [
        "▁personal",
        -8.713321453378635
      ],
      [
        "▁#",
        -8.714146534659728
      ],
      [
        "ist",
        -8.714605908240099
      ],
      [
        "▁raw",
        -8.714725981249627
      ],
      [
        "▁hakbang",
        -8.715212838297509
      ],
      [
        "▁ga",
        -8.715292083674886
      ],
      [
        "▁system",
        -8.715737971017322
      ],
      [
        "1",
        -8.716674301831548
      ],
      [
        "▁data",
        -8.716743020696237
      ],
      [
        "▁rami",
        -8.717040407421687
      ],
      [
        "▁+",
        -8.717684939573669
      ],
      [
        "3",
        -8.723624739134857
      ],
      [
        "▁gawa",
        -8.724034697945768
      ],
      [
        "mga",
        -8.72416460252648
      ],
      [
        "▁will",
        -8.724881143367778
      ],
      [
        "ci",
        -8.726472898888229
      ],
      [
        "▁bi",
        -8.727823597819881
      ],
      [
        "▁sino",
        -8.73137978733598
      ],
      [
        "▁go",
        -8.731923587430707
      ],
      [
        "▁pero",
        -8.73345329215253
      ],
      [
        "▁12",
        -8.733689182321024
      ],
      [
        "▁9",
        -8.734889008883842
      ],
      [
        "",
        -8.7359486798927
      ],
      [
        "▁galing",
        -8.736197766045178
      ],
      [
        "▁car",
        -8.736748131222804
      ],
      [
        "▁15",
        -8.737165943377557
      ],
      [
        "▁media",
        -8.741145641028611
      ],
      [
        "▁langis",
        -8.74255945903286
      ],
      [
        "ge",
        -8.742608242065394
      ],
      [
        "▁dami",
        -8.743665278868855
      ],
      [
        "un",
        -8.744886138378295
      ],
      [
        "▁nito,",
        -8.744900782108708
      ],
      [
        "",
        -8.746320074338225
      ],
      [
        "!",
        -8.747264257100461
      ],
      [
        "▁yun",
        -8.749149103992096
      ],
      [
        "▁ina",
        -8.749970136707283
      ],
      [
        "▁gaya",
        -8.75092793678635
      ],
      [
        "▁daan",
        -8.751789651323326
      ],
      [
        "ll",
        -8.7521299184966
      ],
      [
        "▁buhok",
        -8.75236550267489
      ],
      [
        "ok",
        -8.752887093500057
      ],
      [
        "▁ayos",
        -8.753138203009694
      ],
      [
        "▁ganito",
        -8.756133688910126
      ],
      [
        "▁card",
        -8.757693624296508
      ],
      [
        "al",
        -8.758279780666147
      ],
      [
        "",
        -8.760180203076724
      ],
      [
        "▁ad",
        -8.76036582430062
      ],
      [
        "▁tama",
        -8.761442081320173
      ],
      [
        "▁malaki",
        -8.76163133354226
      ],
      [
        "▁dalawa",
        -8.764303310343822
      ],
      [
        "▁mina",
        -8.765069309802927
      ],
      [
        "▁plano",
        -8.765342377782574
      ],
      [
        "▁city",
        -8.765914109763571
      ],
      [
        "▁social",
        -8.766039988484616
      ],
      [
        "▁diin",
        -8.76637209693516
      ],
      [
        "▁jo",
        -8.769644934760985
      ],
      [
        "▁yan",
        -8.771243439775162
      ],
      [
        "▁lapit",
        -8.77206583110667
      ],
      [
        "ity",
        -8.77652377138021
      ],
      [
        "",
        -8.778315887731168
      ],
      [
        "s,",
        -8.779577726953633
      ],
      [
        "“",
        -8.782836073999057
      ],
      [
        "aw",
        -8.782956850219563
      ],
      [
        "asyon",
        -8.78299327939793
      ],
      [
        "▁ulo",
        -8.783343979507853
      ],
      [
        "▁suporta",
        -8.784049920707936
      ],
      [
        "▁x",
        -8.786035336779806
      ],
      [
        "▁medyo",
        -8.786643949648525
      ],
      [
        "▁was",
        -8.789765856015759
      ],
      [
        "ir",
        -8.79077379934232
      ],
      [
        "▁katotohanan",
        -8.792675220381845
      ],
      [
        "▁programa",
        -8.792744131668975
      ],
      [
        "ary",
        -8.796978610791362
      ],
      [
        "▁muna",
        -8.797970464532183
      ],
      [
        "▁she",
        -8.798898091787036
      ],
      [
        "ry",
        -8.79973267919069
      ],
      [
        "▁pili",
        -8.799836644073558
      ],
      [
        "▁pre",
        -8.799902366100842
      ],
      [
        "▁v",
        -8.800650085759473
      ],
      [
        "▁halaman",
        -8.802621006381958
      ],
      [
        "ano",
        -8.803487925002992
      ],
      [
        "ting",
        -8.804154740678346
      ],
      [
        "▁kundi",
        -8.805281588196914
      ],
      [
        "▁rito",
        -8.808233426785161
      ],
      [
        "▁huli",
        -8.808474497455471
      ],
      [
        ":-",
        -8.80933848016826
      ],
      [
        "▁beses",
        -8.8095002867212
      ],
      [
        "▁lungsod",
        -8.812084300857935
      ],
      [
        "▁tampok",
        -8.81298583236399
      ],
      [
        "▁live",
        -8.813936670296709
      ],
      [
        "▁hirap",
        -8.81430284402547
      ],
      [
        "▁ri",
        -8.816447367692378
      ],
      [
        "▁gulang",
        -8.818184770165503
      ],
      [
        "▁niya.",
        -8.818194254296074
      ],
      [
        "▁lusog",
        -8.81859455130515
      ],
      [
        "▁inyo",
        -8.820324900350167
      ],
      [
        "▁hala",
        -8.821864328355625
      ],
      [
        "▁&",
        -8.822154249053671
      ],
      [
        "to",
        -8.822853836083437
      ],
      [
        "▁lakas",
        -8.823041165487943
      ],
      [
        "▁our",
        -8.823305810452702
      ],
      [
        "▁suri",
        -8.823976351131476
      ],
      [
        "est",
        -8.826593323089071
      ],
      [
        "▁eh",
        -8.826603610469654
      ],
      [
        "▁ano",
        -8.82749220518285
      ],
      [
        "▁posible",
        -8.830276016331661
      ],
      [
        "ate",
        -8.830424090981502
      ],
      [
        "▁kita",
        -8.831284697978042
      ],
      [
        "▁con",
        -8.832349814480928
      ],
      [
        "▁handa",
        -8.833883830816713
      ],
      [
        "el",
        -8.834078439214654
      ],
      [
        "▁the",
        -8.836204975447952
      ],
      [
        "▁gamit",
        -8.836379547143933
      ],
      [
        "▁roon",
        -8.841701435525817
      ],
      [
        "",
        -8.843802054714729
      ],
      [
        "▁love",
        -8.844053197525424
      ],
      [
        "▁bigay",
        -8.84863897669729
      ],
      [
        "▁mana",
        -8.848999296483159
      ],
      [
        "▁tao.",
        -8.849312241117781
      ],
      [
        "",
        -8.851108608426582
      ],
      [
        "▁sistema",
        -8.851793262971775
      ],
      [
        "▁ngayon",
        -8.851841932025065
      ],
      [
        "be",
        -8.85383494386561
      ],
      [
        "ber",
        -8.854655065111713
      ],
      [
        "▁kain",
        -8.854869274613426
      ],
      [
        "▁sangkap",
        -8.854914981094971
      ],
      [
        "▁ex",
        -8.855040800606796
      ],
      [
        "▁tulad",
        -8.855444014047468
      ],
      [
        "▁lo",
        -8.855553764488603
      ],
      [
        "ce",
        -8.855796029386184
      ],
      [
        "▁ulat",
        -8.856357537589949
      ],
      [
        "ling",
        -8.860200090622506
      ],
      [
        "▁kita",
        -8.860770560058395
      ],
      [
        "▁batay",
        -8.862338430515736
      ],
      [
        "▁taas",
        -8.864857409004886
      ],
      [
        "ke",
        -8.866179473219578
      ],
      [
        "▁buti",
        -8.866781160841406
      ],
      [
        "▁totoo",
        -8.871299077000533
      ],
      [
        ".hindi",
        -8.872064746348125
      ],
      [
        "▁madali",
        -8.873480210648697
      ],
      [
        "",
        -8.873964183719137
      ],
      [
        "▁dating",
        -8.874881274808423
      ],
      [
        "▁muli",
        -8.874937693253965
      ],
      [
        "▁vi",
        -8.877039243928662
      ],
      [
        ";-",
        -8.87918339811404
      ],
      [
        "",
        -8.88307334000775
      ],
      [
        "▁labis",
        -8.885046808186654
      ],
      [
        "▁ho",
        -8.886433618349987
      ],
      [
        "▁ar",
        -8.888590856656283
      ],
      [
        "▁hirap",
        -8.888842447252102
      ],
      [
        "▁relasyon",
        -8.890629205751688
      ],
      [
        "▁tila",
        -8.890757747962095
      ],
      [
        "ive",
        -8.891582091230502
      ],
      [
        "",
        -8.891606159624416
      ],
      [
        "",
        -8.892776953945766
      ],
      [
        "▁mask",
        -8.894686206539143
      ],
      [
        "▁sintomas",
        -8.894847652688453
      ],
      [
        "per",
        -8.894854079312797
      ],
      [
        "▁bukod",
        -8.895273303485801
      ],
      [
        "▁huli",
        -8.89572272810794
      ],
      [
        "",
        -8.896068254468888
      ],
      [
        "▁du",
        -8.896127622189525
      ],
      [
        "▁hi",
        -8.899580789232212
      ],
      [
        "▁dagdag",
        -8.901258388025134
      ],
      [
        "▁punta",
        -8.90128040251974
      ],
      [
        "▁alok",
        -8.90159459737965
      ],
      [
        "▁per",
        -8.90210538001629
      ],
      [
        "▁sobra",
        -8.902125798887806
      ],
      [
        "d",
        -8.90315434804434
      ],
      [
        "mi",
        -8.903981945886784
      ],
      [
        "▁plastic",
        -8.905240253854261
      ],
      [
        "▁gabi",
        -8.90791356496442
      ],
      [
        "▁opisyal",
        -8.909181594972353
      ],
      [
        "▁siguro",
        -8.909845338537515
      ],
      [
        "▁natural",
        -8.910184967690977
      ],
      [
        "▁more",
        -8.910328172477666
      ],
      [
        "▁ganda",
        -8.91041003223844
      ],
      [
        "ch",
        -8.911670911123965
      ],
      [
        "▁dagdag",
        -8.91285843359699
      ],
      [
        "gu",
        -8.913252036456734
      ],
      [
        "▁gu",
        -8.913472362128832
      ],
      [
        "▁bo",
        -8.914860378876666
      ],
      [
        "▁covid-19",
        -8.91563726527921
      ],
      [
        "wi",
        -8.917634014489199
      ],
      [
        "▁kalidad",
        -8.917800479138057
      ],
      [
        "▁grupo",
        -8.9192977572095
      ],
      [
        "",
        -8.919537847263896
      ],
      [
        "",
        -8.921438149086041
      ],
      [
        "syon",
        -8.92262662642411
      ],
      [
        "on",
        -8.923446965444171
      ],
      [
        "ra",
        -8.923893197918337
      ],
      [
        "▁tao",
        -8.924235881183604
      ],
      [
        "na",
        -8.926323100218182
      ],
      [
        "",
        -8.927978672286118
      ],
      [
        "bu",
        -8.929525796327981
      ],
      [
        "tal",
        -8.931001739831897
      ],
      [
        "▁ani",
        -8.93128212707653
      ],
      [
        "▁j",
        -8.934277857717337
      ],
      [
        "▁sukat",
        -8.934929159910745
      ],
      [
        "▁ninyo",
        -8.934953820225047
      ],
      [
        "▁subok",
        -8.935155462933736
      ],
      [
        "es",
        -8.936393686826161
      ],
      [
        "▁hu",
        -8.93645719179447
      ],
      [
        "▁kailangan",
        -8.940185313387719
      ],
      [
        "▁slot",
        -8.94290216257012
      ],
      [
        "▁tawag",
        -8.94302348020575
      ],
      [
        "▁papel",
        -8.943782791423311
      ],
      [
        "▁ne",
        -8.943963114957189
      ],
      [
        "▁bigay",
        -8.944203318107713
      ],
      [
        "▁email",
        -8.945172653185956
      ],
      [
        "▁gi",
        -8.94566479991454
      ],
      [
        "pi",
        -8.94786391508586
      ],
      [
        "▁tawag",
        -8.947994376886273
      ],
      [
        "▁11",
        -8.948461281061222
      ],
      [
        "▁daan",
        -8.95139450789395
      ],
      [
        "um",
        -8.951784395062765
      ],
      [
        "▁laba",
        -8.952068850720854
      ],
      [
        "▁laman",
        -8.956700586833987
      ],
      [
        "▁taas",
        -8.95685967958951
      ],
      [
        "▁th",
        -8.95826063565269
      ],
      [
        "ion",
        -8.962838043215056
      ],
      [
        "▁en",
        -8.963245472695228
      ],
      [
        "▁gigi",
        -8.964907015630272
      ],
      [
        "▁na",
        -8.964964605042484
      ],
      [
        "▁panganib",
        -8.968001813561404
      ],
      [
        "▁halaga",
        -8.968152971822922
      ],
      [
        "▁st",
        -8.969784443155664
      ],
      [
        "▁bayad",
        -8.969861837764414
      ],
      [
        "▁bag",
        -8.970367785711336
      ],
      [
        "▁partikular",
        -8.971646056987824
      ],
      [
        "▁gamit",
        -8.972300534747635
      ],
      [
        "5",
        -8.972952262783286
      ],
      [
        "able",
        -8.973105954600769
      ],
      [
        "▁bilis",
        -8.97322509416207
      ],
      [
        "",
        -8.973464129118623
      ],
      [
        "▁18",
        -8.973669555228408
      ],
      [
        "▁biktima",
        -8.973931873165986
      ],
      [
        "",
        -8.974302265352215
      ],
      [
        "▁sabi",
        -8.97688210405911
      ],
      [
        "▁itaas",
        -8.977555391248009
      ],
      [
        "▁kapatid",
        -8.977901325267965
      ],
      [
        "▁network",
        -8.978890215782753
      ],
      [
        "▁dagdagan",
        -8.979744962815623
      ],
      [
        "▁kasalukuyan",
        -8.98054733796731
      ],
      [
        "tion",
        -8.981683510874031
      ],
      [
        "▁che",
        -8.981827394001533
      ],
      [
        "",
        -8.984256296115333
      ],
      [
        "▁sikat",
        -8.985179813185365
      ],
      [
        "▁isyu",
        -8.9871951648839
      ],
      [
        "age",
        -8.98787151453709
      ],
      [
        "▁itlog",
        -8.98821288920768
      ],
      [
        "▁ulit",
        -8.990879046436229
      ],
      [
        "sh",
        -8.991331179140207
      ],
      [
        ")",
        -8.993143616205586
      ],
      [
        "▁disenyo",
        -8.993321475384748
      ],
      [
        "▁linaw",
        -8.994009195072694
      ],
      [
        "▁fe",
        -8.995845774096637
      ],
      [
        "▁pu",
        -8.9958698024355
      ],
      [
        "▁tagumpay",
        -8.997139736454711
      ],
      [
        "▁balita",
        -8.998987316870112
      ],
      [
        "▁100",
        -9.000739727226476
      ],
      [
        "",
        -9.001065475138397
      ],
      [
        "▁gayunpam,",
        -9.001546279058745
      ],
      [
        "▁host",
        -9.003251690404255
      ],
      [
        "sta",
        -9.00442654269262
      ],
      [
        "▁filipino",
        -9.004525899363383
      ],
      [
        "▁mobile",
        -9.00701698707876
      ],
      [
        "▁kuwento",
        -9.00874777926202
      ],
      [
        "▁nuno",
        -9.013238475869933
      ],
      [
        "tic",
        -9.014139209534779
      ],
      [
        "",
        -9.01490054962057
      ],
      [
        "su",
        -9.016190708151802
      ],
      [
        "ant",
        -9.016961480575388
      ],
      [
        "▁sama",
        -9.019709259473316
      ],
      [
        "▁apat",
        -9.020339095822104
      ],
      [
        "▁recipe",
        -9.020598108237742
      ],
      [
        "▁el",
        -9.021415004967022
      ],
      [
        "du",
        -9.021788594038433
      ],
      [
        "",
        -9.022662163492422
      ],
      [
        "▁damdam",
        -9.023008922009126
      ],
      [
        "▁doktor",
        -9.023133553453867
      ],
      [
        "mp",
        -9.024730791969985
      ],
      [
        "",
        -9.025417183738073
      ],
      [
        "▁init",
        -9.027459797048744
      ],
      [
        "▁kahulugan",
        -9.029131720052924
      ],
      [
        "▁one",
        -9.031372811694665
      ],
      [
        "",
        -9.034103860477929
      ],
      [
        "▁sanay",
        -9.034269659889205
      ],
      [
        "▁hitsura",
        -9.036398377419244
      ],
      [
        "4",
        -9.036524628872877
      ],
      [
        "▁tao,",
        -9.036867418658485
      ],
      [
        "▁tangi",
        -9.038178149456183
      ],
      [
        "▁kg",
        -9.038922615448618
      ],
      [
        "▁baba",
        -9.039373236657857
      ],
      [
        "▁mu",
        -9.03941333464296
      ],
      [
        "▁mens",
        -9.04177410379984
      ],
      [
        "▁gol",
        -9.042506859360472
      ],
      [
        "▁ibig",
        -9.043313610237261
      ],
      [
        "▁pelikula",
        -9.043632710578187
      ],
      [
        "▁kuha",
        -9.045324736586428
      ],
      [
        "▁halip",
        -9.045480080632064
      ],
      [
        "ia",
        -9.049284403782327
      ],
      [
        "▁dito,",
        -9.049555754683244
      ],
      [
        "▁hayop",
        -9.0526868321667
      ],
      [
        "nta",
        -9.053003111660235
      ],
      [
        "▁pinsala",
        -9.054843204695892
      ],
      [
        "▁diet",
        -9.056458364011812
      ],
      [
        "▁mismo",
        -9.056592311087948
      ],
      [
        "en",
        -9.05775402057466
      ],
      [
        "▁miyembro",
        -9.058853042294277
      ],
      [
        "▁sabi",
        -9.060635870705275
      ],
      [
        "▁hanay",
        -9.06070195695436
      ],
      [
        "▁takot",
        -9.060788941421416
      ],
      [
        "▁but",
        -9.061521043166168
      ],
      [
        "up",
        -9.061648561015357
      ],
      [
        "▁saya",
        -9.062258433653854
      ],
      [
        "et",
        -9.063786046883019
      ],
      [
        "",
        -9.066118641380257
      ],
      [
        "▁baba",
        -9.067827239150844
      ],
      [
        "way",
        -9.069108446117896
      ],
      [
        "▁ya",
        -9.069254514394501
      ],
      [
        "▁angkop",
        -9.070762925337334
      ],
      [
        "▁damit",
        -9.070818188615215
      ],
      [
        "▁kahulugan",
        -9.07100493331359
      ],
      [
        "▁bili",
        -9.071179246793065
      ],
      [
        "▁kwento",
        -9.07175744673526
      ],
      [
        "▁anim",
        -9.072974737906938
      ],
      [
        "▁merkado",
        -9.073427378287038
      ],
      [
        "▁gobyerno",
        -9.07362165044717
      ],
      [
        "▁sunod",
        -9.075645176481878
      ],
      [
        "▁lawak",
        -9.078623573301586
      ],
      [
        "▁likod",
        -9.078972836009052
      ],
      [
        "▁hayag",
        -9.079673758515588
      ],
      [
        "▁dating",
        -9.080219997620954
      ],
      [
        ".ito",
        -9.081950111916719
      ],
      [
        "▁bata",
        -9.082309119062351
      ],
      [
        "▁masyado",
        -9.083349934589938
      ],
      [
        "in",
        -9.083769093555986
      ],
      [
        "▁platform",
        -9.085556308459353
      ],
      [
        "▁sulat",
        -9.087159420568083
      ],
      [
        "▁kailangan",
        -9.08759406291467
      ],
      [
        "der",
        -9.088567740182262
      ],
      [
        "▁taya",
        -9.091247747150996
      ],
      [
        "▁br",
        -9.091300687455414
      ],
      [
        "▁je",
        -9.091917934570487
      ],
      [
        "▁yari",
        -9.093264622889109
      ],
      [
        "▁galit",
        -9.093754374896381
      ],
      [
        "▁industriya",
        -9.09382823338898
      ],
      [
        "ine",
        -9.094764492537205
      ],
      [
        "▁like",
        -9.09635125717708
      ],
      [
        "▁bonus",
        -9.09714377614554
      ],
      [
        "▁alam",
        -9.098404875343492
      ],
      [
        "▁gawa",
        -9.099143479131468
      ],
      [
        "ku",
        -9.09971205785615
      ],
      [
        "▁sha",
        -9.101198400746465
      ],
      [
        "▁rate",
        -9.101903970529301
      ],
      [
        "▁eye",
        -9.103108912026943
      ],
      [
        "▁simple",
        -9.103902798731283
      ],
      [
        "ff",
        -9.104529903519046
      ],
      [
        "pag",
        -9.105141489964995
      ],
      [
        "▁pangarap",
        -9.106396282448932
      ],
      [
        "▁no",
        -9.10640520296492
      ],
      [
        "▁balik",
        -9.106407159160765
      ],
      [
        "▁tool",
        -9.107594932902947
      ],
      [
        "▁giardia",
        -9.108449146197234
      ],
      [
        "▁subok",
        -9.109150424433484
      ],
      [
        "▁pili",
        -9.109824927382862
      ],
      [
        "va",
        -9.111733162019995
      ],
      [
        "▁gulang",
        -9.111750050944865
      ],
      [
        "min",
        -9.111770104469066
      ],
      [
        "▁50",
        -9.112115991662309
      ],
      [
        "o,",
        -9.113018471537574
      ],
      [
        "▁ehersisyo",
        -9.113418234000024
      ],
      [
        "▁te",
        -9.1137181249006
      ],
      [
        "▁aga",
        -9.113872559525618
      ],
      [
        "▁gayon",
        -9.113875075519523
      ],
      [
        "▁fa",
        -9.11499142225747
      ],
      [
        "",
        -9.117942001232217
      ],
      [
        "▁solusyon",
        -9.119079742545159
      ],
      [
        "▁ibabaw",
        -9.119285221800125
      ],
      [
        "▁turan",
        -9.119486879374488
      ],
      [
        "▁about",
        -9.121814038085887
      ],
      [
        "▁teknolohiya",
        -9.124310586022345
      ],
      [
        "pu",
        -9.126089392759765
      ],
      [
        "▁if",
        -9.12635628780142
      ],
      [
        "▁numero",
        -9.12643402240959
      ],
      [
        "ph",
        -9.127069172777905
      ],
      [
        "idad",
        -9.127661003080078
      ],
      [
        "▁lokal",
        -9.12816446534928
      ],
      [
        "▁saysay",
        -9.129004802133737
      ],
      [
        "▁nina",
        -9.131574046406524
      ],
      [
        "ito",
        -9.13298145395058
      ],
      [
        "ki",
        -9.13328808801135
      ],
      [
        "▁puksa",
        -9.137385752068885
      ],
      [
        "tra",
        -9.137831614704547
      ],
      [
        "man",
        -9.138686087999268
      ],
      [
        "at",
        -9.13903020150231
      ],
      [
        "▁dis",
        -9.139223529161209
      ],
      [
        "▁cu",
        -9.140357262063414
      ],
      [
        "▁ayaw",
        -9.14117887691617
      ],
      [
        "▁tala",
        -9.141755666349697
      ],
      [
        "▁roon",
        -9.141765617068128
      ],
      [
        "▁estado",
        -9.142813348822344
      ],
      [
        "ul",
        -9.142942418246864
      ],
      [
        "▁order",
        -9.14308051993143
      ],
      [
        "▁just",
        -9.143569783954947
      ],
      [
        "▁hiwalay",
        -9.144388690871141
      ],
      [
        "q",
        -9.145283017136085
      ],
      [
        "▁wala",
        -9.147657930636056
      ],
      [
        "▁gra",
        -9.148608016709002
      ],
      [
        "las",
        -9.149440232169306
      ],
      [
        "▁ja",
        -9.152751494665727
      ],
      [
        "▁proyekto",
        -9.153584196447094
      ],
      [
        "▁gamit",
        -9.154988239262146
      ],
      [
        "▁tayong",
        -9.155630779508677
      ],
      [
        "▁ph",
        -9.15653038789101
      ],
      [
        "▁tulong",
        -9.157079461084816
      ],
      [
        "▁pilipino",
        -9.157498942232165
      ],
      [
        "▁14",
        -9.157702330887686
      ],
      [
        "▁operasyon",
        -9.157721406714819
      ],
      [
        "▁lista",
        -9.158459111710767
      ],
      [
        "lin",
        -9.15968933488283
      ],
      [
        "ence",
        -9.160274627800698
      ],
      [
        "tor",
        -9.16280992152377
      ],
      [
        "▁pagkat",
        -9.16400560910857
      ],
      [
        "▁bisita",
        -9.16600207971578
      ],
      [
        "▁dito.",
        -9.166197270478781
      ],
      [
        "▁tingin",
        -9.166605969587549
      ],
      [
        "▁bags",
        -9.167385909694191
      ],
      [
        "▁likha",
        -9.167550064726976
      ],
      [
        "▁show",
        -9.168245994921627
      ],
      [
        "▁gamit",
        -9.16839038856718
      ],
      [
        "▁desisyon",
        -9.17131989679878
      ],
      [
        "▁tula",
        -9.171830546899336
      ],
      [
        "▁dati",
        -9.172126093046904
      ],
      [
        "han",
        -9.174798912777266
      ],
      [
        "▁13",
        -9.176689386139575
      ],
      [
        "▁isda",
        -9.176828800072457
      ],
      [
        "▁espesyal",
        -9.17735093020593
      ],
      [
        "▁wika",
        -9.178755705748424
      ],
      [
        "",
        -9.18017866773864
      ],
      [
        "ut",
        -9.180324779059374
      ],
      [
        "▁tagal",
        -9.180634131181606
      ],
      [
        "▁baba",
        -9.18158806322378
      ],
      [
        ",\"",
        -9.181913526814819
      ],
      [
        "▁aral",
        -9.183077211376668
      ],
      [
        "6",
        -9.184760156805984
      ],
      [
        "▁uod",
        -9.185900395996553
      ],
      [
        "▁tv",
        -9.187372717157752
      ],
      [
        "",
        -9.187677321042367
      ],
      [
        "▁liit",
        -9.188810880458437
      ],
      [
        "▁over",
        -9.192066305659681
      ],
      [
        "",
        -9.193563264776069
      ],
      [
        "▁lalo",
        -9.19390914039824
      ],
      [
        "▁kapangyarihan",
        -9.194063771720176
      ],
      [
        "▁saliksik",
        -9.194855733438779
      ],
      [
        "▁kuha",
        -9.194965485458358
      ],
      [
        "▁pondo",
        -9.198982885901154
      ],
      [
        "▁00",
        -9.199183592892744
      ],
      [
        "▁lubos",
        -9.199654772114915
      ],
      [
        "▁sila",
        -9.199901833757774
      ],
      [
        "▁labi",
        -9.201248013265237
      ],
      [
        "▁unlad",
        -9.201925017170948
      ],
      [
        "▁patay",
        -9.20400425930921
      ],
      [
        "▁pansin",
        -9.206241234980045
      ],
      [
        "▁bigyan",
        -9.207878206105773
      ],
      [
        "▁tanda",
        -9.208039523907685
      ],
      [
        "hindi",
        -9.20839165283801
      ],
      [
        "▁circles",
        -9.209113369487758
      ],
      [
        "▁kasal",
        -9.20958121475975
      ],
      [
        "▁mukha",
        -9.210778042205279
      ],
      [
        "▁linya",
        -9.210939236104299
      ],
      [
        "▁ce",
        -9.212842851688478
      ],
      [
        "",
        -9.214339273092227
      ],
      [
        "▁sabay",
        -9.215618214748355
      ],
      [
        "▁hawak",
        -9.215652766082526
      ],
      [
        "▁16",
        -9.217451592009368
      ],
      [
        "▁aral",
        -9.217818900617555
      ],
      [
        "▁bansa.",
        -9.219483666255817
      ],
      [
        "▁lunas",
        -9.220429744334062
      ],
      [
        "▁buhay.",
        -9.22116270074419
      ],
      [
        "▁kondisyon",
        -9.221995582635971
      ],
      [
        "▁labas",
        -9.222639037117794
      ],
      [
        "ik",
        -9.22341693582535
      ],
      [
        "▁sitwasyon",
        -9.22386164709672
      ],
      [
        "mb",
        -9.224973829687633
      ],
      [
        "▁base",
        -9.2252712788156
      ],
      [
        "a,",
        -9.226147194653487
      ],
      [
        "▁ganda",
        -9.226766284861712
      ],
      [
        "▁salamat",
        -9.229412659941682
      ],
      [
        "▁diskarte",
        -9.230340060155788
      ],
      [
        "▁payo",
        -9.230915792649952
      ],
      [
        "▁1.",
        -9.231562308553029
      ],
      [
        "▁tiwala",
        -9.231790854813791
      ],
      [
        "",
        -9.232104185218938
      ],
      [
        "▁file",
        -9.23309546821178
      ],
      [
        "▁silicone",
        -9.233905391522967
      ],
      [
        "",
        -9.236149228547518
      ],
      [
        "▁tri",
        -9.236416884664454
      ],
      [
        "▁ve",
        -9.236496319360244
      ],
      [
        "▁25",
        -9.237696741368573
      ],
      [
        "ud",
        -9.237886689123211
      ],
      [
        "▁web",
        -9.238747905827761
      ],
      [
        "▁araw",
        -9.239233725979696
      ],
      [
        "▁lagay",
        -9.239263384799024
      ],
      [
        "▁paligid",
        -9.239289385342522
      ],
      [
        "▁baby",
        -9.24235066544689
      ],
      [
        "▁philippine",
        -9.242941240931346
      ],
      [
        "▁kuha",
        -9.243075883449288
      ],
      [
        "▁iwas",
        -9.243467200589194
      ],
      [
        "▁good",
        -9.243536901364287
      ],
      [
        "we",
        -9.245421363419869
      ],
      [
        "▁tra",
        -9.245611004466284
      ],
      [
        "▁tuloy",
        -9.246443013037956
      ],
      [
        "▁liwanag",
        -9.247367678760032
      ],
      [
        "▁limang",
        -9.24748544298399
      ],
      [
        "▁duterte",
        -9.248567507385106
      ],
      [
        "r",
        -9.248852007022789
      ],
      [
        "para",
        -9.248892395401253
      ],
      [
        "▁work",
        -9.250109405511468
      ],
      [
        "▁gatas",
        -9.250824566745392
      ],
      [
        "▁basa",
        -9.255332988609014
      ],
      [
        "op",
        -9.25686413249037
      ],
      [
        "",
        -9.257060908208413
      ],
      [
        "mm",
        -9.257091918954718
      ],
      [
        "ip",
        -9.258314388762331
      ],
      [
        "▁kapwa",
        -9.259232784837295
      ],
      [
        "▁lagi",
        -9.259496109880445
      ],
      [
        "▁dark",
        -9.259722374822589
      ],
      [
        "▁laro",
        -9.259798254877273
      ],
      [
        "▁dagdag",
        -9.26061149532737
      ],
      [
        "con",
        -9.261573420676811
      ],
      [
        "▁deya",
        -9.261687702604387
      ],
      [
        "ano",
        -9.262327866809649
      ],
      [
        "▁24",
        -9.263315307437859
      ],
      [
        "▁ab",
        -9.268146703628823
      ],
      [
        "▁aso",
        -9.268584211031936
      ],
      [
        "▁regular",
        -9.269949580962201
      ],
      [
        "▁gana",
        -9.270370497764587
      ],
      [
        "▁yari",
        -9.272836795447928
      ],
      [
        "",
        -9.272977554611572
      ],
      [
        "▁wala",
        -9.27317146914862
      ],
      [
        "▁haba",
        -9.274722010081735
      ],
      [
        "log",
        -9.274995273747265
      ],
      [
        "lay",
        -9.275775917991245
      ],
      [
        "pro",
        -9.276191821166325
      ],
      [
        "▁tapos",
        -9.277919625367785
      ],
      [
        "▁kilala",
        -9.278577843794093
      ],
      [
        "▁bila",
        -9.278725169735539
      ],
      [
        "▁tuwi",
        -9.281601998458736
      ],
      [
        "▁simple",
        -9.284843282122967
      ],
      [
        "ru",
        -9.28594901246428
      ],
      [
        "▁tional",
        -9.286842322525715
      ],
      [
        "▁free",
        -9.287660118381991
      ],
      [
        "▁taon,",
        -9.289353515968957
      ],
      [
        "▁sakay",
        -9.289442410148427
      ],
      [
        "▁dala",
        -9.290377197505324
      ],
      [
        "▁they",
        -9.291397103857465
      ],
      [
        "▁ikli",
        -9.292576493199139
      ],
      [
        "ado",
        -9.292775082437899
      ],
      [
        "▁itim",
        -9.295073376340616
      ],
      [
        "em",
        -9.29599562314339
      ],
      [
        "lik",
        -9.298306394988892
      ],
      [
        "▁what",
        -9.299921112484615
      ],
      [
        "▁ngayon,",
        -9.300127528770814
      ],
      [
        "▁fi",
        -9.30075411163414
      ],
      [
        "▁gilid",
        -9.301434396261055
      ],
      [
        "▁ano",
        -9.30359284622423
      ],
      [
        "▁mensahe",
        -9.303877096886454
      ],
      [
        "▁san",
        -9.304656082102342
      ],
      [
        "▁department",
        -9.304971672004458
      ],
      [
        "▁cor",
        -9.306546583368878
      ],
      [
        "▁ndibidwal",
        -9.3066966916903
      ],
      [
        "▁normal",
        -9.307253302027162
      ],
      [
        "▁lamang",
        -9.308048291539187
      ],
      [
        "▁honey",
        -9.308875592565645
      ],
      [
        "▁layo",
        -9.309408081985595
      ],
      [
        "▁pasa",
        -9.310785439228463
      ],
      [
        "ie",
        -9.31099780435499
      ],
      [
        "▁super",
        -9.312846686916261
      ],
      [
        "▁sarap",
        -9.313512002107972
      ],
      [
        "▁yo",
        -9.313762248534108
      ],
      [
        "▁anyo",
        -9.314494152970909
      ],
      [
        "▁mplants",
        -9.314584820407116
      ],
      [
        "▁application",
        -9.315327626418775
      ],
      [
        "▁don",
        -9.315681063803826
      ],
      [
        "▁em",
        -9.315795123819084
      ],
      [
        "▁enerhiya",
        -9.317186754749468
      ],
      [
        "▁dali",
        -9.31814000621859
      ],
      [
        "",
        -9.318697958506393
      ],
      [
        "▁roon",
        -9.320078120343673
      ],
      [
        "▁his",
        -9.320465923066754
      ],
      [
        "▁suri",
        -9.321472163619054
      ],
      [
        "▁bra",
        -9.32158108840208
      ],
      [
        "▁philippines",
        -9.321679740785475
      ],
      [
        "iko",
        -9.323958269405656
      ],
      [
        "ed",
        -9.323979865341817
      ],
      [
        "▁facebook",
        -9.324317944019354
      ],
      [
        "▁bigay",
        -9.324696974330303
      ],
      [
        "▁ako.",
        -9.325977556955138
      ],
      [
        "▁blog",
        -9.326635675915233
      ],
      [
        "x",
        -9.326699595483248
      ],
      [
        "▁tagpo",
        -9.326722692342805
      ],
      [
        "ismo",
        -9.327217809418885
      ],
      [
        "▁gitna",
        -9.327886176850491
      ],
      [
        "▁salo",
        -9.328088884215182
      ],
      [
        "▁kanya.",
        -9.328682693776951
      ],
      [
        "les",
        -9.33270412320189
      ],
      [
        "qu",
        -9.333425735154643
      ],
      [
        "7",
        -9.333447807530018
      ],
      [
        "▁pasok",
        -9.334822549714643
      ],
      [
        "",
        -9.334954602692838
      ],
      [
        "▁benepisyo",
        -9.33521313558035
      ],
      [
        "▁kahit",
        -9.335444499640632
      ],
      [
        "▁takad",
        -9.335571059528368
      ],
      [
        "paki-pakinabang",
        -9.337236270564613
      ],
      [
        "▁op",
        -9.337370940890498
      ],
      [
        "_",
        -9.337489031241601
      ],
      [
        "le",
        -9.338994290126264
      ],
      [
        "ten",
        -9.339151889911614
      ],
      [
        "▁meron",
        -9.339429852076183
      ],
      [
        "▁who",
        -9.339997652241566
      ],
      [
        "▁balik",
        -9.340176234206218
      ],
      [
        "'s",
        -9.340836764208353
      ],
      [
        "▁team",
        -9.341353250373563
      ],
      [
        "▁z",
        -9.343265412505708
      ],
      [
        "pit",
        -9.343400354288178
      ],
      [
        "?",
        -9.344743530375947
      ],
      [
        "hu",
        -9.34484529809156
      ],
      [
        "com",
        -9.346388208832037
      ],
      [
        "ye",
        -9.346825391113226
      ],
      [
        "▁tahan",
        -9.34742877999793
      ],
      [
        "una",
        -9.347720096639032
      ],
      [
        "▁0",
        -9.348226234459535
      ],
      [
        "▁ko,",
        -9.350237644120599
      ],
      [
        "▁libre",
        -9.351323288680467
      ],
      [
        "ral",
        -9.353691051612948
      ],
      [
        "▁edukasyon",
        -9.353724270840065
      ],
      [
        "▁gawi",
        -9.353819416997428
      ],
      [
        "▁taon.",
        -9.353974200386698
      ],
      [
        "ya",
        -9.355545944031402
      ],
      [
        "10",
        -9.356121329983223
      ],
      [
        "",
        -9.356289829865782
      ],
      [
        "▁lipunan",
        -9.357845809731984
      ],
      [
        "▁gulong",
        -9.358954099720844
      ],
      [
        "▁sub",
        -9.3593259739156
      ],
      [
        "▁tingnan",
        -9.362406214192522
      ],
      [
        "▁litrato",
        -9.363397651658536
      ],
      [
        "▁kaya",
        -9.363571875375836
      ],
      [
        "▁dapat",
        -9.364562288653566
      ],
      [
        "▁bayad",
        -9.366742476584148
      ],
      [
        "▁tawa",
        -9.366937164668371
      ],
      [
        "▁day",
        -9.367189185797733
      ],
      [
        "▁hangin",
        -9.367285482135204
      ],
      [
        "▁bigay",
        -9.367326037806535
      ],
      [
        "▁gawa",
        -9.36803822815454
      ],
      [
        "▁hanap",
        -9.368677681957449
      ],
      [
        "ted",
        -9.368822084868492
      ],
      [
        "▁detalye",
        -9.370045159581613
      ],
      [
        "▁kita",
        -9.371553490664997
      ],
      [
        "▁laki",
        -9.37211004728914
      ],
      [
        "rs",
        -9.372495531868806
      ],
      [
        "▁likas",
        -9.37327700649237
      ],
      [
        "▁minuto",
        -9.373942744839157
      ],
      [
        "▁school",
        -9.374218855782408
      ],
      [
        "▁laki",
        -9.374393638000221
      ],
      [
        "ero",
        -9.374888151661692
      ],
      [
        "▁ligtas",
        -9.375116349658814
      ],
      [
        "@",
        -9.375290649351582
      ],
      [
        "▁lagi",
        -9.375987173070389
      ],
      [
        "▁first",
        -9.376590077883057
      ],
      [
        "if",
        -9.376916806380018
      ],
      [
        "▁gabay",
        -9.377481702776056
      ],
      [
        "▁usap",
        -9.379988884501161
      ],
      [
        "▁aktibidad",
        -9.38016742335817
      ],
      [
        "▁jesus",
        -9.381095361683375
      ],
      [
        "▁get",
        -9.381427043808012
      ],
      [
        "?ang",
        -9.381988578210514
      ],
      [
        "▁ke",
        -9.382051048074416
      ],
      [
        "00",
        -9.382443448335739
      ],
      [
        "▁ac",
        -9.383435378586363
      ],
      [
        "▁bayo",
        -9.38453713227987
      ],
      [
        "▁che",
        -9.3846309335461
      ],
      [
        "▁know",
        -9.385684663034885
      ],
      [
        "ex",
        -9.38620320216371
      ],
      [
        "▁pareho",
        -9.386393491351836
      ],
      [
        "▁kuha",
        -9.387782884564501
      ],
      [
        "and",
        -9.388388808509102
      ],
      [
        "lim",
        -9.388560408095824
      ],
      [
        "▁asa",
        -9.388845858854438
      ],
      [
        "▁tabi",
        -9.389105080552438
      ],
      [
        "▁mo.",
        -9.389908335605728
      ],
      [
        "▁wag",
        -9.390703365682377
      ],
      [
        "ous",
        -9.390826821529515
      ],
      [
        "",
        -9.391105431620533
      ],
      [
        "ding",
        -9.39223865704775
      ],
      [
        "s.",
        -9.392653648939733
      ],
      [
        "·",
        -9.392932703919415
      ],
      [
        "▁modelo",
        -9.393119847839063
      ],
      [
        "sabi",
        -9.393622577751671
      ],
      [
        "iya",
        -9.394676402318456
      ],
      [
        "▁panaginip",
        -9.396160200648634
      ],
      [
        "bay",
        -9.39646002610019
      ],
      [
        "▁bakit",
        -9.39886453873608
      ],
      [
        "▁17",
        -9.399279895213162
      ],
      [
        "ated",
        -9.399496523991305
      ],
      [
        "▁laman",
        -9.399724358662574
      ],
      [
        "▁play",
        -9.4011883466777
      ],
      [
        "▁pwede",
        -9.40148135574473
      ],
      [
        "▁lito",
        -9.401536102447071
      ],
      [
        "▁ap",
        -9.40260024729622
      ],
      [
        "▁bakuna",
        -9.402662908506462
      ],
      [
        "yon",
        -9.402711026388623
      ],
      [
        "",
        -9.403051837142703
      ],
      [
        "▁timbang,",
        -9.403503910708572
      ],
      [
        "▁chat",
        -9.404066325910627
      ],
      [
        "▁people",
        -9.404103578784785
      ],
      [
        "as",
        -9.40515533342432
      ],
      [
        "▁kultura",
        -9.405479989940972
      ],
      [
        "▁software",
        -9.406273047951512
      ],
      [
        "▁baba",
        -9.406659440737535
      ],
      [
        "▁high",
        -9.407019815869207
      ],
      [
        "ster",
        -9.407562239455558
      ],
      [
        "ta",
        -9.407609825292544
      ],
      [
        "▁pulis",
        -9.408142518847093
      ],
      [
        "▁how",
        -9.408263248254054
      ],
      [
        "▁40",
        -9.408305819587413
      ],
      [
        "",
        -9.408877349164596
      ],
      [
        "▁ugnay",
        -9.409577085954345
      ],
      [
        "▁abot",
        -9.409918544620197
      ],
      [
        "",
        -9.410265737027164
      ],
      [
        "▁cat",
        -9.410325265074878
      ],
      [
        "▁forum",
        -9.410767140607508
      ],
      [
        "▁posible",
        -9.41133143404299
      ],
      [
        "▁tangi",
        -9.411663567444478
      ],
      [
        "▁depende",
        -9.412560323447211
      ],
      [
        "",
        -9.412894652847916
      ],
      [
        "nd",
        -9.413258384707303
      ],
      [
        "▁access",
        -9.413293608897932
      ],
      [
        "us",
        -9.413615629678375
      ],
      [
        "pos",
        -9.413775315200372
      ],
      [
        "▁buntis",
        -9.414019755410628
      ],
      [
        "▁propesyonal",
        -9.41426031758049
      ],
      [
        "jo",
        -9.414323593719864
      ],
      [
        "▁halo",
        -9.414443799224411
      ],
      [
        "▁aniya",
        -9.414458119227808
      ],
      [
        "ner",
        -9.415547486569448
      ],
      [
        "",
        -9.415649575621142
      ],
      [
        "▁komunidad",
        -9.41594573591523
      ],
      [
        "▁pasok",
        -9.416075670298115
      ],
      [
        "",
        -9.416568566384608
      ],
      [
        "▁gusto",
        -9.416675275521442
      ],
      [
        "▁pilit",
        -9.41749645753707
      ],
      [
        "▁buti",
        -9.41761600187845
      ],
      [
        "ari",
        -9.417675586038953
      ],
      [
        "im",
        -9.419112330624843
      ],
      [
        "rt",
        -9.419908490531178
      ],
      [
        "▁kakayahan",
        -9.420199783435846
      ],
      [
        "▁computer",
        -9.420345671364947
      ],
      [
        "▁klase",
        -9.420437737820698
      ],
      [
        "▁life",
        -9.421096129084486
      ],
      [
        "▁laro",
        -9.422104232208232
      ],
      [
        "▁form",
        -9.422963339861331
      ],
      [
        "▁saya",
        -9.423433090528874
      ],
      [
        "▁buti",
        -9.423988008056337
      ],
      [
        "▁huwag",
        -9.425769380242604
      ],
      [
        "▁artikulo",
        -9.426106462854975
      ],
      [
        "▁posisyon",
        -9.426829287333149
      ],
      [
        "▁petsa",
        -9.4268804085808
      ],
      [
        "ies",
        -9.427265990495593
      ],
      [
        "▁rehiyon",
        -9.427382092564606
      ],
      [
        "▁lagay",
        -9.427832141077934
      ],
      [
        "▁harap",
        -9.428722448340931
      ],
      [
        "▁kina",
        -9.429431917773941
      ],
      [
        "▁has",
        -9.429987993918594
      ],
      [
        "",
        -9.431855847894091
      ],
      [
        "ness",
        -9.432458841048849
      ],
      [
        "▁aral",
        -9.43399675007272
      ],
      [
        "▁user",
        -9.434081632375525
      ],
      [
        "▁=",
        -9.434360653709776
      ],
      [
        "▁salita",
        -9.434364841730385
      ],
      [
        "▁protina",
        -9.434569004926141
      ],
      [
        "▁pasyente",
        -9.434884496506603
      ],
      [
        "▁sc",
        -9.435036387061823
      ],
      [
        "▁aparato",
        -9.43544292739165
      ],
      [
        "▁home",
        -9.435686014154758
      ],
      [
        "▁nter",
        -9.436056566683272
      ],
      [
        "lic",
        -9.436064397948888
      ],
      [
        "ja",
        -9.437023296951038
      ],
      [
        "▁basa",
        -9.437786546392104
      ],
      [
        "▁dulot",
        -9.439469108772688
      ],
      [
        "▁after",
        -9.43948460954573
      ],
      [
        "▁simula",
        -9.439865685309224
      ],
      [
        "▁publiko",
        -9.439932631103293
      ],
      [
        "ture",
        -9.441266748249497
      ],
      [
        "▁akala",
        -9.442348448396547
      ],
      [
        "let",
        -9.44256411106318
      ],
      [
        "ance",
        -9.442953801872891
      ],
      [
        "▁suot",
        -9.443188346566888
      ],
      [
        "ver",
        -9.443492314022254
      ],
      [
        "▁lusog",
        -9.4438567006109
      ],
      [
        "ol",
        -9.446414818502738
      ],
      [
        "▁es",
        -9.44690740762452
      ],
      [
        "▁ver",
        -9.447167553751438
      ],
      [
        ".ano",
        -9.447312918624975
      ],
      [
        "▁tip",
        -9.448266563743774
      ],
      [
        "▁inyo",
        -9.449305287176955
      ],
      [
        "▁suspek",
        -9.451632082103126
      ],
      [
        "▁ari",
        -9.452130859986342
      ],
      [
        "ill",
        -9.452766739754356
      ],
      [
        "▁dun",
        -9.453108782881971
      ],
      [
        "▁program",
        -9.453291875870235
      ],
      [
        "ful",
        -9.454577049855962
      ],
      [
        "▁baril",
        -9.455288748357216
      ],
      [
        "▁seguridad",
        -9.455327884621816
      ],
      [
        "line",
        -9.455891266402416
      ],
      [
        "▁tagal",
        -9.456481294661721
      ],
      [
        "▁him",
        -9.456790474920616
      ],
      [
        "▁init",
        -9.458094727832396
      ],
      [
        "▁dalaga",
        -9.458522924446056
      ],
      [
        "men",
        -9.458727275329661
      ],
      [
        "▁cha",
        -9.458881778641542
      ],
      [
        "",
        -9.458973291112107
      ],
      [
        "▁ru",
        -9.459007638734017
      ],
      [
        "▁buto",
        -9.460604246457034
      ],
      [
        "ista",
        -9.461071915601508
      ],
      [
        "▁babae",
        -9.461657111819271
      ],
      [
        "▁serye",
        -9.463110324816586
      ],
      [
        "▁other",
        -9.463267171727768
      ],
      [
        "'s",
        -9.464380147530475
      ],
      [
        "▁guro",
        -9.46522102314513
      ],
      [
        "bet",
        -9.465688296438417
      ],
      [
        "▁power",
        -9.466391488535761
      ],
      [
        "▁bunga",
        -9.46682269592005
      ],
      [
        "",
        -9.46713045794332
      ],
      [
        "▁taya",
        -9.467207719742849
      ],
      [
        "▁tulong",
        -9.468640847151333
      ],
      [
        "▁posibilidad",
        -9.469529809850737
      ],
      [
        "▁book",
        -9.47045356073783
      ],
      [
        "mer",
        -9.470865660943554
      ],
      [
        "upa",
        -9.470935283312278
      ],
      [
        "▁ganap",
        -9.47122770935809
      ],
      [
        "▁uwi",
        -9.471355986633975
      ],
      [
        "▁buo",
        -9.471811029916408
      ],
      [
        "nda",
        -9.471885379209976
      ],
      [
        "▁pri",
        -9.47234566328103
      ],
      [
        "▁2020",
        -9.472347445696116
      ],
      [
        "▁test",
        -9.473471481412986
      ],
      [
        "▁filipino",
        -9.473667009332416
      ],
      [
        "▁sports",
        -9.47409478509765
      ],
      [
        "▁back",
        -9.475319277496778
      ],
      [
        "▁lagi",
        -9.47610193590392
      ],
      [
        "▁ayos",
        -9.476117774682209
      ],
      [
        "▁tulong",
        -9.476260194007969
      ],
      [
        "▁kailanman",
        -9.476883908652368
      ],
      [
        "▁nipis",
        -9.47707576723412
      ],
      [
        "▁linis",
        -9.477243476709491
      ],
      [
        "▁sunod",
        -9.47851457958044
      ],
      [
        "the",
        -9.478751642316697
      ],
      [
        "▁materyal",
        -9.479498513298115
      ],
      [
        "▁wala",
        -9.4806870767912
      ],
      [
        "▁sp",
        -9.480735173982943
      ],
      [
        "▁hala",
        -9.481019428853154
      ],
      [
        "▁bigla",
        -9.482173817333654
      ],
      [
        "▁photo",
        -9.482443431114179
      ],
      [
        "▁tiwala",
        -9.4836913810198
      ],
      [
        "▁tuon",
        -9.486606384804407
      ],
      [
        "▁bilang",
        -9.486711730987826
      ],
      [
        "▁when",
        -9.487433080349033
      ],
      [
        "▁unawa",
        -9.487980887388686
      ],
      [
        "ction",
        -9.488869733181748
      ],
      [
        "lang",
        -9.4898463171848
      ],
      [
        "▁roon",
        -9.489853106866558
      ],
      [
        "▁sa",
        -9.490070044964433
      ],
      [
        "▁handa",
        -9.490464522325675
      ],
      [
        "▁sanay",
        -9.4905236514178
      ],
      [
        "▁anti",
        -9.49091720790278
      ],
      [
        "ly",
        -9.491310772563743
      ],
      [
        "▁bawal",
        -9.492110943230406
      ],
      [
        "▁tanaw",
        -9.492397907499674
      ],
      [
        "▁lk",
        -9.494279917452047
      ],
      [
        "▁bersyon",
        -9.494456093400599
      ],
      [
        "▁kailangan",
        -9.494804785083431
      ],
      [
        "▁screen",
        -9.495467388205972
      ],
      [
        "▁tistis",
        -9.498256049654035
      ],
      [
        "▁kopon",
        -9.49855352351465
      ],
      [
        "▁wala",
        -9.499913887151646
      ],
      [
        "▁timbang.",
        -9.500623375660764
      ],
      [
        "▁tea",
        -9.502853612858864
      ],
      [
        "wala",
        -9.503502863648489
      ],
      [
        ".ano",
        -9.503750023676572
      ],
      [
        "▁buo",
        -9.504115389919919
      ],
      [
        "▁oil",
        -9.50512993992133
      ],
      [
        "▁set",
        -9.505194163767488
      ],
      [
        "",
        -9.505592371888154
      ],
      [
        "▁tago",
        -9.507372150756757
      ],
      [
        "▁saka",
        -9.507622487928984
      ],
      [
        "tak",
        -9.508484454340449
      ],
      [
        "▁simula",
        -9.508541107174393
      ],
      [
        "▁check",
        -9.508768891535519
      ],
      [
        "son",
        -9.509178530753802
      ],
      [
        "ina",
        -9.509295744229716
      ],
      [
        "▁sex",
        -9.510078987212014
      ],
      [
        "mga",
        -9.510248074354505
      ],
      [
        "▁off",
        -9.510476058511573
      ],
      [
        "▁iyo",
        -9.51050651311262
      ],
      [
        "wal",
        -9.511579555757686
      ],
      [
        "▁iyon.",
        -9.51193421399487
      ],
      [
        "ator",
        -9.513581968625811
      ],
      [
        "▁likas",
        -9.5142320685166
      ],
      [
        "i",
        -9.514579280223884
      ],
      [
        "▁air",
        -9.514695686195378
      ],
      [
        "▁keto",
        -9.514772796672638
      ],
      [
        "▁wakas",
        -9.514811850359528
      ],
      [
        "▁puti",
        -9.514879125689525
      ],
      [
        "▁telepono",
        -9.515200529404858
      ],
      [
        "▁lakbay",
        -9.515224181571474
      ],
      [
        "fi",
        -9.51546292669743
      ],
      [
        "",
        -9.515670372187195
      ],
      [
        "▁iwan",
        -9.51587827384234
      ],
      [
        "▁kuha",
        -9.515956997811301
      ],
      [
        "ong",
        -9.516890818716496
      ],
      [
        "",
        -9.51903580039296
      ],
      [
        "sp",
        -9.51986413465364
      ],
      [
        "",
        -9.521551310660016
      ],
      [
        "▁buo",
        -9.521590284263139
      ],
      [
        "▁turo",
        -9.522503204310388
      ],
      [
        "▁noon",
        -9.522518554162312
      ],
      [
        "▁lalim",
        -9.522559590334497
      ],
      [
        "▁mali",
        -9.523031560807965
      ],
      [
        "▁tablet",
        -9.52309428324469
      ],
      [
        "▁mina",
        -9.523548306892241
      ],
      [
        "▁war",
        -9.524432553372192
      ],
      [
        "▁bibig",
        -9.524529836685735
      ],
      [
        "▁wala",
        -9.52476649520795
      ],
      [
        "res",
        -9.524947487520517
      ],
      [
        "▁health",
        -9.525303877197615
      ],
      [
        "▁now",
        -9.526099911340479
      ],
      [
        "▁2019",
        -9.526328716551886
      ],
      [
        "yu",
        -9.52653564877531
      ],
      [
        "▁food",
        -9.5270814316876
      ],
      [
        "▁sunog",
        -9.527089031901484
      ],
      [
        "▁wala",
        -9.529981803333879
      ],
      [
        "▁spot",
        -9.53116570085937
      ],
      [
        "▁game",
        -9.531266340512664
      ],
      [
        "▁water",
        -9.532703780979887
      ],
      [
        "▁utos",
        -9.532956849678733
      ],
      [
        "▁ekonomiya",
        -9.533617338106898
      ],
      [
        "ina",
        -9.533836219722351
      ],
      [
        "▁estudyante",
        -9.53428507037003
      ],
      [
        "▁their",
        -9.534624472390485
      ],
      [
        "z",
        -9.535180491018286
      ],
      [
        "▁21",
        -9.535419199274243
      ],
      [
        "▁nyo",
        -9.53557113458072
      ],
      [
        "▁haba",
        -9.535900978995544
      ],
      [
        "s",
        -9.536862685142292
      ],
      [
        "",
        -9.537001374302896
      ],
      [
        "▁pili",
        -9.53716234439382
      ],
      [
        "▁sta",
        -9.539621094505659
      ],
      [
        "▁tugon",
        -9.539767998004141
      ],
      [
        "▁kama",
        -9.540744666537591
      ],
      [
        "▁tan",
        -9.540928723672229
      ],
      [
        "▁gulay",
        -9.541576711572375
      ],
      [
        "one",
        -9.542648961630784
      ],
      [
        "ps",
        -9.54330591743772
      ],
      [
        "gamit",
        -9.544625973006987
      ],
      [
        "▁sakop",
        -9.5451657707773
      ],
      [
        "▁dahil",
        -9.546445782477436
      ],
      [
        "▁mundo.",
        -9.546980204059004
      ],
      [
        "▁mata,",
        -9.547078373434164
      ],
      [
        "▁epektibong",
        -9.548692751981994
      ],
      [
        "",
        -9.548741256354065
      ],
      [
        "▁tur",
        -9.549492341732064
      ],
      [
        "han",
        -9.549829570182327
      ],
      [
        "▁2.",
        -9.550002206563324
      ],
      [
        "▁iba",
        -9.550059022939564
      ],
      [
        "▁dating",
        -9.55078448010614
      ],
      [
        "ism",
        -9.550892904808354
      ],
      [
        "▁tono",
        -9.551072844229756
      ],
      [
        "▁ok",
        -9.551374200164112
      ],
      [
        "▁gamit",
        -9.552955950371325
      ],
      [
        "▁tinda",
        -9.55371247533446
      ],
      [
        "▁tapat",
        -9.555148196811757
      ],
      [
        "▁chi",
        -9.55545103856095
      ],
      [
        "▁new",
        -9.555461442947431
      ],
      [
        "▁address",
        -9.555649822817175
      ],
      [
        "▁poker",
        -9.556582742521774
      ],
      [
        "",
        -9.557424464660803
      ],
      [
        "▁orihinal",
        -9.557520172160825
      ],
      [
        "",
        -9.557957429790582
      ],
      [
        "▁tungo",
        -9.5581735467185
      ],
      [
        "▁help",
        -9.559892774441266
      ],
      [
        "▁ilaw",
        -9.561663009539547
      ],
      [
        "ry",
        -9.561719139175148
      ],
      [
        "▁under",
        -9.561755627903995
      ],
      [
        "an",
        -9.562965171223018
      ],
      [
        "▁there",
        -9.56306694102702
      ],
      [
        "▁simulan",
        -9.563904530372714
      ],
      [
        "▁produkto",
        -9.564121123863497
      ],
      [
        "",
        -9.564590677877947
      ],
      [
        "fe",
        -9.56525116770914
      ],
      [
        "que",
        -9.569660230842533
      ],
      [
        "▁alis",
        -9.569681974699673
      ],
      [
        "▁crusher",
        -9.570464822806665
      ],
      [
        "▁ganito",
        -9.570545709438953
      ],
      [
        "▁bili",
        -9.57057927949763
      ],
      [
        "▁ob",
        -9.573160895139184
      ],
      [
        "▁libro",
        -9.573681980022018
      ],
      [
        "▁laman",
        -9.573743793444892
      ],
      [
        "▁cr",
        -9.574032030403396
      ],
      [
        "",
        -9.57429796785352
      ],
      [
        "▁yari",
        -9.575239127300721
      ],
      [
        "▁buntis",
        -9.575544552126436
      ],
      [
        "",
        -9.57571529395884
      ],
      [
        "▁yugto",
        -9.57583064120424
      ],
      [
        "▁tagumpay",
        -9.57645540640435
      ],
      [
        "no",
        -9.57701502970969
      ],
      [
        "▁tindi",
        -9.577173882400835
      ],
      [
        "▁ganda",
        -9.577179727579294
      ],
      [
        "gawa",
        -9.57760282622869
      ],
      [
        "▁ts",
        -9.578604359560831
      ],
      [
        "▁yo",
        -9.579149466044143
      ],
      [
        "▁gawa",
        -9.579169943773746
      ],
      [
        "▁damdam",
        -9.579745435407322
      ],
      [
        "▁ngayon.",
        -9.580240461269925
      ],
      [
        "▁service",
        -9.580275144784249
      ],
      [
        "▁code",
        -9.581398870538258
      ],
      [
        "▁ilan",
        -9.581969311871278
      ],
      [
        "ation",
        -9.58225067505963
      ],
      [
        "▁gas",
        -9.582250720134827
      ],
      [
        "▁nternet",
        -9.583393034087003
      ],
      [
        "end",
        -9.584021679157345
      ],
      [
        "▁big",
        -9.5845038222256
      ],
      [
        "▁pisikal",
        -9.58519421572658
      ],
      [
        "▁temperatura",
        -9.585679779846831
      ],
      [
        ".at",
        -9.585977704049093
      ],
      [
        "by",
        -9.586279075833998
      ],
      [
        "▁acid",
        -9.58652431719757
      ],
      [
        "▁del",
        -9.587152257117983
      ],
      [
        "▁hina",
        -9.58717310697388
      ],
      [
        "▁basta",
        -9.587435097580032
      ],
      [
        "▁pilipinas",
        -9.588515358231605
      ],
      [
        "\"",
        -9.588807122673899
      ],
      [
        "▁sira",
        -9.588856193561668
      ],
      [
        "▁bago",
        -9.588987227736942
      ],
      [
        "▁aklat",
        -9.589313429086534
      ],
      [
        "▁kuha",
        -9.589380295948907
      ],
      [
        "cent",
        -9.590523442106518
      ],
      [
        "▁giardia",
        -9.590548493676256
      ],
      [
        "▁interes",
        -9.59090346784928
      ],
      [
        "▁kuko",
        -9.591611835879123
      ],
      [
        "▁dagat",
        -9.591714918742593
      ],
      [
        "▁update",
        -9.59254550528692
      ],
      [
        "the",
        -9.592779422447183
      ],
      [
        "▁pili",
        -9.594370178839078
      ],
      [
        "50",
        -9.59485742113995
      ],
      [
        "▁driver",
        -9.595597824206408
      ],
      [
        "▁lakad",
        -9.596360600045106
      ],
      [
        "▁health",
        -9.597066673022368
      ],
      [
        "lig",
        -9.597093726575364
      ],
      [
        "▁higit",
        -9.598861169142562
      ],
      [
        ".para",
        -9.59904085497557
      ],
      [
        ".kaya",
        -9.599271519976286
      ],
      [
        "gra",
        -9.599305518815124
      ],
      [
        "m",
        -9.60030854966079
      ],
      [
        "",
        -9.600442475125321
      ],
      [
        "▁utak",
        -9.600582176350485
      ],
      [
        "▁ah",
        -9.600620785478794
      ],
      [
        "yan",
        -9.60126059583988
      ],
      [
        "▁hanap",
        -9.602029760173208
      ],
      [
        "▁laki",
        -9.602734275212528
      ],
      [
        "▁tubo",
        -9.603030421858382
      ],
      [
        "ic",
        -9.603638221060079
      ],
      [
        "▁kotse",
        -9.604223933613154
      ],
      [
        "bil",
        -9.604445721118642
      ],
      [
        "tan",
        -9.604448110683672
      ],
      [
        "io",
        -9.60451482075125
      ],
      [
        "lam",
        -9.605260455178248
      ],
      [
        "▁araw.",
        -9.605530989679423
      ],
      [
        "▁kanta",
        -9.605660462878026
      ],
      [
        "▁story",
        -9.606213411972133
      ],
      [
        "▁talo",
        -9.607503285828313
      ],
      [
        "0",
        -9.607830373767678
      ],
      [
        "sion",
        -9.607898674147732
      ],
      [
        "▁isip",
        -9.608560422441544
      ],
      [
        "▁inom",
        -9.608612697869251
      ],
      [
        "da",
        -9.608959952671523
      ],
      [
        "▁lam",
        -9.609281321382571
      ],
      [
        "▁nstagram",
        -9.60983940579208
      ],
      [
        "▁mata.",
        -9.61025252257596
      ],
      [
        "▁dumi",
        -9.610305944879922
      ],
      [
        "▁(p",
        -9.610316418546153
      ],
      [
        "▁kulang",
        -9.611024074928286
      ],
      [
        "▁ospital",
        -9.611653131410915
      ],
      [
        "▁simbahan",
        -9.611680920125814
      ],
      [
        "uk",
        -9.612783881088726
      ],
      [
        "▁bitamina",
        -9.614154633403519
      ],
      [
        "ita",
        -9.614655737071065
      ],
      [
        "▁bilog",
        -9.615553631947813
      ],
      [
        "",
        -9.61576567843491
      ],
      [
        "▁bituka",
        -9.615993423487367
      ],
      [
        "....",
        -9.616032261733647
      ],
      [
        "▁kalahatan",
        -9.616277247223575
      ],
      [
        "bag",
        -9.616331316124201
      ],
      [
        "day",
        -9.616372794460329
      ],
      [
        "▁iyo.",
        -9.616526208233626
      ],
      [
        "▁body",
        -9.61702331572247
      ],
      [
        "sen",
        -9.617376346092353
      ],
      [
        "▁alok",
        -9.6174952489831
      ],
      [
        "la",
        -9.619114568959303
      ],
      [
        "▁takbo",
        -9.619167830662663
      ],
      [
        "▁sama",
        -9.620631243848134
      ],
      [
        "▁damdam",
        -9.620700409290118
      ],
      [
        "ven",
        -9.620924005677184
      ],
      [
        "▁va",
        -9.621757233915154
      ],
      [
        "ika",
        -9.62190353593087
      ],
      [
        "▁hamon",
        -9.622296009999031
      ],
      [
        "▁buo",
        -9.6224959903852
      ],
      [
        "▁years",
        -9.622759088056798
      ],
      [
        "l",
        -9.622787544739817
      ],
      [
        "▁milyon",
        -9.62305165222359
      ],
      [
        "▁bro",
        -9.623294991812237
      ],
      [
        "▁barangay",
        -9.62426383973202
      ],
      [
        "▁utang",
        -9.62433610792208
      ],
      [
        "▁mahal",
        -9.624646916163423
      ],
      [
        "▁durog",
        -9.625075323225946
      ],
      [
        "▁wa",
        -9.625578195605462
      ],
      [
        "▁film",
        -9.626152086989505
      ],
      [
        "cc",
        -9.62615446296256
      ],
      [
        "▁tauhan",
        -9.626281563138312
      ],
      [
        ",",
        -9.6264685148956
      ],
      [
        "▁liban",
        -9.626484635503811
      ],
      [
        "less",
        -9.62649300901407
      ],
      [
        "▁hand",
        -9.626750618717205
      ],
      [
        "ice",
        -9.626803399794346
      ],
      [
        "▁isip",
        -9.627192145045997
      ],
      [
        "▁lagay",
        -9.627705826087261
      ],
      [
        "gan",
        -9.628326236734182
      ],
      [
        "▁simula",
        -9.628601097547952
      ],
      [
        "▁luwang",
        -9.628786479381445
      ],
      [
        "▁laser",
        -9.62881228269878
      ],
      [
        "ug",
        -9.628858775845892
      ],
      [
        "cha",
        -9.629414991136738
      ],
      [
        "▁deposito",
        -9.630394499455528
      ],
      [
        "▁also",
        -9.63206427110316
      ],
      [
        "ple",
        -9.632129598206273
      ],
      [
        "▁nga",
        -9.632556922760289
      ],
      [
        "▁year",
        -9.632604855674536
      ],
      [
        "▁lawak",
        -9.632870049316889
      ],
      [
        "▁end",
        -9.633468156251343
      ],
      [
        "▁any",
        -9.63400518014039
      ],
      [
        "",
        -9.635048386237825
      ],
      [
        "▁kabuuan",
        -9.635074589361015
      ],
      [
        "▁agad",
        -9.636218834268265
      ],
      [
        "▁google",
        -9.637635221947805
      ],
      [
        "▁puti",
        -9.638960471267145
      ],
      [
        "ras",
        -9.640017166616264
      ],
      [
        "▁share",
        -9.640151087908475
      ],
      [
        "▁banggit",
        -9.640927703166046
      ],
      [
        "▁asa",
        -9.642026484214323
      ],
      [
        "out",
        -9.642117424262468
      ],
      [
        "▁araw,",
        -9.642729878576477
      ],
      [
        "▁higpit",
        -9.643300659800559
      ],
      [
        "▁baba",
        -9.643661327709129
      ],
      [
        "▁paksa",
        -9.644033638993788
      ],
      [
        "▁materyales",
        -9.644555008636178
      ],
      [
        "▁kuha",
        -9.644884623624057
      ],
      [
        "20",
        -9.644961749864368
      ],
      [
        "▁cell",
        -9.645057051219363
      ],
      [
        "ne",
        -9.645400924893282
      ],
      [
        "▁laman",
        -9.645591373863276
      ],
      [
        "▁dali",
        -9.645667008275113
      ],
      [
        "▁hiya",
        -9.646243753203464
      ],
      [
        "▁kain",
        -9.64624384143195
      ],
      [
        "lot",
        -9.646318999718364
      ],
      [
        "ie",
        -9.646561050301154
      ],
      [
        "▁trabaho",
        -9.646912411863411
      ],
      [
        "▁unti",
        -9.646932677563418
      ],
      [
        "te",
        -9.646976336671507
      ],
      [
        "▁facials",
        -9.647794784058142
      ],
      [
        "▁tungo",
        -9.648584328600922
      ],
      [
        ".si",
        -9.649714394798782
      ],
      [
        "",
        -9.649827379492514
      ],
      [
        "▁see",
        -9.651602111742124
      ],
      [
        "▁ban",
        -9.655074383368559
      ],
      [
        "ast",
        -9.656316377503968
      ],
      [
        "",
        -9.656346365036569
      ],
      [
        "▁sala",
        -9.656393924957596
      ],
      [
        "▁real",
        -9.656865306076957
      ],
      [
        ",",
        -9.656943706361995
      ],
      [
        "si",
        -9.65717559908472
      ],
      [
        "ish",
        -9.657665897545062
      ],
      [
        "▁q",
        -9.658824939611064
      ],
      [
        ".pero",
        -9.659232398436787
      ],
      [
        "▁sign",
        -9.659292298614178
      ],
      [
        "",
        -9.660084253921044
      ],
      [
        "▁gawa",
        -9.660607317299698
      ],
      [
        "▁kaya",
        -9.661257406395332
      ],
      [
        "▁need",
        -9.661915897197353
      ],
      [
        "▁ul",
        -9.662299467633163
      ],
      [
        "▁gawa",
        -9.662658292971418
      ],
      [
        "▁mayor",
        -9.662886021426441
      ],
      [
        "▁bawas",
        -9.663065740943553
      ],
      [
        "▁new",
        -9.663612034235015
      ],
      [
        "▁au",
        -9.663619665735492
      ],
      [
        "siya",
        -9.66497187051037
      ],
      [
        "rot",
        -9.665630541406367
      ],
      [
        "▁text",
        -9.665722677985173
      ],
      [
        "▁simbolo",
        -9.66584816711221
      ],
      [
        "▁sama",
        -9.665877824349943
      ],
      [
        "▁gusto",
        -9.665906303726342
      ],
      [
        "▁way",
        -9.666292674390428
      ],
      [
        "",
        -9.666430057686833
      ],
      [
        "kita",
        -9.666762522034809
      ],
      [
        "▁patay",
        -9.667404878045902
      ],
      [
        "nya",
        -9.667932341694815
      ],
      [
        "▁police",
        -9.668263900785785
      ],
      [
        "▁singil",
        -9.668377379912833
      ],
      [
        "▁kulang",
        -9.669126295898462
      ],
      [
        "▁tigil",
        -9.669400358838436
      ],
      [
        "▁epektibo",
        -9.669715910792245
      ],
      [
        "▁sur",
        -9.669757325965655
      ],
      [
        "▁pagod",
        -9.669831970078366
      ],
      [
        "▁kalawang",
        -9.670473444234872
      ],
      [
        "sis",
        -9.670686227971826
      ],
      [
        ".ngunit",
        -9.671355558368866
      ],
      [
        "lip",
        -9.672164865529602
      ],
      [
        "▁ako.",
        -9.67268775829382
      ],
      [
        "ine",
        -9.674452584475961
      ],
      [
        "▁pangkat",
        -9.674899126239788
      ],
      [
        ".dahil",
        -9.675118770540658
      ],
      [
        "▁best",
        -9.675332627951864
      ],
      [
        "▁hugis",
        -9.67586964589015
      ],
      [
        "",
        -9.676258414810757
      ],
      [
        "▁takip",
        -9.676302272001134
      ],
      [
        "▁bigay",
        -9.676636152810318
      ],
      [
        ".",
        -9.677023962546835
      ],
      [
        "▁tanda",
        -9.677903798211329
      ],
      [
        "▁hari",
        -9.678760122147656
      ],
      [
        "▁side",
        -9.67911829305402
      ],
      [
        "▁gl",
        -9.679153363808762
      ],
      [
        "▁business",
        -9.680057589256382
      ],
      [
        "▁hapon",
        -9.680258460631542
      ],
      [
        "▁mangayayat",
        -9.680770916006782
      ],
      [
        "lak",
        -9.680960414787124
      ],
      [
        "▁ganap",
        -9.682689504068044
      ],
      [
        "▁tiyak",
        -9.683201072294109
      ],
      [
        "▁government",
        -9.683841689029434
      ],
      [
        "▁produksyon",
        -9.683988382798796
      ],
      [
        "▁kita",
        -9.68430738003245
      ],
      [
        "▁bansa",
        -9.684792950819215
      ],
      [
        "gen",
        -9.684814505126138
      ],
      [
        "rr",
        -9.68506034556767
      ],
      [
        "▁trans",
        -9.685624780793724
      ],
      [
        "▁ahon",
        -9.685780337924372
      ],
      [
        "▁katawan.",
        -9.68608366250445
      ],
      [
        "▁sunod",
        -9.686132863568414
      ],
      [
        "▁yari",
        -9.686698738102892
      ],
      [
        "▁pili",
        -9.68717214000486
      ],
      [
        "▁linis",
        -9.687324246895235
      ],
      [
        "sk",
        -9.687629824418234
      ],
      [
        "▁una",
        -9.68797984367611
      ],
      [
        "▁punto",
        -9.68810433416109
      ],
      [
        "▁buhay",
        -9.68829725999804
      ],
      [
        "▁dr.",
        -9.68863328324417
      ],
      [
        "tik",
        -9.688738531202215
      ],
      [
        "bit",
        -9.689117815096907
      ],
      [
        "8",
        -9.689259926672857
      ],
      [
        "▁nf",
        -9.68935675584352
      ],
      [
        "▁karaniwan",
        -9.69062610596954
      ],
      [
        "▁turing",
        -9.691054503310177
      ],
      [
        "bon",
        -9.69178775284526
      ],
      [
        "▁ak",
        -9.69203061558467
      ],
      [
        "▁head",
        -9.69243066436009
      ],
      [
        "▁want",
        -9.694503288799721
      ],
      [
        "▁bansa",
        -9.694934936729375
      ],
      [
        "▁bigla",
        -9.695073399973687
      ],
      [
        "▁ugnay",
        -9.6955954797197
      ],
      [
        ".",
        -9.695682186389725
      ],
      [
        "kal",
        -9.69778466655461
      ],
      [
        "▁gawa",
        -9.69785051167945
      ],
      [
        "▁ke",
        -9.698195773311921
      ],
      [
        "▁ch",
        -9.69830815642434
      ],
      [
        "▁sala",
        -9.698314004978887
      ],
      [
        "▁digital",
        -9.698779730971358
      ],
      [
        "ical",
        -9.69984786502126
      ],
      [
        "▁comp",
        -9.70004909645758
      ],
      [
        "▁ukol",
        -9.700309196093897
      ],
      [
        "",
        -9.701415584385137
      ],
      [
        "ide",
        -9.702467568743185
      ],
      [
        "▁ganun",
        -9.703166973898494
      ],
      [
        "▁star",
        -9.703407529927913
      ],
      [
        "▁heart",
        -9.703843968537527
      ],
      [
        "▁lokasyon",
        -9.70434918066776
      ],
      [
        "▁tunog",
        -9.704427107257402
      ],
      [
        "▁cash",
        -9.704693476970489
      ],
      [
        "▁hotel",
        -9.70572279400921
      ],
      [
        "▁ali",
        -9.705963346967202
      ],
      [
        "▁binti",
        -9.707411016447395
      ],
      [
        "ld",
        -9.708093053791778
      ],
      [
        "▁panig",
        -9.709418196208471
      ],
      [
        "▁sakay",
        -9.709419206209013
      ],
      [
        "ize",
        -9.710758087540853
      ],
      [
        "▁rating",
        -9.711182958132445
      ],
      [
        "▁hanap",
        -9.711220248517556
      ],
      [
        "▁bula",
        -9.711519711217838
      ],
      [
        "▁potensyal",
        -9.712315272306139
      ],
      [
        "▁pra",
        -9.712414324840779
      ],
      [
        "ring",
        -9.713358678861338
      ],
      [
        "pot",
        -9.713476853015822
      ],
      [
        "▁benta",
        -9.713493719067243
      ],
      [
        "▁mm",
        -9.713509856431493
      ],
      [
        "bong",
        -9.713976467507141
      ],
      [
        "▁control",
        -9.714160103915443
      ],
      [
        "▁available",
        -9.714340708340854
      ],
      [
        "▁rty",
        -9.714346062044706
      ],
      [
        "▁tangi",
        -9.714644996530575
      ],
      [
        "cy",
        -9.715543887322292
      ],
      [
        "ure",
        -9.7156005126495
      ],
      [
        "▁lipas",
        -9.715859913642715
      ],
      [
        "▁2018",
        -9.715865283900149
      ],
      [
        "▁kayo",
        -9.715894292672994
      ],
      [
        "ana",
        -9.716367434163491
      ],
      [
        "▁cal",
        -9.716614350300173
      ],
      [
        "▁laro",
        -9.717340265080583
      ],
      [
        "▁cha",
        -9.718032281141864
      ],
      [
        "▁unit",
        -9.718095156188639
      ],
      [
        "▁bank",
        -9.718457760650253
      ],
      [
        "▁project",
        -9.718785504479362
      ],
      [
        "▁sun",
        -9.719144472386557
      ],
      [
        "?\"",
        -9.719168858986295
      ],
      [
        "sya",
        -9.71920010049534
      ],
      [
        "re",
        -9.719363279337369
      ],
      [
        "▁opsyon",
        -9.719620127190616
      ],
      [
        "▁22",
        -9.719737212586285
      ],
      [
        "ante",
        -9.720072443292073
      ],
      [
        "▁last",
        -9.720166756278283
      ],
      [
        "▁bahay.",
        -9.720296764364237
      ],
      [
        "▁ugnay",
        -9.720335588119827
      ],
      [
        "▁buhay",
        -9.720379184452687
      ],
      [
        "▁empleyado",
        -9.721381012025935
      ],
      [
        "",
        -9.721810516826068
      ],
      [
        "nes",
        -9.722186155865042
      ],
      [
        "a.",
        -9.723005486999938
      ],
      [
        "h",
        -9.723285071962874
      ],
      [
        "▁yaman",
        -9.723500030865853
      ],
      [
        "▁alak",
        -9.723546637444953
      ],
      [
        "▁ugat",
        -9.72528273671396
      ],
      [
        "▁punta",
        -9.725651206301265
      ],
      [
        "▁family",
        -9.725852110681945
      ],
      [
        "▁sarap",
        -9.726222274178022
      ],
      [
        "▁yaon",
        -9.727062920336362
      ],
      [
        "lon",
        -9.727343136963588
      ],
      [
        ".",
        -9.727650490764903
      ],
      [
        "▁them",
        -9.727869335419832
      ],
      [
        "▁niya",
        -9.729329925540354
      ],
      [
        "▁benta",
        -9.729561593982224
      ],
      [
        "mit",
        -9.729626248499834
      ],
      [
        "ear",
        -9.730023035320828
      ],
      [
        "▁very",
        -9.730375031872533
      ],
      [
        "▁report",
        -9.730597000515356
      ],
      [
        "bak",
        -9.731017096482166
      ],
      [
        "▁residente",
        -9.731104386421778
      ],
      [
        "o.",
        -9.732147517777474
      ],
      [
        "mar",
        -9.732291878757044
      ],
      [
        "▁top",
        -9.732414090330707
      ],
      [
        "s",
        -9.733161103537679
      ],
      [
        ".may",
        -9.733655967574245
      ],
      [
        "▁girl",
        -9.734743979876704
      ],
      [
        "pak",
        -9.735338924100988
      ],
      [
        "▁abot",
        -9.735487574914135
      ],
      [
        "▁nu",
        -9.736104887792969
      ],
      [
        "▁light",
        -9.736666659688867
      ],
      [
        "▁tulog",
        -9.73678060446124
      ],
      [
        "▁kamit",
        -9.737740775668229
      ],
      [
        "▁komento",
        -9.737829627043716
      ],
      [
        "",
        -9.738473907141197
      ],
      [
        "▁nila.",
        -9.738527186525593
      ],
      [
        "▁plan",
        -9.739541914415963
      ],
      [
        "▁dagdag",
        -9.740035811507138
      ],
      [
        "for",
        -9.74015981177482
      ],
      [
        "para",
        -9.740240645384116
      ],
      [
        "▁reklamo",
        -9.74033107931837
      ],
      [
        "▁palad",
        -9.741203575848832
      ],
      [
        "▁piraso",
        -9.741280053059896
      ],
      [
        "-up",
        -9.744602169496371
      ],
      [
        "▁casino",
        -9.744744684271652
      ],
      [
        "los",
        -9.746291860402614
      ],
      [
        "▁sigurado",
        -9.74637995167771
      ],
      [
        "▁mineral",
        -9.746411106705242
      ],
      [
        "▁halaga",
        -9.747874732360012
      ],
      [
        "▁call",
        -9.748184615650091
      ],
      [
        "▁tugma",
        -9.748821404430975
      ],
      [
        "▁likha",
        -9.74952956166879
      ],
      [
        "▁metal",
        -9.749953050950898
      ],
      [
        "▁hanap",
        -9.750204652934885
      ],
      [
        "▁bit",
        -9.750644643214455
      ],
      [
        "ight",
        -9.75076492199667
      ],
      [
        "▁taka",
        -9.751682543571329
      ],
      [
        "sona",
        -9.752310932224974
      ],
      [
        "nte",
        -9.752313699349221
      ],
      [
        "▁bigayda",
        -9.752527430353005
      ],
      [
        "▁ste",
        -9.752801667396454
      ],
      [
        "▁taon",
        -9.754441969797226
      ],
      [
        "▁silid",
        -9.754506282931109
      ],
      [
        "▁some",
        -9.755118304941027
      ],
      [
        "▁gar",
        -9.755632988122082
      ],
      [
        "ke",
        -9.755678327986622
      ],
      [
        "▁net",
        -9.75582062424348
      ],
      [
        "▁saalang-alang",
        -9.756369451987426
      ],
      [
        "mu",
        -9.756536371481092
      ],
      [
        "▁sisi",
        -9.756562113216948
      ],
      [
        "kul",
        -9.7565645282639
      ],
      [
        "▁ngayon",
        -9.75667876582088
      ],
      [
        "▁bala",
        -9.756742326496038
      ],
      [
        "▁2021",
        -9.756828963160068
      ],
      [
        "iba",
        -9.75703177067233
      ],
      [
        "▁point",
        -9.757056337240513
      ],
      [
        "time",
        -9.758046331523373
      ],
      [
        "ating",
        -9.75824642609144
      ],
      [
        "▁kilos",
        -9.759148872324369
      ],
      [
        "nu",
        -9.759530872975645
      ],
      [
        "▁house",
        -9.759585621094947
      ],
      [
        "▁bet",
        -9.760258156753329
      ],
      [
        "▁movie",
        -9.760647738662245
      ],
      [
        "▁iyon,",
        -9.761395229100636
      ],
      [
        "▁lang",
        -9.761422832222646
      ],
      [
        "kan",
        -9.762099338962413
      ],
      [
        "ct",
        -9.762462229980878
      ],
      [
        "▁niya,",
        -9.762478994356053
      ],
      [
        "▁amo",
        -9.762797668884216
      ],
      [
        "s",
        -9.762846353565557
      ],
      [
        "▁alaga",
        -9.76342848700687
      ],
      [
        "▁laki",
        -9.763704588007537
      ],
      [
        "vo",
        -9.763869911328657
      ],
      [
        "ek",
        -9.765154227057096
      ],
      [
        "▁alaga",
        -9.765196052775353
      ],
      [
        "▁bus",
        -9.766433494645005
      ],
      [
        "▁device",
        -9.766447913391978
      ],
      [
        "▁channel",
        -9.766623046351658
      ],
      [
        "▁games",
        -9.767268116849236
      ],
      [
        "▁200",
        -9.767525617020189
      ],
      [
        "▁ari",
        -9.767715944644452
      ],
      [
        "▁diyos,",
        -9.767989024380322
      ],
      [
        "▁dama",
        -9.768008964362785
      ],
      [
        "gas",
        -9.768272188846211
      ],
      [
        "▁university",
        -9.769624921299963
      ],
      [
        "ris",
        -9.770346732470516
      ],
      [
        "▁ba?",
        -9.771408715843144
      ],
      [
        "ib",
        -9.771782312799894
      ],
      [
        "▁langit",
        -9.77282387338833
      ],
      [
        "land",
        -9.773258590993622
      ],
      [
        "▁pantay",
        -9.773455173653252
      ],
      [
        "▁tanda",
        -9.773538931368668
      ],
      [
        "▁pa.",
        -9.774369850956042
      ],
      [
        "alam",
        -9.774467680054027
      ],
      [
        "ren",
        -9.774949021199813
      ],
      [
        "▁rami",
        -9.775172361594326
      ],
      [
        "tch",
        -9.775757564973677
      ],
      [
        "▁ssage",
        -9.776589883625933
      ],
      [
        "▁60",
        -9.777214533852034
      ],
      [
        "ma",
        -9.777595966983123
      ],
      [
        "▁tanong",
        -9.778056240068993
      ],
      [
        "may",
        -9.7781369188004
      ],
      [
        "gal",
        -9.778371236778657
      ],
      [
        "▁tahimik",
        -9.779089317791083
      ],
      [
        "e,",
        -9.779374910236102
      ],
      [
        "▁rket",
        -9.779541875084043
      ],
      [
        "▁here",
        -9.780098493684488
      ],
      [
        "▁gulo",
        -9.780761034242929
      ],
      [
        "▁mo,",
        -9.780878260099971
      ],
      [
        "▁rasite",
        -9.782302104423213
      ],
      [
        "son",
        -9.78265324566224
      ],
      [
        "▁karne",
        -9.782901806662641
      ],
      [
        "cal",
        -9.78293889637954
      ],
      [
        "▁panatili",
        -9.783101703868827
      ],
      [
        "ging",
        -9.783191096058095
      ],
      [
        "▁boto",
        -9.783789340182956
      ],
      [
        "▁news",
        -9.783963816416653
      ],
      [
        "▁siya",
        -9.784291998835243
      ],
      [
        "▁droga",
        -9.784680794412171
      ],
      [
        "▁haya",
        -9.78524674590383
      ],
      [
        "▁pili",
        -9.785376419615417
      ],
      [
        "▁hanga",
        -9.78541521639163
      ],
      [
        "▁gr",
        -9.78593853559137
      ],
      [
        "▁cancer",
        -9.786239119136857
      ],
      [
        "y,",
        -9.786350820474595
      ],
      [
        "king",
        -9.787766891440738
      ],
      [
        "▁dila",
        -9.788932216620918
      ],
      [
        "▁support",
        -9.789269688687698
      ],
      [
        "or",
        -9.78932315063548
      ],
      [
        "▁halaga",
        -9.789343022068604
      ],
      [
        "▁perpekto",
        -9.789407966679125
      ],
      [
        "ric",
        -9.789956475902162
      ],
      [
        "ized",
        -9.79154992176953
      ],
      [
        "▁open",
        -9.791630416741269
      ],
      [
        "▁isip",
        -9.791736832453863
      ],
      [
        "",
        -9.792311345534173
      ],
      [
        "▁mahe",
        -9.792428796462257
      ],
      [
        "▁kontra",
        -9.79253664368283
      ],
      [
        "▁ay",
        -9.792971689851832
      ],
      [
        "ust",
        -9.793012776370132
      ],
      [
        "▁nila.",
        -9.793536547849996
      ],
      [
        "lo",
        -9.793790173594582
      ],
      [
        "▁full",
        -9.794115535463941
      ],
      [
        "▁dagdag",
        -9.794143436783136
      ],
      [
        "▁tulong",
        -9.794516699510618
      ],
      [
        "▁room",
        -9.794654457693559
      ],
      [
        "▁manok",
        -9.794771063265408
      ],
      [
        "▁pribado",
        -9.79504960707163
      ],
      [
        "do",
        -9.795496003789106
      ],
      [
        "▁23",
        -9.795983143089224
      ],
      [
        "▁elemento",
        -9.796327968723489
      ],
      [
        "port",
        -9.797000273639888
      ],
      [
        "▁suri",
        -9.797129910205875
      ],
      [
        "▁suso.",
        -9.79716523872623
      ],
      [
        "za",
        -9.797309325487836
      ],
      [
        "",
        -9.797518775486289
      ],
      [
        "ee",
        -9.798003468914597
      ],
      [
        "▁online",
        -9.798354012686998
      ],
      [
        "▁board",
        -9.798823474415912
      ],
      [
        "bb",
        -9.799061609261996
      ],
      [
        "▁isip",
        -9.799223679184719
      ],
      [
        "▁dalhin",
        -9.79933892253217
      ],
      [
        "is",
        -9.800201455196646
      ],
      [
        "che",
        -9.800913226246715
      ],
      [
        "▁tingi",
        -9.801432371806296
      ],
      [
        "▁diyos.",
        -9.801622781576535
      ],
      [
        "▁salo",
        -9.801710585263628
      ],
      [
        "▁art",
        -9.803311136827745
      ],
      [
        "▁ugnay",
        -9.803404332329345
      ],
      [
        "▁kahulugan",
        -9.803866145985657
      ],
      [
        "▁acne",
        -9.804555059935526
      ],
      [
        "▁dry",
        -9.804610681602094
      ],
      [
        "▁because",
        -9.805279979631415
      ],
      [
        "▁tira",
        -9.805505210970189
      ],
      [
        "▁target",
        -9.806316518495631
      ],
      [
        "▁sm",
        -9.80771698109504
      ],
      [
        "▁tuwa",
        -9.807920559746162
      ],
      [
        "tur",
        -9.809160268459289
      ],
      [
        "ger",
        -9.809843473984152
      ],
      [
        "▁legal",
        -9.809901143738108
      ],
      [
        "▁lasa",
        -9.810001379590156
      ],
      [
        "▁dulo",
        -9.81019599213676
      ],
      [
        "▁virus",
        -9.810326891172824
      ],
      [
        "▁2016",
        -9.811092469957687
      ],
      [
        "▁menu",
        -9.81125734045031
      ],
      [
        "▁labas",
        -9.811451160617334
      ],
      [
        ".",
        -9.81259279993524
      ],
      [
        "▁500",
        -9.813413701741865
      ],
      [
        "▁tatag",
        -9.813437162618143
      ],
      [
        "▁quezon",
        -9.813611299586398
      ],
      [
        "▁tatak",
        -9.813676374889454
      ],
      [
        "▁center",
        -9.813731855115849
      ],
      [
        "▁prutas",
        -9.814009315861307
      ],
      [
        "▁baha",
        -9.814891851400516
      ],
      [
        "▁ari",
        -9.815043995343956
      ],
      [
        "▁pinoy",
        -9.815189897062861
      ],
      [
        "9",
        -9.81552382096815
      ],
      [
        "▁then",
        -9.81555251426564
      ],
      [
        "▁panganib",
        -9.816851091850152
      ],
      [
        "▁3.",
        -9.817009504199913
      ],
      [
        "▁aga",
        -9.817059620601356
      ],
      [
        "▁aga",
        -9.817289934941956
      ],
      [
        "▁gusali",
        -9.817894046734013
      ],
      [
        "▁iwas",
        -9.818122162759668
      ],
      [
        ".",
        -9.818166699330131
      ],
      [
        "red",
        -9.818712544097039
      ],
      [
        "▁saklaw",
        -9.818942362348984
      ],
      [
        "▁dahilan",
        -9.819509285385344
      ],
      [
        "▁www.",
        -9.819992660597476
      ],
      [
        "▁subalit",
        -9.820140397928084
      ],
      [
        "▁proteksyon",
        -9.820350217641678
      ],
      [
        "▁titi",
        -9.820365134569702
      ],
      [
        "▁awa",
        -9.820854164030818
      ],
      [
        "rk",
        -9.821220976580083
      ],
      [
        "▁okay",
        -9.821316445420214
      ],
      [
        "ino",
        -9.821453738894707
      ],
      [
        "ep",
        -9.821767123385175
      ],
      [
        "▁paka",
        -9.822041336014436
      ],
      [
        "▁payag",
        -9.82208475993915
      ],
      [
        "▁halamang-singaw",
        -9.822609609134824
      ],
      [
        "git",
        -9.822667084785135
      ],
      [
        "ther",
        -9.823514222811745
      ],
      [
        "▁sigaw",
        -9.824257634463548
      ],
      [
        "",
        -9.825258558297588
      ],
      [
        "ani",
        -9.826348230121138
      ],
      [
        "▁milyon",
        -9.82666747260309
      ],
      [
        "á",
        -9.826937727994547
      ],
      [
        "▁kontrol",
        -9.827310056363764
      ],
      [
        "▁artista",
        -9.827664619515115
      ],
      [
        "▁alis",
        -9.82822063227509
      ],
      [
        "▁karera",
        -9.828607737505637
      ],
      [
        "▁medikal",
        -9.82860952637064
      ],
      [
        "▁sy",
        -9.829135806649939
      ],
      [
        "den",
        -9.829545021973626
      ],
      [
        "▁oras.",
        -9.830226213552972
      ],
      [
        "ser",
        -9.830249939186334
      ],
      [
        "▁secretary",
        -9.830458959968572
      ],
      [
        "ft",
        -9.830654223020094
      ],
      [
        "▁boy",
        -9.830914172069543
      ],
      [
        "",
        -9.831037519865365
      ],
      [
        "▁den",
        -9.831880655520115
      ],
      [
        "pas",
        -9.832077869106186
      ],
      [
        "▁aksyon",
        -9.832152420621044
      ],
      [
        "▁larang",
        -9.83253016011519
      ],
      [
        "▁pinto",
        -9.833496139397557
      ],
      [
        "▁tsa",
        -9.833576233499613
      ],
      [
        "▁puro",
        -9.83472887057828
      ],
      [
        "",
        -9.834746183644054
      ],
      [
        "bre",
        -9.835024708384815
      ],
      [
        "▁tabletas",
        -9.836617311693086
      ],
      [
        "▁litaw",
        -9.83686938538402
      ],
      [
        "▁bitco",
        -9.8368708371713
      ],
      [
        "pat",
        -9.83700898147721
      ],
      [
        "▁bill",
        -9.837267767368775
      ],
      [
        "▁hina",
        -9.837797033126856
      ],
      [
        "▁sea",
        -9.838404334714635
      ],
      [
        "▁local",
        -9.838577973950462
      ],
      [
        "▁2017",
        -9.839745260781973
      ],
      [
        "▁alam",
        -9.839801241529548
      ],
      [
        "▁log",
        -9.83989760627463
      ],
      [
        "▁alala",
        -9.8417204701085
      ],
      [
        "▁tagpo",
        -9.841999329236
      ],
      [
        "▁lala",
        -9.84217361112457
      ],
      [
        "▁office",
        -9.84233540838493
      ],
      [
        "▁bulaklak",
        -9.842969855558875
      ],
      [
        "▁pen",
        -9.84335919040729
      ],
      [
        "bol",
        -9.843632860414731
      ],
      [
        "hin",
        -9.844861307578658
      ],
      [
        "our",
        -9.845032855614965
      ],
      [
        "▁dali",
        -9.845702177703718
      ],
      [
        "tes",
        -9.846929764955092
      ],
      [
        "▁barangay",
        -9.847336265413665
      ],
      [
        "▁gising",
        -9.847672575864351
      ],
      [
        "bulati",
        -9.848473225181856
      ],
      [
        "30",
        -9.848580947371863
      ],
      [
        "▁center",
        -9.848708521721843
      ],
      [
        "▁server",
        -9.848795254807365
      ],
      [
        "yal",
        -9.849054131095897
      ],
      [
        "aryo",
        -9.849214648266344
      ],
      [
        "▁tugon",
        -9.849242803521223
      ],
      [
        "▁special",
        -9.849298420181396
      ],
      [
        "dr",
        -9.849418911855327
      ],
      [
        "▁enjoy",
        -9.849572202195123
      ],
      [
        "lat",
        -9.849796431315635
      ],
      [
        "▁yo",
        -9.850619635914102
      ],
      [
        "▁sabi",
        -9.850802458086816
      ],
      [
        "▁tupad",
        -9.85081110832511
      ],
      [
        "▁basura",
        -9.851193093605017
      ],
      [
        "nce",
        -9.85173997671498
      ],
      [
        "▁sunod",
        -9.8517594364082
      ],
      [
        "",
        -9.8519017994119
      ],
      [
        "▁bago",
        -9.85230775305799
      ],
      [
        "tive",
        -9.852568061609063
      ],
      [
        "▁john",
        -9.852663368470896
      ],
      [
        "▁short",
        -9.853344249376674
      ],
      [
        "▁dy",
        -9.854329355496647
      ],
      [
        "▁ayos",
        -9.854339806506822
      ],
      [
        "▁area",
        -9.85468192693446
      ],
      [
        "▁tali",
        -9.855034411350704
      ],
      [
        "▁fat",
        -9.855701979482658
      ],
      [
        "▁tema",
        -9.855765153342752
      ],
      [
        "▁aktres",
        -9.855856135403222
      ],
      [
        "s",
        -9.856471072207997
      ],
      [
        "▁stress",
        -9.856570430450152
      ],
      [
        "▁download",
        -9.856573212472968
      ],
      [
        "▁uli",
        -9.85681214974463
      ],
      [
        "tag",
        -9.857128108052748
      ],
      [
        "▁kpara",
        -9.85713314558746
      ],
      [
        "ler",
        -9.857382670133608
      ],
      [
        "▁mode",
        -9.858924167932727
      ],
      [
        "▁baga",
        -9.859440895110914
      ],
      [
        "gon",
        -9.859726836623818
      ],
      [
        "▁hantong",
        -9.859908676899098
      ],
      [
        "▁komunikasyon",
        -9.860757376180702
      ],
      [
        "▁gel",
        -9.860983671151006
      ],
      [
        "ayon",
        -9.861948072755869
      ],
      [
        "mal",
        -9.862165731070354
      ],
      [
        "▁kailangan",
        -9.862443658733714
      ],
      [
        "ton",
        -9.862775743835321
      ],
      [
        "▁iwas",
        -9.862888721423461
      ],
      [
        "ble",
        -9.862943148354821
      ],
      [
        "▁kuha",
        -9.863601746141883
      ],
      [
        "▁poon",
        -9.863757088918973
      ],
      [
        "▁tubo",
        -9.864278961400172
      ],
      [
        "▁tem",
        -9.864840441408095
      ],
      [
        "tri",
        -9.864939826142713
      ],
      [
        "dor",
        -9.866237896708926
      ],
      [
        "▁positibo",
        -9.86643561385341
      ],
      [
        "▁dan",
        -9.866622981935736
      ],
      [
        "▁batay",
        -9.867967231224696
      ],
      [
        "",
        -9.868056167427232
      ],
      [
        "ub",
        -9.868229346983933
      ],
      [
        "▁layo",
        -9.868499512853251
      ],
      [
        "▁siya.",
        -9.868522839571943
      ],
      [
        "▁kahoy",
        -9.868926970522152
      ],
      [
        "et",
        -9.868943229441054
      ],
      [
        ".",
        -9.868967990559284
      ],
      [
        "▁kita",
        -9.869158811071097
      ],
      [
        "▁tatag",
        -9.869318181338464
      ],
      [
        "check",
        -9.870524079041482
      ],
      [
        "▁laki",
        -9.871836494026944
      ],
      [
        "▁kalahati",
        -9.87216298204028
      ],
      [
        "▁mp",
        -9.872164165555683
      ],
      [
        "▁taas",
        -9.872537081931027
      ],
      [
        "▁aba",
        -9.87361481501444
      ],
      [
        "ise",
        -9.873711199323267
      ],
      [
        "▁kalakal",
        -9.873962439845167
      ],
      [
        "▁lang",
        -9.874557513888226
      ],
      [
        "ch",
        -9.875568038218198
      ],
      [
        "▁(s",
        -9.875921945305748
      ],
      [
        "▁class",
        -9.876114791955969
      ],
      [
        "kla",
        -9.876359077653845
      ],
      [
        "▁store",
        -9.877091737628051
      ],
      [
        "▁sino",
        -9.87734645466563
      ],
      [
        "▁halimbawa,",
        -9.877508320753329
      ],
      [
        "▁sikap",
        -9.87756652705906
      ],
      [
        "rap",
        -9.878463451327434
      ],
      [
        "▁artikulo",
        -9.879655820468015
      ],
      [
        "ito",
        -9.879901550347677
      ],
      [
        "ano",
        -9.88019618088615
      ],
      [
        "▁sobra",
        -9.880517320537805
      ],
      [
        "▁cho",
        -9.880536230916283
      ],
      [
        "▁tuyo",
        -9.88107660024075
      ],
      [
        "▁cap",
        -9.881720813921314
      ],
      [
        "▁tulungan",
        -9.881744674398192
      ],
      [
        "▁thank",
        -9.882329725322265
      ],
      [
        "ion",
        -9.882655472655859
      ],
      [
        "▁aktibong",
        -9.882856359184146
      ],
      [
        "▁news",
        -9.882910972537495
      ],
      [
        "▁sanay",
        -9.883092028607056
      ],
      [
        "▁banda",
        -9.88310998014469
      ],
      [
        "▁care",
        -9.883148387108665
      ],
      [
        "▁baba",
        -9.88322248878796
      ],
      [
        "ndo",
        -9.88347117318423
      ],
      [
        "tar",
        -9.884055589503731
      ],
      [
        "▁tunton",
        -9.884320939380194
      ],
      [
        "▁sanay",
        -9.885338402020112
      ],
      [
        "rd",
        -9.885363683609752
      ],
      [
        "▁hawak",
        -9.88543238956631
      ],
      [
        "▁ubo",
        -9.885729865172419
      ],
      [
        "▁pwedeng",
        -9.885759117938619
      ],
      [
        "▁lawa",
        -9.885853537503797
      ],
      [
        "▁sk",
        -9.885900771725154
      ],
      [
        "▁tungkol",
        -9.886095975686718
      ],
      [
        "▁ikot",
        -9.88677753439204
      ],
      [
        "▁pigil",
        -9.887593875491493
      ],
      [
        "ed",
        -9.887972476286532
      ],
      [
        "▁eu",
        -9.88816072598814
      ],
      [
        "▁sarili.",
        -9.888177783288217
      ],
      [
        "▁so",
        -9.890186083347047
      ],
      [
        "ite",
        -9.89082980485042
      ],
      [
        "dya",
        -9.89109941925733
      ],
      [
        "▁ev",
        -9.891181773167627
      ],
      [
        "▁take",
        -9.891648928809284
      ],
      [
        "▁rami",
        -9.892517370058421
      ],
      [
        "▁ginto",
        -9.892537519616166
      ],
      [
        "▁tuluyan",
        -9.89270834191916
      ],
      [
        "▁halaga",
        -9.8929230892291
      ],
      [
        "▁soda",
        -9.892926082858176
      ],
      [
        "1.",
        -9.893078099323482
      ],
      [
        "▁buhay,",
        -9.89318403834688
      ],
      [
        "▁public",
        -9.893456367605996
      ],
      [
        "▁awtoridad",
        -9.893566675844113
      ],
      [
        "▁pc",
        -9.893685626747654
      ],
      [
        "▁ju",
        -9.893730064810217
      ],
      [
        "▁mana",
        -9.894267738006851
      ],
      [
        "tro",
        -9.894414226183665
      ],
      [
        "▁unidos",
        -9.894435333912433
      ],
      [
        "▁bangko",
        -9.894672460958686
      ],
      [
        "ro",
        -9.895197507124163
      ],
      [
        "▁rito",
        -9.895343308920015
      ],
      [
        "▁fo",
        -9.895575900653949
      ],
      [
        "ev",
        -9.896257593902506
      ],
      [
        "▁use",
        -9.896531467129803
      ],
      [
        "▁abs-cbn",
        -9.897310994193894
      ],
      [
        "▁player",
        -9.897898513737237
      ],
      [
        "▁kasalukuyan",
        -9.897920451500294
      ],
      [
        "baba",
        -9.898250169934407
      ],
      [
        "▁review.",
        -9.898438486430978
      ],
      [
        "mis",
        -9.898596566333937
      ],
      [
        "▁matay",
        -9.898905660559231
      ],
      [
        "▁black",
        -9.899400562606766
      ],
      [
        "ens",
        -9.90100832337376
      ],
      [
        "▁mura",
        -9.90116828053579
      ],
      [
        "▁old",
        -9.90151980586273
      ],
      [
        "",
        -9.901597411550549
      ],
      [
        "▁loob",
        -9.90177822461893
      ],
      [
        "▁im",
        -9.901854057911784
      ],
      [
        "▁mil",
        -9.90186799822924
      ],
      [
        "▁down",
        -9.902814467672501
      ],
      [
        "▁bal",
        -9.902889940396063
      ],
      [
        "▁bata",
        -9.903030901133395
      ],
      [
        "▁gulo",
        -9.903149808818783
      ],
      [
        "▁bigay",
        -9.903279056837873
      ],
      [
        "▁val",
        -9.903453724480086
      ],
      [
        "za",
        -9.903554033041525
      ],
      [
        "▁kuryente",
        -9.904204601425457
      ],
      [
        ",",
        -9.904269085185241
      ],
      [
        "▁tukoy",
        -9.904473664804643
      ],
      [
        "rate",
        -9.904859718992546
      ],
      [
        "11",
        -9.904887449229285
      ],
      [
        "▁puno",
        -9.904981069988272
      ],
      [
        "ship",
        -9.9065965280919
      ],
      [
        "▁sama",
        -9.907245774884972
      ],
      [
        "▁tapos",
        -9.907246246694356
      ],
      [
        "▁kliyente",
        -9.907333349999789
      ],
      [
        "▁youtube",
        -9.907572384193738
      ],
      [
        "",
        -9.907728705737535
      ],
      [
        "ium",
        -9.908142952452085
      ],
      [
        "▁ge",
        -9.908913078742984
      ],
      [
        "▁group",
        -9.909097435073033
      ],
      [
        "▁koneksyon",
        -9.909126163179957
      ],
      [
        "▁mis",
        -9.909170250685108
      ],
      [
        "▁doc",
        -9.909700850119451
      ],
      [
        "▁sining",
        -9.91023916430029
      ],
      [
        "▁community",
        -9.910247532322343
      ],
      [
        "it",
        -9.910272872406672
      ],
      [
        "▁lahi",
        -9.91044339973553
      ],
      [
        "cul",
        -9.91079279123477
      ],
      [
        "▁hugas",
        -9.910858589649063
      ],
      [
        "▁dokumento",
        -9.911595382934605
      ],
      [
        "▁pilipinas.",
        -9.911763962246784
      ],
      [
        "▁ski",
        -9.911917017415975
      ],
      [
        "▁isip",
        -9.912707059189438
      ],
      [
        "▁type",
        -9.913240613734807
      ],
      [
        "▁lihim",
        -9.913363892778145
      ],
      [
        "lap",
        -9.913652439383101
      ],
      [
        "▁estados",
        -9.9141185912143
      ],
      [
        "▁bata.",
        -9.914348001687975
      ],
      [
        "▁daliri",
        -9.914640951872592
      ],
      [
        "15",
        -9.914991243105844
      ],
      [
        "des",
        -9.91508022566636
      ],
      [
        "▁pantay",
        -9.916115823666809
      ],
      [
        "▁level",
        -9.916274870655172
      ],
      [
        "▁balanse",
        -9.916355146545577
      ],
      [
        "▁weight",
        -9.91642918346029
      ],
      [
        "▁hatid",
        -9.916636293488796
      ],
      [
        ".how",
        -9.916728891383475
      ],
      [
        "▁sugal",
        -9.916940087116874
      ],
      [
        "▁direkta",
        -9.917039360924809
      ],
      [
        "▁rcos",
        -9.917683496287891
      ],
      [
        "▁red",
        -9.918462722697058
      ],
      [
        "▁laya",
        -9.919717079866802
      ],
      [
        "mas",
        -9.919754886556802
      ],
      [
        "▁za",
        -9.91992746481145
      ],
      [
        "ze",
        -9.920094299043258
      ],
      [
        "▁pansin",
        -9.920884459592203
      ],
      [
        "▁kalsada",
        -9.921081618921086
      ],
      [
        "▁pilipino",
        -9.921857062695684
      ],
      [
        "nc",
        -9.922055877683059
      ],
      [
        "▁sabay",
        -9.922112218780189
      ],
      [
        "▁bio",
        -9.922419193298927
      ],
      [
        "",
        -9.92242022861199
      ],
      [
        "▁nber",
        -9.922449332495576
      ],
      [
        "▁trade",
        -9.922884529791093
      ],
      [
        "▁kita",
        -9.922892898390234
      ],
      [
        "▁lampas",
        -9.923008436149777
      ],
      [
        "▁organisasyon",
        -9.924150105402022
      ],
      [
        "ah",
        -9.924506188621908
      ],
      [
        "▁inom",
        -9.92489326493511
      ],
      [
        "ju",
        -9.92491905599944
      ],
      [
        "▁senador",
        -9.92494822509151
      ],
      [
        "▁record",
        -9.924957345696924
      ],
      [
        ".pag",
        -9.9249611545248
      ],
      [
        "▁ung",
        -9.924989673341466
      ],
      [
        "m",
        -9.925634873167404
      ],
      [
        "▁world",
        -9.926271751167604
      ],
      [
        "▁kanser",
        -9.927006480237745
      ],
      [
        "▁bl",
        -9.927040723463938
      ],
      [
        "▁2022",
        -9.928477676031706
      ],
      [
        "sti",
        -9.929523809736526
      ],
      [
        "▁dalasa",
        -9.929742813269998
      ],
      [
        "▁kuwarto",
        -9.929971624092204
      ],
      [
        "▁anti-",
        -9.93090088480083
      ],
      [
        "▁palit",
        -9.930907149524202
      ],
      [
        "▁libog",
        -9.93099153930567
      ],
      [
        "▁st.",
        -9.931332696648653
      ],
      [
        "▁pul",
        -9.931486948103375
      ],
      [
        ".samantala,",
        -9.931536243296707
      ],
      [
        "▁kuha",
        -9.93170926422555
      ],
      [
        "car",
        -9.93179711456653
      ],
      [
        "▁contact",
        -9.931805670097718
      ],
      [
        "ck",
        -9.93208478306253
      ],
      [
        "▁suka",
        -9.932369250144314
      ],
      [
        "late",
        -9.933458406021048
      ],
      [
        ".isa",
        -9.933648125366664
      ],
      [
        "▁vo",
        -9.933934543945158
      ],
      [
        "▁right",
        -9.934551288200378
      ],
      [
        "▁butas",
        -9.935133324826342
      ],
      [
        "▁ali",
        -9.935374168498528
      ],
      [
        "▁you",
        -9.935499009788193
      ],
      [
        "▁oo",
        -9.93601594212053
      ],
      [
        "▁gen",
        -9.936220813538355
      ],
      [
        "▁mer",
        -9.936292345474746
      ],
      [
        "▁daan",
        -9.936534831954125
      ],
      [
        "▁layer",
        -9.93708184096907
      ],
      [
        "▁regalo",
        -9.937104984726043
      ],
      [
        "▁medical",
        -9.93765733256972
      ],
      [
        "▁ser",
        -9.937685899490301
      ],
      [
        "ual",
        -9.937931697274207
      ],
      [
        "▁kabuluhan",
        -9.938017575014413
      ],
      [
        "bat",
        -9.938615563122877
      ],
      [
        "ili",
        -9.938773855806035
      ],
      [
        "▁lapit",
        -9.939267545807871
      ],
      [
        "stru",
        -9.939317021013524
      ],
      [
        "▁nila",
        -9.93942353617289
      ],
      [
        "ar",
        -9.939548549008821
      ],
      [
        "▁lamig",
        -9.940110291161345
      ],
      [
        "▁0.",
        -9.940149960220447
      ],
      [
        "ial",
        -9.940728448089532
      ],
      [
        "▁ngiti",
        -9.940942761088335
      ],
      [
        "ations",
        -9.941487222900419
      ],
      [
        "▁oo",
        -9.942133779349215
      ],
      [
        "▁puke",
        -9.94221759817791
      ],
      [
        "▁panayam",
        -9.942241808964338
      ],
      [
        "",
        -9.942820512504355
      ],
      [
        "▁alaga",
        -9.94338988733359
      ],
      [
        "▁mali",
        -9.94355499851012
      ],
      [
        "u",
        -9.943796340244608
      ],
      [
        "yun",
        -9.944688196668647
      ],
      [
        "▁opisina",
        -9.94473382221866
      ],
      [
        "",
        -9.945742888895586
      ],
      [
        "▁sektor",
        -9.945768853575299
      ],
      [
        "▁sama",
        -9.946621035436312
      ],
      [
        "my",
        -9.94715736433059
      ],
      [
        "▁lago",
        -9.947700378989627
      ],
      [
        "▁nina",
        -9.94818277774515
      ],
      [
        "▁sumang",
        -9.94869179553843
      ],
      [
        "▁ingat",
        -9.94871460705052
      ],
      [
        "book",
        -9.948822428730326
      ],
      [
        "▁diwa",
        -9.948976001284402
      ],
      [
        "uno",
        -9.948989190186268
      ],
      [
        "ew",
        -9.949581409959007
      ],
      [
        "",
        -9.950218142014252
      ],
      [
        "chi",
        -9.950659755447312
      ],
      [
        "ving",
        -9.950698024315395
      ],
      [
        "▁dinig",
        -9.951039378510703
      ],
      [
        "▁buo",
        -9.951098183144568
      ],
      [
        "▁popular",
        -9.951763501852055
      ],
      [
        "i",
        -9.951845470561855
      ],
      [
        "▁carbon",
        -9.953064871278013
      ],
      [
        "tas",
        -9.953278261751235
      ],
      [
        "▁tagubilin",
        -9.95360291100962
      ],
      [
        "▁char",
        -9.953645881144153
      ],
      [
        "▁panahon.",
        -9.95474281713039
      ],
      [
        "▁rock",
        -9.95474650910384
      ],
      [
        "ndi",
        -9.954792691673372
      ],
      [
        "lar",
        -9.95498720233118
      ],
      [
        "osis",
        -9.955143069501958
      ],
      [
        "by",
        -9.95561373494283
      ],
      [
        "▁musika",
        -9.955801680161418
      ],
      [
        "",
        -9.955838307306813
      ],
      [
        "▁tiwala",
        -9.956455684060655
      ],
      [
        "row",
        -9.956493771573824
      ],
      [
        "kas",
        -9.95659350791603
      ],
      [
        "▁kun",
        -9.957566265721983
      ],
      [
        "▁aplikasyon",
        -9.958538313863228
      ],
      [
        "▁tanggap",
        -9.95876822145838
      ],
      [
        "bra",
        -9.959422972325456
      ],
      [
        "▁hanap",
        -9.95949939932194
      ],
      [
        "k",
        -9.959905033399865
      ],
      [
        "▁essay",
        -9.960122602177643
      ],
      [
        "▁likha",
        -9.960141334986234
      ],
      [
        "▁lagay",
        -9.96016480588364
      ],
      [
        "▁ip",
        -9.960637723379477
      ],
      [
        "isa",
        -9.960680961808881
      ],
      [
        "▁iral",
        -9.960684208776062
      ],
      [
        "▁banta",
        -9.961135851551399
      ],
      [
        "▁makailan",
        -9.961185197480757
      ],
      [
        "12",
        -9.961629876062734
      ],
      [
        "▁hinga",
        -9.961684634405989
      ],
      [
        "▁most",
        -9.961773349399712
      ],
      [
        "▁balak",
        -9.961808585500474
      ],
      [
        "▁yaman",
        -9.961911824311262
      ],
      [
        "▁tatay",
        -9.963133595435277
      ],
      [
        "ue",
        -9.963158043006473
      ],
      [
        "▁nyang",
        -9.963400447696218
      ],
      [
        "▁id",
        -9.963726713715047
      ],
      [
        "▁inumin",
        -9.964212297193239
      ],
      [
        "ally",
        -9.964469011027845
      ],
      [
        "▁roon",
        -9.96457952026165
      ],
      [
        "▁anuman",
        -9.965531090558825
      ],
      [
        ".ari",
        -9.965659489809397
      ],
      [
        "▁press",
        -9.966547954015095
      ],
      [
        "é",
        -9.966580912003375
      ],
      [
        "▁tagalog",
        -9.966694005395244
      ],
      [
        "wat",
        -9.966756500006465
      ],
      [
        "ves",
        -9.967029149230074
      ],
      [
        "▁drug",
        -9.96717549923429
      ],
      [
        "!\"",
        -9.967205008004102
      ],
      [
        "▁away",
        -9.967253635268714
      ],
      [
        "▁only",
        -9.968176767514255
      ],
      [
        "▁buhangin",
        -9.968720741681791
      ],
      [
        "▁which",
        -9.969261287017575
      ],
      [
        "bel",
        -9.969555925452038
      ],
      [
        "sabi",
        -9.969851566871567
      ],
      [
        "hal",
        -9.970024034541101
      ],
      [
        "ef",
        -9.970531515747483
      ],
      [
        "▁kalat",
        -9.971533175469498
      ],
      [
        "sama",
        -9.971726294485652
      ],
      [
        "pag",
        -9.971854820394764
      ],
      [
        "▁ge",
        -9.971934823293179
      ],
      [
        "gayon",
        -9.972411349472008
      ],
      [
        "kay",
        -9.972647805184362
      ],
      [
        "▁bayani",
        -9.972796555448625
      ],
      [
        "▁pangako",
        -9.973498504168814
      ],
      [
        "▁rami",
        -9.97370289114638
      ],
      [
        "▁season",
        -9.975281056510875
      ],
      [
        "▁buwis",
        -9.976478092968323
      ],
      [
        "▁sulat",
        -9.9766623529842
      ],
      [
        "lit",
        -9.977635034069008
      ],
      [
        "und",
        -9.978227430925346
      ],
      [
        "▁lemon",
        -9.978291847077104
      ],
      [
        "▁had",
        -9.978780802042577
      ],
      [
        "▁asawa",
        -9.979013301382372
      ],
      [
        "ste",
        -9.979100299087213
      ],
      [
        "▁apo",
        -9.97940051980974
      ],
      [
        "▁yon",
        -9.979536633398439
      ],
      [
        "▁hatid",
        -9.979850740134312
      ],
      [
        "isa",
        -9.980163454813667
      ],
      [
        "▁ben",
        -9.980556208895267
      ],
      [
        "▁bansa,",
        -9.980612975577394
      ],
      [
        "▁labas",
        -9.981354455814417
      ],
      [
        "▁stock",
        -9.981425576106172
      ],
      [
        "ng",
        -9.981905919891904
      ],
      [
        "▁28",
        -9.981933421170993
      ],
      [
        "▁well",
        -9.982466883609275
      ],
      [
        "",
        -9.982505762716078
      ],
      [
        "▁sim",
        -9.983645543967727
      ],
      [
        "tol",
        -9.984029488236946
      ],
      [
        "▁lola",
        -9.984662213398638
      ],
      [
        "▁lipat",
        -9.984784850111868
      ],
      [
        "▁ngipin",
        -9.984940395486126
      ],
      [
        "▁bayad",
        -9.985046506210653
      ],
      [
        "▁eli",
        -9.985724238823133
      ],
      [
        "▁seksyon",
        -9.985994090568354
      ],
      [
        "▁bundok",
        -9.986006679802001
      ],
      [
        "▁ten",
        -9.986428982412132
      ],
      [
        "▁buhay",
        -9.986457732826143
      ],
      [
        "▁aspeto",
        -9.98673597338506
      ],
      [
        "▁nutrisyon",
        -9.986975108443085
      ],
      [
        "▁bigat",
        -9.986978827074457
      ],
      [
        "▁asahan",
        -9.989159033346201
      ],
      [
        "▁gulo",
        -9.989257705268773
      ],
      [
        "▁tab",
        -9.989311223160465
      ],
      [
        "▁series",
        -9.989414073489813
      ],
      [
        "▁bagaman",
        -9.989700197815267
      ],
      [
        "▁ll",
        -9.989930147139908
      ],
      [
        "▁linis",
        -9.990083293213155
      ],
      [
        "▁start",
        -9.990136234646844
      ],
      [
        "▁balik",
        -9.990315777768904
      ],
      [
        "▁moderno",
        -9.990381344459285
      ],
      [
        "il",
        -9.991090614160523
      ],
      [
        "▁brand",
        -9.991125640052633
      ],
      [
        "▁ec",
        -9.991196945503246
      ],
      [
        "▁pusa",
        -9.991823830144467
      ],
      [
        "cur",
        -9.991862656987761
      ],
      [
        "▁blue",
        -9.992400126903085
      ],
      [
        "▁saka",
        -9.992488121166872
      ],
      [
        "▁tapos",
        -9.992722894678321
      ],
      [
        "hen",
        -9.993191571837306
      ],
      [
        "▁setting",
        -9.993317164996185
      ],
      [
        "ities",
        -9.993825768974732
      ],
      [
        "▁galaw",
        -9.994919484806358
      ],
      [
        "gri",
        -9.994961566516606
      ],
      [
        "hel",
        -9.995213262917641
      ],
      [
        "▁credit",
        -9.995287816723176
      ],
      [
        "qui",
        -9.995605314598322
      ],
      [
        "▁feature",
        -9.995740976577743
      ],
      [
        ",",
        -9.995892233211201
      ],
      [
        "yong",
        -9.995921665084479
      ],
      [
        "▁dapat",
        -9.996269293716967
      ],
      [
        "▁bigay",
        -9.996518539236774
      ],
      [
        "▁pasok",
        -9.996722822286623
      ],
      [
        "▁sayaw",
        -9.99754851257244
      ],
      [
        "▁even",
        -9.99781822972369
      ],
      [
        "▁sentro",
        -9.997917612811136
      ],
      [
        "▁aquino",
        -9.997942799569204
      ],
      [
        "▁unti",
        -9.998311403220864
      ],
      [
        "▁fast",
        -9.998717814505499
      ],
      [
        "cr",
        -9.999502661877106
      ],
      [
        "▁bahala",
        -9.999531919048021
      ],
      [
        "▁26",
        -9.999775700270607
      ],
      [
        "",
        -9.999852084057597
      ],
      [
        "▁limitasyon",
        -9.999869096481717
      ],
      [
        "▁ganoon",
        -10.000089493626104
      ],
      [
        "▁tunay,",
        -10.00019586948085
      ],
      [
        "▁porsyento",
        -10.000642175549922
      ],
      [
        "use",
        -10.000981473453077
      ],
      [
        "▁kilos",
        -10.001471422927736
      ],
      [
        "▁publiko",
        -10.001872082898263
      ],
      [
        "▁club",
        -10.002587376897917
      ],
      [
        "por",
        -10.003029443947408
      ],
      [
        "▁world",
        -10.003333562265277
      ],
      [
        "▁deal",
        -10.003726620501997
      ],
      [
        "▁asukal",
        -10.003842635782135
      ],
      [
        "▁kita",
        -10.003952951907813
      ],
      [
        "rat",
        -10.0044240687152
      ],
      [
        "▁laya",
        -10.00470080533971
      ],
      [
        "▁lot",
        -10.004884801461971
      ],
      [
        "▁bul",
        -10.005539827222838
      ],
      [
        "▁mula",
        -10.005636954158074
      ],
      [
        "tis",
        -10.005690873027365
      ],
      [
        "▁camera",
        -10.006099914112545
      ],
      [
        "▁bakal",
        -10.006150507828487
      ],
      [
        "▁hospital",
        -10.00631001125823
      ],
      [
        "bog",
        -10.006703258059478
      ],
      [
        "▁mangha",
        -10.007051664465232
      ],
      [
        "▁phone",
        -10.007070202888155
      ],
      [
        "",
        -10.00718921514004
      ],
      [
        "▁research",
        -10.007546501239545
      ],
      [
        "▁ligaw",
        -10.007588485812184
      ],
      [
        "-pa",
        -10.0076163524373
      ],
      [
        "pis",
        -10.007644534251147
      ],
      [
        "▁pnp",
        -10.0078290164874
      ],
      [
        "▁president",
        -10.008091250392669
      ],
      [
        "gh",
        -10.008263479693216
      ],
      [
        "pay",
        -10.00871521389523
      ],
      [
        "▁panatili",
        -10.00878478275194
      ],
      [
        "▁yari",
        -10.009096221036836
      ],
      [
        "▁week",
        -10.009234772153272
      ],
      [
        "mba",
        -10.009770938982843
      ],
      [
        "▁hirap",
        -10.009868700772747
      ],
      [
        "▁tatlo",
        -10.010157033703864
      ],
      [
        "▁lit",
        -10.010383964009295
      ],
      [
        "era",
        -10.010502944133668
      ],
      [
        "▁turing",
        -10.010557940757902
      ],
      [
        "▁putok",
        -10.010739516414473
      ],
      [
        "▁pili",
        -10.01080143991984
      ],
      [
        "▁har",
        -10.011348120677637
      ],
      [
        "net",
        -10.011542950983367
      ],
      [
        "▁akit",
        -10.011653496236235
      ],
      [
        "▁tili",
        -10.011761637768883
      ],
      [
        "▁gala",
        -10.01207202781447
      ],
      [
        "▁sama",
        -10.012189217373411
      ],
      [
        "▁daloy",
        -10.012312213739172
      ],
      [
        "lab",
        -10.01234593669548
      ],
      [
        "▁atbp.",
        -10.013012790281504
      ],
      [
        "ung",
        -10.01335261461131
      ],
      [
        "▁law",
        -10.013810557100266
      ],
      [
        "▁asin",
        -10.013962944196388
      ],
      [
        "▁lawig",
        -10.014036920680027
      ],
      [
        "ow",
        -10.014249921655596
      ],
      [
        "▁two",
        -10.0143887352035
      ],
      [
        "▁ut",
        -10.015415597995904
      ],
      [
        "",
        -10.015729072294182
      ],
      [
        "bal",
        -10.01573419700761
      ],
      [
        "▁profile",
        -10.01574842717969
      ],
      [
        "▁follow",
        -10.015838853649694
      ],
      [
        "▁tanda",
        -10.015930297702916
      ],
      [
        "▁amoy",
        -10.016101647742293
      ],
      [
        "▁tulog",
        -10.016124906213449
      ],
      [
        "▁gaming",
        -10.01638291538384
      ],
      [
        "▁pm",
        -10.016710005945953
      ],
      [
        "gad",
        -10.016856173443866
      ],
      [
        "▁kurso",
        -10.017223407561154
      ],
      [
        "mate",
        -10.017506398519817
      ],
      [
        "▁puwede",
        -10.017542111941447
      ],
      [
        "▁land",
        -10.01800878761954
      ],
      [
        "▁timog",
        -10.018255433152468
      ],
      [
        "▁diyos",
        -10.018374874103856
      ],
      [
        "▁partido",
        -10.019244563560088
      ],
      [
        "ach",
        -10.019307357707088
      ],
      [
        "stra",
        -10.019396027822545
      ],
      [
        "▁days",
        -10.019487171894152
      ],
      [
        "▁paborito",
        -10.019704489836853
      ],
      [
        "",
        -10.019803909604526
      ],
      [
        "▁(n",
        -10.019955733788954
      ],
      [
        "▁ugali",
        -10.021438952508142
      ],
      [
        "▁hot",
        -10.021778089966004
      ],
      [
        "dal",
        -10.02195589979998
      ],
      [
        "▁klima",
        -10.022010739922095
      ],
      [
        "",
        -10.022215451416438
      ],
      [
        "bot",
        -10.02305799595274
      ],
      [
        "▁great",
        -10.023735225206881
      ],
      [
        "tig",
        -10.023777118852848
      ],
      [
        "▁hilig",
        -10.024308674898874
      ],
      [
        "▁sama",
        -10.024939289865747
      ],
      [
        "▁payapa",
        -10.02527028822856
      ],
      [
        "ron",
        -10.025386017302193
      ],
      [
        "▁(d",
        -10.026166849806266
      ],
      [
        "▁jan",
        -10.026368244449815
      ],
      [
        "▁hubad",
        -10.026677787313904
      ],
      [
        "▁sakit",
        -10.026867668893567
      ],
      [
        "▁panahon,",
        -10.026938182980095
      ],
      [
        "▁bahay,",
        -10.027328678777359
      ],
      [
        "▁tagalog",
        -10.027451895865612
      ],
      [
        "▁sh",
        -10.027493632507683
      ],
      [
        "▁men",
        -10.027555062286915
      ],
      [
        "▁found",
        -10.028877896838111
      ],
      [
        "▁gaano",
        -10.029038121217328
      ],
      [
        "▁sali",
        -10.02955061047639
      ],
      [
        "▁anak.",
        -10.029943634282644
      ],
      [
        "▁port",
        -10.030017017458267
      ],
      [
        "▁bata,",
        -10.030259770894043
      ],
      [
        "▁lala",
        -10.03061671063367
      ],
      [
        "▁ju",
        -10.031106404416647
      ],
      [
        "▁break",
        -10.031526336052222
      ],
      [
        "▁treatment",
        -10.03155461758454
      ],
      [
        "",
        -10.031759044484131
      ],
      [
        "▁jose",
        -10.032238656826877
      ],
      [
        "▁militar",
        -10.032695355909231
      ],
      [
        "▁opinyon",
        -10.03310894811189
      ],
      [
        "",
        -10.033348571959705
      ],
      [
        "▁relihiyon",
        -10.034124383925619
      ],
      [
        "▁landas",
        -10.035022888129216
      ],
      [
        "▁dahon",
        -10.036109670666965
      ],
      [
        "lito",
        -10.03694289287111
      ],
      [
        "▁lipat",
        -10.036996925007537
      ],
      [
        "▁tingi",
        -10.03703262966955
      ],
      [
        "▁gutom",
        -10.037053238818855
      ],
      [
        "▁print",
        -10.0370587120289
      ],
      [
        "▁•",
        -10.037355922578866
      ],
      [
        "co",
        -10.038103388997364
      ],
      [
        "▁pulisya",
        -10.03810421745058
      ],
      [
        "▁russia",
        -10.039283210802017
      ],
      [
        ".bilang",
        -10.039626747353875
      ],
      [
        "▁hanap",
        -10.039849974493237
      ],
      [
        "▁willie",
        -10.040090091824473
      ],
      [
        "▁chese",
        -10.040497446538131
      ],
      [
        "▁hapon",
        -10.040774872924173
      ],
      [
        "val",
        -10.04133984726736
      ],
      [
        "▁salamin",
        -10.041871618240972
      ],
      [
        "so",
        -10.041927064579996
      ],
      [
        "▁cy",
        -10.041961008329315
      ],
      [
        "▁asa",
        -10.042084915330408
      ],
      [
        "▁kampanya",
        -10.042288833875546
      ],
      [
        "▁supply",
        -10.042801696399659
      ],
      [
        "",
        -10.04347954052445
      ],
      [
        "▁try",
        -10.04356866065472
      ],
      [
        "",
        -10.043693517725819
      ],
      [
        "halaga",
        -10.043807632039679
      ],
      [
        "▁apple",
        -10.043922079962215
      ],
      [
        "▁bad",
        -10.044642277398141
      ],
      [
        "▁luha",
        -10.044890551780522
      ],
      [
        "▁solo",
        -10.044901877657155
      ],
      [
        "▁siglo",
        -10.045138549826534
      ],
      [
        "cel",
        -10.045281420960677
      ],
      [
        "▁puntos",
        -10.045784882389368
      ],
      [
        "▁ganda",
        -10.045892086308218
      ],
      [
        "",
        -10.04678830796911
      ],
      [
        "rya",
        -10.04718146706598
      ],
      [
        "▁abala",
        -10.04758570102898
      ],
      [
        "▁disease",
        -10.04798218385519
      ],
      [
        "▁col",
        -10.048380931566447
      ],
      [
        "mun",
        -10.048855567583093
      ],
      [
        "",
        -10.049001225354525
      ],
      [
        "▁plant",
        -10.049051060164233
      ],
      [
        "▁mura",
        -10.049179922403267
      ],
      [
        "▁think",
        -10.04955560941443
      ],
      [
        "▁rizal",
        -10.049682096042458
      ],
      [
        "▁jap",
        -10.050006452979252
      ],
      [
        "▁likha",
        -10.05009986291509
      ],
      [
        "▁upo",
        -10.05038353987113
      ],
      [
        "▁27",
        -10.0503970285471
      ],
      [
        "▁4.",
        -10.051377625025493
      ],
      [
        "▁ingles",
        -10.052030527086785
      ],
      [
        "▁miss",
        -10.052162532477093
      ],
      [
        "▁gulong",
        -10.052354750165112
      ],
      [
        "▁oh",
        -10.054728060172032
      ],
      [
        "▁ilog",
        -10.054746102308174
      ],
      [
        "tun",
        -10.054943191189084
      ],
      [
        "▁dec",
        -10.055112507912547
      ],
      [
        "▁biyahe",
        -10.05527803549511
      ],
      [
        "",
        -10.055777257024756
      ],
      [
        "▁would",
        -10.055959433541734
      ],
      [
        "ا",
        -10.056705887701053
      ],
      [
        "▁puhunan",
        -10.05673883181453
      ],
      [
        "▁puwang",
        -10.057001580924625
      ],
      [
        "▁unti",
        -10.057099809972145
      ],
      [
        "sk",
        -10.057298323637385
      ],
      [
        "▁fr",
        -10.057921266108764
      ],
      [
        "▁tuwid",
        -10.05815880530693
      ],
      [
        "▁halik",
        -10.058249055348165
      ],
      [
        "▁awtomatiko",
        -10.05834604568875
      ],
      [
        "de",
        -10.059155518996539
      ],
      [
        "!!",
        -10.059978904847789
      ],
      [
        "",
        -10.060164651649457
      ],
      [
        "▁tita",
        -10.060524508948909
      ],
      [
        "▁aktor",
        -10.061366058509085
      ],
      [
        "vit",
        -10.06156051617336
      ],
      [
        "▁alis",
        -10.061753205666578
      ],
      [
        "tim",
        -10.061812994267807
      ],
      [
        "▁tour",
        -10.062046329788725
      ],
      [
        "ksyon",
        -10.062208885551811
      ],
      [
        "▁higa",
        -10.062303019958964
      ],
      [
        "rit",
        -10.062513838122497
      ],
      [
        "▁dam",
        -10.062806367426044
      ],
      [
        "▁feed",
        -10.06290804476038
      ],
      [
        "▁tanda",
        -10.062944730491234
      ],
      [
        "pre",
        -10.063417592075028
      ],
      [
        "▁alok",
        -10.063498362805019
      ],
      [
        "▁banal",
        -10.063601010973406
      ],
      [
        "tura",
        -10.063721880483735
      ],
      [
        "▁punta",
        -10.064528666066167
      ],
      [
        "▁araw",
        -10.064568631125121
      ],
      [
        "▁bor",
        -10.064707147685182
      ],
      [
        "▁populasyon",
        -10.064828651585488
      ],
      [
        "may",
        -10.065117878480303
      ],
      [
        "▁sol",
        -10.065622470937154
      ],
      [
        "ect",
        -10.065661209491202
      ],
      [
        "yo",
        -10.065852371619936
      ],
      [
        "▁susi",
        -10.066559731034525
      ],
      [
        "fo",
        -10.066786888210395
      ],
      [
        "▁negatibo",
        -10.067353584621486
      ],
      [
        "▁pakita",
        -10.067438029714685
      ],
      [
        "ilya",
        -10.067547233579514
      ],
      [
        "▁usap",
        -10.068260170450479
      ],
      [
        "▁buti",
        -10.068584692543807
      ],
      [
        "▁(o",
        -10.068950107304635
      ],
      [
        "ries",
        -10.069022390241617
      ],
      [
        "▁rketing",
        -10.069029683208104
      ],
      [
        "▁laro",
        -10.069275000124623
      ],
      [
        "▁cla",
        -10.069344098942796
      ],
      [
        "da",
        -10.069515618428124
      ],
      [
        "▁exercise",
        -10.07017557718625
      ],
      [
        "▁uk",
        -10.07042681327698
      ],
      [
        "y",
        -10.07114784802767
      ],
      [
        "▁th",
        -10.071150796613521
      ],
      [
        "▁uni",
        -10.071394274425279
      ],
      [
        "▁ye",
        -10.071525361398253
      ],
      [
        "▁spa",
        -10.071902111721764
      ],
      [
        "▁award",
        -10.07206343062948
      ],
      [
        "▁lima",
        -10.07215982294746
      ],
      [
        "▁payat",
        -10.072419953463955
      ],
      [
        "▁gma",
        -10.072770715657352
      ],
      [
        "mic",
        -10.072800512027019
      ],
      [
        "▁syang",
        -10.073248144988332
      ],
      [
        "tiko",
        -10.07362504803343
      ],
      [
        "zz",
        -10.074145912070193
      ],
      [
        "▁balot",
        -10.074344185677743
      ],
      [
        "▁fire",
        -10.074371583441252
      ],
      [
        "▁kris",
        -10.074609717319737
      ],
      [
        "t.",
        -10.07477487319169
      ],
      [
        "▁daan",
        -10.074867561047546
      ],
      [
        "▁blood",
        -10.07510424757793
      ],
      [
        "tom",
        -10.07510449703198
      ],
      [
        "▁kabang",
        -10.075365181152106
      ],
      [
        "▁aga",
        -10.075579484459157
      ],
      [
        "▁tuto",
        -10.07636304337926
      ],
      [
        "",
        -10.076575721825392
      ],
      [
        "▁pula",
        -10.076584520446803
      ],
      [
        "▁damdam",
        -10.076601305386735
      ],
      [
        "▁habol",
        -10.076769813855035
      ],
      [
        "▁alinman",
        -10.077274524065324
      ],
      [
        "yer",
        -10.07770813799534
      ],
      [
        ".",
        -10.07791649927458
      ],
      [
        "▁kaya",
        -10.077940038916015
      ],
      [
        "",
        -10.0789528430753
      ],
      [
        "gar",
        -10.079193247200767
      ],
      [
        "cor",
        -10.079355290566543
      ],
      [
        "▁ganap",
        -10.079357737193677
      ],
      [
        "▁liwanag",
        -10.07988295908236
      ],
      [
        "▁dilim",
        -10.08008266246608
      ],
      [
        "gil",
        -10.080088772547287
      ],
      [
        "▁fact",
        -10.08019851094229
      ],
      [
        "▁diin",
        -10.080983356239413
      ],
      [
        "▁daigdig",
        -10.081050628612672
      ],
      [
        "▁look",
        -10.081173791857804
      ],
      [
        "▁milya.",
        -10.082610852838355
      ],
      [
        "ker",
        -10.082965993221205
      ],
      [
        "ire",
        -10.08302026963969
      ],
      [
        "?-",
        -10.083528116250191
      ],
      [
        "ass",
        -10.083688073565828
      ],
      [
        "▁pula",
        -10.083753074900741
      ],
      [
        "▁mor",
        -10.084081153987977
      ],
      [
        "▁sk",
        -10.08409969414636
      ],
      [
        "▁box",
        -10.084148025786204
      ],
      [
        "▁give",
        -10.0843579927936
      ],
      [
        "▁presyon",
        -10.085057798183744
      ],
      [
        "ation",
        -10.085640823661109
      ],
      [
        "",
        -10.086198412363432
      ],
      [
        ".",
        -10.086571838090242
      ],
      [
        "▁company",
        -10.086857323185573
      ],
      [
        "ah",
        -10.088215548460257
      ],
      [
        "▁sw",
        -10.08858789272474
      ],
      [
        "▁lipas",
        -10.088660908181529
      ],
      [
        "hol",
        -10.08909964512633
      ],
      [
        "ile",
        -10.089273960007137
      ],
      [
        "wag",
        -10.089283987558705
      ],
      [
        "pp",
        -10.089421691669585
      ],
      [
        "▁nya.",
        -10.090087816325351
      ],
      [
        "▁konsepto",
        -10.090304306285583
      ],
      [
        "▁(sa",
        -10.090320858822608
      ],
      [
        "▁nternet",
        -10.090871266522052
      ],
      [
        "▁pla",
        -10.090879277438681
      ],
      [
        "▁kape",
        -10.091551099480217
      ],
      [
        "uri",
        -10.091586669632902
      ],
      [
        "▁hard",
        -10.09162880128097
      ],
      [
        "sik",
        -10.09192187576113
      ],
      [
        "ran",
        -10.091934963460732
      ],
      [
        "▁bayo",
        -10.091935667277033
      ],
      [
        "▁character",
        -10.092187698868477
      ],
      [
        "▁45",
        -10.092684790317112
      ],
      [
        "ult",
        -10.092981579922709
      ],
      [
        "ec",
        -10.093417971966373
      ],
      [
        "▁security",
        -10.093534866816928
      ],
      [
        "▁place",
        -10.093853373462958
      ],
      [
        "▁van",
        -10.094865291836678
      ],
      [
        "list",
        -10.094918191517408
      ],
      [
        "▁bituin",
        -10.095165528761129
      ],
      [
        "▁bata",
        -10.09532277726305
      ],
      [
        "▁kalahati",
        -10.095491468233474
      ],
      [
        "▁dios",
        -10.095720996764685
      ],
      [
        "ensya",
        -10.096394599814031
      ],
      [
        "▁dalubhasa",
        -10.096775890870934
      ],
      [
        "",
        -10.09764482322284
      ],
      [
        "simula",
        -10.097709739649954
      ],
      [
        "▁hay",
        -10.097927021901949
      ],
      [
        "▁hggil",
        -10.0981294381979
      ],
      [
        "▁tugon",
        -10.098332622142413
      ],
      [
        "▁were",
        -10.09841718443576
      ],
      [
        "▁eksperto",
        -10.09867143395552
      ],
      [
        "▁nternational",
        -10.098698044854135
      ],
      [
        "▁ter",
        -10.09870665240948
      ],
      [
        "nti",
        -10.09898943742839
      ],
      [
        "▁ugali",
        -10.099816034659165
      ],
      [
        "▁wi",
        -10.099970487267974
      ],
      [
        "▁apekto",
        -10.100100976051726
      ],
      [
        "▁nager",
        -10.100330104584136
      ],
      [
        "▁lungkot",
        -10.100860596383457
      ],
      [
        "▁35",
        -10.100968237286894
      ],
      [
        "▁tuon",
        -10.10142857575458
      ],
      [
        "▁lip",
        -10.101973294963528
      ],
      [
        "▁rasitiko",
        -10.102201104189508
      ],
      [
        "pirma",
        -10.102722225769355
      ],
      [
        "▁been",
        -10.10277316378593
      ],
      [
        "▁patay",
        -10.103146794462143
      ],
      [
        "▁hanga",
        -10.103379965646988
      ],
      [
        "▁let",
        -10.103489726071292
      ],
      [
        "tin",
        -10.103836421772833
      ],
      [
        "▁hiwatig",
        -10.104107846381405
      ],
      [
        "▁des",
        -10.104336235364494
      ],
      [
        "▁hingi",
        -10.104425340361507
      ],
      [
        "▁hanap",
        -10.104730695897182
      ],
      [
        "▁mula",
        -10.104820285058022
      ],
      [
        "▁average",
        -10.10547059603129
      ],
      [
        "▁cm",
        -10.105606632253608
      ],
      [
        "ugh",
        -10.105984822950154
      ],
      [
        "▁kailangan",
        -10.106208221774239
      ],
      [
        "80",
        -10.106604073885691
      ],
      [
        "lug",
        -10.107015683080641
      ],
      [
        "▁gold",
        -10.107168556124952
      ],
      [
        "▁sige",
        -10.107589066779399
      ],
      [
        "▁lugar.",
        -10.107727056874918
      ],
      [
        "▁lan",
        -10.107806081881026
      ],
      [
        "law",
        -10.107914069100548
      ],
      [
        "▁gamit",
        -10.107975486421122
      ],
      [
        "▁rehistro",
        -10.10951814493911
      ],
      [
        "▁europa",
        -10.109586841302681
      ],
      [
        "bis",
        -10.110520221455056
      ],
      [
        "▁awit",
        -10.110662327029852
      ],
      [
        "▁dikit",
        -10.111288359279344
      ],
      [
        "tel",
        -10.111447291873795
      ],
      [
        "▁tibay",
        -10.11146255388277
      ],
      [
        "▁mundo,",
        -10.11196439932352
      ],
      [
        "▁amerika",
        -10.11204141723656
      ],
      [
        "▁kulong",
        -10.112775267342828
      ],
      [
        "▁tela",
        -10.112847384990268
      ],
      [
        "▁buksan",
        -10.113140707996031
      ],
      [
        "▁leeg",
        -10.113166422145612
      ],
      [
        "▁hair",
        -10.11444873160878
      ],
      [
        "▁read",
        -10.114459237725933
      ],
      [
        "▁unawa",
        -10.11454593134327
      ],
      [
        "▁tulong",
        -10.114927732959641
      ],
      [
        "▁yong",
        -10.114987603180365
      ],
      [
        "▁global",
        -10.115113452964065
      ],
      [
        "▁table",
        -10.115114445763073
      ],
      [
        "▁function",
        -10.115123191444427
      ],
      [
        "▁(c",
        -10.115473286817009
      ],
      [
        "yag",
        -10.115520880156078
      ],
      [
        "nic",
        -10.116194742856566
      ],
      [
        "▁bahagi",
        -10.11625730520046
      ],
      [
        "▁vpn",
        -10.116737403101492
      ],
      [
        "▁rami",
        -10.116907074150781
      ],
      [
        "▁mel",
        -10.116933551219978
      ],
      [
        "tre",
        -10.117130289774844
      ],
      [
        "▁90",
        -10.117383907855947
      ],
      [
        "▁lapi",
        -10.118385061501872
      ],
      [
        "▁experience",
        -10.118655612772555
      ],
      [
        "▁this",
        -10.118688509916806
      ],
      [
        "▁taas",
        -10.118725037817232
      ],
      [
        ",",
        -10.119386534908122
      ],
      [
        "▁fu",
        -10.119438302522894
      ],
      [
        "▁enero",
        -10.119500347185545
      ],
      [
        "▁perpekto",
        -10.119528342726314
      ],
      [
        "▁micro",
        -10.12012502029237
      ],
      [
        "led",
        -10.120371172605985
      ],
      [
        "hay",
        -10.120787320878195
      ],
      [
        "ization",
        -10.120863856197111
      ],
      [
        "▁happy",
        -10.120890979952783
      ],
      [
        "▁trabaho",
        -10.121049307413836
      ],
      [
        "▁search",
        -10.121186319397806
      ],
      [
        "▁bagyo",
        -10.121710034562645
      ],
      [
        "▁kuha",
        -10.121859457281177
      ],
      [
        "▁av",
        -10.121904776140177
      ],
      [
        "▁suma",
        -10.121979996586624
      ],
      [
        "▁saka",
        -10.122051957628337
      ],
      [
        "e",
        -10.122549759795927
      ],
      [
        "▁kaiba",
        -10.12281208512959
      ],
      [
        "▁lagi",
        -10.122858354664446
      ],
      [
        "▁tag",
        -10.122871187245822
      ],
      [
        "▁lambot",
        -10.123338943060682
      ],
      [
        "ers",
        -10.123462708837643
      ],
      [
        "''",
        -10.123617228484905
      ],
      [
        "▁ong",
        -10.123706639321622
      ],
      [
        "▁crypto",
        -10.124181936182294
      ],
      [
        "▁cons",
        -10.12425198131622
      ],
      [
        "▁lamig",
        -10.124449679131795
      ],
      [
        "▁cosmetic",
        -10.125035674224602
      ],
      [
        "▁pares",
        -10.12522321046526
      ],
      [
        "▁kur",
        -10.125283138556672
      ],
      [
        "▁lahat,",
        -10.125365356657582
      ],
      [
        "▁taga",
        -10.125804984464633
      ],
      [
        "▁white",
        -10.126173042130457
      ],
      [
        "▁\"ang",
        -10.1267437814088
      ],
      [
        "▁babae.",
        -10.127057373755122
      ],
      [
        "",
        -10.127188845083229
      ],
      [
        "gle",
        -10.127192764052973
      ],
      [
        "▁tuktok",
        -10.127264618412946
      ],
      [
        "▁music",
        -10.127404443320792
      ],
      [
        "▁load",
        -10.127724601697228
      ],
      [
        "▁cream",
        -10.128118317048632
      ],
      [
        "▁ito?",
        -10.128313140833463
      ],
      [
        "▁manatili",
        -10.128315454444317
      ],
      [
        "▁buo",
        -10.12848677521475
      ],
      [
        "25",
        -10.128555948319256
      ],
      [
        "▁age",
        -10.12909028627442
      ],
      [
        "▁these",
        -10.129359816986087
      ],
      [
        "▁porn",
        -10.12944514231479
      ],
      [
        "60",
        -10.129446494185478
      ],
      [
        "▁mayo",
        -10.129447532833845
      ],
      [
        "buhay",
        -10.129573464730957
      ],
      [
        "rus",
        -10.130013864465282
      ],
      [
        "▁south",
        -10.130057696989663
      ],
      [
        "▁tukoy",
        -10.130215469958683
      ],
      [
        "▁pananampalataya",
        -10.130896685754983
      ],
      [
        "▁metro",
        -10.13097417349977
      ],
      [
        "▁multi",
        -10.131064035148038
      ],
      [
        "dic",
        -10.131167186552931
      ],
      [
        "▁transaksyon",
        -10.131457056012655
      ],
      [
        "https:",
        -10.131943725172372
      ],
      [
        "▁pulong",
        -10.132077610214816
      ],
      [
        "zo",
        -10.13239838685026
      ],
      [
        "#",
        -10.132411747955121
      ],
      [
        "▁reaksyon",
        -10.132581478870836
      ],
      [
        "▁metro",
        -10.132866731755586
      ],
      [
        "mission",
        -10.133166624067842
      ],
      [
        "▁rito",
        -10.133674795000593
      ],
      [
        "▁dinig",
        -10.134157792948555
      ],
      [
        "▁abot",
        -10.134377397563682
      ],
      [
        "▁rt",
        -10.134458037329198
      ],
      [
        "▁interesado",
        -10.134796497590036
      ],
      [
        "▁kalinga",
        -10.134919872741015
      ],
      [
        "▁sure",
        -10.135001814197791
      ],
      [
        "▁pet",
        -10.135055377355636
      ],
      [
        "▁alis",
        -10.135367471413756
      ],
      [
        "gawa",
        -10.135368786077327
      ],
      [
        "▁subaybay",
        -10.135385431910372
      ],
      [
        "▁tawag",
        -10.13611291333544
      ],
      [
        "▁fish",
        -10.136966448840285
      ],
      [
        "▁worm.",
        -10.137010901567967
      ],
      [
        "▁bago",
        -10.137035515803115
      ],
      [
        "▁demya",
        -10.137073879020882
      ],
      [
        "",
        -10.13713499427262
      ],
      [
        "▁ci",
        -10.137272009103928
      ],
      [
        "▁tira",
        -10.137283222345227
      ],
      [
        "▁oras,",
        -10.137642527270655
      ],
      [
        "▁labas",
        -10.137672711051032
      ],
      [
        "▁dagdag",
        -10.138053987191302
      ],
      [
        "▁prinsipyo",
        -10.138765210231458
      ],
      [
        "▁daigdigan",
        -10.138765321699136
      ],
      [
        "▁kopya",
        -10.140423750391564
      ],
      [
        "▁malay",
        -10.140722341839608
      ],
      [
        "▁fan",
        -10.140789485325772
      ],
      [
        "▁piling",
        -10.140832961388437
      ],
      [
        "▁dealer",
        -10.140873475437228
      ],
      [
        "ost",
        -10.141622048243162
      ],
      [
        "form",
        -10.141653036128574
      ],
      [
        "▁marka",
        -10.142228106227513
      ],
      [
        "bri",
        -10.142423450475283
      ],
      [
        "▁oc",
        -10.142465122589774
      ],
      [
        "▁puno",
        -10.14298229267243
      ],
      [
        "▁pin",
        -10.143350834740001
      ],
      [
        "ty",
        -10.143665000024013
      ],
      [
        "▁answer",
        -10.14395221512746
      ],
      [
        "sco",
        -10.145141132444596
      ],
      [
[...]
