{
  "version": "1.0",
  "truncation": null,
  "padding": null,
  "added_tokens": [
    {
      "id": 0,
      "content": "<unk>",
      "single_word": false,
      "lstrip": false,
      "rstrip": false,
      "normalized": false,
      "special": true
    },
    {
      "id": 1,
      "content": "<s>",
      "single_word": false,
      "lstrip": false,
      "rstrip": false,
      "normalized": false,
      "special": true
    },
    {
      "id": 2,
      "content": "</s>",
      "single_word": false,
      "lstrip": false,
      "rstrip": false,
      "normalized": false,
      "special": true
    }
  ],
  "normalizer": {
    "type": "NFKC"
  },
  "pre_tokenizer": {
    "type": "Metaspace",
    "replacement": "▁",
    "prepend_scheme": "always",
    "split": true
  },
  "post_processor": null,
  "decoder": {
    "type": "Metaspace",
    "replacement": "▁",
    "prepend_scheme": "always",
    "split": true
  },
  "model": {
    "type": "BPE",
    "dropout": null,
    "unk_token": "<unk>",
    "continuing_subword_prefix": null,
    "end_of_word_suffix": null,
    "fuse_unk": false,
    "byte_fallback": false,
    "ignore_merges": false,
    "vocab": {
      "<unk>": 0,
      "<s>": 1,
      "</s>": 2,
      "\t": 3,
      "\n": 4,
      " ": 5,
      "!": 6,
      "\"": 7,
      "#": 8,
      "$": 9,
      "%": 10,
      "&": 11,
      "'": 12,
      "(": 13,
      ")": 14,
      "*": 15,
      "+": 16,
      ",": 17,
      "-": 18,
      ".": 19,
      "/": 20,
      "0": 21,
      "1": 22,
      "2": 23,
      "3": 24,
      "4": 25,
      "5": 26,
      "6": 27,
      "7": 28,
      "8": 29,
      "9": 30,
      ":": 31,
      ";": 32,
      "<": 33,
      "=": 34,
      ">": 35,
      "?": 36,
      "@": 37,
      "A": 38,
      "B": 39,
      "C": 40,
      "D": 41,
      "E": 42,
      "F": 43,
      "G": 44,
      "H": 45,
      "I": 46,
      "J": 47,
      "K": 48,
      "L": 49,
      "M": 50,
      "N": 51,
      "O": 52,
      "P": 53,
      "Q": 54,
      "R": 55,
      "S": 56,
      "T": 57,
      "U": 58,
      "V": 59,
      "W": 60,
      "X": 61,
      "Y": 62,
      "Z": 63,
      "[": 64,
      "\\": 65,
      "]": 66,
      "^": 67,
      "_": 68,
      "`": 69,
      "a": 70,
      "b": 71,
      "c": 72,
      "d": 73,
      "e": 74,
      "f": 75,
      "g": 76,
      "h": 77,
      "i": 78,
      "j": 79,
      "k": 80,
      "l": 81,
      "m": 82,
      "n": 83,
      "o": 84,
      "p": 85,
      "q": 86,
      "r": 87,
      "s": 88,
      "t": 89,
      "u": 90,
      "v": 91,
      "w": 92,
      "x": 93,
      "y": 94,
      "z": 95,
      "{": 96,
      "|": 97,
      "}": 98,
      "~": 99,
      "Á": 100,
      "Â": 101,
      "Ä": 102,
      "Å": 103,
      "Ç": 104,
      "É": 105,
      "Í": 106,
      "Ñ": 107,
      "Õ": 108,
      "Ö": 109,
      "Ü": 110,
      "ß": 111,
      "à": 112,
      "á": 113,
      "â": 114,
      "ã": 115,
      "ä": 116,
      "å": 117,
      "æ": 118,
      "ç": 119,
      "è": 120,
      "é": 121,
      "ê": 122,
      "ë": 123,
      "ì": 124,
      "í": 125,
      "î": 126,
      "ï": 127,
      "ð": 128,
      "ñ": 129,
      "ò": 130,
      "ó": 131,
      "ô": 132,
      "õ": 133,
      "ö": 134,
      "ø": 135,
      "ù": 136,
      "ú": 137,
      "ü": 138,
      "ý": 139,
      "Ā": 140,
      "ā": 141,
      "ă": 142,
      "ą": 143,
      "ć": 144,
      "č": 145,
      "đ": 146,
      "ē": 147,
      "ė": 148,
      "ę": 149,
      "ě": 150,
      "ğ": 151,
      "ī": 152,
      "İ": 153,
      "ı": 154,
      "ł": 155,
      "ń": 156,
      "ņ": 157,
      "ň": 158,
      "ō": 159,
      "œ": 160,
      "ř": 161,
      "ś": 162,
      "Ş": 163,
      "ş": 164,
      "Š": 165,
      "š": 166,
      "ū": 167,
      "ų": 168,
      "ź": 169,
      "ż": 170,
      "ž": 171,
      "ư": 172,
      "ǎ": 173,
      "ș": 174,
      "ț": 175,
      "ɑ": 176,
      "ɔ": 177,
      "ə": 178,
      "ɪ": 179,
      "ʀ": 180,
      "ʼ": 181,
      "ˈ": 182,
      "ː": 183,
      "Ε": 184,
      "Λ": 185,
      "Π": 186,
      "Φ": 187,
      "ά": 188,
      "έ": 189,
      "ή": 190,
      "ί": 191,
      "α": 192,
      "β": 193,
      "γ": 194,
      "δ": 195,
      "ε": 196,
      "ζ": 197,
      "η": 198,
      "θ": 199,
      "ι": 200,
      "κ": 201,
      "λ": 202,
      "μ": 203,
      "ν": 204,
      "ξ": 205,
      "ο": 206,
      "π": 207,
      "ρ": 208,
      "ς": 209,
      "σ": 210,
      "τ": 211,
      "υ": 212,
      "φ": 213,
      "χ": 214,
      "ψ": 215,
      "ω": 216,
      "ό": 217,
      "ύ": 218,
      "ώ": 219,
      "А": 220,
      "Б": 221,
      "В": 222,
      "Г": 223,
      "Д": 224,
      "Е": 225,
      "Ж": 226,
      "З": 227,
      "И": 228,
      "К": 229,
      "Л": 230,
      "М": 231,
      "Н": 232,
      "О": 233,
      "П": 234,
      "Р": 235,
      "С": 236,
      "Т": 237,
      "У": 238,
      "Ф": 239,
      "Х": 240,
      "Ц": 241,
      "Ч": 242,
      "Ш": 243,
      "Э": 244,
      "Я": 245,
      "а": 246,
      "б": 247,
      "в": 248,
      "г": 249,
      "д": 250,
      "е": 251,
      "ж": 252,
      "з": 253,
      "и": 254,
      "й": 255,
      "к": 256,
      "л": 257,
      "м": 258,
      "н": 259,
      "о": 260,
      "п": 261,
      "р": 262,
      "с": 263,
      "т": 264,
      "у": 265,
      "ф": 266,
      "х": 267,
      "ц": 268,
      "ч": 269,
      "ш": 270,
      "щ": 271,
      "ы": 272,
      "ь": 273,
      "э": 274,
      "ю": 275,
      "я": 276,
      "ё": 277,
      "є": 278,
      "і": 279,
      "ї": 280,
      "א": 281,
      "ב": 282,
      "ג": 283,
      "ד": 284,
      "ה": 285,
      "ו": 286,
      "ז": 287,
      "ח": 288,
      "ט": 289,
      "י": 290,
      "כ": 291,
      "ל": 292,
      "ם": 293,
      "מ": 294,
      "ן": 295,
      "נ": 296,
      "ס": 297,
      "ע": 298,
      "פ": 299,
      "צ": 300,
      "ק": 301,
      "ר": 302,
      "ש": 303,
      "ת": 304,
      "ء": 305,
      "آ": 306,
      "أ": 307,
      "ؤ": 308,
      "إ": 309,
      "ئ": 310,
      "ا": 311,
      "ب": 312,
      "ة": 313,
      "ت": 314,
      "ث": 315,
      "ج": 316,
      "ح": 317,
      "خ": 318,
      "د": 319,
      "ذ": 320,
      "ر": 321,
      "ز": 322,
      "س": 323,
      "ش": 324,
      "ص": 325,
      "ض": 326,
      "ط": 327,
      "ظ": 328,
      "ع": 329,
      "غ": 330,
      "ـ": 331,
      "ف": 332,
      "ق": 333,
      "ك": 334,
      "ل": 335,
      "م": 336,
      "ن": 337,
      "ه": 338,
      "و": 339,
      "ى": 340,
      "ي": 341,
      "ی": 342,
      "अ": 343,
      "आ": 344,
      "इ": 345,
      "उ": 346,
      "ए": 347,
      "क": 348,
      "ख": 349,
      "ग": 350,
      "घ": 351,
      "च": 352,
      "छ": 353,
      "ज": 354,
      "झ": 355,
      "ट": 356,
      "ड": 357,
      "त": 358,
      "द": 359,
      "न": 360,
      "प": 361,
      "फ": 362,
      "ब": 363,
      "म": 364,
      "य": 365,
      "र": 366,
      "ल": 367,
      "व": 368,
      "श": 369,
      "स": 370,
      "ह": 371,
      "অ": 372,
      "ই": 373,
      "এ": 374,
      "ক": 375,
      "খ": 376,
      "গ": 377,
      "ছ": 378,
      "জ": 379,
      "ট": 380,
      "ণ": 381,
      "ত": 382,
      "থ": 383,
      "দ": 384,
      "ধ": 385,
      "ন": 386,
      "প": 387,
      "ব": 388,
      "ভ": 389,
      "ম": 390,
      "য": 391,
      "র": 392,
      "ল": 393,
      "শ": 394,
      "ষ": 395,
      "স": 396,
      "হ": 397,
      "ก": 398,
      "ข": 399,
      "ค": 400,
      "ง": 401,
      "จ": 402,
      "ช": 403,
      "ด": 404,
      "ต": 405,
      "ท": 406,
      "น": 407,
      "บ": 408,
      "ป": 409,
      "พ": 410,
      "ม": 411,
      "ย": 412,
      "ร": 413,
      "ล": 414,
      "ว": 415,
      "ส": 416,
      "ห": 417,
      "อ": 418,
      "ะ": 419,
      "า": 420,
      "เ": 421,
      "แ": 422,
      "โ": 423,
      "ใ": 424,
      "ไ": 425,
      "ሁ": 426,
      "ህ": 427,
      "ለ": 428,
      "ሉ": 429,
      "ላ": 430,
      "ል": 431,
      "መ": 432,
      "ማ": 433,
      "ም": 434,
      "ረ": 435,
      "ራ": 436,
      "ር": 437,
      "ሰ": 438,
      "ስ": 439,
      "ቀ": 440,
      "በ": 441,
      "ብ": 442,
      "ተ": 443,
      "ታ": 444,
      "ት": 445,
      "ች": 446,
      "ነ": 447,
      "ና": 448,
      "ን": 449,
      "አ": 450,
      "እ": 451,
      "ከ": 452,
      "ወ": 453,
      "ው": 454,
      "የ": 455,
      "ያ": 456,
      "ይ": 457,
      "ደ": 458,
      "ድ": 459,
      "ገ": 460,
      "ግ": 461,
      "Ḥ": 462,
      "ḥ": 463,
      "ạ": 464,
      "ả": 465,
      "ế": 466,
      "ệ": 467,
      "ố": 468,
      "ộ": 469,
      "▁": 470,
      "あ": 471,
      "い": 472,
      "う": 473,
      "え": 474,
      "お": 475,
      "か": 476,
      "が": 477,
      "き": 478,
      "く": 479,
      "け": 480,
      "こ": 481,
      "さ": 482,
      "し": 483,
      "す": 484,
      "ず": 485,
      "せ": 486,
      "そ": 487,
      "た": 488,
      "だ": 489,
      "ち": 490,
      "っ": 491,
      "つ": 492,
      "て": 493,
      "で": 494,
      "と": 495,
      "ど": 496,
      "な": 497,
      "に": 498,
      "の": 499,
      "は": 500,
      "ま": 501,
      "み": 502,
      "め": 503,
      "も": 504,
      "や": 505,
      "よ": 506,
      "ら": 507,
      "り": 508,
      "る": 509,
      "れ": 510,
      "ろ": 511,
      "を": 512,
      "ん": 513,
      "ア": 514,
      "イ": 515,
      "ク": 516,
      "グ": 517,
      "コ": 518,
      "ザ": 519,
      "ジ": 520,
      "ス": 521,
      "タ": 522,
      "ッ": 523,
      "テ": 524,
      "ト": 525,
      "ビ": 526,
      "フ": 527,
      "マ": 528,
      "メ": 529,
      "ラ": 530,
      "リ": 531,
      "ル": 532,
      "ロ": 533,
      "ン": 534,
      "ー": 535,
      "一": 536,
      "万": 537,
      "上": 538,
      "下": 539,
      "不": 540,
      "东": 541,
      "个": 542,
      "中": 543,
      "为": 544,
      "主": 545,
      "也": 546,
      "了": 547,
      "事": 548,
      "于": 549,
      "亚": 550,
      "人": 551,
      "他": 552,
      "代": 553,
      "以": 554,
      "们": 555,
      "件": 556,
      "伊": 557,
      "优": 558,
      "会": 559,
      "传": 560,
      "位": 561,
      "住": 562,
      "体": 563,
      "作": 564,
      "你": 565,
      "使": 566,
      "便": 567,
      "保": 568,
      "信": 569,
      "們": 570,
      "候": 571,
      "做": 572,
      "充": 573,
      "先": 574,
      "光": 575,
      "克": 576,
      "全": 577,
      "公": 578,
      "兰": 579,
      "具": 580,
      "内": 581,
      "円": 582,
      "再": 583,
      "凝": 584,
      "出": 585,
      "击": 586,
      "分": 587,
      "利": 588,
      "到": 589,
      "制": 590,
      "刷": 591,
      "剂": 592,
      "前": 593,
      "力": 594,
      "加": 595,
      "动": 596,
      "務": 597,
      "包": 598,
      "化": 599,
      "北": 600,
      "南": 601,
      "博": 602,
      "卡": 603,
      "卢": 604,
      "印": 605,
      "压": 606,
      "去": 607,
      "友": 608,
      "发": 609,
      "取": 610,
      "变": 611,
      "口": 612,
      "叫": 613,
      "可": 614,
      "台": 615,
      "号": 616,
      "司": 617,
      "合": 618,
      "吉": 619,
      "同": 620,
      "名": 621,
      "后": 622,
      "和": 623,
      "品": 624,
      "哈": 625,
      "喜": 626,
      "営": 627,
      "器": 628,
      "因": 629,
      "国": 630,
      "图": 631,
      "在": 632,
      "地": 633,
      "型": 634,
      "基": 635,
      "場": 636,
      "塔": 637,
      "外": 638,
      "多": 639,
      "大": 640,
      "天": 641,
      "太": 642,
      "头": 643,
      "她": 644,
      "好": 645,
      "如": 646,
      "威": 647,
      "娜": 648,
      "子": 649,
      "字": 650,
      "孟": 651,
      "学": 652,
      "它": 653,
      "安": 654,
      "官": 655,
      "定": 656,
      "家": 657,
      "将": 658,
      "小": 659,
      "尔": 660,
      "就": 661,
      "尼": 662,
      "岗": 663,
      "工": 664,
      "巴": 665,
      "市": 666,
      "布": 667,
      "帕": 668,
      "常": 669,
      "干": 670,
      "平": 671,
      "年": 672,
      "度": 673,
      "座": 674,
      "开": 675,
      "式": 676,
      "当": 677,
      "彩": 678,
      "很": 679,
      "後": 680,
      "心": 681,
      "必": 682,
      "思": 683,
      "性": 684,
      "息": 685,
      "您": 686,
      "情": 687,
      "想": 688,
      "意": 689,
      "愛": 690,
      "成": 691,
      "我": 692,
      "户": 693,
      "所": 694,
      "手": 695,
      "打": 696,
      "托": 697,
      "拉": 698,
      "按": 699,
      "据": 700,
      "提": 701,
      "携": 702,
      "数": 703,
      "文": 704,
      "料": 705,
      "斯": 706,
      "新": 707,
      "方": 708,
      "无": 709,
      "日": 710,
      "时": 711,
      "旺": 712,
      "昂": 713,
      "明": 714,
      "是": 715,
      "時": 716,
      "普": 717,
      "景": 718,
      "書": 719,
      "曼": 720,
      "最": 721,
      "月": 722,
      "有": 723,
      "朋": 724,
      "朗": 725,
      "本": 726,
      "机": 727,
      "杀": 728,
      "来": 729,
      "板": 730,
      "架": 731,
      "格": 732,
      "森": 733,
      "業": 734,
      "模": 735,
      "次": 736,
      "欢": 737,
      "毒": 738,
      "比": 739,
      "毛": 740,
      "氏": 741,
      "水": 742,
      "永": 743,
      "法": 744,
      "活": 745,
      "流": 746,
      "海": 747,
      "液": 748,
      "温": 749,
      "源": 750,
      "点": 751,
      "烟": 752,
      "烤": 753,
      "烧": 754,
      "然": 755,
      "片": 756,
      "物": 757,
      "特": 758,
      "玛": 759,
      "环": 760,
      "现": 761,
      "理": 762,
      "琳": 763,
      "瓦": 764,
      "瓷": 765,
      "生": 766,
      "用": 767,
      "由": 768,
      "申": 769,
      "电": 770,
      "画": 771,
      "病": 772,
      "痛": 773,
      "登": 774,
      "的": 775,
      "盎": 776,
      "目": 777,
      "相": 778,
      "看": 779,
      "知": 780,
      "示": 781,
      "社": 782,
      "神": 783,
      "私": 784,
      "种": 785,
      "空": 786,
      "立": 787,
      "站": 788,
      "第": 789,
      "管": 790,
      "米": 791,
      "経": 792,
      "级": 793,
      "纳": 794,
      "编": 795,
      "网": 796,
      "置": 797,
      "美": 798,
      "者": 799,
      "肉": 800,
      "育": 801,
      "胶": 802,
      "能": 803,
      "自": 804,
      "色": 805,
      "艾": 806,
      "苦": 807,
      "萨": 808,
      "蓬": 809,
      "虫": 810,
      "螂": 811,
      "蟑": 812,
      "行": 813,
      "表": 814,
      "西": 815,
      "要": 816,
      "观": 817,
      "記": 818,
      "設": 819,
      "許": 820,
      "証": 821,
      "語": 822,
      "請": 823,
      "计": 824,
      "论": 825,
      "设": 826,
      "评": 827,
      "语": 828,
      "说": 829,
      "请": 830,
      "資": 831,
      "起": 832,
      "路": 833,
      "辑": 834,
      "达": 835,
      "这": 836,
      "通": 837,
      "道": 838,
      "那": 839,
      "邦": 840,
      "都": 841,
      "酸": 842,
      "里": 843,
      "重": 844,
      "金": 845,
      "问": 846,
      "间": 847,
      "阿": 848,
      "非": 849,
      "面": 850,
      "题": 851,
      "首": 852,
      "香": 853,
      "马": 854,
      "高": 855,
      "鼠": 856,
      "가": 857,
      "같": 858,
      "개": 859,
      "거": 860,
      "것": 861,
      "게": 862,
      "겠": 863,
      "경": 864,
      "계": 865,
      "고": 866,
      "과": 867,
      "구": 868,
      "국": 869,
      "그": 870,
      "기": 871,
      "까": 872,
      "깨": 873,
      "께": 874,
      "나": 875,
      "날": 876,
      "내": 877,
      "너": 878,
      "는": 879,
      "니": 880,
      "님": 881,
      "다": 882,
      "대": 883,
      "던": 884,
      "데": 885,
      "도": 886,
      "돌": 887,
      "동": 888,
      "되": 889,
      "두": 890,
      "드": 891,
      "든": 892,
      "들": 893,
      "디": 894,
      "땅": 895,
      "때": 896,
      "또": 897,
      "라": 898,
      "람": 899,
      "래": 900,
      "러": 901,
      "렇": 902,
      "려": 903,
      "로": 904,
      "루": 905,
      "르": 906,
      "를": 907,
      "리": 908,
      "마": 909,
      "만": 910,
      "말": 911,
      "며": 912,
      "면": 913,
      "명": 914,
      "모": 915,
      "무": 916,
      "문": 917,
      "물": 918,
      "미": 919,
      "바": 920,
      "반": 921,
      "밥": 922,
      "버": 923,
      "보": 924,
      "부": 925,
      "분": 926,
      "불": 927,
      "비": 928,
      "빔": 929,
      "사": 930,
      "산": 931,
      "살": 932,
      "상": 933,
      "생": 934,
      "서": 935,
      "섯": 936,
      "성": 937,
      "세": 938,
      "셉": 939,
      "소": 940,
      "속": 941,
      "수": 942,
      "스": 943,
      "습": 944,
      "시": 945,
      "신": 946,
      "실": 947,
      "십": 948,
      "아": 949,
      "안": 950,
      "않": 951,
      "야": 952,
      "양": 953,
      "어": 954,
      "없": 955,
      "었": 956,
      "에": 957,
      "엘": 958,
      "여": 959,
      "였": 960,
      "영": 961,
      "예": 962,
      "오": 963,
      "와": 964,
      "요": 965,
      "우": 966,
      "운": 967,
      "워": 968,
      "원": 969,
      "위": 970,
      "유": 971,
      "으": 972,
      "은": 973,
      "을": 974,
      "음": 975,
      "의": 976,
      "이": 977,
      "인": 978,
      "일": 979,
      "입": 980,
      "있": 981,
      "자": 982,
      "전": 983,
      "절": 984,
      "정": 985,
      "제": 986,
      "조": 987,
      "주": 988,
      "죽": 989,
      "지": 990,
      "치": 991,
      "크": 992,
      "탕": 993,
      "터": 994,
      "트": 995,
      "하": 996,
      "한": 997,
      "합": 998,
      "해": 999,
      "형": 1000,
      "호": 1001,
      "희": 1002,
      "ng": 1003,
      "▁a": 1004,
      "▁s": 1005,
      "▁sa": 1006,
      "▁m": 1007,
      "la": 1008,
      "na": 1009,
      "▁ng": 1010,
      "ga": 1011,
      "▁na": 1012,
      "▁t": 1013,
      "▁k": 1014,
      "▁ang": 1015,
      "▁b": 1016,
      "▁p": 1017,
      "it": 1018,
      "an": 1019,
      "in": 1020,
      "▁d": 1021,
      "▁mga": 1022,
      "on": 1023,
      "▁h": 1024,
      "li": 1025,
      "at": 1026,
      "ay": 1027,
      "▁la": 1028,
      "as": 1029,
      "er": 1030,
      "▁at": 1031,
      "▁ay": 1032,
      "ag": 1033,
      "ya": 1034,
      "ra": 1035,
      "▁da": 1036,
      "▁i": 1037,
      "▁n": 1038,
      "▁ta": 1039,
      "▁ba": 1040,
      "re": 1041,
      "wa": 1042,
      "lo": 1043,
      "ro": 1044,
      "▁ga": 1045,
      "▁ko": 1046,
      "ri": 1047,
      "ito": 1048,
      "▁u": 1049,
      "▁ka": 1050,
      "en": 1051,
      "▁si": 1052,
      "▁pa": 1053,
      "di": 1054,
      "to": 1055,
      "es": 1056,
      "yo": 1057,
      "is": 1058,
      "or": 1059,
      "▁tu": 1060,
      "▁ni": 1061,
      "ba": 1062,
      "us": 1063,
      "un": 1064,
      "▁ha": 1065,
      "ti": 1066,
      "pa": 1067,
      "▁c": 1068,
      "ko": 1069,
      "al": 1070,
      "▁an": 1071,
      "▁ito": 1072,
      "il": 1073,
      "▁ma": 1074,
      "os": 1075,
      "ula": 1076,
      "▁li": 1077,
      "ta": 1078,
      "da": 1079,
      "▁bi": 1080,
      "ma": 1081,
      "indi": 1082,
      "ka": 1083,
      "le": 1084,
      "ing": 1085,
      "▁hindi": 1086,
      "ha": 1087,
      "yon": 1088,
      "▁bu": 1089,
      "▁may": 1090,
      "▁di": 1091,
      "▁S": 1092,
      "▁C": 1093,
      "bi": 1094,
      "sa": 1095,
      "▁g": 1096,
      "▁f": 1097,
      "▁mo": 1098,
      "▁w": 1099,
      "te": 1100,
      "mi": 1101,
      "lu": 1102,
      "mp": 1103,
      "▁e": 1104,
      "▁ti": 1105,
      "▁o": 1106,
      "▁P": 1107,
      "▁A": 1108,
      "▁re": 1109,
      "man": 1110,
      "wala": 1111,
      "he": 1112,
      "▁in": 1113,
      "bo": 1114,
      "ki": 1115,
      "▁pag": 1116,
      "▁upa": 1117,
      "ati": 1118,
      "ata": 1119,
      "do": 1120,
      "si": 1121,
      "▁su": 1122,
      "▁M": 1123,
      "▁ano": 1124,
      "▁mas": 1125,
      "▁B": 1126,
      "▁gam": 1127,
      "ita": 1128,
      "hi": 1129,
      "▁iyo": 1130,
      "et": 1131,
      "ar": 1132,
      "ho": 1133,
      "▁hi": 1134,
      "▁kay": 1135,
      "▁ari": 1136,
      "▁ku": 1137,
      "de": 1138,
      "▁T": 1139,
      "▁pro": 1140,
      "anya": 1141,
      "▁r": 1142,
      "ce": 1143,
      "▁wala": 1144,
      "▁D": 1145,
      "▁niya": 1146,
      "uk": 1147,
      "hil": 1148,
      "hat": 1149,
      "ot": 1150,
      "el": 1151,
      "gay": 1152,
      "▁ako": 1153,
      "ent": 1154,
      "▁man": 1155,
      "▁dahil": 1156,
      "▁R": 1157,
      "▁mula": 1158,
      "▁kanya": 1159,
      "lan": 1160,
      "▁tao": 1161,
      "▁gamit": 1162,
      "▁pi": 1163,
      "▁siya": 1164,
      "▁1": 1165,
      "▁G": 1166,
      "lang": 1167,
      "od": 1168,
      "▁lu": 1169,
      "ter": 1170,
      "▁gawa": 1171,
      "▁bag": 1172,
      "▁N": 1173,
      "ek": 1174,
      "ed": 1175,
      "▁laki": 1176,
      "▁nila": 1177,
      "▁F": 1178,
      "laga": 1179,
      "mba": 1180,
      "▁ra": 1181,
      "pat": 1182,
      "▁ro": 1183,
      "gi": 1184,
      "▁2": 1185,
      "▁I": 1186,
      "▁L": 1187,
      "ur": 1188,
      "▁to": 1189,
      "pos": 1190,
      "om": 1191,
      "hay": 1192,
      "ol": 1193,
      "lis": 1194,
      "▁E": 1195,
      "vi": 1196,
      "▁mag": 1197,
      "▁the": 1198,
      "yan": 1199,
      "▁rin": 1200,
      "▁ak": 1201,
      "ok": 1202,
      "ck": 1203,
      "lin": 1204,
      "▁sabi": 1205,
      "ran": 1206,
      "▁H": 1207,
      "▁lo": 1208,
      "▁ara": 1209,
      "▁bila": 1210,
      "ut": 1211,
      "▁bago": 1212,
      "han": 1213,
      "▁baba": 1214,
      "res": 1215,
      "orm": 1216,
      "ci": 1217,
      "▁per": 1218,
      "ve": 1219,
      "wan": 1220,
      "▁tapos": 1221,
      "▁lahat": 1222,
      "▁W": 1223,
      "▁rami": 1224,
      "ob": 1225,
      "▁laman": 1226,
      "ul": 1227,
      "▁of": 1228,
      "▁roon": 1229,
      "pi": 1230,
      "▁J": 1231,
      "▁dala": 1232,
      "ngga": 1233,
      "▁una": 1234,
      "▁ala": 1235,
      "ino": 1236,
      "▁lab": 1237,
      "▁kita": 1238,
      "▁tulo": 1239,
      "nay": 1240,
      "▁am": 1241,
      "▁po": 1242,
      "um": 1243,
      "▁no": 1244,
      "▁par": 1245,
      "lad": 1246,
      "▁nito": 1247,
      "▁sila": 1248,
      "▁pu": 1249,
      "ig": 1250,
      "ad": 1251,
      "rap": 1252,
      "syon": 1253,
      "uso": 1254,
      "asyon": 1255,
      "ble": 1256,
      "st": 1257,
      "ch": 1258,
      "▁hu": 1259,
      "▁timba": 1260,
      "▁din": 1261,
      "lim": 1262,
      "tu": 1263,
      "am": 1264,
      "00": 1265,
      "nal": 1266,
      "ngko": 1267,
      "▁nag": 1268,
      "▁pili": 1269,
      "▁kaya": 1270,
      "▁or": 1271,
      "▁and": 1272,
      "▁sama": 1273,
      "ye": 1274,
      "pp": 1275,
      "ver": 1276,
      "▁dib": 1277,
      "▁bat": 1278,
      "dib": 1279,
      "▁dibdib": 1280,
      "ung": 1281,
      "lit": 1282,
      "▁de": 1283,
      "go": 1284,
      "nap": 1285,
      "itan": 1286,
      "ir": 1287,
      "unit": 1288,
      "▁gan": 1289,
      "▁O": 1290,
      "nas": 1291,
      "▁is": 1292,
      "▁pin": 1293,
      "lik": 1294,
      "▁K": 1295,
      "▁du": 1296,
      "ayo": 1297,
      "▁bigay": 1298,
      "lat": 1299,
      "ic": 1300,
      "▁tan": 1301,
      "dad": 1302,
      "ry": 1303,
      "asa": 1304,
      "▁ki": 1305,
      "ment": 1306,
      "▁akin": 1307,
      "ec": 1308,
      "▁buo": 1309,
      "▁laro": 1310,
      "ayon": 1311,
      "▁dapat": 1312,
      "so": 1313,
      "▁tulad": 1314,
      "▁ban": 1315,
      "ew": 1316,
      "big": 1317,
      "hon": 1318,
      "iti": 1319,
      "▁kuha": 1320,
      "ine": 1321,
      "ation": 1322,
      "usto": 1323,
      "kas": 1324,
      "mo": 1325,
      "▁taas": 1326,
      "mag": 1327,
      "▁mask": 1328,
      "gan": 1329,
      "ngkol": 1330,
      "▁sun": 1331,
      "▁ngayon": 1332,
      "▁V": 1333,
      "ts": 1334,
      "▁tungkol": 1335,
      "▁on": 1336,
      "▁para": 1337,
      "tion": 1338,
      "▁araw": 1339,
      "▁kas": 1340,
      "▁20": 1341,
      "nan": 1342,
      "wi": 1343,
      "▁tag": 1344,
      "▁pun": 1345,
      "ap": 1346,
      "agd": 1347,
      "her": 1348,
      "▁halaga": 1349,
      "▁haba": 1350,
      "les": 1351,
      "agdag": 1352,
      "▁kah": 1353,
      "▁bata": 1354,
      "up": 1355,
      "ly": 1356,
      "▁hus": 1357,
      "▁mata": 1358,
      "tin": 1359,
      "magitan": 1360,
      "▁yo": 1361,
      "▁mamagitan": 1362,
      "▁y": 1363,
      "se": 1364,
      "git": 1365,
      "▁buhay": 1366,
      "aya": 1367,
      "▁alam": 1368,
      "der": 1369,
      "hin": 1370,
      "▁me": 1371,
      "ate": 1372,
      "▁co": 1373,
      "▁so": 1374,
      "▁baw": 1375,
      "▁husay": 1376,
      "wag": 1377,
      "mb": 1378,
      "ite": 1379,
      "no": 1380,
      "▁taon": 1381,
      "tas": 1382,
      "nga": 1383,
      "▁dagdag": 1384,
      "▁kai": 1385,
      "pe": 1386,
      "▁U": 1387,
      "▁ya": 1388,
      "kit": 1389,
      "▁pas": 1390,
      "hag": 1391,
      "▁fa": 1392,
      "▁paras": 1393,
      "▁ilang": 1394,
      "co": 1395,
      "▁pos": 1396,
      "ento": 1397,
      "bay": 1398,
      "ke": 1399,
      "▁kon": 1400,
      "▁noo": 1401,
      "me": 1402,
      "ukha": 1403,
      "▁tra": 1404,
      "▁liit": 1405,
      "cial": 1406,
      "▁dito": 1407,
      "▁mukha": 1408,
      "log": 1409,
      "▁hangga": 1410,
      "▁natin": 1411,
      "▁es": 1412,
      "pek": 1413,
      "kal": 1414,
      "▁maging": 1415,
      "▁kami": 1416,
      "tor": 1417,
      "▁mu": 1418,
      "pit": 1419,
      "nak": 1420,
      "pon": 1421,
      "▁bay": 1422,
      "per": 1423,
      "langan": 1424,
      "▁dis": 1425,
      "ity": 1426,
      "▁ngunit": 1427,
      "▁loob": 1428,
      "▁imp": 1429,
      "▁bahag": 1430,
      "▁pero": 1431,
      "▁kata": 1432,
      "▁te": 1433,
      "▁se": 1434,
      "▁suso": 1435,
      "▁isi": 1436,
      "kat": 1437,
      "▁pan": 1438,
      "▁tayo": 1439,
      "▁kahit": 1440,
      "▁asa": 1441,
      "▁gusto": 1442,
      "▁l": 1443,
      "ling": 1444,
      "▁aral": 1445,
      "▁ganda": 1446,
      "lay": 1447,
      "▁as": 1448,
      "▁igi": 1449,
      "▁In": 1450,
      "duk": 1451,
      "▁lalim": 1452,
      "▁pag-": 1453,
      "qu": 1454,
      "gal": 1455,
      "▁al": 1456,
      "win": 1457,
      "▁dali": 1458,
      "▁nga": 1459,
      "▁ser": 1460,
      "▁tang": 1461,
      "▁oras": 1462,
      "▁do": 1463,
      "▁bansa": 1464,
      "▁dati": 1465,
      "ano": 1466,
      "▁bahagi": 1467,
      "wal": 1468,
      "▁labas": 1469,
      "▁gamot": 1470,
      "▁mil": 1471,
      "th": 1472,
      "▁bagay": 1473,
      "▁aga": 1474,
      "ong": 1475,
      "▁3": 1476,
      "▁worm": 1477,
      "▁kailangan": 1478,
      "lala": 1479,
      "▁con": 1480,
      "gu": 1481,
      "line": 1482,
      "▁talaga": 1483,
      "▁Y": 1484,
      "▁alis": 1485,
      "las": 1486,
      "▁for": 1487,
      "▁higit": 1488,
      "ac": 1489,
      "ers": 1490,
      "▁ahon": 1491,
      "view": 1492,
      "▁bawat": 1493,
      "▁katawan": 1494,
      "por": 1495,
      "▁ne": 1496,
      "▁res": 1497,
      "▁hala": 1498,
      "▁gawin": 1499,
      "nag": 1500,
      "ist": 1501,
      "rat": 1502,
      "ens": 1503,
      "pag": 1504,
      "▁ayon": 1505,
      "▁sim": 1506,
      "▁isip": 1507,
      "bu": 1508,
      "gh": 1509,
      "▁sunod": 1510,
      "po": 1511,
      "▁kala": 1512,
      "▁bula": 1513,
      "rog": 1514,
      "▁we": 1515,
      "▁un": 1516,
      "▁ac": 1517,
      "ff": 1518,
      "▁pres": 1519,
      "yal": 1520,
      "▁j": 1521,
      "ess": 1522,
      "gar": 1523,
      "▁ibig": 1524,
      "▁min": 1525,
      "▁be": 1526,
      "los": 1527,
      "uman": 1528,
      "tic": 1529,
      "▁tangga": 1530,
      "▁le": 1531,
      "▁bahay": 1532,
      "▁lib": 1533,
      "▁produk": 1534,
      "▁anak": 1535,
      "▁kit": 1536,
      "isyo": 1537,
      "ente": 1538,
      "▁uri": 1539,
      "ani": 1540,
      "▁babae": 1541,
      "▁pang": 1542,
      "ys": 1543,
      "ili": 1544,
      "▁tuloy": 1545,
      "▁th": 1546,
      "▁gu": 1547,
      "ris": 1548,
      "▁ting": 1549,
      "im": 1550,
      "▁kara": 1551,
      "▁alo": 1552,
      "▁v": 1553,
      "▁ar": 1554,
      "nati": 1555,
      "▁hanap": 1556,
      "lita": 1557,
      "▁pat": 1558,
      "rin": 1559,
      "▁Re": 1560,
      "▁yari": 1561,
      "▁iyon": 1562,
      "id": 1563,
      "we": 1564,
      "mple": 1565,
      "one": 1566,
      "▁hali": 1567,
      "est": 1568,
      "▁bilis": 1569,
      "hal": 1570,
      "▁anuman": 1571,
      "▁ganap": 1572,
      "ust": 1573,
      "unt": 1574,
      "yos": 1575,
      "ting": 1576,
      "▁vi": 1577,
      "▁big": 1578,
      "lot": 1579,
      "ku": 1580,
      "tos": 1581,
      "ika": 1582,
      "▁201": 1583,
      "raw": 1584,
      "▁dam": 1585,
      "▁you": 1586,
      "▁simula": 1587,
      "▁san": 1588,
      "baho": 1589,
      "▁lin": 1590,
      "yak": 1591,
      "▁dili": 1592,
      "▁lugar": 1593,
      "ru": 1594,
      "▁yung": 1595,
      "▁kilala": 1596,
      "wak": 1597,
      "▁durog": 1598,
      "▁sak": 1599,
      "▁han": 1600,
      "▁ika": 1601,
      "▁it": 1602,
      "▁ex": 1603,
      "▁dalaw": 1604,
      "ast": 1605,
      "gnay": 1606,
      "hh": 1607,
      "▁bili": 1608,
      "▁Ma": 1609,
      "ral": 1610,
      "▁st": 1611,
      "undo": 1612,
      "▁bo": 1613,
      "▁produkto": 1614,
      "-a": 1615,
      "ds": 1616,
      "▁epek": 1617,
      "▁review": 1618,
      "▁ugnay": 1619,
      "mer": 1620,
      "▁he": 1621,
      "▁pare": 1622,
      "dia": 1623,
      "▁An": 1624,
      "bs": 1625,
      "▁Co": 1626,
      "▁tunay": 1627,
      "bot": 1628,
      "▁laban": 1629,
      "▁hirap": 1630,
      "ith": 1631,
      "walan": 1632,
      "ero": 1633,
      "ulat": 1634,
      "▁naka": 1635,
      "▁bakit": 1636,
      "▁naging": 1637,
      "ll": 1638,
      "▁diyos": 1639,
      "dam": 1640,
      "uan": 1641,
      "▁punta": 1642,
      "▁lalo": 1643,
      "lic": 1644,
      "▁pati": 1645,
      "rg": 1646,
      "▁com": 1647,
      "ne": 1648,
      "▁ad": 1649,
      "▁balik": 1650,
      "▁tanggap": 1651,
      "▁buti": 1652,
      "▁ho": 1653,
      "▁nais": 1654,
      "▁tak": 1655,
      "▁tanda": 1656,
      "rt": 1657,
      "▁De": 1658,
      "▁bas": 1659,
      "ram": 1660,
      "ream": 1661,
      "mpa": 1662,
      "▁online": 1663,
      "lugan": 1664,
      "pino": 1665,
      "pas": 1666,
      "isyon": 1667,
      "law": 1668,
      "ct": 1669,
      "ks": 1670,
      "ayag": 1671,
      "ng-": 1672,
      "▁en": 1673,
      "▁op": 1674,
      "ub": 1675,
      "▁tawag": 1676,
      "▁lagay": 1677,
      "▁inter": 1678,
      "▁parasito": 1679,
      "▁ben": 1680,
      "▁kar": 1681,
      "onal": 1682,
      "ses": 1683,
      "▁laraw": 1684,
      "▁10": 1685,
      "du": 1686,
      "▁mat": 1687,
      "▁ton": 1688,
      "tibo": 1689,
      "▁tat": 1690,
      "und": 1691,
      "ites": 1692,
      "▁kula": 1693,
      "▁trabaho": 1694,
      "▁5": 1695,
      "kap": 1696,
      "wn": 1697,
      "su": 1698,
      "▁tama": 1699,
      "▁facial": 1700,
      "isi": 1701,
      "▁mawalan": 1702,
      "▁mahal": 1703,
      "▁kump": 1704,
      "naw": 1705,
      "▁presyo": 1706,
      "▁basa": 1707,
      "▁pe": 1708,
      "▁layo": 1709,
      "▁i-": 1710,
      "lak": 1711,
      "▁4": 1712,
      "▁tiyak": 1713,
      "▁mundo": 1714,
      "ant": 1715,
      "▁nya": 1716,
      "▁dalas": 1717,
      "▁pareho": 1718,
      "mat": 1719,
      "▁bulate": 1720,
      "deo": 1721,
      "pinas": 1722,
      "bok": 1723,
      "ile": 1724,
      "va": 1725,
      "▁pasok": 1726,
      "▁ayos": 1727,
      "ber": 1728,
      "ular": 1729,
      "▁ikaw": 1730,
      "ia": 1731,
      "gat": 1732,
      "ding": 1733,
      "▁plan": 1734,
      "▁ulo": 1735,
      "▁harap": 1736,
      "tay": 1737,
      "▁isa": 1738,
      "▁lik": 1739,
      "▁mis": 1740,
      "ork": 1741,
      "iwan": 1742,
      "▁kat": 1743,
      "▁huli": 1744,
      "age": 1745,
      "gos": 1746,
      "▁pilipinas": 1747,
      "▁balat": 1748,
      "▁sc": 1749,
      "▁ca": 1750,
      "▁sin": 1751,
      "▁cas": 1752,
      "▁ling": 1753,
      "▁mag-": 1754,
      "was": 1755,
      "kod": 1756,
      "▁sulat": 1757,
      "lidad": 1758,
      "▁tubig": 1759,
      "▁bato": 1760,
      "▁lagi": 1761,
      "▁damdam": 1762,
      "ren": 1763,
      "▁maka": 1764,
      "▁bis": 1765,
      "-1": 1766,
      "▁The": 1767,
      "ip": 1768,
      "▁sag": 1769,
      "rd": 1770,
      "mon": 1771,
      "ress": 1772,
      "▁suri": 1773,
      "▁wika": 1774,
      "▁that": 1775,
      "raniwan": 1776,
      "▁milya": 1777,
      "▁muli": 1778,
      "▁karaniwan": 1779,
      "▁salita": 1780,
      "▁'": 1781,
      "▁kasal": 1782,
      "▁So": 1783,
      "mit": 1784,
      "▁epekto": 1785,
      "ring": 1786,
      "natili": 1787,
      "▁unahin": 1788,
      "▁tanong": 1789,
      "kot": 1790,
      "gas": 1791,
      "ost": 1792,
      "▁car": 1793,
      "ort": 1794,
      "mas": 1795,
      "mbawa": 1796,
      "▁sala": 1797,
      "▁00": 1798,
      "▁lig": 1799,
      "▁proble": 1800,
      "▁app": 1801,
      "▁lang": 1802,
      "og": 1803,
      "▁pera": 1804,
      "▁posi": 1805,
      "▁pre": 1806,
      "▁halimbawa": 1807,
      "▁with": 1808,
      "▁saya": 1809,
      "ill": 1810,
      "yer": 1811,
      "▁Mar": 1812,
      "▁kapa": 1813,
      "▁buwan": 1814,
      "yu": 1815,
      "gil": 1816,
      "▁19": 1817,
      "▁mar": 1818,
      "▁parasites": 1819,
      "▁tangi": 1820,
      "hiya": 1821,
      "▁iba": 1822,
      "ulta": 1823,
      "▁tagal": 1824,
      "uni": 1825,
      "▁kaysa": 1826,
      "uku": 1827,
      "▁Ng": 1828,
      "ep": 1829,
      "wento": 1830,
      "▁kaso": 1831,
      "▁handa": 1832,
      "▁bayad": 1833,
      "rus": 1834,
      "▁huwag": 1835,
      "▁taba": 1836,
      "min": 1837,
      "ser": 1838,
      "▁ilan": 1839,
      "▁likha": 1840,
      "▁gas": 1841,
      "▁Ngunit": 1842,
      "▁sari": 1843,
      "▁wa": 1844,
      "ure": 1845,
      "ge": 1846,
      "ming": 1847,
      "ome": 1848,
      "end": 1849,
      "▁lapit": 1850,
      "sid": 1851,
      "ted": 1852,
      "rang": 1853,
      "▁ulan": 1854,
      "ue": 1855,
      "▁hing": 1856,
      "wer": 1857,
      "▁iwas": 1858,
      "usap": 1859,
      "▁sanay": 1860,
      "▁kayo": 1861,
      "▁bayan": 1862,
      "san": 1863,
      "▁alok": 1864,
      "ni": 1865,
      "▁serb": 1866,
      "▁libre": 1867,
      "▁are": 1868,
      "▁linggo": 1869,
      "▁ligtas": 1870,
      "▁video": 1871,
      "▁agad": 1872,
      "usog": 1873,
      "ump": 1874,
      "▁prog": 1875,
      "▁kom": 1876,
      "▁imporm": 1877,
      "▁serbisyo": 1878,
      "nasan": 1879,
      "ngo": 1880,
      "▁rito": 1881,
      "ak": 1882,
      "all": 1883,
      "pes": 1884,
      "▁asawa": 1885,
      "▁aw": 1886,
      "▁sho": 1887,
      "▁mama": 1888,
      "kop": 1889,
      "rol": 1890,
      "▁impormasyon": 1891,
      "▁face": 1892,
      "▁subok": 1893,
      "▁Fa": 1894,
      "ery": 1895,
      "▁problema": 1896,
      "sik": 1897,
      "kta": 1898,
      "▁kont": 1899,
      "ell": 1900,
      "pad": 1901,
      "ca": 1902,
      "▁sigu": 1903,
      "use": 1904,
      "▁kan": 1905,
      "igh": 1906,
      "▁ani": 1907,
      "seso": 1908,
      "▁202": 1909,
      "▁tinga": 1910,
      "▁Ca": 1911,
      "▁lusog": 1912,
      "▁negos": 1913,
      "cy": 1914,
      "▁ing": 1915,
      "yado": 1916,
      "sta": 1917,
      "ood": 1918,
      "▁gol": 1919,
      "tura": 1920,
      "wanag": 1921,
      "▁ke": 1922,
      "▁daw": 1923,
      "ty": 1924,
      "▁tala": 1925,
      "ree": 1926,
      "aw": 1927,
      "cal": 1928,
      "kad": 1929,
      "▁puno": 1930,
      "ras": 1931,
      "bang": 1932,
      "▁lupa": 1933,
      "▁resulta": 1934,
      "▁up": 1935,
      "▁alaga": 1936,
      "▁was": 1937,
      "▁halos": 1938,
      "pan": 1939,
      "▁tug": 1940,
      "ft": 1941,
      "▁sagot": 1942,
      "ton": 1943,
      "▁kun": 1944,
      "sion": 1945,
      "▁tatlo": 1946,
      "itu": 1947,
      "▁He": 1948,
      "lung": 1949,
      "▁Al": 1950,
      "▁abot": 1951,
      "▁inyo": 1952,
      "▁maga": 1953,
      "ps": 1954,
      "ght": 1955,
      "hili": 1956,
      "▁hin": 1957,
      "ction": 1958,
      "▁taya": 1959,
      "▁pana": 1960,
      "▁batay": 1961,
      "▁cream": 1962,
      "too": 1963,
      "▁Ba": 1964,
      "▁tiyan": 1965,
      "hok": 1966,
      "gid": 1967,
      "▁Q": 1968,
      "oy": 1969,
      "koy": 1970,
      "▁bang": 1971,
      "ere": 1972,
      "ril": 1973,
      "usa": 1974,
      "▁lawak": 1975,
      "ron": 1976,
      "▁tran": 1977,
      "be": 1978,
      "▁bawas": 1979,
      "ord": 1980,
      "hen": 1981,
      "▁sp": 1982,
      "▁benta": 1983,
      "gawa": 1984,
      "▁alan": 1985,
      "▁posible": 1986,
      "rama": 1987,
      "▁St": 1988,
      "▁can": 1989,
      "▁gaano": 1990,
      "▁init": 1991,
      "▁ek": 1992,
      "▁ganito": 1993,
      "yemb": 1994,
      "lig": 1995,
      "▁hayag": 1996,
      "▁lakas": 1997,
      "iz": 1998,
      "▁tukoy": 1999,
      "cess": 2000,
      "▁puso": 2001,
      "▁gi": 2002,
      "hilipp": 2003,
      "▁kulay": 2004,
      "ou": 2005,
      "limming": 2006,
      "wede": 2007,
      "▁sang": 2008,
      "▁des": 2009,
      "oto": 2010,
      "lus": 2011,
      "▁hina": 2012,
      "▁bukas": 2013,
      "▁ligid": 2014,
      "ekto": 2015,
      "▁doon": 2016,
      "▁Se": 2017,
      "▁Pro": 2018,
      "▁sarili": 2019,
      "▁Pa": 2020,
      "form": 2021,
      "▁ulat": 2022,
      "kado": 2023,
      "▁dire": 2024,
      "ksyon": 2025,
      "▁palit": 2026,
      "tala": 2027,
      "▁linis": 2028,
      "▁bre": 2029,
      "ensya": 2030,
      "men": 2031,
      "op": 2032,
      "▁tira": 2033,
      "▁bigyan": 2034,
      "▁negosyo": 2035,
      "edyo": 2036,
      "bli": 2037,
      "▁totoo": 2038,
      "▁your": 2039,
      "▁casino": 2040,
      "bsite": 2041,
      "tar": 2042,
      "pro": 2043,
      "▁Philipp": 2044,
      "▁tek": 2045,
      "▁pri": 2046,
      "▁sya": 2047,
      "▁awa": 2048,
      "ud": 2049,
      "▁12": 2050,
      "▁fe": 2051,
      "red": 2052,
      "▁gabi": 2053,
      "▁Di": 2054,
      "▁karanasan": 2055,
      "▁ele": 2056,
      "▁pak": 2057,
      "sin": 2058,
      "eral": 2059,
      "▁pula": 2060,
      "umpay": 2061,
      "▁gana": 2062,
      "▁mi": 2063,
      "▁CO": 2064,
      "tik": 2065,
      "▁gastos": 2066,
      "▁by": 2067,
      "▁mer": 2068,
      "son": 2069,
      "ura": 2070,
      "▁City": 2071,
      "ose": 2072,
      "▁bisita": 2073,
      "dar": 2074,
      "▁000": 2075,
      "lungan": 2076,
      "▁alala": 2077,
      "era": 2078,
      "▁pagitan": 2079,
      "▁Jo": 2080,
      "-c": 2081,
      "ice": 2082,
      "ste": 2083,
      "▁liwanag": 2084,
      "▁simple": 2085,
      "▁this": 2086,
      "▁6": 2087,
      "▁ali": 2088,
      "▁baka": 2089,
      "paman": 2090,
      "▁Le": 2091,
      "ore": 2092,
      "gen": 2093,
      "port": 2094,
      "▁oper": 2095,
      "rom": 2096,
      "yeta": 2097,
      "▁sob": 2098,
      "▁kasaluku": 2099,
      "▁galing": 2100,
      "▁dugo": 2101,
      "▁tagumpay": 2102,
      "▁kasalukuyan": 2103,
      "rink": 2104,
      "▁ri": 2105,
      "hy": 2106,
      "▁qu": 2107,
      "uter": 2108,
      "▁sus": 2109,
      "raan": 2110,
      "▁kumpanya": 2111,
      "-s": 2112,
      "▁data": 2113,
      "▁out": 2114,
      "unpaman": 2115,
      "▁comp": 2116,
      "▁lub": 2117,
      "▁site": 2118,
      "▁dalawa": 2119,
      "count": 2120,
      "▁website": 2121,
      "rato": 2122,
      "▁Ro": 2123,
      "▁hanga": 2124,
      "▁inom": 2125,
      "ilipino": 2126,
      "tado": 2127,
      "▁tin": 2128,
      "▁post": 2129,
      "▁mapa": 2130,
      "alth": 2131,
      "▁Na": 2132,
      "▁surg": 2133,
      "hanan": 2134,
      "yonal": 2135,
      "▁sino": 2136,
      "▁komp": 2137,
      "▁unti": 2138,
      "▁kin": 2139,
      "▁plano": 2140,
      "ard": 2141,
      "ID": 2142,
      "▁diyeta": 2143,
      "▁minsan": 2144,
      "loy": 2145,
      "▁patay": 2146,
      "ence": 2147,
      "kin": 2148,
      "▁15": 2149,
      "▁dok": 2150,
      "▁sobra": 2151,
      "▁men": 2152,
      "fe": 2153,
      "▁slimming": 2154,
      "ance": 2155,
      "isa": 2156,
      "ven": 2157,
      "▁Ho": 2158,
      "ulugan": 2159,
      "ase": 2160,
      "▁my": 2161,
      "▁batas": 2162,
      "▁200": 2163,
      "▁usa": 2164,
      "▁sabay": 2165,
      "ayat": 2166,
      "enyo": 2167,
      "▁We": 2168,
      "▁table": 2169,
      "▁ind": 2170,
      "load": 2171,
      "▁cha": 2172,
      "▁30": 2173,
      "▁proseso": 2174,
      "▁Con": 2175,
      "▁che": 2176,
      "▁No": 2177,
      "▁sanhi": 2178,
      "orta": 2179,
      "▁unawa": 2180,
      "kab": 2181,
      "▁pilipino": 2182,
      "▁hawak": 2183,
      "mm": 2184,
      "▁bukod": 2185,
      "anib": 2186,
      "▁mamaraan": 2187,
      "▁9": 2188,
      "mig": 2189,
      "▁takbo": 2190,
      "'s": 2191,
      "▁Z": 2192,
      "ustomer": 2193,
      "▁Po": 2194,
      "▁hati": 2195,
      "▁mapag": 2196,
      "▁sub": 2197,
      "▁7": 2198,
      "ardia": 2199,
      "tem": 2200,
      "▁says": 2201,
      "▁salik": 2202,
      "▁perso": 2203,
      "▁rela": 2204,
      "ld": 2205,
      "▁tungo": 2206,
      "▁kahulugan": 2207,
      "▁ab": 2208,
      "▁tamp": 2209,
      "-pa": 2210,
      "ect": 2211,
      "etal": 2212,
      "uto": 2213,
      "dy": 2214,
      "▁surgery": 2215,
      "tra": 2216,
      "▁iwala": 2217,
      "▁programa": 2218,
      "▁gaya": 2219,
      "▁panatili": 2220,
      "otohanan": 2221,
      "▁trans": 2222,
      "▁antas": 2223,
      "way": 2224,
      "▁reg": 2225,
      "mina": 2226,
      "▁ama": 2227,
      "ric": 2228,
      "▁lit": 2229,
      "tong": 2230,
      "▁katotohanan": 2231,
      "ono": 2232,
      "sod": 2233,
      "▁Be": 2234,
      "▁sangkap": 2235,
      "▁go": 2236,
      "▁tingin": 2237,
      "ridad": 2238,
      "▁disenyo": 2239,
      "ces": 2240,
      "▁kundi": 2241,
      "▁saysay": 2242,
      "▁panga": 2243,
      "▁mali": 2244,
      "pen": 2245,
      "book": 2246,
      "fi": 2247,
      "wid": 2248,
      "rk": 2249,
      "▁ulit": 2250,
      "▁linaw": 2251,
      "tural": 2252,
      "▁account": 2253,
      "▁lipat": 2254,
      "▁siste": 2255,
      "▁tulungan": 2256,
      "▁pali": 2257,
      "rado": 2258,
      "▁Gay": 2259,
      "▁sapat": 2260,
      "lohiya": 2261,
      "▁tuto": 2262,
      "▁8": 2263,
      "▁tampok": 2264,
      "kipag": 2265,
      "mis": 2266,
      "bog": 2267,
      "▁sto": 2268,
      "ngya": 2269,
      "▁hakab": 2270,
      "kano": 2271,
      "▁lala": 2272,
      "▁takot": 2273,
      "▁Go": 2274,
      "rinkles": 2275,
      "▁noon": 2276,
      "ystem": 2277,
      "▁dami": 2278,
      "▁lan": 2279,
      "unlad": 2280,
      "ther": 2281,
      "▁not": 2282,
      "▁Me": 2283,
      "▁panganib": 2284,
      "▁nin": 2285,
      "▁kal": 2286,
      "kina": 2287,
      "▁galaw": 2288,
      "▁bar": 2289,
      "ans": 2290,
      "puan": 2291,
      "ze": 2292,
      "▁muna": 2293,
      "▁bai": 2294,
      "▁halaman": 2295,
      "▁solo": 2296,
      "ner": 2297,
      "▁angkop": 2298,
      "tive": 2299,
      "▁kabu": 2300,
      "▁balita": 2301,
      "▁lipas": 2302,
      "▁mater": 2303,
      "▁puk": 2304,
      "aa": 2305,
      "▁Li": 2306,
      "▁her": 2307,
      "ins": 2308,
      "ten": 2309,
      "▁kilos": 2310,
      "sidente": 2311,
      "ese": 2312,
      "kti": 2313,
      "ug": 2314,
      "▁edad": 2315,
      "▁Gayunpaman": 2316,
      "▁saliksik": 2317,
      "pis": 2318,
      "▁Lo": 2319,
      "hing": 2320,
      "▁tagpuan": 2321,
      "▁Face": 2322,
      "reen": 2323,
      "▁tuk": 2324,
      "▁ninyo": 2325,
      "▁pansin": 2326,
      "ila": 2327,
      "▁sistema": 2328,
      "▁yun": 2329,
      "▁indi": 2330,
      "ista": 2331,
      "ach": 2332,
      "▁turo": 2333,
      "▁raw": 2334,
      "▁customer": 2335,
      "▁ag": 2336,
      "▁us": 2337,
      "▁Chi": 2338,
      "ER": 2339,
      "▁nami": 2340,
      "ina": 2341,
      "▁Ch": 2342,
      "▁langis": 2343,
      "▁num": 2344,
      "▁lag": 2345,
      "▁ik": 2346,
      "lid": 2347,
      "▁And": 2348,
      "▁wrinkles": 2349,
      "▁from": 2350,
      "▁plas": 2351,
      "bas": 2352,
      "kala": 2353,
      "cer": 2354,
      "tibong": 2355,
      "by": 2356,
      "▁medyo": 2357,
      "rup": 2358,
      "▁bes": 2359,
      "▁bigla": 2360,
      "mail": 2361,
      "▁arti": 2362,
      "▁Ex": 2363,
      "▁kap": 2364,
      "ries": 2365,
      "▁sarap": 2366,
      "▁Com": 2367,
      "pto": 2368,
      "sak": 2369,
      "▁kalakal": 2370,
      "▁buhok": 2371,
      "▁likas": 2372,
      "-19": 2373,
      "ines": 2374,
      "ating": 2375,
      "ngyari": 2376,
      "ves": 2377,
      "▁sig": 2378,
      "rte": 2379,
      "IN": 2380,
      "▁tugon": 2381,
      "▁Vi": 2382,
      "▁11": 2383,
      "▁pab": 2384,
      "▁patid": 2385,
      "ight": 2386,
      "▁sek": 2387,
      "▁Bo": 2388,
      "▁personal": 2389,
      "yente": 2390,
      "unan": 2391,
      "uro": 2392,
      "low": 2393,
      "hala": 2394,
      "▁Un": 2395,
      "fa": 2396,
      "ngkot": 2397,
      "▁Sa": 2398,
      "▁tulog": 2399,
      "pel": 2400,
      "▁mang": 2401,
      "▁tawa": 2402,
      "pina": 2403,
      "▁antala": 2404,
      "▁bunt": 2405,
      "▁US": 2406,
      "▁media": 2407,
      "▁Gi": 2408,
      "▁mismo": 2409,
      "▁liga": 2410,
      "▁have": 2411,
      "▁yan": 2412,
      "let": 2413,
      "▁lung": 2414,
      "ket": 2415,
      "mento": 2416,
      "hang": 2417,
      "▁payag": 2418,
      "▁gay": 2419,
      "▁breast": 2420,
      "▁Ha": 2421,
      "part": 2422,
      "likula": 2423,
      "▁buntis": 2424,
      "▁100": 2425,
      "▁atay": 2426,
      "▁gin": 2427,
      "▁fi": 2428,
      "and": 2429,
      "▁sira": 2430,
      "▁pelikula": 2431,
      "▁prote": 2432,
      "▁dulot": 2433,
      "▁lungsod": 2434,
      "▁supor": 2435,
      "▁nood": 2436,
      "▁ila": 2437,
      "▁beses": 2438,
      "▁eh": 2439,
      "VID": 2440,
      "irc": 2441,
      "▁apat": 2442,
      "▁uta": 2443,
      "pir": 2444,
      "▁pagka": 2445,
      "▁sikat": 2446,
      "▁abo": 2447,
      "▁indust": 2448,
      "▁all": 2449,
      "▁ber": 2450,
      "▁lista": 2451,
      "una": 2452,
      "▁Do": 2453,
      "▁bin": 2454,
      "▁gili": 2455,
      "▁ye": 2456,
      "ition": 2457,
      "▁New": 2458,
      "▁time": 2459,
      "bon": 2460,
      "▁18": 2461,
      "int": 2462,
      "▁suot": 2463,
      "vel": 2464,
      "▁isyu": 2465,
      "▁tila": 2466,
      "reat": 2467,
      "▁Te": 2468,
      "hone": 2469,
      "▁puti": 2470,
      "▁gayon": 2471,
      "▁por": 2472,
      "▁alin": 2473,
      "▁COVID": 2474,
      "▁Ar": 2475,
      "▁baga": 2476,
      "▁mode": 2477,
      "tions": 2478,
      "war": 2479,
      "ungan": 2480,
      "▁labis": 2481,
      "ms": 2482,
      "very": 2483,
      "▁Mag": 2484,
      "▁mus": 2485,
      "▁natural": 2486,
      "za": 2487,
      "▁net": 2488,
      "ngyarihan": 2489,
      "kulo": 2490,
      "utan": 2491,
      "zon": 2492,
      "isyal": 2493,
      "▁tim": 2494,
      "▁nara": 2495,
      "▁laya": 2496,
      "walay": 2497,
      "▁tindi": 2498,
      "▁don": 2499,
      "▁lima": 2500,
      "usan": 2501,
      "▁kla": 2502,
      "agda": 2503,
      "tomas": 2504,
      "lam": 2505,
      "ryo": 2506,
      "▁bil": 2507,
      "work": 2508,
      "rip": 2509,
      "▁hintay": 2510,
      "▁hit": 2511,
      "net": 2512,
      "land": 2513,
      "▁0": 2514,
      "▁masyado": 2515,
      "itaw": 2516,
      "▁turing": 2517,
      "▁sintomas": 2518,
      "▁tupad": 2519,
      "-2": 2520,
      "enter": 2521,
      "▁hapon": 2522,
      "▁organ": 2523,
      "▁ins": 2524,
      "▁kaba": 2525,
      "▁siguro": 2526,
      "▁but": 2527,
      "irst": 2528,
      "▁You": 2529,
      "partment": 2530,
      "▁int": 2531,
      "▁relasyon": 2532,
      "▁lim": 2533,
      "bid": 2534,
      "▁suporta": 2535,
      "agdagan": 2536,
      "AN": 2537,
      "▁will": 2538,
      "ef": 2539,
      "wnload": 2540,
      "tina": 2541,
      "ulan": 2542,
      "▁oo": 2543,
      "▁pul": 2544,
      "his": 2545,
      "-p": 2546,
      "ria": 2547,
      "sura": 2548,
      "▁kalidad": 2549,
      "▁Filipino": 2550,
      "ilit": 2551,
      "▁kapangyarihan": 2552,
      "▁pina": 2553,
      "xt": 2554,
      "▁supp": 2555,
      "▁Inter": 2556,
      "▁artikulo": 2557,
      "vice": 2558,
      "riya": 2559,
      "▁Ta": 2560,
      "esa": 2561,
      "▁kina": 2562,
      "▁system": 2563,
      "hers": 2564,
      "▁opisyal": 2565,
      "▁sukat": 2566,
      "con": 2567,
      "rupo": 2568,
      "tok": 2569,
      "uhan": 2570,
      "tan": 2571,
      "▁ter": 2572,
      "▁grupo": 2573,
      "ise": 2574,
      "▁pigil": 2575,
      "▁ide": 2576,
      "sala": 2577,
      "yerno": 2578,
      "▁To": 2579,
      "▁kulang": 2580,
      "▁isda": 2581,
      "▁As": 2582,
      "▁tele": 2583,
      "ator": 2584,
      "▁karagdagan": 2585,
      "enti": 2586,
      "▁our": 2587,
      "uth": 2588,
      "▁takda": 2589,
      "▁kuwento": 2590,
      "▁papel": 2591,
      "▁hiwalay": 2592,
      "▁gob": 2593,
      "▁tal": 2594,
      "▁Car": 2595,
      "▁Da": 2596,
      "oney": 2597,
      "▁hinga": 2598,
      "kipag-": 2599,
      "ukan": 2600,
      "▁partik": 2601,
      "▁tanggal": 2602,
      "▁tekno": 2603,
      "▁anti": 2604,
      "▁tubo": 2605,
      "▁partikular": 2606,
      "dis": 2607,
      "▁Mo": 2608,
      "ormal": 2609,
      "▁Lu": 2610,
      "▁siga": 2611,
      "▁bon": 2612,
      "▁sundo": 2613,
      "▁bro": 2614,
      "▁ikli": 2615,
      "▁kole": 2616,
      "tel": 2617,
      "AR": 2618,
      "chine": 2619,
      "has": 2620,
      "▁off": 2621,
      "▁proy": 2622,
      "▁publi": 2623,
      "▁payo": 2624,
      "▁nag-": 2625,
      "▁Par": 2626,
      "▁proyekto": 2627,
      "▁banggit": 2628,
      "ning": 2629,
      "ktima": 2630,
      "▁order": 2631,
      "pital": 2632,
      "bag": 2633,
      "▁komuni": 2634,
      "hool": 2635,
      "▁upo": 2636,
      "tom": 2637,
      "▁biktima": 2638,
      "▁industriya": 2639,
      "etro": 2640,
      "lick": 2641,
      "▁sit": 2642,
      "▁iwan": 2643,
      "rit": 2644,
      "▁hig": 2645,
      "▁social": 2646,
      "▁hatid": 2647,
      "hhhh": 2648,
      "▁itlog": 2649,
      "▁hari": 2650,
      "onomi": 2651,
      "▁25": 2652,
      "▁publiko": 2653,
      "▁COVID-19": 2654,
      "▁day": 2655,
      "▁medi": 2656,
      "▁pulis": 2657,
      "▁dinig": 2658,
      "fri": 2659,
      "▁lun": 2660,
      "▁ok": 2661,
      "▁Cha": 2662,
      "▁pop": 2663,
      "▁bala": 2664,
      "bong": 2665,
      "▁hulugan": 2666,
      "inst": 2667,
      "▁bus": 2668,
      "hatan": 2669,
      "hiyon": 2670,
      "▁lak": 2671,
      "▁pasa": 2672,
      "eri": 2673,
      "yante": 2674,
      "tat": 2675,
      "▁teknolohiya": 2676,
      "ational": 2677,
      "▁kalahatan": 2678,
      "▁she": 2679,
      "▁pinsala": 2680,
      "▁turan": 2681,
      "▁tuwi": 2682,
      "vers": 2683,
      "▁pet": 2684,
      "▁fo": 2685,
      "siya": 2686,
      "▁matay": 2687,
      "▁milyon": 2688,
      "▁damit": 2689,
      "▁14": 2690,
      "▁bawal": 2691,
      "ctor": 2692,
      "siyon": 2693,
      "▁check": 2694,
      "▁13": 2695,
      "__": 2696,
      "lack": 2697,
      "▁Sec": 2698,
      "▁work": 2699,
      "▁form": 2700,
      "▁On": 2701,
      "▁espes": 2702,
      "esti": 2703,
      "▁gra": 2704,
      "dor": 2705,
      "▁plastic": 2706,
      "uporta": 2707,
      "▁Giardia": 2708,
      "▁sing": 2709,
      "inip": 2710,
      "yembro": 2711,
      "▁ingat": 2712,
      "▁higpit": 2713,
      "▁uwi": 2714,
      "▁lamat": 2715,
      "▁anim": 2716,
      "say": 2717,
      "wit": 2718,
      "▁git": 2719,
      "▁pagkat": 2720,
      "▁tigil": 2721,
      "▁card": 2722,
      "▁hitsura": 2723,
      "bado": 2724,
      "ally": 2725,
      "mpre": 2726,
      "▁lakad": 2727,
      "▁detal": 2728,
      "ture": 2729,
      "naginip": 2730,
      "rangay": 2731,
      "▁show": 2732,
      "sy": 2733,
      "▁litaw": 2734,
      "▁gawi": 2735,
      "▁paa": 2736,
      "▁lamig": 2737,
      "▁doktor": 2738,
      "ded": 2739,
      "▁temp": 2740,
      "▁nakaka": 2741,
      "ray": 2742,
      "ments": 2743,
      "lar": 2744,
      "bilidad": 2745,
      "alang": 2746,
      "ware": 2747,
      "▁pilit": 2748,
      "dio": 2749,
      "▁En": 2750,
      "▁sec": 2751,
      "▁halip": 2752,
      "▁propes": 2753,
      "sasa": 2754,
      "▁miyembro": 2755,
      "mok": 2756,
      "▁hayo": 2757,
      "ations": 2758,
      "▁La": 2759,
      "▁puksa": 2760,
      "▁na-": 2761,
      "▁16": 2762,
      "▁yaman": 2763,
      "▁hayop": 2764,
      "▁sakyan": 2765,
      "▁base": 2766,
      "esus": 2767,
      "▁opera": 2768,
      "▁hanay": 2769,
      "ous": 2770,
      "▁sha": 2771,
      "▁kali": 2772,
      "atig": 2773,
      "▁kontrol": 2774,
      "-k": 2775,
      "bile": 2776,
      "hersisyo": 2777,
      "here": 2778,
      "▁ayaw": 2779,
      "ondo": 2780,
      "atak": 2781,
      "▁pwede": 2782,
      "wasyon": 2783,
      "latform": 2784,
      "▁50": 2785,
      "ater": 2786,
      "▁gitna": 2787,
      "ish": 2788,
      "▁circ": 2789,
      "▁sigurado": 2790,
      "▁gobyerno": 2791,
      "▁merkado": 2792,
      "▁sakit": 2793,
      "▁ehersisyo": 2794,
      "▁reci": 2795,
      "ante": 2796,
      "pekto": 2797,
      "tud": 2798,
      "▁luwa": 2799,
      "kla": 2800,
      "▁likod": 2801,
      "karte": 2802,
      "▁lakbay": 2803,
      "'t": 2804,
      "▁tula": 2805,
      "▁email": 2806,
      "▁more": 2807,
      "▁ipina": 2808,
      "date": 2809,
      "▁asi": 2810,
      "▁year": 2811,
      "▁rep": 2812,
      "▁bonus": 2813,
      "▁ener": 2814,
      "▁slot": 2815,
      "▁eye": 2816,
      "▁For": 2817,
      "-alang": 2818,
      "yas": 2819,
      "bit": 2820,
      "▁numero": 2821,
      "▁24": 2822,
      "yembre": 2823,
      "hit": 2824,
      "ily": 2825,
      "▁usapan": 2826,
      "rating": 2827,
      "▁kwento": 2828,
      "ospital": 2829,
      "▁Inst": 2830,
      "i-": 2831,
      "▁sitwasyon": 2832,
      "ents": 2833,
      "▁Sc": 2834,
      "alang-alang": 2835,
      "giran": 2836,
      "▁hel": 2837,
      "yag": 2838,
      "▁sel": 2839,
      "▁Ra": 2840,
      "▁ap": 2841,
      "▁Philippines": 2842,
      "▁naka-": 2843,
      "▁mon": 2844,
      "ros": 2845,
      "▁Cas": 2846,
      "watig": 2847,
      "ire": 2848,
      "now": 2849,
      "▁isina": 2850,
      "gali": 2851,
      "eter": 2852,
      "tary": 2853,
      "▁high": 2854,
      "▁sunog": 2855,
      "▁mobile": 2856,
      "▁inst": 2857,
      "▁tuon": 2858,
      "ilan": 2859,
      "lie": 2860,
      "hip": 2861,
      "▁sikap": 2862,
      "▁wor": 2863,
      "lia": 2864,
      "▁machine": 2865,
      "▁kris": 2866,
      "katu": 2867,
      "▁imb": 2868,
      "▁tun": 2869,
      "▁hingi": 2870,
      "▁love": 2871,
      "▁talo": 2872,
      "mos": 2873,
      "▁It": 2874,
      "yempre": 2875,
      "day": 2876,
      "lock": 2877,
      "▁tuwa": 2878,
      "▁aniya": 2879,
      "▁klase": 2880,
      "▁daig": 2881,
      "▁magkano": 2882,
      "▁lokal": 2883,
      "EN": 2884,
      "▁Gu": 2885,
      "kinabang": 2886,
      "▁estado": 2887,
      "▁Wil": 2888,
      "ide": 2889,
      "▁TV": 2890,
      "▁tapat": 2891,
      "▁Ad": 2892,
      "-C": 2893,
      "▁Philippine": 2894,
      "▁panaginip": 2895,
      "▁pla": 2896,
      "hel": 2897,
      "ON": 2898,
      "▁platform": 2899,
      "AT": 2900,
      "host": 2901,
      "▁kg": 2902,
      "mber": 2903,
      "▁lubos": 2904,
      "▁new": 2905,
      "▁desisyon": 2906,
      "▁ugali": 2907,
      "▁kalam": 2908,
      "▁paligiran": 2909,
      "▁babaw": 2910,
      "atiko": 2911,
      "▁Ja": 2912,
      "ham": 2913,
      "ja": 2914,
      "▁minuto": 2915,
      "dya": 2916,
      "ports": 2917,
      "▁luto": 2918,
      "for": 2919,
      "▁art": 2920,
      "ving": 2921,
      "pin": 2922,
      "orya": 2923,
      "bil": 2924,
      "▁spe": 2925,
      "lakay": 2926,
      "bat": 2927,
      "▁espesyal": 2928,
      "▁tri": 2929,
      "kip": 2930,
      "▁Is": 2931,
      "▁kul": 2932,
      "uld": 2933,
      "ES": 2934,
      "▁uod": 2935,
      "▁dri": 2936,
      "▁tago": 2937,
      "▁eks": 2938,
      "▁X": 2939,
      "ugh": 2940,
      "▁nung": 2941,
      "rac": 2942,
      "▁tuklas": 2943,
      "▁one": 2944,
      "▁pondo": 2945,
      "dig": 2946,
      "▁linya": 2947,
      "lice": 2948,
      "lish": 2949,
      "▁sil": 2950,
      "▁pala": 2951,
      "▁lago": 2952,
      "tt": 2953,
      "bal": 2954,
      "▁anyo": 2955,
      "▁tool": 2956,
      "▁tiwala": 2957,
      "▁diskarte": 2958,
      "▁App": 2959,
      "-e": 2960,
      "▁sulo": 2961,
      "▁lunas": 2962,
      "kuna": 2963,
      "gg": 2964,
      "▁segu": 2965,
      "sing": 2966,
      "itibo": 2967,
      "kol": 2968,
      "▁about": 2969,
      "lub": 2970,
      "▁alog": 2971,
      "uterte": 2972,
      "▁suba": 2973,
      "yn": 2974,
      "▁recipe": 2975,
      "ets": 2976,
      "▁pag-unlad": 2977,
      "▁apa": 2978,
      "▁gro": 2979,
      "▁lam": 2980,
      "▁tibay": 2981,
      "ini": 2982,
      "▁gulo": 2983,
      "▁Sup": 2984,
      "▁his": 2985,
      "nat": 2986,
      "piko": 2987,
      "▁eduk": 2988,
      "▁kapwa": 2989,
      "▁Nag": 2990,
      "erat": 2991,
      "▁law": 2992,
      "rabaho": 2993,
      "▁liban": 2994,
      "raso": 2995,
      "▁cont": 2996,
      "▁perpekto": 2997,
      "lop": 2998,
      "▁edukasyon": 2999,
      "ulasyon": 3000,
      "ene": 3001,
      "▁bakuna": 3002,
      "▁Duterte": 3003,
      "▁ideya": 3004,
      "▁depen": 3005,
      "io": 3006,
      "▁kalat": 3007,
      "▁Ang": 3008,
      "▁benep": 3009,
      "▁17": 3010,
      "▁live": 3011,
      "▁gatas": 3012,
      "bol": 3013,
      "▁pabor": 3014,
      "▁ori": 3015,
      "▁National": 3016,
      "▁kailan": 3017,
      "rak": 3018,
      "que": 3019,
      "mang": 3020,
      "rate": 3021,
      "▁ikot": 3022,
      "▁tap": 3023,
      "▁pangarap": 3024,
      "▁Dr": 3025,
      "▁network": 3026,
      "rist": 3027,
      "▁Ac": 3028,
      "▁tip": 3029,
      "vo": 3030,
      "▁back": 3031,
      "▁paki": 3032,
      "▁ekonomi": 3033,
      "▁takad": 3034,
      "▁add": 3035,
      "oo": 3036,
      "lication": 3037,
      "▁tabi": 3038,
      "dot": 3039,
      "▁kli": 3040,
      "▁tunton": 3041,
      "fic": 3042,
      "hintu": 3043,
      "▁implan": 3044,
      "▁aso": 3045,
      "▁Facebook": 3046,
      "▁keto": 3047,
      "▁spot": 3048,
      "kasyon": 3049,
      "bre": 3050,
      "ale": 3051,
      "▁pis": 3052,
      "▁tahi": 3053,
      "▁kapaki": 3054,
      "▁kawal": 3055,
      "▁akti": 3056,
      "▁tahan": 3057,
      "download": 3058,
      "▁Qu": 3059,
      "install": 3060,
      "logy": 3061,
      "ful": 3062,
      "▁haya": 3063,
      "tatrabaho": 3064,
      "hn": 3065,
      "▁mura": 3066,
      "pal": 3067,
      "its": 3068,
      "▁mensa": 3069,
      "▁halo": 3070,
      "che": 3071,
      "▁ah": 3072,
      "tain": 3073,
      "fer": 3074,
      "▁sakop": 3075,
      "wis": 3076,
      "lina": 3077,
      "▁Department": 3078,
      "hist": 3079,
      "▁subalit": 3080,
      "nel": 3081,
      "▁kamp": 3082,
      "ismo": 3083,
      "ated": 3084,
      "old": 3085,
      "ons": 3086,
      "hayag": 3087,
      "▁kailanman": 3088,
      "haha": 3089,
      "usyon": 3090,
      "bidwal": 3091,
      "▁pino": 3092,
      "▁regular": 3093,
      "▁bigat": 3094,
      "▁mensahe": 3095,
      "OR": 3096,
      "▁daigdig": 3097,
      "warto": 3098,
      "▁ma-": 3099,
      "arch": 3100,
      "▁pot": 3101,
      "▁gilid": 3102,
      "gis": 3103,
      "-pakinabang": 3104,
      "▁ini": 3105,
      "▁bags": 3106,
      "▁ata": 3107,
      "▁Air": 3108,
      "cos": 3109,
      "▁kapaki-pakinabang": 3110,
      "ee": 3111,
      "▁darating": 3112,
      "▁prin": 3113,
      "ness": 3114,
      "sig": 3115,
      "▁kak": 3116,
      "mik": 3117,
      "▁respon": 3118,
      "▁first": 3119,
      "▁nut": 3120,
      "gy": 3121,
      "▁Off": 3122,
      "AL": 3123,
      "wang": 3124,
      "val": 3125,
      "▁enerhiya": 3126,
      "▁wakas": 3127,
      "▁crus": 3128,
      "▁set": 3129,
      "▁galit": 3130,
      "▁normal": 3131,
      "ult": 3132,
      "▁hugas": 3133,
      "fter": 3134,
      "▁konde": 3135,
      "▁who": 3136,
      "▁Ka": 3137,
      "▁health": 3138,
      "▁How": 3139,
      "▁gula": 3140,
      "tol": 3141,
      "▁sex": 3142,
      "▁indibidwal": 3143,
      "▁sur": 3144,
      "umento": 3145,
      "▁bati": 3146,
      "▁circles": 3147,
      "▁benepisyo": 3148,
      "▁detalye": 3149,
      "kan": 3150,
      "▁pok": 3151,
      "▁fol": 3152,
      "▁taga": 3153,
      "▁sina": 3154,
      "eksyon": 3155,
      "▁like": 3156,
      "▁hang": 3157,
      "▁over": 3158,
      "▁uni": 3159,
      "▁nob": 3160,
      "mpas": 3161,
      "▁jesus": 3162,
      "▁Wor": 3163,
      "▁puwede": 3164,
      "▁subukan": 3165,
      "▁positibo": 3166,
      "cle": 3167,
      "▁punto": 3168,
      "▁pindot": 3169,
      "▁limit": 3170,
      "bidad": 3171,
      "agram": 3172,
      "▁kultura": 3173,
      "▁lungkot": 3174,
      "▁sta": 3175,
      "EC": 3176,
      "duc": 3177,
      "▁gabay": 3178,
      "▁tinda": 3179,
      "▁40": 3180,
      "▁blog": 3181,
      "▁labi": 3182,
      "▁Fran": 3183,
      "▁direkta": 3184,
      "sagawa": 3185,
      "ret": 3186,
      "▁z": 3187,
      "▁Pe": 3188,
      "▁litrato": 3189,
      "▁cell": 3190,
      "▁sena": 3191,
      "tiv": 3192,
      "lino": 3193,
      "▁Rus": 3194,
      "ign": 3195,
      "kuku": 3196,
      "yales": 3197,
      "ration": 3198,
      "▁team": 3199,
      "▁talakay": 3200,
      "▁soft": 3201,
      "▁chi": 3202,
      "▁laba": 3203,
      "pot": 3204,
      "daman": 3205,
      "▁ist": 3206,
      "▁Tra": 3207,
      "▁akala": 3208,
      "bel": 3209,
      "inoon": 3210,
      "dro": 3211,
      "▁dagat": 3212,
      "iness": 3213,
      "▁silic": 3214,
      "ranas": 3215,
      "▁tigas": 3216,
      "▁lawa": 3217,
      "▁panginoon": 3218,
      "▁iyan": 3219,
      "▁Pag": 3220,
      "▁aba": 3221,
      "▁ung": 3222,
      "▁aktibidad": 3223,
      "▁Su": 3224,
      "rypto": 3225,
      "▁2020": 3226,
      "my": 3227,
      "vern": 3228,
      "▁rate": 3229,
      "▁pr": 3230,
      "▁paksa": 3231,
      "▁Ne": 3232,
      "mus": 3233,
      "pasya": 3234,
      "▁Uni": 3235,
      "tory": 3236,
      "▁malay": 3237,
      "▁modelo": 3238,
      "▁espir": 3239,
      "mic": 3240,
      "ayahan": 3241,
      "▁uhay": 3242,
      "vin": 3243,
      "▁diet": 3244,
      "our": 3245,
      "▁salit": 3246,
      "sk": 3247,
      "▁ekonomiya": 3248,
      "▁tanggi": 3249,
      "▁pus": 3250,
      "▁bet": 3251,
      "▁any": 3252,
      "▁China": 3253,
      "▁metro": 3254,
      "daan": 3255,
      "▁makailan": 3256,
      "katuwid": 3257,
      "hasa": 3258,
      "▁implants": 3259,
      "bet": 3260,
      "▁makatuwid": 3261,
      "▁eff": 3262,
      "lex": 3263,
      "▁depende": 3264,
      "▁lubha": 3265,
      "sina": 3266,
      "▁what": 3267,
      "▁bigo": 3268,
      "▁petsa": 3269,
      "▁bali": 3270,
      "▁rehist": 3271,
      "ones": 3272,
      "▁komunidad": 3273,
      "▁palad": 3274,
      "▁kakayahan": 3275,
      "mpu": 3276,
      "▁pol": 3277,
      "mbak": 3278,
      "▁propesyonal": 3279,
      "urg": 3280,
      "ason": 3281,
      "cid": 3282,
      "play": 3283,
      "▁akt": 3284,
      "▁Min": 3285,
      "ople": 3286,
      "▁kausap": 3287,
      "▁21": 3288,
      "cha": 3289,
      "▁silbi": 3290,
      "▁Health": 3291,
      "▁seguridad": 3292,
      "urt": 3293,
      "hati": 3294,
      "▁niyo": 3295,
      "▁silid": 3296,
      "▁posisyon": 3297,
      "▁intindi": 3298,
      "▁Mic": 3299,
      "▁dun": 3300,
      "▁suma": 3301,
      "ramdaman": 3302,
      "▁salamat": 3303,
      "eratura": 3304,
      "ters": 3305,
      "▁part": 3306,
      "irl": 3307,
      "▁pinto": 3308,
      "▁utang": 3309,
      "▁application": 3310,
      "▁pasyente": 3311,
      "▁aparato": 3312,
      "sum": 3313,
      "kom": 3314,
      "▁banda": 3315,
      "likasyon": 3316,
      "pres": 3317,
      "pono": 3318,
      "▁mayor": 3319,
      "papa": 3320,
      "tilo": 3321,
      "eni": 3322,
      "ST": 3323,
      "▁depos": 3324,
      "▁has": 3325,
      "▁kapit": 3326,
      "▁Online": 3327,
      "▁play": 3328,
      "▁talino": 3329,
      "time": 3330,
      "▁silicone": 3331,
      "led": 3332,
      "yong": 3333,
      "▁ipis": 3334,
      "itor": 3335,
      "sia": 3336,
      "▁Red": 3337,
      "ari": 3338,
      "▁mass": 3339,
      "▁star": 3340,
      "▁honey": 3341,
      "▁they": 3342,
      "itco": 3343,
      "▁pahintu": 3344,
      "▁apo": 3345,
      "▁lipon": 3346,
      "▁2021": 3347,
      "ary": 3348,
      "▁just": 3349,
      "kipag-usap": 3350,
      "▁protina": 3351,
      "uty": 3352,
      "▁guro": 3353,
      "▁suspek": 3354,
      "▁wal": 3355,
      "IL": 3356,
      "▁serye": 3357,
      "apekto": 3358,
      "sip": 3359,
      "oon": 3360,
      "ited": 3361,
      "▁mapagkuku": 3362,
      "MA": 3363,
      "akit": 3364,
      "▁rehiyon": 3365,
      "▁2019": 3366,
      "▁wasto": 3367,
      "▁know": 3368,
      "osis": 3369,
      "▁htt": 3370,
      "▁angat": 3371,
      "▁fil": 3372,
      "access": 3373,
      "▁tist": 3374,
      "ET": 3375,
      "lon": 3376,
      "hawa": 3377,
      "▁away": 3378,
      "luhan": 3379,
      "▁posibilidad": 3380,
      "art": 3381,
      "fo": 3382,
      "▁Bre": 3383,
      "▁kur": 3384,
      "▁materyal": 3385,
      "▁free": 3386,
      "▁Instagram": 3387,
      "▁DO": 3388,
      "▁loka": 3389,
      "mak": 3390,
      "▁pagod": 3391,
      "▁interes": 3392,
      "-up": 3393,
      "▁dilim": 3394,
      "get": 3395,
      "▁hard": 3396,
      "▁kinig": 3397,
      "▁Que": 3398,
      "▁pakita": 3399,
      "▁pinoy": 3400,
      "▁kopon": 3401,
      "▁Bi": 3402,
      "hu": 3403,
      "itiko": 3404,
      "yoso": 3405,
      "ement": 3406,
      "▁Pi": 3407,
      "▁espiritu": 3408,
      "▁Eng": 3409,
      "▁pribado": 3410,
      "▁pagsasa": 3411,
      "▁Gam": 3412,
      "▁reli": 3413,
      "▁dro": 3414,
      "▁lahok": 3415,
      "▁tistis": 3416,
      "▁nanaw": 3417,
      "him": 3418,
      "▁bersyon": 3419,
      "lip": 3420,
      "pak": 3421,
      "▁screen": 3422,
      "less": 3423,
      "▁bun": 3424,
      "gol": 3425,
      "ban": 3426,
      "ball": 3427,
      "▁PN": 3428,
      "itik": 3429,
      "tri": 3430,
      "ato": 3431,
      "▁ligaya": 3432,
      "▁under": 3433,
      "▁siyempre": 3434,
      "▁dark": 3435,
      "▁school": 3436,
      "ond": 3437,
      "▁telepono": 3438,
      "▁Ke": 3439,
      "▁bisa": 3440,
      "▁bita": 3441,
      "br": 3442,
      "▁Gen": 3443,
      "▁Win": 3444,
      "ny": 3445,
      "▁hy": 3446,
      "▁if": 3447,
      "▁tagu": 3448,
      "▁host": 3449,
      "undin": 3450,
      "tad": 3451,
      "▁hantong": 3452,
      "dow": 3453,
      "dan": 3454,
      "▁asahan": 3455,
      "▁buto": 3456,
      "▁cam": 3457,
      "▁Fe": 3458,
      "ik": 3459,
      "▁computer": 3460,
      "unod": 3461,
      "ogle": 3462,
      "tudyante": 3463,
      "▁saklaw": 3464,
      "friend": 3465,
      "▁bibig": 3466,
      "▁tahimik": 3467,
      "esto": 3468,
      "ody": 3469,
      "▁daloy": 3470,
      "▁hilig": 3471,
      "tiko": 3472,
      "▁software": 3473,
      "tics": 3474,
      "▁Ju": 3475,
      "▁bagsak": 3476,
      "▁pay": 3477,
      "ktahan": 3478,
      "itcoin": 3479,
      "row": 3480,
      "▁dig": 3481,
      "▁inc": 3482,
      "ang": 3483,
      "▁Super": 3484,
      "-3": 3485,
      "baybay": 3486,
      "▁2018": 3487,
      "▁had": 3488,
      "ngal": 3489,
      "boy": 3490,
      "▁hili": 3491,
      "EL": 3492,
      "late": 3493,
      "▁gayundin": 3494,
      "IT": 3495,
      "▁tuyo": 3496,
      "▁22": 3497,
      "▁tam": 3498,
      "hol": 3499,
      "AC": 3500,
      "▁sti": 3501,
      "▁This": 3502,
      "ppy": 3503,
      "ual": 3504,
      "▁subaybay": 3505,
      "▁panas": 3506,
      "IC": 3507,
      "▁estudyante": 3508,
      "hinal": 3509,
      "tional": 3510,
      "▁ginhawa": 3511,
      "▁good": 3512,
      "▁baby": 3513,
      "▁John": 3514,
      "une": 3515,
      "lataya": 3516,
      "▁pulo": 3517,
      "▁file": 3518,
      "▁bawi": 3519,
      "illa": 3520,
      "▁link": 3521,
      "▁orihinal": 3522,
      "nganak": 3523,
      "▁Casino": 3524,
      "ka-": 3525,
      "▁Cor": 3526,
      "▁sugal": 3527,
      "▁moder": 3528,
      "▁sadya": 3529,
      "▁akda": 3530,
      "▁mangha": 3531,
      "▁ganoon": 3532,
      "▁Pre": 3533,
      "ED": 3534,
      "minist": 3535,
      "can": 3536,
      "rma": 3537,
      "▁Si": 3538,
      "▁fri": 3539,
      "▁hiwatig": 3540,
      "ensyal": 3541,
      "▁basta": 3542,
      "▁other": 3543,
      "▁simbo": 3544,
      "▁pisi": 3545,
      "▁mapagkukunan": 3546,
      "▁col": 3547,
      "▁kuya": 3548,
      "▁poker": 3549,
      "BS": 3550,
      "▁ilaw": 3551,
      "▁ed": 3552,
      "eho": 3553,
      "yat": 3554,
      "tse": 3555,
      "▁rehistro": 3556,
      "tis": 3557,
      "▁kong": 3558,
      "▁langit": 3559,
      "▁gulay": 3560,
      "▁tugma": 3561,
      "▁Ga": 3562,
      "ugto": 3563,
      "▁dalaga": 3564,
      "▁eng": 3565,
      "▁muhon": 3566,
      "▁Ele": 3567,
      "retary": 3568,
      "read": 3569,
      "vaila": 3570,
      "▁their": 3571,
      "▁uno": 3572,
      "▁kaiba": 3573,
      "ela": 3574,
      "sto": 3575,
      "▁yugto": 3576,
      "versity": 3577,
      "urren": 3578,
      "▁user": 3579,
      "▁libro": 3580,
      "▁Man": 3581,
      "▁real": 3582,
      "nes": 3583,
      "▁gen": 3584,
      "50": 3585,
      "▁banal": 3586,
      "-daan": 3587,
      "▁Ser": 3588,
      "▁prof": 3589,
      "▁rec": 3590,
      "▁Ri": 3591,
      "▁chan": 3592,
      "▁kanta": 3593,
      "▁pisikal": 3594,
      "rug": 3595,
      "▁temperatura": 3596,
      "▁exc": 3597,
      "▁susi": 3598,
      "▁Mari": 3599,
      "pid": 3600,
      "vid": 3601,
      "▁sent": 3602,
      "▁manatili": 3603,
      "▁aklat": 3604,
      "▁bitamina": 3605,
      "light": 3606,
      "▁mul": 3607,
      "ube": 3608,
      "▁lawig": 3609,
      "▁hugis": 3610,
      "lab": 3611,
      "ities": 3612,
      "▁import": 3613,
      "▁bitu": 3614,
      "▁bigay-daan": 3615,
      "mission": 3616,
      "hod": 3617,
      "▁sos": 3618,
      "▁miss": 3619,
      "yar": 3620,
      "mbing": 3621,
      "▁sh": 3622,
      "▁bec": 3623,
      "▁payat": 3624,
      "▁pahintulot": 3625,
      "▁bulak": 3626,
      "▁kabuuan": 3627,
      "kahi": 3628,
      "PN": 3629,
      "▁imbak": 3630,
      "nog": 3631,
      "▁deposito": 3632,
      "apan": 3633,
      "▁antay": 3634,
      "▁lip": 3635,
      "▁nega": 3636,
      "▁utak": 3637,
      "daragdag": 3638,
      "▁mana": 3639,
      "▁I-": 3640,
      "▁pata": 3641,
      "▁ginto": 3642,
      "mpalataya": 3643,
      "▁halik": 3644,
      "▁legal": 3645,
      "▁fun": 3646,
      "ath": 3647,
      "▁bunga": 3648,
      "hoto": 3649,
      "▁baril": 3650,
      "▁kotse": 3651,
      "▁deal": 3652,
      "uran": 3653,
      "OS": 3654,
      "ilya": 3655,
      "national": 3656,
      "mpak": 3657,
      "hos": 3658,
      "▁Google": 3659,
      "▁Can": 3660,
      "▁super": 3661,
      "▁gat": 3662,
      "bin": 3663,
      "▁kuko": 3664,
      "imum": 3665,
      "bp": 3666,
      "▁iral": 3667,
      "▁ts": 3668,
      "▁My": 3669,
      "▁bituka": 3670,
      "▁make": 3671,
      "▁rem": 3672,
      "▁presid": 3673,
      "ww": 3674,
      "gunan": 3675,
      "▁ve": 3676,
      "sad": 3677,
      "▁bak": 3678,
      "ging": 3679,
      "▁pub": 3680,
      "▁ospital": 3681,
      "menda": 3682,
      "▁Sho": 3683,
      "▁tugunan": 3684,
      "meric": 3685,
      "▁Bar": 3686,
      "▁tablet": 3687,
      "▁labag": 3688,
      "▁Bu": 3689,
      "▁inf": 3690,
      "▁win": 3691,
      "komenda": 3692,
      "▁program": 3693,
      "dina": 3694,
      "velop": 3695,
      "▁pande": 3696,
      "lusyon": 3697,
      "▁alit": 3698,
      "▁simbolo": 3699,
      "▁Sha": 3700,
      "phone": 3701,
      "▁mung": 3702,
      "tern": 3703,
      "▁pantay": 3704,
      "▁paya": 3705,
      "enda": 3706,
      "▁internet": 3707,
      "▁tanungan": 3708,
      "▁Mas": 3709,
      "lease": 3710,
      "▁epektibong": 3711,
      "▁iyak": 3712,
      "▁bilog": 3713,
      "mart": 3714,
      "yano": 3715,
      "ical": 3716,
      "▁gisi": 3717,
      "▁lihim": 3718,
      "▁Police": 3719,
      "jec": 3720,
      "▁sulit": 3721,
      "▁web": 3722,
      "risto": 3723,
      "▁nararamdaman": 3724,
      "▁pangkat": 3725,
      "▁limita": 3726,
      "▁salin": 3727,
      "▁materyales": 3728,
      "-ta": 3729,
      "au": 3730,
      "peto": 3731,
      "▁wo": 3732,
      "▁eksper": 3733,
      "proseso": 3734,
      "ayayat": 3735,
      "pt": 3736,
      "▁emple": 3737,
      "-A": 3738,
      "pang": 3739,
      "▁black": 3740,
      "▁mungkahi": 3741,
      "▁than": 3742,
      "bibi": 3743,
      "▁giardia": 3744,
      "▁lapat": 3745,
      "▁get": 3746,
      "mog": 3747,
      "yahe": 3748,
      "▁nyo": 3749,
      "▁Dis": 3750,
      "dom": 3751,
      "ler": 3752,
      "vernment": 3753,
      "ved": 3754,
      "cks": 3755,
      "esis": 3756,
      "vailable": 3757,
      "▁ngiti": 3758,
      "▁Jan": 3759,
      "ject": 3760,
      "▁ili": 3761,
      "uel": 3762,
      "uno": 3763,
      "▁atbp": 3764,
      "▁sports": 3765,
      "ker": 3766,
      "▁years": 3767,
      "▁some": 3768,
      "▁All": 3769,
      "▁tili": 3770,
      "▁land": 3771,
      "▁adv": 3772,
      "mantala": 3773,
      "▁sinus": 3774,
      "dos": 3775,
      "ative": 3776,
      "-in": 3777,
      "▁23": 3778,
      "mpleto": 3779,
      "▁bos": 3780,
      "▁hamon": 3781,
      "yod": 3782,
      "▁dia": 3783,
      "ney": 3784,
      "▁forum": 3785,
      "tot": 3786,
      "▁naki": 3787,
      "lor": 3788,
      "▁ass": 3789,
      "▁mangayayat": 3790,
      "cia": 3791,
      "▁meron": 3792,
      "fy": 3793,
      "rand": 3794,
      "▁lasa": 3795,
      "▁pahi": 3796,
      "▁produksyon": 3797,
      "▁tulugan": 3798,
      "▁facials": 3799,
      "▁pagdi": 3800,
      "▁limitasyon": 3801,
      "▁dila": 3802,
      "▁Cream": 3803,
      "▁alak": 3804,
      "▁tulu": 3805,
      "▁ther": 3806,
      "▁crypto": 3807,
      "▁News": 3808,
      "▁199": 3809,
      "▁tunog": 3810,
      "unity": 3811,
      "▁lampas": 3812,
      "▁Res": 3813,
      "▁Rob": 3814,
      "hagi": 3815,
      "ley": 3816,
      "▁address": 3817,
      "▁sine": 3818,
      "▁ima": 3819,
      "rasyon": 3820,
      "▁when": 3821,
      "▁sugat": 3822,
      "▁hinto": 3823,
      "IS": 3824,
      "▁tanim": 3825,
      "aran": 3826,
      "bos": 3827,
      "▁panig": 3828,
      "▁hiya": 3829,
      "▁euro": 3830,
      "▁mineral": 3831,
      "liz": 3832,
      "▁ate": 3833,
      "▁laser": 3834,
      "als": 3835,
      "▁Las": 3836,
      "ux": 3837,
      "▁Mon": 3838,
      "round": 3839,
      "▁She": 3840,
      "▁binti": 3841,
      "▁hangad": 3842,
      "erc": 3843,
      "kada": 3844,
      "▁inir": 3845,
      "▁ugat": 3846,
      "▁awto": 3847,
      "wo": 3848,
      "▁isaalang-alang": 3849,
      "▁cho": 3850,
      "▁sup": 3851,
      "likado": 3852,
      "ortable": 3853,
      "eta": 3854,
      "ym": 3855,
      "▁home": 3856,
      "unin": 3857,
      "tle": 3858,
      "car": 3859,
      "cky": 3860,
      "amily": 3861,
      "cket": 3862,
      "▁Doc": 3863,
      "▁look": 3864,
      "urse": 3865,
      "ngkod": 3866,
      "▁parti": 3867,
      "atch": 3868,
      "▁Wi": 3869,
      "▁kabuluhan": 3870,
      "▁pagm": 3871,
      "▁kurso": 3872,
      "▁lapi": 3873,
      "▁sangkot": 3874,
      "▁samantala": 3875,
      "mang-": 3876,
      "▁food": 3877,
      "▁hotel": 3878,
      "ull": 3879,
      "▁Es": 3880,
      "ies": 3881,
      "▁utos": 3882,
      "hild": 3883,
      "▁hik": 3884,
      "▁mala": 3885,
      "▁larang": 3886,
      "▁mara": 3887,
      "dyo": 3888,
      "▁barangay": 3889,
      "nampalataya": 3890,
      "▁Japan": 3891,
      "hoy": 3892,
      "tiz": 3893,
      "▁now": 3894,
      "ory": 3895,
      "▁balan": 3896,
      "▁also": 3897,
      "joy": 3898,
      "▁residente": 3899,
      "ger": 3900,
      "▁people": 3901,
      "-o": 3902,
      "▁bul": 3903,
      "▁vac": 3904,
      "rona": 3905,
      "klamo": 3906,
      "▁kus": 3907,
      "▁bagaman": 3908,
      "▁nagtatrabaho": 3909,
      "▁chat": 3910,
      "▁makamit": 3911,
      "▁game": 3912,
      "rid": 3913,
      "▁cap": 3914,
      "▁ite": 3915,
      "▁after": 3916,
      "▁remedyo": 3917,
      "▁What": 3918,
      "▁hom": 3919,
      "▁taguyod": 3920,
      "▁Ram": 3921,
      "▁alas": 3922,
      "bra": 3923,
      "osme": 3924,
      "▁San": 3925,
      "▁piraso": 3926,
      "▁empleyado": 3927,
      "▁life": 3928,
      "ruk": 3929,
      "mpara": 3930,
      "▁60": 3931,
      "kay": 3932,
      "▁atake": 3933,
      "▁potensyal": 3934,
      "▁University": 3935,
      "▁bulo": 3936,
      "dong": 3937,
      "▁nutri": 3938,
      "lass": 3939,
      "▁500": 3940,
      "▁Mi": 3941,
      "▁lat": 3942,
      "ekta": 3943,
      "▁motor": 3944,
      "▁Val": 3945,
      "isasyon": 3946,
      "kump": 3947,
      "rea": 3948,
      "nge": 3949,
      "▁panu": 3950,
      "ona": 3951,
      "▁diwa": 3952,
      "▁simulan": 3953,
      "▁epektibo": 3954,
      "▁salamin": 3955,
      "AS": 3956,
      "▁takip": 3957,
      "▁saad": 3958,
      "▁tatak": 3959,
      "▁El": 3960,
      "pla": 3961,
      "▁kulo": 3962,
      "▁ingles": 3963,
      "verage": 3964,
      "▁OF": 3965,
      "▁www": 3966,
      "click": 3967,
      "▁last": 3968,
      "▁Net": 3969,
      "ors": 3970,
      "▁titi": 3971,
      "▁metal": 3972,
      "▁PC": 3973,
      "buti": 3974,
      "▁Bitcoin": 3975,
      "▁Her": 3976,
      "▁higa": 3977,
      "mpan": 3978,
      "ause": 3979,
      "▁Aqu": 3980,
      "▁ru": 3981,
      "auty": 3982,
      "▁2016": 3983,
      "▁karne": 3984,
      "gency": 3985,
      "▁awit": 3986,
      "▁president": 3987,
      "▁sara": 3988,
      "▁pad": 3989,
      "▁week": 3990,
      "prote": 3991,
      "▁lingkod": 3992,
      "▁Americ": 3993,
      "▁him": 3994,
      "gin": 3995,
      "▁gala": 3996,
      "▁access": 3997,
      "▁karat": 3998,
      "tomatiko": 3999,
      "▁popular": 4000,
      "ather": 4001,
      "▁tradis": 4002,
      "▁reklamo": 4003,
      "▁Ben": 4004,
      "▁manok": 4005,
      "lion": 4006,
      "▁term": 4007,
      "▁rese": 4008,
      "▁oil": 4009,
      "ules": 4010,
      "▁Center": 4011,
      "▁sens": 4012,
      "▁care": 4013,
      "▁pass": 4014,
      "▁2017": 4015,
      "tika": 4016,
      "▁Ti": 4017,
      "urce": 4018,
      "▁Barangay": 4019,
      "gasyon": 4020,
      "▁Ed": 4021,
      "▁PH": 4022,
      "▁boto": 4023,
      "▁calo": 4024,
      "rget": 4025,
      "mya": 4026,
      "▁negatibo": 4027,
      "▁quar": 4028,
      "▁talu": 4029,
      "utas": 4030,
      "▁tit": 4031,
      "back": 4032,
      "mu": 4033,
      "rial": 4034,
      "▁limot": 4035,
      "▁blo": 4036,
      "▁pig": 4037,
      "▁awtomatiko": 4038,
      "natiling": 4039,
      "▁girl": 4040,
      "BN": 4041,
      "▁Ge": 4042,
      "▁tanyag": 4043,
      "▁Office": 4044,
      "▁World": 4045,
      "▁Video": 4046,
      "▁tasa": 4047,
      "▁konse": 4048,
      "▁bayaran": 4049,
      "wali": 4050,
      "nasyon": 4051,
      "▁tsina": 4052,
      "▁lipunan": 4053,
      "▁agos": 4054,
      "▁elemento": 4055,
      "ders": 4056,
      "yes": 4057,
      "▁saka": 4058,
      "▁thin": 4059,
      "▁bibli": 4060,
      "▁halamang-": 4061,
      "▁dat": 4062,
      "▁Quezon": 4063,
      "▁kaliwa": 4064,
      "▁tsa": 4065,
      "▁opsyon": 4066,
      "▁mag-a": 4067,
      "cs": 4068,
      "luw": 4069,
      "▁bir": 4070,
      "burg": 4071,
      "usali": 4072,
      "cies": 4073,
      "▁prutas": 4074,
      "▁essay": 4075,
      "▁crusher": 4076,
      "▁air": 4077,
      "▁proteksyon": 4078,
      "▁Sp": 4079,
      "▁pama": 4080,
      "dala": 4081,
      "▁very": 4082,
      "ryente": 4083,
      "▁sakay": 4084,
      "▁reak": 4085,
      "▁guhit": 4086,
      "ked": 4087,
      "▁menu": 4088,
      "fac": 4089,
      "▁ukol": 4090,
      "▁driver": 4091,
      "▁produ": 4092,
      "▁side": 4093,
      "▁them": 4094,
      "singaw": 4095,
      "▁book": 4096,
      "ental": 4097,
      "▁help": 4098,
      "hero": 4099,
      "▁halamang-singaw": 4100,
      "▁singil": 4101,
      "▁milita": 4102,
      "irma": 4103,
      "▁gusali": 4104,
      "▁karera": 4105,
      "▁panukala": 4106,
      "▁Fi": 4107,
      "ings": 4108,
      "sakto": 4109,
      "▁tumpak": 4110,
      "▁Worm": 4111,
      "mbi": 4112,
      "▁sigaw": 4113,
      "▁Secretary": 4114,
      "▁rating": 4115,
      "▁tabletas": 4116,
      "▁hulog": 4117,
      "▁putol": 4118,
      "itika": 4119,
      "▁news": 4120,
      "▁hiling": 4121,
      "lismo": 4122,
      "▁bra": 4123,
      "com": 4124,
      "▁sum": 4125,
      "sign": 4126,
      "▁28": 4127,
      "▁digma": 4128,
      "▁imahe": 4129,
      "▁elect": 4130,
      "▁eksakto": 4131,
      "▁uli": 4132,
      "▁target": 4133,
      "▁bulati": 4134,
      "▁ABS": 4135,
      "dali": 4136,
      "▁PNP": 4137,
      "jo": 4138,
      "▁ste": 4139,
      "▁Col": 4140,
      "ING": 4141,
      "▁Juan": 4142,
      "hira": 4143,
      "▁lambot": 4144,
      "sada": 4145,
      "▁bagyo": 4146,
      "gad": 4147,
      "▁basura": 4148,
      "▁bulaklak": 4149,
      "▁filipino": 4150,
      "▁Per": 4151,
      "▁biyahe": 4152,
      "tiya": 4153,
      "-i": 4154,
      "▁pam": 4155,
      "▁droga": 4156,
      "▁26": 4157,
      "-m": 4158,
      "▁ligo": 4159,
      "▁best": 4160,
      "▁hikayat": 4161,
      "▁Gra": 4162,
      "ats": 4163,
      "▁Day": 4164,
      "▁Black": 4165,
      "▁asin": 4166,
      "▁ch": 4167,
      "uportahan": 4168,
      "▁hen": 4169,
      "lista": 4170,
      "erekomenda": 4171,
      "els": 4172,
      "▁Fer": 4173,
      "▁pito": 4174,
      "▁available": 4175,
      "▁Fo": 4176,
      "▁Ce": 4177,
      "ie": 4178,
      "▁nana": 4179,
      "ward": 4180,
      "roid": 4181,
      "▁Rod": 4182,
      "▁transport": 4183,
      "▁Star": 4184,
      "vac": 4185,
      "chi": 4186,
      "rilyo": 4187,
      "yam": 4188,
      "▁lipad": 4189,
      "rian": 4190,
      "▁sal": 4191,
      "▁bihira": 4192,
      "▁cor": 4193,
      "▁Esta": 4194,
      "▁spa": 4195,
      "▁bait": 4196,
      "word": 4197,
      "lue": 4198,
      "▁Ag": 4199,
      "▁Th": 4200,
      "▁tali": 4201,
      "20": 4202,
      "werte": 4203,
      "▁there": 4204,
      "▁digit": 4205,
      "hihi": 4206,
      "des": 4207,
      "▁Set": 4208,
      "▁aktres": 4209,
      "rik": 4210,
      "▁sayo": 4211,
      "▁puro": 4212,
      "idos": 4213,
      "▁need": 4214,
      "▁Review": 4215,
      "▁emos": 4216,
      "▁comm": 4217,
      "▁month": 4218,
      "▁exper": 4219,
      "ala": 4220,
      "ision": 4221,
      "bad": 4222,
      "▁moderno": 4223,
      "▁narara": 4224,
      "▁tapon": 4225,
      "▁Pri": 4226,
      "elf": 4227,
      "▁pagkaka": 4228,
      "-re": 4229,
      "▁way": 4230,
      "cho": 4231,
      "▁aksyon": 4232,
      "▁marka": 4233,
      "▁taka": 4234,
      "ico": 4235,
      "▁tema": 4236,
      "▁kontra": 4237,
      "▁laga": 4238,
      "▁key": 4239,
      "erya": 4240,
      "▁saktan": 4241,
      "▁payapa": 4242,
      "▁Marcos": 4243,
      "tes": 4244,
      "▁tulak": 4245,
      "▁Mac": 4246,
      "▁Or": 4247,
      "▁virus": 4248,
      "▁feed": 4249,
      "▁But": 4250,
      "PA": 4251,
      "▁kri": 4252,
      "▁bahagya": 4253,
      "eg": 4254,
      "▁garan": 4255,
      "▁Facial": 4256,
      "ky": 4257,
      "raktura": 4258,
      "▁thi": 4259,
      "vie": 4260,
      "▁At": 4261,
      "▁pinak": 4262,
      "▁whi": 4263,
      "▁27": 4264,
      "▁Breast": 4265,
      "▁massage": 4266,
      "▁amo": 4267,
      "▁Ber": 4268,
      "galo": 4269,
      "EA": 4270,
      "lap": 4271,
      "▁tipid": 4272,
      "▁soda": 4273,
      "ngi": 4274,
      "▁kumpara": 4275,
      "▁dula": 4276,
      "▁netiz": 4277,
      "▁awtoridad": 4278,
      "▁inis": 4279,
      "▁tren": 4280,
      "▁amer": 4281,
      "velopment": 4282,
      "▁banta": 4283,
      "▁aya": 4284,
      "▁lis": 4285,
      "▁war": 4286,
      "▁balak": 4287,
      "▁kahoy": 4288,
      "wili": 4289,
      "▁Unidos": 4290,
      "▁sosyo": 4291,
      "redit": 4292,
      "hed": 4293,
      "▁alinman": 4294,
      "ilin": 4295,
      "▁ipon": 4296,
      "▁2022": 4297,
      "▁because": 4298,
      "ute": 4299,
      "▁provi": 4300,
      "▁wag": 4301,
      "nada": 4302,
      "▁Estados": 4303,
      "▁teksto": 4304,
      "gra": 4305,
      "▁emp": 4306,
      "▁imbesti": 4307,
      "cri": 4308,
      "▁daliri": 4309,
      "▁kandi": 4310,
      "▁kuryente": 4311,
      "minal": 4312,
      "▁bit": 4313,
      "▁est": 4314,
      "UR": 4315,
      "▁dulo": 4316,
      "▁balanse": 4317,
      "isina": 4318,
      "▁party": 4319,
      "▁Word": 4320,
      "▁medikal": 4321,
      "▁Bro": 4322,
      "▁item": 4323,
      "bility": 4324,
      "▁kanser": 4325,
      "▁dokumento": 4326,
      "▁fee": 4327,
      "▁kliyente": 4328,
      "rista": 4329,
      "▁acid": 4330,
      "▁administ": 4331,
      "▁Chin": 4332,
      "▁lutas": 4333,
      "▁lahi": 4334,
      "vent": 4335,
      "▁market": 4336,
      "▁libog": 4337,
      "▁pampa": 4338,
      "▁device": 4339,
      "▁parasite": 4340,
      "▁puri": 4341,
      "eld": 4342,
      "uns": 4343,
      "▁timog": 4344,
      "▁sor": 4345,
      "ukas": 4346,
      "▁bawa": 4347,
      "▁want": 4348,
      "▁High": 4349,
      "▁kalsada": 4350,
      "-CBN": 4351,
      "▁yakap": 4352,
      "▁organisasyon": 4353,
      "▁bal": 4354,
      "▁body": 4355,
      "▁rea": 4356,
      "▁sigarilyo": 4357,
      "▁Dire": 4358,
      "▁tur": 4359,
      "hana": 4360,
      "hangin": 4361,
      "rata": 4362,
      "▁pack": 4363,
      "▁kilo": 4364,
      "DA": 4365,
      "▁dry": 4366,
      "ash": 4367,
      "▁diyan": 4368,
      "▁Bel": 4369,
      "list": 4370,
      "▁ABS-CBN": 4371,
      "wat": 4372,
      "god": 4373,
      "▁hun": 4374,
      "▁cy": 4375,
      "tact": 4376,
      "dies": 4377,
      "urn": 4378,
      "▁himok": 4379,
      "▁dios": 4380,
      "riwang": 4381,
      "-b": 4382,
      "▁butas": 4383,
      "▁II": 4384,
      "▁Ste": 4385,
      "▁patu": 4386,
      "ential": 4387,
      "▁treat": 4388,
      "▁kuwarto": 4389,
      "dol": 4390,
      "▁hula": 4391,
      "▁libo": 4392,
      "rag": 4393,
      "-7": 4394,
      "▁ja": 4395,
      "▁Yung": 4396,
      "▁tik": 4397,
      "▁digital": 4398,
      "▁pagmulan": 4399,
      "uusap": 4400,
      "▁cle": 4401,
      "▁Riz": 4402,
      "ates": 4403,
      "▁opisina": 4404,
      "▁kons": 4405,
      "cus": 4406,
      "ety": 4407,
      "▁panayam": 4408,
      "cent": 4409,
      "IV": 4410,
      "▁Alex": 4411,
      "▁page": 4412,
      "▁multi": 4413,
      "nagement": 4414,
      "yle": 4415,
      "▁code": 4416,
      "▁report": 4417,
      "-t": 4418,
      "xy": 4419,
      "▁bangko": 4420,
      "▁Jose": 4421,
      "▁ge": 4422,
      "BA": 4423,
      "▁kusina": 4424,
      "bes": 4425,
      "▁ent": 4426,
      "lation": 4427,
      "urity": 4428,
      "▁asya": 4429,
      "▁sektor": 4430,
      "▁Internet": 4431,
      "▁horm": 4432,
      "▁tatay": 4433,
      "▁limitado": 4434,
      "▁bagal": 4435,
      "erikano": 4436,
      "▁aktibong": 4437,
      "▁tro": 4438,
      "kra": 4439,
      "▁buhangin": 4440,
      "▁aplikasyon": 4441,
      "ubilin": 4442,
      "▁room": 4443,
      "▁bot": 4444,
      "formation": 4445,
      "▁ver": 4446,
      "▁Euro": 4447,
      "▁bantay": 4448,
      "▁tagubilin": 4449,
      "ensiya": 4450,
      "▁puwa": 4451,
      "▁Apple": 4452,
      "▁amerika": 4453,
      "zz": 4454,
      "▁amerikano": 4455,
      "▁artista": 4456,
      "▁ina": 4457,
      "reto": 4458,
      "ature": 4459,
      "▁Nor": 4460,
      "▁Cla": 4461,
      "▁head": 4462,
      "ungin": 4463,
      "▁then": 4464,
      "ways": 4465,
      "▁water": 4466,
      "eters": 4467,
      "▁puke": 4468,
      "▁clo": 4469,
      "▁mister": 4470,
      "▁bundo": 4471,
      "▁ig": 4472,
      "▁koneksyon": 4473,
      "logi": 4474,
      "baw": 4475,
      "▁lagyan": 4476,
      "wersa": 4477,
      "▁sampu": 4478,
      "▁God": 4479,
      "▁ilo": 4480,
      "▁mayo": 4481,
      "atic": 4482,
      "▁regalo": 4483,
      "▁inilala": 4484,
      "▁Mer": 4485,
      "▁pasko": 4486,
      "mbas": 4487,
      "▁cosme": 4488,
      "____": 4489,
      "ukal": 4490,
      "weet": 4491,
      "▁Eye": 4492,
      "▁lola": 4493,
      "ffer": 4494,
      "cine": 4495,
      "disyon": 4496,
      "▁here": 4497,
      "cil": 4498,
      "▁29": 4499,
      "ksan": 4500,
      "▁pwedeng": 4501,
      "katlo": 4502,
      "▁Du": 4503,
      "▁server": 4504,
      "▁lemon": 4505,
      "▁transa": 4506,
      "▁Sta": 4507,
      "▁view": 4508,
      "ateg": 4509,
      "ipin": 4510,
      "bn": 4511,
      "curren": 4512,
      "▁ubo": 4513,
      "▁hambing": 4514,
      "▁seksyon": 4515,
      "▁nutrisyon": 4516,
      "▁sentro": 4517,
      "▁every": 4518,
      "▁buwis": 4519,
      "▁huk": 4520,
      "▁35": 4521,
      "▁buksan": 4522,
      "▁Aquino": 4523,
      "rong": 4524,
      "▁which": 4525,
      "▁stu": 4526,
      "▁taglay": 4527,
      "▁Anti": 4528,
      "bisyon": 4529,
      "▁family": 4530,
      "ror": 4531,
      "liko": 4532,
      "ublic": 4533,
      "▁sumali": 4534,
      "inyon": 4535,
      "iza": 4536,
      "▁tuluyan": 4537,
      "cis": 4538,
      "▁ph": 4539,
      "▁nakaw": 4540,
      "witter": 4541,
      "tang": 4542,
      "▁read": 4543,
      "▁GMA": 4544,
      "▁house": 4545,
      "▁nyang": 4546,
      "rot": 4547,
      "▁ngipin": 4548,
      "▁bri": 4549,
      "▁ce": 4550,
      "▁asukal": 4551,
      "10": 4552,
      "ulang": 4553,
      "syento": 4554,
      "▁ref": 4555,
      "agu": 4556,
      "▁channel": 4557,
      "hai": 4558,
      "-f": 4559,
      "ctions": 4560,
      "▁Medi": 4561,
      "▁kape": 4562,
      "▁amoy": 4563,
      "▁Rodri": 4564,
      "▁Chinese": 4565,
      "▁hiwa": 4566,
      "▁bundok": 4567,
      "▁opinyon": 4568,
      "den": 4569,
      "apy": 4570,
      "ining": 4571,
      "▁musika": 4572,
      "pping": 4573,
      "▁vo": 4574,
      "▁service": 4575,
      "▁see": 4576,
      "hiyo": 4577,
      "udi": 4578,
      "▁how": 4579,
      "xi": 4580,
      "▁198": 4581,
      "▁Angel": 4582,
      "▁pek": 4583,
      "▁porsyento": 4584,
      "zo": 4585,
      "▁park": 4586,
      "▁Rizal": 4587,
      "nate": 4588,
      "tice": 4589,
      "▁komento": 4590,
      "▁bakal": 4591,
      "mal": 4592,
      "▁Cap": 4593,
      "nata": 4594,
      "▁relihiyon": 4595,
      "▁ligaw": 4596,
      "▁exa": 4597,
      "▁bahala": 4598,
      "▁paborito": 4599,
      "pala": 4600,
      "▁pagdiriwang": 4601,
      "▁seg": 4602,
      "▁stress": 4603,
      "▁boy": 4604,
      "▁pusa": 4605,
      "▁story": 4606,
      "▁buhos": 4607,
      "▁gulat": 4608,
      "▁Russia": 4609,
      "genic": 4610,
      "▁kolekta": 4611,
      "▁kis": 4612,
      "▁group": 4613,
      "▁down": 4614,
      "▁YouT": 4615,
      "AM": 4616,
      "▁If": 4617,
      "▁hat": 4618,
      "▁area": 4619,
      "guni": 4620,
      "osi": 4621,
      "ends": 4622,
      "▁drug": 4623,
      "TI": 4624,
      "▁partido": 4625,
      "hhh": 4626,
      "▁Paras": 4627,
      "▁maya": 4628,
      "mpi": 4629,
      "limutan": 4630,
      "▁kop": 4631,
      "▁ganun": 4632,
      "buhay": 4633,
      "▁baha": 4634,
      "keting": 4635,
      "▁itik": 4636,
      "kil": 4637,
      "▁cash": 4638,
      "▁gutom": 4639,
      "▁angkin": 4640,
      "▁er": 4641,
      "▁kampanya": 4642,
      "▁45": 4643,
      "-an": 4644,
      "▁labor": 4645,
      "AP": 4646,
      "▁abala": 4647,
      "▁South": 4648,
      "▁akyat": 4649,
      "oni": 4650,
      "uti": 4651,
      "▁alter": 4652,
      "itis": 4653,
      "▁bayo": 4654,
      "▁dahon": 4655,
      "▁Dar": 4656,
      "▁tapusan": 4657,
      "▁senador": 4658,
      "▁Tur": 4659,
      "▁linga": 4660,
      "tual": 4661,
      "▁il": 4662,
      "iso": 4663,
      "urs": 4664,
      "▁acne": 4665,
      "▁ilog": 4666,
      "save": 4667,
      "wel": 4668,
      "erek": 4669,
      "-akit": 4670,
      "▁landas": 4671,
      "▁sayaw": 4672,
      "▁puntos": 4673,
      "▁ikatlo": 4674,
      "▁business": 4675,
      "▁Willie": 4676,
      "rie": 4677,
      "▁Jos": 4678,
      "cep": 4679,
      "▁yon": 4680,
      "▁layer": 4681,
      "▁yaon": 4682,
      "sue": 4683,
      "rio": 4684,
      "▁Vic": 4685,
      "▁pulisya": 4686,
      "cing": 4687,
      "▁auto": 4688,
      "lian": 4689,
      "▁kalimutan": 4690,
      "▁komunikasyon": 4691,
      "eno": 4692,
      "▁dangal": 4693,
      "vest": 4694,
      "▁cal": 4695,
      "▁siglo": 4696,
      "ital": 4697,
      "▁fla": 4698,
      "▁Regi": 4699,
      "▁sinta": 4700,
      "hyd": 4701,
      "▁europa": 4702,
      "rawan": 4703,
      "mar": 4704,
      "▁Pas": 4705,
      "ross": 4706,
      "▁power": 4707,
      "▁hul": 4708,
      "▁wi": 4709,
      "lette": 4710,
      "-S": 4711,
      "▁boses": 4712,
      "▁klima": 4713,
      "▁populasyon": 4714,
      "▁Ap": 4715,
      "▁bayani": 4716,
      "▁International": 4717,
      "nao": 4718,
      "▁sik": 4719,
      "▁vari": 4720,
      "-4": 4721,
      "▁tuwid": 4722,
      "▁loko": 4723,
      "protektahan": 4724,
      "▁agham": 4725,
      "▁English": 4726,
      "pper": 4727,
      "rew": 4728,
      "▁aktor": 4729,
      "▁enero": 4730,
      "▁31": 4731,
      "ansya": 4732,
      "ktor": 4733,
      "▁test": 4734,
      "mize": 4735,
      "▁pananampalataya": 4736,
      "yang-": 4737,
      "▁suka": 4738,
      "▁non": 4739,
      "essi": 4740,
      "sidad": 4741,
      "▁putok": 4742,
      "riz": 4743,
      "mote": 4744,
      "▁Laser": 4745,
      "▁luha": 4746,
      "▁YouTube": 4747,
      "uthor": 4748,
      "▁Sin": 4749,
      "▁istilo": 4750,
      "ex": 4751,
      "▁suko": 4752,
      "wiran": 4753,
      "top": 4754,
      "▁andar": 4755,
      "▁By": 4756,
      "▁ekse": 4757,
      "▁presyon": 4758,
      "▁mapabuti": 4759,
      "▁Rep": 4760,
      "westo": 4761,
      "▁Ver": 4762,
      "▁kalahati": 4763,
      "▁mic": 4764,
      "▁Ukra": 4765,
      "▁ty": 4766,
      "▁only": 4767,
      "▁Sal": 4768,
      "▁fre": 4769,
      "orn": 4770,
      "iko": 4771,
      "rm": 4772,
      "▁Up": 4773,
      "tuhan": 4774,
      "▁photo": 4775,
      "▁dako": 4776,
      "sive": 4777,
      "▁Mr": 4778,
      "▁militar": 4779,
      "lusi": 4780,
      "▁lay": 4781,
      "▁mak": 4782,
      "▁Play": 4783,
      "▁government": 4784,
      "▁hubad": 4785,
      "▁kompos": 4786,
      "▁Bas": 4787,
      "▁90": 4788,
      "▁number": 4789,
      "▁control": 4790,
      "▁marso": 4791,
      "cio": 4792,
      "biz": 4793,
      "had": 4794,
      "▁tanaw": 4795,
      "▁inde": 4796,
      "▁would": 4797,
      "▁aspeto": 4798,
      "py": 4799,
      "▁konst": 4800,
      "ian": 4801,
      "▁halu": 4802,
      "lite": 4803,
      "▁sangguni": 4804,
      "ced": 4805,
      "ilalim": 4806,
      "▁Spe": 4807,
      "▁sigla": 4808,
      "▁eksperto": 4809,
      "▁pandemya": 4810,
      "mand": 4811,
      "upit": 4812,
      "▁garantiya": 4813,
      "▁House": 4814,
      "▁dalub": 4815,
      "▁unit": 4816,
      "rya": 4817,
      "▁dalo": 4818,
      "IP": 4819,
      "▁2015": 4820,
      "▁public": 4821,
      "ars": 4822,
      "-P": 4823,
      "▁batid": 4824,
      "hop": 4825,
      "▁nager": 4826,
      "▁lunsad": 4827,
      "tana": 4828,
      "▁maneho": 4829,
      "▁ganti": 4830,
      "▁Lin": 4831,
      "ganda": 4832,
      "▁pares": 4833,
      "cture": 4834,
      "▁Jam": 4835,
      "nance": 4836,
      "▁paliwanag": 4837,
      "▁Live": 4838,
      "bis": 4839,
      "hid": 4840,
      "▁Sy": 4841,
      "▁said": 4842,
      "▁break": 4843,
      "▁School": 4844,
      "itusyon": 4845,
      "▁bilyon": 4846,
      "▁inspir": 4847,
      "▁Mat": 4848,
      "▁sabog": 4849,
      "▁hunyo": 4850,
      "kaw": 4851,
      "▁VPN": 4852,
      "esado": 4853,
      "▁habol": 4854,
      "udio": 4855,
      "▁round": 4856,
      "▁parasitiko": 4857,
      "dows": 4858,
      "▁saga": 4859,
      "▁pinaka": 4860,
      "sipyo": 4861,
      "ront": 4862,
      "uri": 4863,
      "▁Maria": 4864,
      "rael": 4865,
      "▁dist": 4866,
      "ert": 4867,
      "▁max": 4868,
      "▁interesado": 4869,
      "tab": 4870,
      "anced": 4871,
      "EP": 4872,
      "dog": 4873,
      "▁leeg": 4874,
      "▁been": 4875,
      "▁bito": 4876,
      "▁prinsipyo": 4877,
      "▁alternati": 4878,
      "dema": 4879,
      "▁Gro": 4880,
      "▁dalubhasa": 4881,
      "til": 4882,
      "▁hay": 4883,
      "kila": 4884,
      "bahay": 4885,
      "▁kopya": 4886,
      "IA": 4887,
      "▁Christ": 4888,
      "hite": 4889,
      "▁dama": 4890,
      "enn": 4891,
      "▁camera": 4892,
      "▁reaksyon": 4893,
      "ulo": 4894,
      "▁ares": 4895,
      "CP": 4896,
      "▁OFW": 4897,
      "▁komposisyon": 4898,
      "ience": 4899,
      "▁Har": 4900,
      "▁Yo": 4901,
      "▁jo": 4902,
      "▁salalay": 4903,
      "▁tuktok": 4904,
      "col": 4905,
      "▁Ric": 4906,
      "▁ut": 4907,
      "▁tela": 4908,
      "▁tanghal": 4909,
      "kilan": 4910,
      "▁hinggil": 4911,
      "▁kumplikado": 4912,
      "roll": 4913,
      "▁sakin": 4914,
      "▁80": 4915,
      "▁tingnan": 4916,
      "ategorya": 4917,
      "▁Act": 4918,
      "betes": 4919,
      "▁gampan": 4920,
      "▁Gar": 4921,
      "▁lunes": 4922,
      "dur": 4923,
      "▁konk": 4924,
      "▁PR": 4925,
      "▁https": 4926,
      "▁hawa": 4927,
      "yunal": 4928,
      "▁pra": 4929,
      "▁lamang": 4930,
      "▁right": 4931,
      "kilanlan": 4932,
      "▁dikit": 4933,
      "baba": 4934,
      "Press": 4935,
      "ensyon": 4936,
      "leta": 4937,
      "▁Europe": 4938,
      "▁sip": 4939,
      "▁ju": 4940,
      "nam": 4941,
      "▁israel": 4942,
      "▁transaksyon": 4943,
      "bers": 4944,
      "▁tamis": 4945,
      "▁takas": 4946,
      "cker": 4947,
      "▁walo": 4948,
      "▁Android": 4949,
      "-host": 4950,
      "▁ale": 4951,
      "▁pagpapa": 4952,
      "cto": 4953,
      "sian": 4954,
      "ال": 4955,
      "▁think": 4956,
      "▁charac": 4957,
      "▁sinauna": 4958,
      "ode": 4959,
      "▁contact": 4960,
      "▁sen": 4961,
      "▁Glo": 4962,
      "press": 4963,
      "▁Ama": 4964,
      "vert": 4965,
      "tubre": 4966,
      "▁fore": 4967,
      "▁apoy": 4968,
      "▁berde": 4969,
      "▁center": 4970,
      "mot": 4971,
      "ayos": 4972,
      "▁flo": 4973,
      "rates": 4974,
      "▁sisi": 4975,
      "rge": 4976,
      "luwensya": 4977,
      "kon": 4978,
      "AY": 4979,
      "rough": 4980,
      "▁glab": 4981,
      "▁phone": 4982,
      "erti": 4983,
      "▁Commission": 4984,
      "▁were": 4985,
      "rans": 4986,
      "▁nakakaapekto": 4987,
      "▁mal": 4988,
      "▁Liza": 4989,
      "▁pag-uusap": 4990,
      "▁pasi": 4991,
      "▁games": 4992,
      "update": 4993,
      "▁profile": 4994,
      "▁well": 4995,
      "▁kati": 4996,
      "▁gaan": 4997,
      "▁Ger": 4998,
      "AG": 4999,
      "kula": 5000,
      "▁eksena": 5001,
      "main": 5002,
      "▁laon": 5003,
      "▁setting": 5004,
      "▁Prin": 5005,
      "jack": 5006,
      "▁anti-": 5007,
      "▁seryoso": 5008,
      "▁smart": 5009,
      "▁into": 5010,
      "▁Well": 5011,
      "▁child": 5012,
      "▁oktubre": 5013,
      "▁tech": 5014,
      "▁Ve": 5015,
      "cas": 5016,
      "▁P1": 5017,
      "▁lead": 5018,
      "▁70": 5019,
      "▁pasahero": 5020,
      "▁balot": 5021,
      "▁tutok": 5022,
      "▁damo": 5023,
      "▁own": 5024,
      "▁kategorya": 5025,
      "hig": 5026,
      "dget": 5027,
      "▁ilabas": 5028,
      "▁two": 5029,
      "bins": 5030,
      "crip": 5031,
      "▁hag": 5032,
      "▁klin": 5033,
      "▁matagal": 5034,
      "gado": 5035,
      "▁Superhost": 5036,
      "▁300": 5037,
      "▁problem": 5038,
      "▁pagkakakilanlan": 5039,
      "▁vis": 5040,
      "▁talon": 5041,
      "bnb": 5042,
      "aaaa": 5043,
      "▁Bula": 5044,
      "▁balang": 5045,
      "EO": 5046,
      "pre": 5047,
      "▁pulitika": 5048,
      "▁baboy": 5049,
      "▁One": 5050,
      "▁count": 5051,
      "▁glo": 5052,
      "▁banyo": 5053,
      "itness": 5054,
      "▁birth": 5055,
      "▁sundan": 5056,
      "▁halal": 5057,
      "▁supply": 5058,
      "rib": 5059,
      "dalo": 5060,
      "ua": 5061,
      "▁dekada": 5062,
      "▁disk": 5063,
      "▁insidente": 5064,
      "ills": 5065,
      "tila": 5066,
      "▁sang-": 5067,
      "ures": 5068,
      "▁fin": 5069,
      "-ang": 5070,
      "▁Airbnb": 5071,
      "▁tho": 5072,
      "▁Twitter": 5073,
      "▁long": 5074,
      "▁tea": 5075,
      "▁agosto": 5076,
      "▁old": 5077,
      "unter": 5078,
      "▁makipag-usap": 5079,
      "lier": 5080,
      "loob": 5081,
      "▁istraktura": 5082,
      "▁thesis": 5083,
      "▁luwag": 5084,
      "▁Je": 5085,
      "▁presidente": 5086,
      "mbu": 5087,
      "▁tunaw": 5088,
      "tail": 5089,
      "board": 5090,
      "kido": 5091,
      "face": 5092,
      "▁abril": 5093,
      "▁pahayag": 5094,
      "▁isla": 5095,
      "▁Pos": 5096,
      "ubok": 5097,
      "ecu": 5098,
      "▁film": 5099,
      "▁Best": 5100,
      "▁cryptocurren": 5101,
      "apek": 5102,
      "▁lalake": 5103,
      "▁proto": 5104,
      "▁Home": 5105,
      "▁cons": 5106,
      "erba": 5107,
      "▁pigment": 5108,
      "▁rebo": 5109,
      "▁Bra": 5110,
      "▁okay": 5111,
      "lio": 5112,
      "▁mai-": 5113,
      "▁gun": 5114,
      "brero": 5115,
      "kumpleto": 5116,
      "▁Sig": 5117,
      "OL": 5118,
      "▁kwarto": 5119,
      "▁block": 5120,
      "▁http": 5121,
      "▁mun": 5122,
      "▁Sea": 5123,
      "bukas": 5124,
      "fore": 5125,
      "▁movie": 5126,
      "▁kani": 5127,
      "▁even": 5128,
      "▁General": 5129,
      "ronic": 5130,
      "▁Gold": 5131,
      "▁kolehiyo": 5132,
      "-B": 5133,
      "▁tis": 5134,
      "▁sinusubok": 5135,
      "▁pagpa": 5136,
      "▁hila": 5137,
      "▁say": 5138,
      "▁kinis": 5139,
      "▁ahensya": 5140,
      "▁average": 5141,
      "▁shi": 5142,
      "▁iP": 5143,
      "▁person": 5144,
      "▁diabetes": 5145,
      "▁uniber": 5146,
      "virus": 5147,
      "ercise": 5148,
      "▁et": 5149,
      "▁kumple": 5150,
      "▁kompanya": 5151,
      "▁Good": 5152,
      "lah": 5153,
      "▁brow": 5154,
      "▁most": 5155,
      "ags": 5156,
      "▁Jr": 5157,
      "▁giit": 5158,
      "▁hilaga": 5159,
      "antine": 5160,
      "▁Sto": 5161,
      "▁Your": 5162,
      "▁kasa": 5163,
      "rinig": 5164,
      "▁sampa": 5165,
      "-M": 5166,
      "▁skin": 5167,
      "tim": 5168,
      "mikal": 5169,
      "▁Ph": 5170,
      "-li": 5171,
      "▁disyembre": 5172,
      "▁tay": 5173,
      "BET": 5174,
      "▁Ko": 5175,
      "eces": 5176,
      "▁Flo": 5177,
      "▁saksi": 5178,
      "▁Mos": 5179,
      "▁likido": 5180,
      "nation": 5181,
      "▁carbo": 5182,
      "▁seks": 5183,
      "wim": 5184,
      "▁open": 5185,
      "▁komisyon": 5186,
      "▁War": 5187,
      "▁world": 5188,
      "▁lot": 5189,
      "▁canada": 5190,
      "▁inspirasyon": 5191,
      "▁engine": 5192,
      "▁siy": 5193,
      "▁Isa": 5194,
      "▁ump": 5195,
      "mpati": 5196,
      "▁Ban": 5197,
      "pektado": 5198,
      "▁2012": 5199,
      "nia": 5200,
      "ruba": 5201,
      "▁WordPress": 5202,
      "-0": 5203,
      "bukasan": 5204,
      "▁kongres": 5205,
      "▁iwa": 5206,
      "▁humi": 5207,
      "▁sure": 5208,
      "riti": 5209,
      "set": 5210,
      "▁pangung": 5211,
      "▁Ukraine": 5212,
      "▁lupon": 5213,
      "▁green": 5214,
      "▁sm": 5215,
      "▁husto": 5216,
      "▁IN": 5217,
      "ruz": 5218,
      "▁mad": 5219,
      "▁2013": 5220,
      "▁meta": 5221,
      "▁syang": 5222,
      "▁makaka": 5223,
      "▁kontrata": 5224,
      "▁kahon": 5225,
      "rogram": 5226,
      "▁padala": 5227,
      "▁kandid": 5228,
      "▁ly": 5229,
      "▁kaakit": 5230,
      "▁national": 5231,
      "down": 5232,
      "luran": 5233,
      "ficial": 5234,
      "▁kinabukasan": 5235,
      "EM": 5236,
      "lution": 5237,
      "▁bio": 5238,
      "xide": 5239,
      "▁Francis": 5240,
      "▁buil": 5241,
      "▁ketogenic": 5242,
      "▁really": 5243,
      "▁planta": 5244,
      "enta": 5245,
      "▁id": 5246,
      "room": 5247,
      "-to": 5248,
      "▁paper": 5249,
      "ection": 5250,
      "ustra": 5251,
      "▁Che": 5252,
      "ah": 5253,
      "erasyon": 5254,
      "▁TH": 5255,
      "name": 5256,
      "▁estilo": 5257,
      "▁nagdaragdag": 5258,
      "ngaw": 5259,
      "▁sabado": 5260,
      "88": 5261,
      "▁tru": 5262,
      "▁Ab": 5263,
      "▁asul": 5264,
      "umenda": 5265,
      "▁responsi": 5266,
      "▁kinabibi": 5267,
      "▁Tom": 5268,
      "utin": 5269,
      "ids": 5270,
      "▁36": 5271,
      "▁tangka": 5272,
      "▁Redux": 5273,
      "▁ingay": 5274,
      "lum": 5275,
      "▁baterya": 5276,
      "▁nobyembre": 5277,
      "▁Reduxine": 5278,
      "▁I'": 5279,
      "▁hulyo": 5280,
      "▁cristo": 5281,
      "▁bola": 5282,
      "▁negosyante": 5283,
      "▁bac": 5284,
      "▁resta": 5285,
      "▁gym": 5286,
      "▁Rodrigo": 5287,
      "▁port": 5288,
      "▁lantad": 5289,
      "ick": 5290,
      "▁rusa": 5291,
      "▁Rec": 5292,
      "apektuhan": 5293,
      "mark": 5294,
      "▁subs": 5295,
      "patan": 5296,
      "▁foot": 5297,
      "-6": 5298,
      "▁dek": 5299,
      "sure": 5300,
      "▁bigas": 5301,
      "▁LG": 5302,
      "IR": 5303,
      "▁tanungin": 5304,
      "▁ques": 5305,
      "▁salu": 5306,
      "nikal": 5307,
      "▁panini": 5308,
      "▁pes": 5309,
      "▁pader": 5310,
      "▁call": 5311,
      "▁Mark": 5312,
      "put": 5313,
      "ph": 5314,
      "sela": 5315,
      "▁kaakit-akit": 5316,
      "▁sahig": 5317,
      "▁use": 5318,
      "▁Slimming": 5319,
      "rungan": 5320,
      "▁dosis": 5321,
      "▁process": 5322,
      "liran": 5323,
      "''": 5324,
      "-click": 5325,
      "▁hand": 5326,
      "▁calories": 5327,
      "▁ul": 5328,
      "▁mam": 5329,
      "ii": 5330,
      "▁Ros": 5331,
      "ely": 5332,
      "-ka": 5333,
      "▁kalkula": 5334,
      "▁Windows": 5335,
      "▁Than": 5336,
      "▁kinabibilangan": 5337,
      "▁direksyon": 5338,
      "▁American": 5339,
      "ss": 5340,
      "▁mesa": 5341,
      "▁much": 5342,
      "▁Comm": 5343,
      "ji": 5344,
      "laim": 5345,
      "pply": 5346,
      "soci": 5347,
      "▁nu": 5348,
      "hile": 5349,
      "▁level": 5350,
      "''t": 5351,
      "ashi": 5352,
      "▁silang": 5353,
      "rah": 5354,
      "ririnig": 5355,
      "▁2023": 5356,
      "yona": 5357,
      "▁local": 5358,
      "sibo": 5359,
      "fied": 5360,
      "▁Hi": 5361,
      "ches": 5362,
      "▁balangkas": 5363,
      "vil": 5364,
      "▁hadlang": 5365,
      "sable": 5366,
      "▁inirerekomenda": 5367,
      "▁apektado": 5368,
      "▁tab": 5369,
      "▁laganap": 5370,
      "▁suliran": 5371,
      "▁ID": 5372,
      "▁kemikal": 5373,
      "ony": 5374,
      "▁Ye": 5375,
      "▁kabanata": 5376,
      "▁titig": 5377,
      "kid": 5378,
      "▁follow": 5379,
      "▁Setyembre": 5380,
      "▁buod": 5381,
      "asak": 5382,
      "▁katauhan": 5383,
      "▁pebrero": 5384,
      "vor": 5385,
      "▁character": 5386,
      "▁iPhone": 5387,
      "mor": 5388,
      "▁light": 5389,
      "▁mek": 5390,
      "▁sabik": 5391,
      "▁isinagawa": 5392,
      "▁marketing": 5393,
      "▁Ku": 5394,
      "-20": 5395,
      "▁Read": 5396,
      "▁korte": 5397,
      "▁equ": 5398,
      "▁ambag": 5399,
      "▁patuloy": 5400,
      "▁tumbas": 5401,
      "▁Vice": 5402,
      "▁Group": 5403,
      "▁Free": 5404,
      "logical": 5405,
      "▁sariwa": 5406,
      "▁utusan": 5407,
      "hikal": 5408,
      "danao": 5409,
      "▁inte": 5410,
      "▁tanggol": 5411,
      "▁let": 5412,
      "vey": 5413,
      "▁alternatibo": 5414,
      "▁effect": 5415,
      "TV": 5416,
      "lika": 5417,
      "par": 5418,
      "mbal": 5419,
      "usin": 5420,
      "▁roman": 5421,
      "▁salad": 5422,
      "▁bilhin": 5423,
      "▁gayan": 5424,
      "LE": 5425,
      "-5": 5426,
      "▁internas": 5427,
      "carat": 5428,
      "oper": 5429,
      "▁pinag": 5430,
      "anood": 5431,
      "▁did": 5432,
      "▁sang-ayon": 5433,
      "-ari": 5434,
      "▁stock": 5435,
      "▁put": 5436,
      "▁Peters": 5437,
      "▁red": 5438,
      "▁minimum": 5439,
      "▁biro": 5440,
      "tors": 5441,
      "mpo": 5442,
      "hanin": 5443,
      "▁tablets": 5444,
      "▁United": 5445,
      "▁top": 5446,
      "▁lito": 5447,
      "▁state": 5448,
      "▁punda": 5449,
      "▁More": 5450,
      "irm": 5451,
      "PS": 5452,
      "▁dahas": 5453,
      "▁example": 5454,
      "▁konsepto": 5455,
      "▁iha": 5456,
      "oki": 5457,
      "▁edema": 5458,
      "vacy": 5459,
      "▁James": 5460,
      "▁seni": 5461,
      "▁Cal": 5462,
      "lano": 5463,
      "nd": 5464,
      "ages": 5465,
      "▁text": 5466,
      "raphi": 5467,
      "▁contra": 5468,
      "ducation": 5469,
      "▁Cali": 5470,
      "▁kid": 5471,
      "ckles": 5472,
      "▁tipon": 5473,
      "▁roll": 5474,
      "laysay": 5475,
      "▁bana": 5476,
      "yernes": 5477,
      "▁point": 5478,
      "pect": 5479,
      "rika": 5480,
      "▁henerasyon": 5481,
      "▁kabit": 5482,
      "▁katas": 5483,
      "▁del": 5484,
      "ica": 5485,
      "▁2014": 5486,
      "▁sinabi": 5487,
      "▁apartment": 5488,
      "omet": 5489,
      "▁misis": 5490,
      "▁aresto": 5491,
      "▁share": 5492,
      "▁balig": 5493,
      "ffee": 5494,
      "▁Jer": 5495,
      "-kum": 5496,
      "▁pahiwatig": 5497,
      "lash": 5498,
      "piya": 5499,
      "▁writ": 5500,
      "▁sand": 5501,
      "OO": 5502,
      "dic": 5503,
      "ubos": 5504,
      "▁third": 5505,
      "▁austra": 5506,
      "sang": 5507,
      "▁dise": 5508,
      "▁x": 5509,
      "▁ipinanganak": 5510,
      "rum": 5511,
      "ls": 5512,
      "▁mamahala": 5513,
      "▁konklusyon": 5514,
      "▁lea": 5515,
      "▁may-ari": 5516,
      "key": 5517,
      "▁press": 5518,
      "▁Baga": 5519,
      "▁alalahanin": 5520,
      "▁bida": 5521,
      "▁Get": 5522,
      "▁tou": 5523,
      "▁India": 5524,
      "▁32": 5525,
      "▁York": 5526,
      "▁ses": 5527,
      "▁support": 5528,
      "▁days": 5529,
      "▁fat": 5530,
      "▁dealer": 5531,
      "▁usapin": 5532,
      "ago": 5533,
      "▁wani": 5534,
      "worm": 5535,
      "▁krimen": 5536,
      "-kumulang": 5537,
      "▁ihayag": 5538,
      "▁biyernes": 5539,
      "▁requ": 5540,
      "▁Part": 5541,
      "▁parati": 5542,
      "frica": 5543,
      "▁heart": 5544,
      "harma": 5545,
      "ury": 5546,
      "▁low": 5547,
      "▁salaysay": 5548,
      "rame": 5549,
      "▁gayunpaman": 5550,
      "itive": 5551,
      "▁bigyang-": 5552,
      "▁Big": 5553,
      "▁senior": 5554,
      "git-kumulang": 5555,
      "▁still": 5556,
      "▁karapatan": 5557,
      "▁pattern": 5558,
      "▁conf": 5559,
      "lag": 5560,
      "lots": 5561,
      "▁Petersburg": 5562,
      "▁katwiran": 5563,
      "ngas": 5564,
      "▁kumbi": 5565,
      "▁kristi": 5566,
      "tog": 5567,
      "▁tita": 5568,
      "▁Char": 5569,
      "▁nararapat": 5570,
      "▁AN": 5571,
      "ayan": 5572,
      "pisode": 5573,
      "▁Cam": 5574,
      "▁enter": 5575,
      "▁isinasagawa": 5576,
      "▁AS": 5577,
      "▁gugol": 5578,
      "ruan": 5579,
      "tainment": 5580,
      "arn": 5581,
      "▁impeksyon": 5582,
      "▁treatment": 5583,
      "endasyon": 5584,
      "▁talumpati": 5585,
      "▁showbiz": 5586,
      "▁humigit-kumulang": 5587,
      "▁Cent": 5588,
      "omes": 5589,
      "thing": 5590,
      "▁ihi": 5591,
      "▁kumbinasyon": 5592,
      "vis": 5593,
      "▁community": 5594,
      "▁carbohyd": 5595,
      "▁anal": 5596,
      "▁short": 5597,
      "▁colle": 5598,
      "▁PM": 5599,
      "▁provider": 5600,
      "▁plu": 5601,
      "OW": 5602,
      "▁napa": 5603,
      "▁lason": 5604,
      "▁Inc": 5605,
      "▁carbon": 5606,
      "▁bug": 5607,
      "hina": 5608,
      "▁magsagawa": 5609,
      "bago": 5610,
      "▁responsable": 5611,
      "▁pag-install": 5612,
      "▁mai": 5613,
      "▁proper": 5614,
      "▁dol": 5615,
      "▁2010": 5616,
      "▁Des": 5617,
      "▁parte": 5618,
      "▁stream": 5619,
      "▁pakikipag-": 5620,
      "▁folk": 5621,
      "▁gayun": 5622,
      "▁advanced": 5623,
      "▁act": 5624,
      "mint": 5625,
      "▁masa": 5626,
      "lok": 5627,
      "▁ran": 5628,
      "▁bank": 5629,
      "ane": 5630,
      "▁cat": 5631,
      "▁nun": 5632,
      "▁Story": 5633,
      "vision": 5634,
      "omen": 5635,
      "▁full": 5636,
      "▁Cruz": 5637,
      "▁isagawa": 5638,
      "▁termino": 5639,
      "cow": 5640,
      "-sa": 5641,
      "-tu": 5642,
      "▁sapi": 5643,
      "▁clay": 5644,
      "▁yata": 5645,
      "mala": 5646,
      "lubot": 5647,
      "▁ika-1": 5648,
      "tsa": 5649,
      "▁cancer": 5650,
      "lla": 5651,
      "▁Sam": 5652,
      "▁rekom": 5653,
      "▁sunud": 5654,
      "▁credit": 5655,
      "▁series": 5656,
      "▁ans": 5657,
      "ground": 5658,
      "side": 5659,
      "▁importante": 5660,
      "▁fung": 5661,
      "▁deg": 5662,
      "aging": 5663,
      "▁burat": 5664,
      "reho": 5665,
      "▁lock": 5666,
      "▁rekomendasyon": 5667,
      "ense": 5668,
      "box": 5669,
      "aling": 5670,
      "tal": 5671,
      "▁samba": 5672,
      "▁balikat": 5673,
      "▁bibliya": 5674,
      "ugan": 5675,
      "▁these": 5676,
      "▁Development": 5677,
      "▁walang-": 5678,
      "▁Gre": 5679,
      "yansa": 5680,
      "-8": 5681,
      "▁umpisa": 5682,
      "eng": 5683,
      "erekumenda": 5684,
      "US": 5685,
      "▁tradisyonal": 5686,
      "▁katarungan": 5687,
      "▁teorya": 5688,
      "▁unibersidad": 5689,
      "dition": 5690,
      "▁hot": 5691,
      "▁va": 5692,
      "isip": 5693,
      "▁Cat": 5694,
      "▁gubat": 5695,
      "▁sagi": 5696,
      "▁mart": 5697,
      "▁CH": 5698,
      "▁beauty": 5699,
      "▁Love": 5700,
      "▁bed": 5701,
      "▁komportable": 5702,
      "▁Sing": 5703,
      "▁its": 5704,
      "▁Mag-": 5705,
      "liam": 5706,
      "bak": 5707,
      "▁box": 5708,
      "fication": 5709,
      "OT": 5710,
      "▁Cebu": 5711,
      "▁mid": 5712,
      "▁artist": 5713,
      "agn": 5714,
      "▁Fil": 5715,
      "plo": 5716,
      "▁friends": 5717,
      "▁kahihi": 5718,
      "▁bara": 5719,
      "ference": 5720,
      "▁sunud-s": 5721,
      "MM": 5722,
      "rush": 5723,
      "▁nawa": 5724,
      "edit": 5725,
      "▁nobela": 5726,
      "ency": 5727,
      "▁sundalo": 5728,
      "▁aller": 5729,
      "▁sipsip": 5730,
      "▁partner": 5731,
      "stan": 5732,
      "▁imposi": 5733,
      "▁klasi": 5734,
      "▁imbestigasyon": 5735,
      "▁activ": 5736,
      "▁First": 5737,
      "▁lider": 5738,
      "▁Program": 5739,
      "▁abuso": 5740,
      "▁isinasa": 5741,
      "▁197": 5742,
      "-de": 5743,
      "▁feature": 5744,
      "▁kandidato": 5745,
      "hali": 5746,
      "▁tapa": 5747,
      "▁ST": 5748,
      "▁gang": 5749,
      "oble": 5750,
      "rgy": 5751,
      "bili": 5752,
      "resent": 5753,
      "▁before": 5754,
      "▁Law": 5755,
      "▁bango": 5756,
      "▁org": 5757,
      "▁kuting": 5758,
      "vices": 5759,
      "▁je": 5760,
      "rent": 5761,
      "▁lisensya": 5762,
      "-anyos": 5763,
      "▁Green": 5764,
      "▁swim": 5765,
      "▁fan": 5766,
      "▁regulasyon": 5767,
      "▁self": 5768,
      "▁friend": 5769,
      "rop": 5770,
      "▁muslim": 5771,
      "▁kumpletong": 5772,
      "▁Hol": 5773,
      "▁wit": 5774,
      "▁Tru": 5775,
      "▁cele": 5776,
      "▁Kim": 5777,
      "▁bangon": 5778,
      "any": 5779,
      "▁panahon": 5780,
      "▁internasyonal": 5781,
      "hysi": 5782,
      "taryo": 5783,
      "hange": 5784,
      "▁aliw": 5785,
      "▁stan": 5786,
      "kong": 5787,
      "unds": 5788,
      "IG": 5789,
      "yento": 5790,
      "▁nawalan": 5791,
      "▁experience": 5792,
      "▁DOH": 5793,
      "ilyo": 5794,
      "eso": 5795,
      "▁SS": 5796,
      "▁aleman": 5797,
      "▁desk": 5798,
      "▁kanluran": 5799,
      "oth": 5800,
      "▁nino": 5801,
      "▁alaala": 5802,
      "▁koleksyon": 5803,
      "▁Moscow": 5804,
      "sunod": 5805,
      "ilidad": 5806,
      "▁patrol": 5807,
      "▁maximum": 5808,
      "▁With": 5809,
      "ronavirus": 5810,
      "king": 5811,
      "uma": 5812,
      "▁Boto": 5813,
      "rs": 5814,
      "▁feeling": 5815,
      "▁should": 5816,
      "▁pen": 5817,
      "▁editor": 5818,
      "▁dakil": 5819,
      "cry": 5820,
      "▁persona": 5821,
      "kaka": 5822,
      "bik": 5823,
      "▁That": 5824,
      "▁browser": 5825,
      "▁netizens": 5826,
      "▁mess": 5827,
      "▁tindig": 5828,
      "▁take": 5829,
      "▁Fili": 5830,
      "uc": 5831,
      "▁imposible": 5832,
      "▁board": 5833,
      "▁Men": 5834,
      "ong-": 5835,
      "▁hardin": 5836,
      "▁Dani": 5837,
      "▁datos": 5838,
      "▁ungol": 5839,
      "▁dal": 5840,
      "▁wasak": 5841,
      "▁Hel": 5842,
      "▁dag": 5843,
      "▁luya": 5844,
      "▁pamilya": 5845,
      "AD": 5846,
      "▁disip": 5847,
      "▁Chief": 5848,
      "▁alinlangan": 5849,
      "▁Chris": 5850,
      "30": 5851,
      "▁ren": 5852,
      "untunin": 5853,
      "blo": 5854,
      "▁obs": 5855,
      "▁aksidente": 5856,
      "order": 5857,
      "ties": 5858,
      "▁detalyado": 5859,
      "▁dayo": 5860,
      "▁Sir": 5861,
      "-angat": 5862,
      "ksiyon": 5863,
      "yaya": 5864,
      "▁mais": 5865,
      "nu": 5866,
      "lutan": 5867,
      "▁Diet": 5868,
      "▁special": 5869,
      "▁Botox": 5870,
      "osting": 5871,
      "tical": 5872,
      "▁paka": 5873,
      "▁sunud-sunod": 5874,
      "stru": 5875,
      "pektibong": 5876,
      "▁pur": 5877,
      "mergency": 5878,
      "▁mag-anak": 5879,
      "uly": 5880,
      "▁Santos": 5881,
      "▁bilang": 5882,
      "▁micro": 5883,
      "▁PD": 5884,
      "ngarap": 5885,
      "▁season": 5886,
      "▁asiwa": 5887,
      "▁night": 5888,
      "rint": 5889,
      "▁kapitbahay": 5890,
      "▁search": 5891,
      "ips": 5892,
      "▁alituntunin": 5893,
      "▁konstruk": 5894,
      "istri": 5895,
      "fornia": 5896,
      "▁Russian": 5897,
      "▁juice": 5898,
      "▁Book": 5899,
      "▁sekswal": 5900,
      "verse": 5901,
      "▁hita": 5902,
      "▁konsum": 5903,
      "▁pool": 5904,
      "▁salung": 5905,
      "▁King": 5906,
      "kilik": 5907,
      "▁Bus": 5908,
      "▁2011": 5909,
      "▁parada": 5910,
      "▁kastila": 5911,
      "▁rosa": 5912,
      "▁UP": 5913,
      "ame": 5914,
      "SA": 5915,
      "wood": 5916,
      "▁maprotektahan": 5917,
      "yang": 5918,
      "▁million": 5919,
      "▁Plus": 5920,
      "▁tangkilik": 5921,
      "▁direktor": 5922,
      "▁ال": 5923,
      "uts": 5924,
      "▁tapay": 5925,
      "▁administrasyon": 5926,
      "logist": 5927,
      "▁trapiko": 5928,
      "▁indones": 5929,
      "▁signal": 5930,
      "▁concer": 5931,
      "lec": 5932,
      "enjoy": 5933,
      "▁alarm": 5934,
      "bayan": 5935,
      "▁tatas": 5936,
      "▁segundo": 5937,
      "▁baso": 5938,
      "cel": 5939,
      "▁Mus": 5940,
      "▁tiya": 5941,
      "▁kongk": 5942,
      "fting": 5943,
      "mdam": 5944,
      "▁senado": 5945,
      "▁val": 5946,
      "-con": 5947,
      "FP": 5948,
      "▁vir": 5949,
      "kumpit": 5950,
      "FA": 5951,
      "▁bur": 5952,
      "▁Mu": 5953,
      "▁run": 5954,
      "▁Social": 5955,
      "▁bady": 5956,
      "▁always": 5957,
      "musta": 5958,
      "▁freckles": 5959,
      "▁planeta": 5960,
      "-ibang": 5961,
      "▁siko": 5962,
      "▁malaki": 5963,
      "tero": 5964,
      "velo": 5965,
      "▁hal": 5966,
      "▁bilyar": 5967,
      "▁sulok": 5968,
      "pec": 5969,
      "▁Parasites": 5970,
      "▁ilagay": 5971,
      "▁pangungusap": 5972,
      "▁hain": 5973,
      "▁cm": 5974,
      "▁Game": 5975,
      "▁Bure": 5976,
      "▁balisa": 5977,
      "▁UK": 5978,
      "ial": 5979,
      "▁paris": 5980,
      "▁Pu": 5981,
      "▁pasidad": 5982,
      "HH": 5983,
      "meal": 5984,
      "oso": 5985,
      "▁ahente": 5986,
      "▁stud": 5987,
      "▁doble": 5988,
      "▁wel": 5989,
      "qua": 5990,
      "▁duda": 5991,
      "sasagawa": 5992,
      "▁player": 5993,
      "▁sawi": 5994,
      "▁pinan": 5995,
      "▁David": 5996,
      "kter": 5997,
      "jor": 5998,
      "▁espas": 5999,
      "▁Reg": 6000,
      "▁SM": 6001,
      "▁Bureau": 6002,
      "▁Of": 6003,
      "arth": 6004,
      "▁teknikal": 6005,
      "▁kaun": 6006,
      "▁Rom": 6007,
      "▁password": 6008,
      "ulette": 6009,
      "▁institusyon": 6010,
      "atmeal": 6011,
      "▁class": 6012,
      "mara": 6013,
      "▁karakter": 6014,
      "▁many": 6015,
      "▁medical": 6016,
      "▁line": 6017,
      "siyento": 6018,
      "▁kalye": 6019,
      "▁imm": 6020,
      "UL": 6021,
      "▁kontro": 6022,
      "▁TO": 6023,
      "▁Los": 6024,
      "▁Bac": 6025,
      "▁Eli": 6026,
      "oke": 6027,
      "▁cryptocurrency": 6028,
      "IM": 6029,
      "asy": 6030,
      "▁Micha": 6031,
      "▁gayunman": 6032,
      "▁konsumo": 6033,
      "▁pag-access": 6034,
      "peta": 6035,
      "-D": 6036,
      "mance": 6037,
      "▁official": 6038,
      "▁suportahan": 6039,
      "▁blood": 6040,
      "▁99": 6041,
      "▁puna": 6042,
      "kumpitensya": 6043,
      "▁basket": 6044,
      "▁helmint": 6045,
      "▁disease": 6046,
      "itiz": 6047,
      "▁kani-k": 6048,
      "▁Tri": 6049,
      "▁ero": 6050,
      "▁Pala": 6051,
      "hanayan": 6052,
      "▁California": 6053,
      "head": 6054,
      "wet": 6055,
      "▁Ana": 6056,
      "mples": 6057,
      "iao": 6058,
      "▁hatol": 6059,
      "▁Amazon": 6060,
      "▁research": 6061,
      "▁cellphone": 6062,
      "Ang": 6063,
      "▁met": 6064,
      "▁aktwal": 6065,
      "▁nipp": 6066,
      "▁content": 6067,
      "har": 6068,
      "kati": 6069,
      "▁mor": 6070,
      "mpala": 6071,
      "myo": 6072,
      "▁Power": 6073,
      "▁porsiyento": 6074,
      "ken": 6075,
      "▁baya": 6076,
      "▁Mig": 6077,
      "reet": 6078,
      "▁pabaya": 6079,
      "iting": 6080,
      "draw": 6081,
      "▁pagal": 6082,
      "▁gupit": 6083,
      "▁Tech": 6084,
      "cience": 6085,
      "▁prakti": 6086,
      "▁cur": 6087,
      "▁pisngi": 6088,
      "▁salungat": 6089,
      "▁korea": 6090,
      "▁porn": 6091,
      "▁bigkas": 6092,
      "▁office": 6093,
      "zal": 6094,
      "▁gel": 6095,
      "▁bust": 6096,
      "yun": 6097,
      "▁trip": 6098,
      "▁kalus": 6099,
      "mmy": 6100,
      "▁propeta": 6101,
      "▁aka": 6102,
      "▁Pat": 6103,
      "▁carbohydrates": 6104,
      "zar": 6105,
      "▁Mom": 6106,
      "▁Bet": 6107,
      "▁comple": 6108,
      "▁trading": 6109,
      "▁mamahagi": 6110,
      "▁braso": 6111,
      "dra": 6112,
      "▁cel": 6113,
      "▁kongkreto": 6114,
      "ultura": 6115,
      "ffa": 6116,
      "merce": 6117,
      "ape": 6118,
      "▁karbon": 6119,
      "mium": 6120,
      "▁Blue": 6121,
      "▁kalawa": 6122,
      "▁Cong": 6123,
      "▁hapo": 6124,
      "ffic": 6125,
      "12": 6126,
      "tee": 6127,
      "▁patak": 6128,
      "▁gantimpala": 6129,
      "▁happy": 6130,
      "nagot": 6131,
      "▁bote": 6132,
      "▁bagama": 6133,
      "vy": 6134,
      "len": 6135,
      "rito": 6136,
      "taran": 6137,
      "▁ever": 6138,
      "lakas": 6139,
      "▁pal": 6140,
      "bilis": 6141,
      "igure": 6142,
      "▁bol": 6143,
      "▁effec": 6144,
      "▁sabo": 6145,
      "▁tel": 6146,
      "ening": 6147,
      "▁Director": 6148,
      "▁salo": 6149,
      "ecutive": 6150,
      "aniwala": 6151,
      "▁spots": 6152,
      "▁sy": 6153,
      "sider": 6154,
      "▁EU": 6155,
      "base": 6156,
      "HA": 6157,
      "▁lahad": 6158,
      "inga": 6159,
      "▁salubong": 6160,
      "'y": 6161,
      "nabik": 6162,
      "▁project": 6163,
      "▁UN": 6164,
      "▁quarantine": 6165,
      "nology": 6166,
      "▁repor": 6167,
      "▁injec": 6168,
      "▁telebisyon": 6169,
      "mental": 6170,
      "▁store": 6171,
      "▁kapani": 6172,
      "▁Brgy": 6173,
      "okes": 6174,
      "▁oli": 6175,
      "▁Author": 6176,
      "erto": 6177,
      "▁espasyo": 6178,
      "▁tayuan": 6179,
      "ib": 6180,
      "▁far": 6181,
      "▁Ig": 6182,
      "▁Associ": 6183,
      "▁European": 6184,
      "CR": 6185,
      "▁emosyonal": 6186,
      "mes": 6187,
      "▁lisan": 6188,
      "▁Sh": 6189,
      "▁parmas": 6190,
      "▁next": 6191,
      "▁perman": 6192,
      "▁case": 6193,
      "▁Phil": 6194,
      "sible": 6195,
      "ghts": 6196,
      "▁nananatiling": 6197,
      "▁Food": 6198,
      "▁siyam": 6199,
      "▁puwersa": 6200,
      "▁33": 6201,
      "▁tiket": 6202,
      "resh": 6203,
      "▁manu": 6204,
      "▁sir": 6205,
      "▁yong": 6206,
      "palaran": 6207,
      "▁Imp": 6208,
      "▁company": 6209,
      "▁Thai": 6210,
      "▁beach": 6211,
      "▁end": 6212,
      "▁Tips": 6213,
      "rest": 6214,
      "▁Web": 6215,
      "nar": 6216,
      "▁Mc": 6217,
      "▁Dan": 6218,
      "▁klasiko": 6219,
      "▁fitness": 6220,
      "handa": 6221,
      "▁badyet": 6222,
      "▁tanso": 6223,
      "▁therapy": 6224,
      "UE": 6225,
      "▁System": 6226,
      "▁IP": 6227,
      "▁alamat": 6228,
      "▁Sep": 6229,
      "▁SEC": 6230,
      "▁ordina": 6231,
      "-9": 6232,
      "gada": 6233,
      "house": 6234,
      "▁protektahan": 6235,
      "▁kani-kani": 6236,
      "rogen": 6237,
      "▁krisis": 6238,
      "kata": 6239,
      "▁pintura": 6240,
      "▁pasilidad": 6241,
      "asal": 6242,
      "▁pags": 6243,
      "itamin": 6244,
      "ask": 6245,
      "▁nurse": 6246,
      "▁37": 6247,
      "▁responsibilidad": 6248,
      "-T": 6249,
      "▁sahod": 6250,
      "atiba": 6251,
      "cycle": 6252,
      "▁function": 6253,
      "▁ngum": 6254,
      "yad": 6255,
      "lohikal": 6256,
      "▁cra": 6257,
      "▁ibon": 6258,
      "pic": 6259,
      "▁australia": 6260,
      "▁alay": 6261,
      "▁talahanayan": 6262,
      "▁North": 6263,
      "▁metabo": 6264,
      "▁piso": 6265,
      "fin": 6266,
      "come": 6267,
      "▁Vil": 6268,
      "▁sche": 6269,
      "▁drive": 6270,
      "▁does": 6271,
      "▁ati": 6272,
      "▁pagproseso": 6273,
      "▁semento": 6274,
      "ENT": 6275,
      "▁Mindanao": 6276,
      "▁Cle": 6277,
      "▁Vir": 6278,
      "-O": 6279,
      "▁tax": 6280,
      "ulture": 6281,
      "pepres": 6282,
      "▁sumus": 6283,
      "▁through": 6284,
      "▁roulette": 6285,
      "▁sapalaran": 6286,
      "lix": 6287,
      "▁ding": 6288,
      "▁Mal": 6289,
      "dle": 6290,
      "▁tes": 6291,
      "omestic": 6292,
      "▁paano": 6293,
      "▁yunit": 6294,
      "▁madla": 6295,
      "▁patos": 6296,
      "▁hukay": 6297,
      "▁virtual": 6298,
      "-pro": 6299,
      "hus": 6300,
      "vao": 6301,
      "TC": 6302,
      "hensiya": 6303,
      "bar": 6304,
      "▁reseta": 6305,
      "▁kalusugan": 6306,
      "ckpot": 6307,
      "▁hehe": 6308,
      "nganakan": 6309,
      "▁makapal": 6310,
      "▁anu": 6311,
      "▁makapag": 6312,
      "▁asia": 6313,
      "ints": 6314,
      "▁martes": 6315,
      "▁serti": 6316,
      "tension": 6317,
      "▁lus": 6318,
      "para": 6319,
      "▁bintana": 6320,
      "▁hesus": 6321,
      "▁uso": 6322,
      "▁map": 6323,
      "urant": 6324,
      "▁protocol": 6325,
      "gaw": 6326,
      "▁Jus": 6327,
      "▁Aug": 6328,
      "▁Jen": 6329,
      "▁being": 6330,
      "▁kapanganakan": 6331,
      "▁kongreso": 6332,
      "▁paul": 6333,
      "ild": 6334,
      "hout": 6335,
      "▁Show": 6336,
      "▁cre": 6337,
      "-paniwala": 6338,
      "▁transportasyon": 6339,
      "▁nor": 6340,
      "▁gaming": 6341,
      "▁never": 6342,
      "▁Micro": 6343,
      "pepresyo": 6344,
      "bala": 6345,
      "durusa": 6346,
      "▁months": 6347,
      "▁kapani-paniwala": 6348,
      "▁differ": 6349,
      "▁ob": 6350,
      "lity": 6351,
      "▁kono": 6352,
      "▁pag-s": 6353,
      "▁Africa": 6354,
      "aker": 6355,
      "▁represent": 6356,
      "▁naku": 6357,
      "tery": 6358,
      "ights": 6359,
      "▁tone": 6360,
      "▁dunong": 6361,
      "▁type": 6362,
      "▁pormal": 6363,
      "▁38": 6364,
      "lant": 6365,
      "orasyon": 6366,
      "▁premyo": 6367,
      "▁nagpasya": 6368,
      "▁ilalim": 6369,
      "▁Pla": 6370,
      "▁Cont": 6371,
      "▁um": 6372,
      "urance": 6373,
      "ticle": 6374,
      "▁pharma": 6375,
      "▁marte": 6376,
      "▁format": 6377,
      "▁pawis": 6378,
      "▁State": 6379,
      "entipiko": 6380,
      "-time": 6381,
      "▁galak": 6382,
      "▁Nat": 6383,
      "OM": 6384,
      "▁feel": 6385,
      "▁Network": 6386,
      "ey": 6387,
      "▁sab": 6388,
      "zed": 6389,
      "▁disiplina": 6390,
      "▁ped": 6391,
      "ashion": 6392,
      "▁pake": 6393,
      "▁fans": 6394,
      "▁Vo": 6395,
      "▁tanto": 6396,
      "▁privacy": 6397,
      "PP": 6398,
      "atis": 6399,
      "▁budget": 6400,
      "▁Distri": 6401,
      "dez": 6402,
      "▁madali": 6403,
      "star": 6404,
      "nggo": 6405,
      "aster": 6406,
      "yasat": 6407,
      "cast": 6408,
      "▁event": 6409,
      "▁yang": 6410,
      "▁coronavirus": 6411,
      "-ma": 6412,
      "hunan": 6413,
      "▁pagma": 6414,
      "▁cake": 6415,
      "▁isinasaalang-alang": 6416,
      "kt": 6417,
      "vate": 6418,
      "▁management": 6419,
      "▁tad": 6420,
      "lastic": 6421,
      "▁list": 6422,
      "▁suwerte": 6423,
      "core": 6424,
      "▁handog": 6425,
      "▁Sili": 6426,
      "▁reading": 6427,
      "▁psy": 6428,
      "tian": 6429,
      "▁suk": 6430,
      "rismo": 6431,
      "▁exercise": 6432,
      "▁After": 6433,
      "▁Top": 6434,
      "▁34": 6435,
      "▁t-ibang": 6436,
      "▁kristiyano": 6437,
      "▁praktikal": 6438,
      "lize": 6439,
      "kara": 6440,
      "▁extra": 6441,
      "ion": 6442,
      "hotos": 6443,
      "▁kulubot": 6444,
      "▁baybay": 6445,
      "▁tinig": 6446,
      "▁place": 6447,
      "▁tagpo": 6448,
      "lyn": 6449,
      "▁bihis": 6450,
      "▁pagtatrabaho": 6451,
      "▁William": 6452,
      "▁kil": 6453,
      "ality": 6454,
      "▁front": 6455,
      "▁Kore": 6456,
      "▁400": 6457,
      "▁talata": 6458,
      "veloper": 6459,
      "▁siyasat": 6460,
      "▁halili": 6461,
      "cription": 6462,
      "TM": 6463,
      "gate": 6464,
      "▁Pay": 6465,
      "▁Text": 6466,
      "▁security": 6467,
      "▁boyfriend": 6468,
      "▁dilaw": 6469,
      "▁Source": 6470,
      "▁cost": 6471,
      "▁konsulta": 6472,
      "▁biyaya": 6473,
      "▁Bong": 6474,
      "▁wallet": 6475,
      "rumento": 6476,
      "▁weight": 6477,
      "▁agrik": 6478,
      "▁kunan": 6479,
      "▁download": 6480,
      "▁tuwiran": 6481,
      "▁emplo": 6482,
      "▁Sinus": 6483,
      "▁window": 6484,
      "▁Boy": 6485,
      "▁Lucky": 6486,
      "▁ngalan": 6487,
      "▁great": 6488,
      "▁dulas": 6489,
      "▁tanghali": 6490,
      "▁III": 6491,
      "▁siyentipiko": 6492,
      "▁single": 6493,
      "rina": 6494,
      "▁birthday": 6495,
      "ism": 6496,
      "▁oatmeal": 6497,
      "▁butil": 6498,
      "▁Ilo": 6499,
      "▁i-download": 6500,
      "aring": 6501,
      "bai": 6502,
      "▁operator": 6503,
      "▁sk": 6504,
      "▁pirma": 6505,
      "hard": 6506,
      "wela": 6507,
      "▁Dom": 6508,
      "▁deli": 6509,
      "▁inclu": 6510,
      "▁where": 6511,
      "▁kag": 6512,
      "▁Daniel": 6513,
      "▁sikip": 6514,
      "imento": 6515,
      "▁lolo": 6516,
      "rubahan": 6517,
      "▁Site": 6518,
      "▁punla": 6519,
      "natnan": 6520,
      "60": 6521,
      "ering": 6522,
      "▁Kat": 6523,
      "▁Out": 6524,
      "▁libing": 6525,
      "▁Ange": 6526,
      "▁cosmetic": 6527,
      "▁Spa": 6528,
      "kilala": 6529,
      "▁lubog": 6530,
      "▁tradisyunal": 6531,
      "▁CR": 6532,
      "metro": 6533,
      "▁uto": 6534,
      "▁Public": 6535,
      "▁information": 6536,
      "ez": 6537,
      "resibo": 6538,
      "▁demok": 6539,
      "lift": 6540,
      "▁West": 6541,
      "▁syn": 6542,
      "ruit": 6543,
      "▁instrumento": 6544,
      "cribe": 6545,
      "wad": 6546,
      "▁club": 6547,
      "eting": 6548,
      "▁stay": 6549,
      "▁kapana": 6550,
      "lized": 6551,
      "▁klinika": 6552,
      "Date": 6553,
      "mittee": 6554,
      "▁barko": 6555,
      "right": 6556,
      "▁kaha": 6557,
      "mad": 6558,
      "lement": 6559,
      "▁Pwede": 6560,
      "▁pare-pa": 6561,
      "▁Davao": 6562,
      "uble": 6563,
      "▁tutol": 6564,
      "▁since": 6565,
      "▁counter": 6566,
      "dule": 6567,
      "▁Beauty": 6568,
      "▁condition": 6569,
      "ño": 6570,
      "gation": 6571,
      "▁contin": 6572,
      "▁brand": 6573,
      "unic": 6574,
      "▁lugod": 6575,
      "table": 6576,
      "▁Sarah": 6577,
      "77": 6578,
      "lines": 6579,
      "▁yelo": 6580,
      "bibigay": 6581,
      "link": 6582,
      "▁Oh": 6583,
      "▁Cho": 6584,
      "▁kawili": 6585,
      "inger": 6586,
      "lulite": 6587,
      "▁radi": 6588,
      "stra": 6589,
      "▁Dep": 6590,
      "▁sumusuporta": 6591,
      "▁lapto": 6592,
      "long": 6593,
      "▁Wa": 6594,
      "▁baon": 6595,
      "▁cent": 6596,
      "▁tuta": 6597,
      "▁Ter": 6598,
      "UT": 6599,
      "wor": 6600,
      "yul": 6601,
      "▁too": 6602,
      "▁dekorasyon": 6603,
      "rant": 6604,
      "yna": 6605,
      "▁tradisyon": 6606,
      "▁while": 6607,
      "irs": 6608,
      "lada": 6609,
      "▁cooki": 6610,
      "▁plastik": 6611,
      "IO": 6612,
      "▁money": 6613,
      "▁makina": 6614,
      "▁huwe": 6615,
      "ritikal": 6616,
      "▁api": 6617,
      "lemento": 6618,
      "▁promos": 6619,
      "▁inin": 6620,
      "vite": 6621,
      "▁major": 6622,
      "mado": 6623,
      "▁pare-pareho": 6624,
      "▁domain": 6625,
      "▁works": 6626,
      "em": 6627,
      "syal": 6628,
      "▁med": 6629,
      "▁domestic": 6630,
      "▁tawad": 6631,
      "▁emosyon": 6632,
      "▁indonesia": 6633,
      "paran": 6634,
      "▁Jay": 6635,
      "nancial": 6636,
      "▁patas": 6637,
      "▁anghel": 6638,
      "▁blackjack": 6639,
      "▁log": 6640,
      "▁Anton": 6641,
      "▁2009": 6642,
      "▁Kath": 6643,
      "▁survey": 6644,
      "▁German": 6645,
      "▁huwebes": 6646,
      "reas": 6647,
      "▁those": 6648,
      "▁used": 6649,
      "rez": 6650,
      "▁Comp": 6651,
      "▁sige": 6652,
      "bia": 6653,
      "▁pagdaragdag": 6654,
      "▁Hy": 6655,
      "cion": 6656,
      "▁suplemento": 6657,
      "pri": 6658,
      "with": 6659,
      "mage": 6660,
      "elt": 6661,
      "▁I'm": 6662,
      "▁pulu": 6663,
      "pok": 6664,
      "upad": 6665,
      "▁buhat": 6666,
      "-d": 6667,
      "▁Cy": 6668,
      "konekta": 6669,
      "▁makinarya": 6670,
      "sist": 6671,
      "rics": 6672,
      "▁workers": 6673,
      "▁nipples": 6674,
      "▁sagana": 6675,
      "▁mg": 6676,
      "rust": 6677,
      "▁hiram": 6678,
      "▁mommy": 6679,
      "▁Coun": 6680,
      "▁sign": 6681,
      "unsyo": 6682,
      "▁pulbos": 6683,
      "▁find": 6684,
      "ics": 6685,
      "▁yog": 6686,
      "▁Enter": 6687,
      "▁paniniwala": 6688,
      "omething": 6689,
      "▁IG": 6690,
      "▁hukom": 6691,
      "-10": 6692,
      "orts": 6693,
      "vertis": 6694,
      "▁pakikipag-usap": 6695,
      "▁permanente": 6696,
      "▁im": 6697,
      "NT": 6698,
      "▁Bata": 6699,
      "▁gawad": 6700,
      "▁second": 6701,
      "got": 6702,
      "pend": 6703,
      "▁Shi": 6704,
      "▁source": 6705,
      "▁santo": 6706,
      "▁come": 6707,
      "wang-": 6708,
      "▁kato": 6709,
      "▁wall": 6710,
      "Fi": 6711,
      "▁happ": 6712,
      "▁PO": 6713,
      "ented": 6714,
      "▁DI": 6715,
      "icer": 6716,
      "ween": 6717,
      "▁laptop": 6718,
      "▁magpa": 6719,
      "▁uho": 6720,
      "vas": 6721,
      "▁bad": 6722,
      "cken": 6723,
      "▁episode": 6724,
      "▁present": 6725,
      "isado": 6726,
      "▁icon": 6727,
      "▁puwesto": 6728,
      "▁Br": 6729,
      "▁ner": 6730,
      "of": 6731,
      "▁pagsasaayos": 6732,
      "▁Vis": 6733,
      "xas": 6734,
      "▁abang": 6735,
      "▁inten": 6736,
      "ises": 6737,
      "▁kutsa": 6738,
      "▁aktibo": 6739,
      "▁yogurt": 6740,
      "ulation": 6741,
      "rante": 6742,
      "redo": 6743,
      "▁custo": 6744,
      "▁Allah": 6745,
      "▁pakete": 6746,
      "klusi": 6747,
      "▁libu": 6748,
      "▁Wag": 6749,
      "▁lathala": 6750,
      "-on": 6751,
      "▁tining": 6752,
      "loso": 6753,
      "▁Villa": 6754,
      "▁Baby": 6755,
      "▁Pol": 6756,
      "▁course": 6757,
      "▁March": 6758,
      "ule": 6759,
      "▁bakin": 6760,
      "▁paha": 6761,
      "▁grabe": 6762,
      "▁ulam": 6763,
      "▁bukol": 6764,
      "bic": 6765,
      "▁could": 6766,
      "▁que": 6767,
      "ught": 6768,
      "binsya": 6769,
      "▁Photo": 6770,
      "walipi": 6771,
      "▁Sinusuportahan": 6772,
      "▁Ind": 6773,
      "TP": 6774,
      "taman": 6775,
      "▁Dia": 6776,
      "▁gawaran": 6777,
      "siklo": 6778,
      "▁things": 6779,
      "demi": 6780,
      "tually": 6781,
      "itute": 6782,
      "▁pagba": 6783,
      "▁monitor": 6784,
      "▁gri": 6785,
      "tures": 6786,
      "▁please": 6787,
      "bio": 6788,
      "▁pagsa": 6789,
      "irman": 6790,
      "▁inirerekumenda": 6791,
      "▁el": 6792,
      "▁Fri": 6793,
      "cone": 6794,
      "went": 6795,
      "▁police": 6796,
      "▁layon": 6797,
      "ults": 6798,
      "-bas": 6799,
      "▁AC": 6800,
      "▁tsaa": 6801,
      "▁Thank": 6802,
      "-wili": 6803,
      "▁likor": 6804,
      "▁turista": 6805,
      "▁Pac": 6806,
      "▁pagsasagawa": 6807,
      "hie": 6808,
      "▁coffee": 6809,
      "▁Sige": 6810,
      "▁hospital": 6811,
      "▁River": 6812,
      "▁kawili-wili": 6813,
      "▁sol": 6814,
      "istu": 6815,
      "▁hair": 6816,
      "▁labasa": 6817,
      "▁background": 6818,
      "ners": 6819,
      "▁staff": 6820,
      "▁kani-kanila": 6821,
      "-L": 6822,
      "▁tawid": 6823,
      "▁produc": 6824,
      "solina": 6825,
      "▁vs": 6826,
      "▁TR": 6827,
      "▁Ty": 6828,
      "▁ma-access": 6829,
      "-libo": 6830,
      "▁tits": 6831,
      "leng": 6832,
      "▁MM": 6833,
      "▁smartphone": 6834,
      "▁ordinaryo": 6835,
      "coun": 6836,
      "▁balu": 6837,
      "▁55": 6838,
      "vincial": 6839,
      "zer": 6840,
      "▁tot": 6841,
      "ants": 6842,
      "tao": 6843,
      "pter": 6844,
      "▁ana": 6845,
      "▁konek": 6846,
      "▁alinsunod": 6847,
      "▁June": 6848,
      "▁gasolina": 6849,
      "etnam": 6850,
      "▁July": 6851,
      "▁thread": 6852,
      "▁formula": 6853,
      "▁agrikultura": 6854,
      "▁anay": 6855,
      "bie": 6856,
      "▁mem": 6857,
      "mbers": 6858,
      "▁libu-libo": 6859,
      "PR": 6860,
      "atlo": 6861,
      "▁P2": 6862,
      "▁young": 6863,
      "▁promosyon": 6864,
      "▁doc": 6865,
      "▁actress": 6866,
      "▁karun": 6867,
      "▁ticket": 6868,
      "▁update": 6869,
      "▁mm": 6870,
      "▁ret": 6871,
      "▁shop": 6872,
      "klusibo": 6873,
      "▁pawi": 6874,
      "▁pabrika": 6875,
      "road": 6876,
      "▁actor": 6877,
      "▁Christmas": 6878,
      "▁labo": 6879,
      "▁Prof": 6880,
      "kedyul": 6881,
      "bla": 6882,
      "rast": 6883,
      "cific": 6884,
      "-N": 6885,
      "ges": 6886,
      "terol": 6887,
      "weldo": 6888,
      "▁Bal": 6889,
      "▁Gon": 6890,
      "▁deb": 6891,
      "▁turn": 6892,
      "▁pinaka-e": 6893,
      "ace": 6894,
      "▁give": 6895,
      "▁Bat": 6896,
      "▁himas": 6897,
      "minasyon": 6898,
      "viron": 6899,
      "plano": 6900,
      "▁esp": 6901,
      "person": 6902,
      "nubay": 6903,
      "▁diagn": 6904,
      "gs": 6905,
      "▁dec": 6906,
      "▁baligtaran": 6907,
      "mate": 6908,
      "WD": 6909,
      "▁sample": 6910,
      "▁Silicone": 6911,
      "▁Pag-": 6912,
      "▁lamb": 6913,
      "hern": 6914,
      "▁probinsya": 6915,
      "▁sweet": 6916,
      "▁city": 6917,
      "▁travel": 6918,
      "withdraw": 6919,
      "▁Ped": 6920,
      "▁Michael": 6921,
      "▁75": 6922,
      "▁pinaka-": 6923,
      "▁biblia": 6924,
      "katiwala": 6925,
      "▁radyo": 6926,
      "▁integ": 6927,
      "▁alu": 6928,
      "▁harang": 6929,
      "▁price": 6930,
      "▁karunungan": 6931,
      "OC": 6932,
      "▁dawag": 6933,
      "mata": 6934,
      "▁mall": 6935,
      "redi": 6936,
      "▁sul": 6937,
      "tanas": 6938,
      "▁pag-download": 6939,
      "rehen": 6940,
      "▁why": 6941,
      "▁Market": 6942,
      "mbuhay": 6943,
      "mati": 6944,
      "▁trato": 6945,
      "▁pukaw": 6946,
      "-to-": 6947,
      "▁masahe": 6948,
      "▁mono": 6949,
      "sidential": 6950,
      "▁Station": 6951,
      "▁motorsiklo": 6952,
      "BC": 6953,
      "▁made": 6954,
      "▁Girl": 6955,
      "▁eksperimento": 6956,
      "▁atas": 6957,
      "▁Sen": 6958,
      "▁eksklusibo": 6959,
      "inggan": 6960,
      "▁pow": 6961,
      "▁teach": 6962,
      "kout": 6963,
      "▁liham": 6964,
      "▁Sur": 6965,
      "▁tero": 6966,
      "lids": 6967,
      "▁bihasa": 6968,
      "▁basag": 6969,
      "▁drama": 6970,
      "▁jeep": 6971,
      "mum": 6972,
      "larg": 6973,
      "▁They": 6974,
      "▁Ah": 6975,
      "onia": 6976,
      "other": 6977,
      "▁tour": 6978,
      "kaso": 6979,
      "▁lugi": 6980,
      "▁kritikal": 6981,
      "lesia": 6982,
      "estival": 6983,
      "▁director": 6984,
      "▁2008": 6985,
      "▁Make": 6986,
      "▁dasal": 6987,
      "▁bilanggo": 6988,
      "▁palam": 6989,
      "▁buy": 6990,
      "▁Stu": 6991,
      "▁Richard": 6992,
      "▁satanas": 6993,
      "▁career": 6994,
      "▁Sum": 6995,
      "▁comments": 6996,
      "grade": 6997,
      "▁Ara": 6998,
      "▁palamuti": 6999,
      "-ga": 7000,
      "zy": 7001,
      "▁naririnig": 7002,
      "▁diya": 7003,
      "▁something": 7004,
      "▁plant": 7005,
      "▁Francisco": 7006,
      "▁kusa": 7007,
      "ira": 7008,
      "▁Port": 7009,
      "▁Tan": 7010,
      "▁respeto": 7011,
      "itoryo": 7012,
      "▁patnubay": 7013,
      "▁developer": 7014,
      "chain": 7015,
      "▁frame": 7016,
      "▁Joy": 7017,
      "▁cool": 7018,
      "▁Management": 7019,
      "nie": 7020,
      "▁species": 7021,
      "▁iba''t": 7022,
      "▁District": 7023,
      "▁tae": 7024,
      "▁ulap": 7025,
      "▁assist": 7026,
      "80": 7027,
      "▁Okay": 7028,
      "40": 7029,
      "▁His": 7030,
      "▁talim": 7031,
      "▁buka": 7032,
      "▁tipo": 7033,
      "▁pakinggan": 7034,
      "cember": 7035,
      "▁pananagot": 7036,
      "▁Nov": 7037,
      "▁lagda": 7038,
      "▁Geor": 7039,
      "zing": 7040,
      "pedia": 7041,
      "▁tamtaman": 7042,
      "ium": 7043,
      "uck": 7044,
      "▁nasa": 7045,
      "▁bran": 7046,
      "▁sumpa": 7047,
      "▁Region": 7048,
      "▁eroplano": 7049,
      "-una": 7050,
      "▁iulat": 7051,
      "eser": 7052,
      "▁Fore": 7053,
      "-di": 7054,
      "▁cut": 7055,
      "▁sea": 7056,
      "tosis": 7057,
      "undation": 7058,
      "▁April": 7059,
      "▁tamad": 7060,
      "▁ibago": 7061,
      "▁Wo": 7062,
      "▁Water": 7063,
      "gger": 7064,
      "▁pakikipag-Date": 7065,
      "▁demon": 7066,
      "▁pinapa": 7067,
      "ennis": 7068,
      "▁Education": 7069,
      "iler": 7070,
      "▁OK": 7071,
      "▁three": 7072,
      "▁broker": 7073,
      "cu": 7074,
      "▁Vol": 7075,
      "rated": 7076,
      "tata": 7077,
      "▁physi": 7078,
      "▁Roque": 7079,
      "▁tsino": 7080,
      "lado": 7081,
      "▁lagu": 7082,
      "med": 7083,
      "arning": 7084,
      "▁impluwensya": 7085,
      "▁leon": 7086,
      "ready": 7087,
      "AA": 7088,
      "▁tus": 7089,
      "conomi": 7090,
      "nang": 7091,
      "▁tainga": 7092,
      "▁Please": 7093,
      "▁Bri": 7094,
      "vention": 7095,
      "▁Was": 7096,
      "yol": 7097,
      "text": 7098,
      "▁Op": 7099,
      "ysis": 7100,
      "▁ista": 7101,
      "▁Kom": 7102,
      "▁karga": 7103,
      "▁clas": 7104,
      "▁pinap": 7105,
      "isik": 7106,
      "▁gener": 7107,
      "utes": 7108,
      "▁kilig": 7109,
      "▁Er": 7110,
      "ju": 7111,
      "▁Chan": 7112,
      "▁kontrib": 7113,
      "▁hahaha": 7114,
      "umite": 7115,
      "▁Luzon": 7116,
      "▁inilalagay": 7117,
      "▁uk": 7118,
      "▁jackpot": 7119,
      "kim": 7120,
      "▁answer": 7121,
      "▁ranggo": 7122,
      "▁pressure": 7123,
      "▁pagkakatiwala": 7124,
      "▁layunin": 7125,
      "▁der": 7126,
      "▁Kras": 7127,
      "▁cellulite": 7128,
      "vol": 7129,
      "▁pangatlo": 7130,
      "kis": 7131,
      "▁pagta": 7132,
      "▁spi": 7133,
      "paper": 7134,
      "▁bomba": 7135,
      "erald": 7136,
      "ette": 7137,
      "▁whe": 7138,
      "ott": 7139,
      "▁Ni": 7140,
      "pay": 7141,
      "▁syempre": 7142,
      "▁daan": 7143,
      "▁interface": 7144,
      "▁reso": 7145,
      "▁dose": 7146,
      "▁Sim": 7147,
      "▁bukid": 7148,
      "▁Skin": 7149,
      "▁Bay": 7150,
      "▁job": 7151,
      "▁ahas": 7152,
      "▁LT": 7153,
      "sty": 7154,
      "▁jour": 7155,
      "▁drag": 7156,
      "▁Ki": 7157,
      "16": 7158,
      "bun": 7159,
      "lisa": 7160,
      "karan": 7161,
      "cement": 7162,
      "care": 7163,
      "katuparan": 7164,
      "▁glu": 7165,
      "▁Service": 7166,
      "▁kumplikadong": 7167,
      "▁taunan": 7168,
      "ho-host": 7169,
      "mbay": 7170,
      "▁track": 7171,
      "▁konte": 7172,
      "▁dayuhan": 7173,
      "▁ris": 7174,
      "ush": 7175,
      "unsad": 7176,
      "▁hubog": 7177,
      "▁international": 7178,
      "essional": 7179,
      "▁Eh": 7180,
      "ripisyo": 7181,
      "▁pagpepresyo": 7182,
      "▁barya": 7183,
      "▁las": 7184,
      "▁operation": 7185,
      "▁nakakaranas": 7186,
      "▁Colle": 7187,
      "▁Vin": 7188,
      "▁kahihinatnan": 7189,
      "▁Association": 7190,
      "▁hips": 7191,
      "▁ED": 7192,
      "▁150": 7193,
      "▁Fire": 7194,
      "ize": 7195,
      "belya": 7196,
      "▁Wal": 7197,
      "▁halata": 7198,
      "dard": 7199,
      "▁bubelya": 7200,
      "zine": 7201,
      "▁gambala": 7202,
      "▁during": 7203,
      "▁anyaya": 7204,
      "▁nanga": 7205,
      "▁ci": 7206,
      "▁akma": 7207,
      "▁Work": 7208,
      "▁Time": 7209,
      "leep": 7210,
      "▁Jes": 7211,
      "▁tulay": 7212,
      "edy": 7213,
      "largement": 7214,
      "▁amba": 7215,
      "▁silip": 7216,
      "▁gran": 7217,
      "▁sakripisyo": 7218,
      "-based": 7219,
      "▁suc": 7220,
      "▁banat": 7221,
      "ordina": 7222,
      "▁Circ": 7223,
      "liday": 7224,
      "anismo": 7225,
      "buyas": 7226,
      "▁abogado": 7227,
      "▁worker": 7228,
      "▁Julia": 7229,
      "presa": 7230,
      "▁balag": 7231,
      "▁such": 7232,
      "▁Weight": 7233,
      "formance": 7234,
      "yonaryo": 7235,
      "▁emergency": 7236,
      "▁reti": 7237,
      "▁RO": 7238,
      "▁injections": 7239,
      "ctober": 7240,
      "▁alipin": 7241,
      "▁Ul": 7242,
      "vesti": 7243,
      "▁football": 7244,
      "▁nags": 7245,
      "▁Inir": 7246,
      "▁ngumiti": 7247,
      "▁lasi": 7248,
      "veri": 7249,
      "▁Bulacan": 7250,
      "▁advertis": 7251,
      "berry": 7252,
      "RT": 7253,
      "▁seryosong": 7254,
      "▁degree": 7255,
      "▁atensyon": 7256,
      "▁nananatili": 7257,
      "imp": 7258,
      "van": 7259,
      "▁Organ": 7260,
      "-12": 7261,
      "facing": 7262,
      "▁restaurant": 7263,
      "▁fire": 7264,
      "▁Yun": 7265,
      "▁gunita": 7266,
      "▁kontribusyon": 7267,
      "▁sibuyas": 7268,
      "cipal": 7269,
      "panyol": 7270,
      "▁39": 7271,
      "▁suspen": 7272,
      "▁error": 7273,
      "▁dingding": 7274,
      "▁nayon": 7275,
      "▁hino": 7276,
      "▁landi": 7277,
      "▁Krasno": 7278,
      "ume": 7279,
      "▁usbong": 7280,
      "▁libang": 7281,
      "▁When": 7282,
      "▁alkal": 7283,
      "▁kor": 7284,
      "▁consum": 7285,
      "ague": 7286,
      "▁flu": 7287,
      "urfacing": 7288,
      "11": 7289,
      "AK": 7290,
      "met": 7291,
      "▁tor": 7292,
      "▁Jac": 7293,
      "▁action": 7294,
      "▁electric": 7295,
      "UN": 7296,
      "▁People": 7297,
      "▁pekeng": 7298,
      "▁dad": 7299,
      "▁e-": 7300,
      "▁role": 7301,
      "▁Em": 7302,
      "▁Reyes": 7303,
      "▁Mala": 7304,
      "uda": 7305,
      "▁tiwali": 7306,
      "▁December": 7307,
      "▁Vietnam": 7308,
      "▁random": 7309,
      "▁bulag": 7310,
      "▁sheet": 7311,
      "fect": 7312,
      "iya": 7313,
      "▁Crypto": 7314,
      "▁Ms": 7315,
      "▁Dri": 7316,
      "▁Hon": 7317,
      "▁Heart": 7318,
      "▁radio": 7319,
      "▁training": 7320,
      "cade": 7321,
      "▁nas": 7322,
      "▁Wiki": 7323,
      "VPN": 7324,
      "▁kauna": 7325,
      "▁graphi": 7326,
      "▁pagda": 7327,
      "ists": 7328,
      "▁EC": 7329,
      "▁yu": 7330,
      "nger": 7331,
      "▁ire": 7332,
      "ister": 7333,
      "▁maskara": 7334,
      "▁AD": 7335,
      "▁kristo": 7336,
      "▁Cu": 7337,
      "▁Hospital": 7338,
      "gante": 7339,
      "▁espanyol": 7340,
      "▁Yes": 7341,
      "▁bangka": 7342,
      "etisyon": 7343,
      "▁better": 7344,
      "▁rice": 7345,
      "▁won": 7346,
      "ublish": 7347,
      "▁95": 7348,
      "crypt": 7349,
      "▁baliw": 7350,
      "ratehiya": 7351,
      "▁Ly": 7352,
      "ising": 7353,
      "▁alon": 7354,
      "▁mekanismo": 7355,
      "obile": 7356,
      "ization": 7357,
      "isturiz": 7358,
      "▁pandemic": 7359,
      "▁Atty": 7360,
      "vit": 7361,
      "venue": 7362,
      "▁netizen": 7363,
      "▁Medical": 7364,
      "ktot": 7365,
      "▁saw": 7366,
      "tuhin": 7367,
      "▁adult": 7368,
      "▁message": 7369,
      "▁krus": 7370,
      "dinan": 7371,
      "var": 7372,
      "urch": 7373,
      "▁pinaka-epektibong": 7374,
      "dilla": 7375,
      "▁fast": 7376,
      "▁Tor": 7377,
      "▁sele": 7378,
      "▁model": 7379,
      "▁already": 7380,
      "▁sexy": 7381,
      "istry": 7382,
      "▁Korean": 7383,
      "▁rehi": 7384,
      "ots": 7385,
      "▁pani": 7386,
      "▁Pedro": 7387,
      "lisasyon": 7388,
      "▁Party": 7389,
      "▁plugin": 7390,
      "oint": 7391,
      "▁puppy": 7392,
      "▁ruta": 7393,
      "▁ikina": 7394,
      "▁luwal": 7395,
      "range": 7396,
      "▁cookies": 7397,
      "opti": 7398,
      "▁samb": 7399,
      "▁keep": 7400,
      "▁alb": 7401,
      "▁09": 7402,
      "▁LGU": 7403,
      "▁banayad": 7404,
      "▁feces": 7405,
      "▁eat": 7406,
      "under": 7407,
      "▁tray": 7408,
      "▁magpasya": 7409,
      "▁Dark": 7410,
      "rism": 7411,
      "▁Pan": 7412,
      "▁picture": 7413,
      "▁pinta": 7414,
      "▁mut": 7415,
      "chen": 7416,
      "▁parmasya": 7417,
      "husay": 7418,
      "▁fashion": 7419,
      "vant": 7420,
      "▁mag-click": 7421,
      "▁Sena": 7422,
      "minado": 7423,
      "legal": 7424,
      "tember": 7425,
      "ginal": 7426,
      "▁42": 7427,
      "cted": 7428,
      "▁uma": 7429,
      "ression": 7430,
      "▁tonelada": 7431,
      "▁bentahe": 7432,
      "▁250": 7433,
      "pression": 7434,
      "lide": 7435,
      "▁hango": 7436,
      "▁rest": 7437,
      "▁solar": 7438,
      "▁Max": 7439,
      "▁48": 7440,
      "▁flight": 7441,
      "▁polo": 7442,
      "▁enjoy": 7443,
      "▁translation": 7444,
      "▁Garcia": 7445,
      "gor": 7446,
      "apore": 7447,
      "▁song": 7448,
      "▁Jeho": 7449,
      "torya": 7450,
      "▁result": 7451,
      "▁Administ": 7452,
      "lands": 7453,
      "▁pag-a": 7454,
      "din": 7455,
      "mine": 7456,
      "▁teritoryo": 7457,
      "▁Forum": 7458,
      "▁close": 7459,
      "▁Bank": 7460,
      "▁masdan": 7461,
      "ulator": 7462,
      "▁Tu": 7463,
      "▁sipag": 7464,
      "▁master": 7465,
      "▁Great": 7466,
      "lesterol": 7467,
      "▁ago": 7468,
      "▁Yan": 7469,
      "zi": 7470,
      "▁aki": 7471,
      "▁obli": 7472,
      "dok": 7473,
      "ching": 7474,
      "▁October": 7475,
      "act": 7476,
      "▁galu": 7477,
      "▁alkalde": 7478,
      "ster": 7479,
      "▁ping": 7480,
      "gic": 7481,
      "hroom": 7482,
      "▁sawa": 7483,
      "lies": 7484,
      "▁liko": 7485,
      "▁ahensiya": 7486,
      "▁ilihan": 7487,
      "ña": 7488,
      "▁Audio": 7489,
      "▁Gil": 7490,
      "▁Force": 7491,
      "ea": 7492,
      "raft": 7493,
      "lili": 7494,
      "▁kauna-una": 7495,
      "▁resurfacing": 7496,
      "MP": 7497,
      "kes": 7498,
      "▁must": 7499,
      "▁hilo": 7500,
      "migmig": 7501,
      "▁palagay": 7502,
      "-ex": 7503,
      "gon": 7504,
      "▁Gan": 7505,
      "▁esk": 7506,
      "-panabik": 7507,
      "▁Keto": 7508,
      "▁paganda": 7509,
      "uary": 7510,
      "▁Dig": 7511,
      "▁pataw": 7512,
      "▁bitaw": 7513,
      "▁Brit": 7514,
      "umen": 7515,
      "▁Miguel": 7516,
      "ION": 7517,
      "siyal": 7518,
      "ior": 7519,
      "▁Hu": 7520,
      "▁traffic": 7521,
      "▁Central": 7522,
      "▁obserba": 7523,
      "▁galugad": 7524,
      "▁lapad": 7525,
      "posisyon": 7526,
      "▁paren": 7527,
      "▁halumigmig": 7528,
      "▁gar": 7529,
      "▁pasensya": 7530,
      "▁panawag": 7531,
      "▁Cancer": 7532,
      "▁variant": 7533,
      "▁kauna-unahan": 7534,
      "eph": 7535,
      "ondon": 7536,
      "tso": 7537,
      "▁eto": 7538,
      "wards": 7539,
      "▁Council": 7540,
      "▁panguna": 7541,
      "▁aff": 7542,
      "▁Ori": 7543,
      "▁Ray": 7544,
      "▁distri": 7545,
      "▁interview": 7546,
      "olyo": 7547,
      "▁i-c": 7548,
      "▁dyan": 7549,
      "▁atu": 7550,
      "▁tul": 7551,
      "▁ebid": 7552,
      "▁Let": 7553,
      "▁comment": 7554,
      "type": 7555,
      "▁THE": 7556,
      "▁daya": 7557,
      "loud": 7558,
      "▁Government": 7559,
      "▁ilunsad": 7560,
      "▁tiyaga": 7561,
      "▁Batangas": 7562,
      "kansela": 7563,
      "asi": 7564,
      "▁nuno": 7565,
      "ogra": 7566,
      "▁Cavite": 7567,
      "▁ipa": 7568,
      "▁impek": 7569,
      "▁chain": 7570,
      "▁wire": 7571,
      "▁pros": 7572,
      "▁Lord": 7573,
      "▁Jud": 7574,
      "▁Para": 7575,
      "▁baccarat": 7576,
      "▁audio": 7577,
      "▁iligal": 7578,
      "▁White": 7579,
      "▁tono": 7580,
      "▁record": 7581,
      "▁pagpapaunlad": 7582,
      "▁isasa": 7583,
      "▁nakiki": 7584,
      "▁Posted": 7585,
      "▁try": 7586,
      "▁Our": 7587,
      "oday": 7588,
      "▁Bible": 7589,
      "▁Bio": 7590,
      "▁makapa": 7591,
      "bb": 7592,
      "▁secure": 7593,
      "▁SP": 7594,
      "▁sigasig": 7595,
      "▁laguna": 7596,
      "optimize": 7597,
      "ingo": 7598,
      "▁relations": 7599,
      "pher": 7600,
      "▁plus": 7601,
      "▁Email": 7602,
      "▁payuhan": 7603,
      "▁country": 7604,
      "tur": 7605,
      "yone": 7606,
      "▁agaran": 7607,
      "TION": 7608,
      "▁atubili": 7609,
      "▁Gel": 7610,
      "cian": 7611,
      "comp": 7612,
      "▁eyelids": 7613,
      "▁different": 7614,
      "pha": 7615,
      "▁tagas": 7616,
      "▁Feb": 7617,
      "▁America": 7618,
      "▁Sports": 7619,
      "▁rati": 7620,
      "000": 7621,
      "▁Anne": 7622,
      "bert": 7623,
      "▁01": 7624,
      "▁Pal": 7625,
      "▁Gab": 7626,
      "▁global": 7627,
      "▁CC": 7628,
      "hot": 7629,
      "▁panatilihin": 7630,
      "mga": 7631,
      "▁dan": 7632,
      "▁kumpetisyon": 7633,
      "▁ilarawan": 7634,
      "xic": 7635,
      "▁Trans": 7636,
      "umpara": 7637,
      "▁memo": 7638,
      "ligro": 7639,
      "▁Games": 7640,
      "testa": 7641,
      "▁sar": 7642,
      "mia": 7643,
      "licy": 7644,
      "▁i-click": 7645,
      "▁dolyar": 7646,
      "▁Jehova": 7647,
      "▁enlargement": 7648,
      "uage": 7649,
      "▁rebolusyon": 7650,
      "▁bahid": 7651,
      "pik": 7652,
      "sibong": 7653,
      "▁peligro": 7654,
      "▁espirituwal": 7655,
      "▁nakaranas": 7656,
      "▁start": 7657,
      "▁ll": 7658,
      "▁bill": 7659,
      "▁pangga": 7660,
      "▁SU": 7661,
      "▁ewan": 7662,
      "▁kabuti": 7663,
      "verify": 7664,
      "▁Ru": 7665,
      "▁Oli": 7666,
      "ridge": 7667,
      "rey": 7668,
      "▁final": 7669,
      "▁Wel": 7670,
      "▁button": 7671,
      "naan": 7672,
      "▁Sor": 7673,
      "▁keso": 7674,
      "▁turuan": 7675,
      "▁field": 7676,
      "▁brown": 7677,
      "▁question": 7678,
      "▁healthy": 7679,
      "▁lamunan": 7680,
      "▁tagapa": 7681,
      "▁Palawan": 7682,
      "▁Authority": 7683,
      "▁Child": 7684,
      "▁subo": 7685,
      "umano": 7686,
      "▁vaccine": 7687,
      "hilan": 7688,
      "▁regi": 7689,
      "wagi": 7690,
      "hes": 7691,
      "▁hap": 7692,
      "▁There": 7693,
      "rasya": 7694,
      "▁singer": 7695,
      "ador": 7696,
      "▁issue": 7697,
      "wire": 7698,
      "▁Emp": 7699,
      "▁2000": 7700,
      "▁kuna": 7701,
      "cher": 7702,
      "matay": 7703,
      "▁takpan": 7704,
      "▁konektado": 7705,
      "▁hyd": 7706,
      "▁tuhod": 7707,
      "▁sugo": 7708,
      "die": 7709,
      "yshe": 7710,
      "-na": 7711,
      "rty": 7712,
      "▁Mil": 7713,
      "▁Saudi": 7714,
      "iyansa": 7715,
      "▁Club": 7716,
      "▁arte": 7717,
      "▁Business": 7718,
      "▁alumin": 7719,
      "encrypt": 7720,
      "▁bangkay": 7721,
      "▁mom": 7722,
      "▁late": 7723,
      "▁gast": 7724,
      "▁komprehen": 7725,
      "▁pangako": 7726,
      "-F": 7727,
      "▁ice": 7728,
      "▁bakas": 7729,
      "▁baluktot": 7730,
      "▁total": 7731,
      "▁Sm": 7732,
      "▁each": 7733,
      "oder": 7734,
      "▁cable": 7735,
      "vember": 7736,
      "▁lagpas": 7737,
      "▁kwentong": 7738,
      "band": 7739,
      "▁mental": 7740,
      "▁Board": 7741,
      "▁vol": 7742,
      "hhhhh": 7743,
      "fest": 7744,
      "▁Smart": 7745,
      "▁Watch": 7746,
      "▁mother": 7747,
      "▁PS": 7748,
      "FT": 7749,
      "midad": 7750,
      "▁todo": 7751,
      "linic": 7752,
      "▁41": 7753,
      "▁pump": 7754,
      "pu": 7755,
      "▁Kwento": 7756,
      "▁Code": 7757,
      "▁herbs": 7758,
      "▁giliw": 7759,
      "▁Bagama": 7760,
      "▁HD": 7761,
      "von": 7762,
      "otto": 7763,
      "ellow": 7764,
      "▁seguro": 7765,
      "▁pison": 7766,
      "▁bakla": 7767,
      "▁cast": 7768,
      "▁terminal": 7769,
      "▁chief": 7770,
      "▁citiz": 7771,
      "▁Tags": 7772,
      "▁gaspang": 7773,
      "-R": 7774,
      "▁talento": 7775,
      "▁January": 7776,
      "▁without": 7777,
      "▁IS": 7778,
      "▁kapana-panabik": 7779,
      "ences": 7780,
      "toster": 7781,
      "▁43": 7782,
      "lated": 7783,
      "▁Peter": 7784,
      "▁Agu": 7785,
      "hood": 7786,
      "▁pansan": 7787,
      "▁Ya": 7788,
      "▁Republic": 7789,
      "-si": 7790,
      "logo": 7791,
      "▁imbestiga": 7792,
      "▁bike": 7793,
      "▁hilaw": 7794,
      "▁Machine": 7795,
      "duction": 7796,
      "▁Life": 7797,
      "▁Ryan": 7798,
      "▁coach": 7799,
      "▁dalhin": 7800,
      "sag": 7801,
      "▁mail": 7802,
      "tag": 7803,
      "▁Prote": 7804,
      "▁Rock": 7805,
      "▁Presidential": 7806,
      "▁white": 7807,
      "▁lindol": 7808,
      "▁premium": 7809,
      "▁database": 7810,
      "mpla": 7811,
      "ument": 7812,
      "move": 7813,
      "▁talamak": 7814,
      "itwal": 7815,
      "ple": 7816,
      "▁Lt": 7817,
      "soft": 7818,
      "rary": 7819,
      "▁luad": 7820,
      "▁Lou": 7821,
      "▁saglit": 7822,
      "▁transfer": 7823,
      "▁September": 7824,
      "yalista": 7825,
      "▁nagpa": 7826,
      "▁members": 7827,
      "dian": 7828,
      "mihan": 7829,
      "pikal": 7830,
      "▁Kin": 7831,
      "▁44": 7832,
      "99": 7833,
      "▁senti": 7834,
      "▁Cup": 7835,
      "▁DS": 7836,
      "▁dalag": 7837,
      "▁yoga": 7838,
      "▁pagmaman": 7839,
      "atego": 7840,
      "▁mag-s": 7841,
      "▁music": 7842,
      "droliko": 7843,
      "▁Por": 7844,
      "gie": 7845,
      "▁asal": 7846,
      "hua": 7847,
      "▁pamahagi": 7848,
      "▁hukbo": 7849,
      "▁Plastic": 7850,
      "▁development": 7851,
      "▁ear": 7852,
      "▁nakapag": 7853,
      "▁rub": 7854,
      "▁output": 7855,
      "▁Ipina": 7856,
      "▁double": 7857,
      "▁kalamidad": 7858,
      "▁santa": 7859,
      "▁Bea": 7860,
      "▁basketball": 7861,
      "flix": 7862,
      "lax": 7863,
      "pose": 7864,
      "▁Covid": 7865,
      "▁Meron": 7866,
      "▁ore": 7867,
      "▁Bill": 7868,
      "▁FA": 7869,
      "▁Jun": 7870,
      "bscribe": 7871,
      "▁August": 7872,
      "uu": 7873,
      "erve": 7874,
      "▁libutan": 7875,
      "▁Court": 7876,
      "▁kumpiyansa": 7877,
      "▁Robin": 7878,
      "▁allergy": 7879,
      "lagen": 7880,
      "▁bulok": 7881,
      "tility": 7882,
      "▁Count": 7883,
      "▁hol": 7884,
      "via": 7885,
      "▁Mary": 7886,
      "▁naranasan": 7887,
      "▁sorpresa": 7888,
      "▁Don": 7889,
      "fety": 7890,
      "▁Pablo": 7891,
      "▁crush": 7892,
      "▁Senator": 7893,
      "hab": 7894,
      "▁Cris": 7895,
      "▁kumusta": 7896,
      "▁curren": 7897,
      "▁Mul": 7898,
      "▁Ins": 7899,
      "kules": 7900,
      "sil": 7901,
      "▁sibil": 7902,
      "▁got": 7903,
      "▁Tito": 7904,
      "▁Lit": 7905,
      "lisay": 7906,
      "wear": 7907,
      "▁ball": 7908,
      "▁dead": 7909,
      "walat": 7910,
      "▁ika-2": 7911,
      "mmm": 7912,
      "▁siksik": 7913,
      "▁vlog": 7914,
      "▁Anna": 7915,
      "▁dos": 7916,
      "▁Jim": 7917,
      "▁AFP": 7918,
      "duhing": 7919,
      "▁char": 7920,
      "eries": 7921,
      "haw": 7922,
      "▁calorie": 7923,
      "▁nai": 7924,
      "▁espanya": 7925,
      "▁sambit": 7926,
      "▁akibat": 7927,
      "ship": 7928,
      "▁dress": 7929,
      "▁IC": 7930,
      "yerkules": 7931,
      "EE": 7932,
      "▁parents": 7933,
      "▁clean": 7934,
      "▁children": 7935,
      "▁Singapore": 7936,
      "▁kain": 7937,
      "▁change": 7938,
      "▁testo": 7939,
      "▁pawa": 7940,
      "sipe": 7941,
      "▁Blog": 7942,
      "ipment": 7943,
      "▁repub": 7944,
      "▁haydroliko": 7945,
      "▁immune": 7946,
      "▁sust": 7947,
      "▁Are": 7948,
      "▁Kar": 7949,
      "▁supplier": 7950,
      "▁abs": 7951,
      "▁tukso": 7952,
      "▁mananatili": 7953,
      "WS": 7954,
      "▁mini": 7955,
      "▁takbu": 7956,
      "▁going": 7957,
      "▁payout": 7958,
      "▁Justice": 7959,
      "gnan": 7960,
      "▁rock": 7961,
      "▁miyerkules": 7962,
      "▁komplikasyon": 7963,
      "▁thank": 7964,
      "eserye": 7965,
      "lings": 7966,
      "rove": 7967,
      "sary": 7968,
      "-kaya": 7969,
      "▁impeksiyon": 7970,
      "▁watch": 7971,
      "▁Gerald": 7972,
      "▁pareha": 7973,
      "monya": 7974,
      "OD": 7975,
      "kita": 7976,
      "iller": 7977,
      "▁gramo": 7978,
      "cc": 7979,
      "▁dum": 7980,
      "BI": 7981,
      "▁amp": 7982,
      "lization": 7983,
      "▁DIY": 7984,
      "ngan": 7985,
      "▁performance": 7986,
      "loyment": 7987,
      "▁Quar": 7988,
      "wapo": 7989,
      "cover": 7990,
      "nggan": 7991,
      "psy": 7992,
      "terya": 7993,
      "▁kaharap": 7994,
      "▁Gat": 7995,
      "▁bulsa": 7996,
      "▁ubra": 7997,
      "▁East": 7998,
      "-eye": 7999,
      "▁filter": 8000,
      "▁tung": 8001,
      "▁pikit": 8002,
      "▁196": 8003,
      "▁Elect": 8004,
      "▁bagama't": 8005,
      "▁pila": 8006,
      "▁slots": 8007,
      "dium": 8008,
      "osa": 8009,
      "▁tissue": 8010,
      "gayan": 8011,
      "▁November": 8012,
      "▁iOS": 8013,
      "▁fish": 8014,
      "rden": 8015,
      "▁celebr": 8016,
      "CH": 8017,
      "▁em": 8018,
      "▁armas": 8019,
      "vestment": 8020,
      "▁pwersa": 8021,
      "▁ilat": 8022,
      "▁siwalat": 8023,
      "▁Blo": 8024,
      "▁lingon": 8025,
      "▁views": 8026,
      "▁resol": 8027,
      "▁pangal": 8028,
      "FF": 8029,
      "▁pray": 8030,
      "▁kooper": 8031,
      "▁template": 8032,
      "▁Netflix": 8033,
      "▁nagsasagawa": 8034,
      "▁husga": 8035,
      "▁award": 8036,
      "▁riyan": 8037,
      "▁Download": 8038,
      "▁insurance": 8039,
      "▁union": 8040,
      "nage": 8041,
      "▁viral": 8042,
      "▁energy": 8043,
      "▁Af": 8044,
      "▁lupit": 8045,
      "▁Institute": 8046,
      "vation": 8047,
      "▁draw": 8048,
      "▁kumb": 8049,
      "deos": 8050,
      "lica": 8051,
      "▁nakamit": 8052,
      "tig": 8053,
      "▁Nung": 8054,
      "umpirma": 8055,
      "▁reput": 8056,
      "▁boss": 8057,
      "hak": 8058,
      "▁Road": 8059,
      "uit": 8060,
      "▁choco": 8061,
      "▁ihanda": 8062,
      "▁pag-click": 8063,
      "▁Sky": 8064,
      "cious": 8065,
      "▁organismo": 8066,
      "▁mate": 8067,
      "▁65": 8068,
      "▁kwalipi": 8069,
      "▁Im": 8070,
      "▁literal": 8071,
      "▁hosting": 8072,
      "▁diumano": 8073,
      "▁tamod": 8074,
      "▁pharmacy": 8075,
      "▁stop": 8076,
      "vity": 8077,
      "gulo": 8078,
      "-araw": 8079,
      "▁private": 8080,
      "▁brick": 8081,
      "erna": 8082,
      "edding": 8083,
      "▁display": 8084,
      "▁destina": 8085,
      "▁mike": 8086,
      "▁feedback": 8087,
      "▁album": 8088,
      "iner": 8089,
      "▁lng": 8090,
      "▁asset": 8091,
      "uture": 8092,
      "▁safe": 8093,
      "▁Pres": 8094,
      "▁holiday": 8095,
      "gitnaan": 8096,
      "helle": 8097,
      "▁SH": 8098,
      "▁Tho": 8099,
      "struction": 8100,
      "▁bung": 8101,
      "▁suplay": 8102,
      "tho": 8103,
      "▁palibot": 8104,
      "eo": 8105,
      "▁though": 8106,
      "kus": 8107,
      "▁CD": 8108,
      "▁AP": 8109,
      "▁hormone": 8110,
      "▁Inf": 8111,
      "istro": 8112,
      "▁Under": 8113,
      "▁Joseph": 8114,
      "tak": 8115,
      "▁Master": 8116,
      "▁luwalhati": 8117,
      "▁Us": 8118,
      "▁pag-update": 8119,
      "▁maranasan": 8120,
      "▁sorry": 8121,
      "ana": 8122,
      "▁demand": 8123,
      "▁Community": 8124,
      "▁kred": 8125,
      "inig": 8126,
      "▁tina": 8127,
      "▁Bir": 8128,
      "▁Job": 8129,
      "unidad": 8130,
      "vsk": 8131,
      "▁lakip": 8132,
      "▁Gaming": 8133,
      "19": 8134,
      "▁silin": 8135,
      "▁Art": 8136,
      "▁peri": 8137,
      "▁kalagitnaan": 8138,
      "▁Za": 8139,
      "life": 8140,
      "▁pran": 8141,
      "▁gate": 8142,
      "▁girlfriend": 8143,
      "▁atleta": 8144,
      "▁cases": 8145,
      "▁personalidad": 8146,
      "▁timpla": 8147,
      "mbalik": 8148,
      "▁tropa": 8149,
      "ertific": 8150,
      "▁Islam": 8151,
      "tut": 8152,
      "▁singaw": 8153,
      "▁ketosis": 8154,
      "▁kampo": 8155,
      "▁pingga": 8156,
      "▁titik": 8157,
      "▁ayo": 8158,
      "▁impa": 8159,
      "▁Sun": 8160,
      "▁palabas": 8161,
      "▁sung": 8162,
      "▁Mel": 8163,
      "▁court": 8164,
      "▁transpa": 8165,
      "▁Fernan": 8166,
      "▁Fol": 8167,
      "▁advertising": 8168,
      "TS": 8169,
      "▁around": 8170,
      "▁main": 8171,
      "cei": 8172,
      "bela": 8173,
      "▁property": 8174,
      "▁Muni": 8175,
      "▁asian": 8176,
      "▁streaming": 8177,
      "▁banya": 8178,
      "▁pista": 8179,
      "14": 8180,
      "▁accoun": 8181,
      "Ed": 8182,
      "▁masid": 8183,
      "▁least": 8184,
      "▁les": 8185,
      "▁hugot": 8186,
      "▁ON": 8187,
      "itional": 8188,
      "▁cook": 8189,
      "▁limitahan": 8190,
      "▁Foundation": 8191,
      "▁bayaw": 8192,
      "isikleta": 8193,
      "▁entry": 8194,
      "atus": 8195,
      "▁ayun": 8196,
      "kain": 8197,
      "▁MP": 8198,
      "ANG": 8199,
      "▁butter": 8200,
      "▁laway": 8201,
      "dena": 8202,
      "▁Antonio": 8203,
      "▁Card": 8204,
      "into": 8205,
      "▁rizal": 8206,
      "▁usok": 8207,
      "▁financial": 8208,
      "▁pulutong": 8209,
      "▁salig": 8210,
      "tamo": 8211,
      "▁kulit": 8212,
      "▁kumon": 8213,
      "ruktura": 8214,
      "cor": 8215,
      "▁Drug": 8216,
      "▁Ham": 8217,
      "▁puwit": 8218,
      "pport": 8219,
      "quare": 8220,
      "▁okasyon": 8221,
      "-mil": 8222,
      "▁'y": 8223,
      "▁banyaga": 8224,
      "▁band": 8225,
      "ned": 8226,
      "yl": 8227,
      "▁stories": 8228,
      "sas": 8229,
      "▁bisikleta": 8230,
      "eline": 8231,
      "mato": 8232,
      "▁Padilla": 8233,
      "▁Angeles": 8234,
      "▁Science": 8235,
      "▁komers": 8236,
      "▁spin": 8237,
      "▁moisturiz": 8238,
      "▁ado": 8239,
      "▁Last": 8240,
      "▁space": 8241,
      "▁brush": 8242,
      "▁few": 8243,
      "▁parke": 8244,
      "▁teleserye": 8245,
      "▁dragon": 8246,
      "▁hon": 8247,
      "▁Senate": 8248,
      "conomic": 8249,
      "▁flat": 8250,
      "▁pic": 8251,
      "▁Ken": 8252,
      "▁mill": 8253,
      "▁dalang": 8254,
      "▁saksak": 8255,
      "▁producer": 8256,
      "▁nai-": 8257,
      "▁WH": 8258,
      "apo": 8259,
      "▁pari": 8260,
      "▁projec": 8261,
      "▁tango": 8262,
      "▁2007": 8263,
      "▁binhi": 8264,
      "▁dahilan": 8265,
      "▁ub": 8266,
      "▁3D": 8267,
      "▁harina": 8268,
      "auti": 8269,
      "▁success": 8270,
      "▁Earth": 8271,
      "▁india": 8272,
      "▁kaunti": 8273,
      "▁period": 8274,
      "▁tattoo": 8275,
      "vely": 8276,
      "ing-": 8277,
      "▁Sus": 8278,
      "▁Crus": 8279,
      "hic": 8280,
      "▁Open": 8281,
      "▁employer": 8282,
      "▁wan": 8283,
      "▁bale": 8284,
      "▁Die": 8285,
      "▁laborator": 8286,
      "▁truck": 8287,
      "-pag": 8288,
      "eryo": 8289,
      "▁bingo": 8290,
      "▁luk": 8291,
      "▁Regional": 8292,
      "▁zone": 8293,
      "▁kilometro": 8294,
      "diya": 8295,
      "▁hope": 8296,
      "▁katoliko": 8297,
      "-G": 8298,
      "endar": 8299,
      "▁Why": 8300,
      "▁tips": 8301,
      "▁hira": 8302,
      "▁London": 8303,
      "25": 8304,
      "ishing": 8305,
      "del": 8306,
      "▁paniwala": 8307,
      "the": 8308,
      "▁BR": 8309,
      "activ": 8310,
      "▁kumpirma": 8311,
      "▁products": 8312,
      "▁koton": 8313,
      "▁buwa": 8314,
      "▁Fed": 8315,
      "▁Corpor": 8316,
      "▁flax": 8317,
      "wers": 8318,
      "▁YO": 8319,
      "rinkle": 8320,
      "tya": 8321,
      "▁don't": 8322,
      "AB": 8323,
      "nn": 8324,
      "▁Committee": 8325,
      "▁latag": 8326,
      "▁nang": 8327,
      "▁sugar": 8328,
      "▁Dec": 8329,
      "▁reputasyon": 8330,
      "▁abu": 8331,
      "▁click": 8332,
      "hare": 8333,
      "▁Lim": 8334,
      "ommerce": 8335,
      "▁gulaman": 8336,
      "▁operating": 8337,
      "ech": 8338,
      "▁py": 8339,
      "rier": 8340,
      "▁ebang": 8341,
      "▁puta": 8342,
      "mers": 8343,
      "▁Mobile": 8344,
      "ardo": 8345,
      "▁guys": 8346,
      "GO": 8347,
      "▁swerte": 8348,
      "▁cri": 8349,
      "▁hibla": 8350,
      "▁doctor": 8351,
      "▁Mis": 8352,
      "▁meeting": 8353,
      "▁Provincial": 8354,
      "xid": 8355,
      "raphy": 8356,
      "▁talambuhay": 8357,
      "▁pusta": 8358,
      "▁distansya": 8359,
      "▁tambal": 8360,
      "▁pit": 8361,
      "▁igting": 8362,
      "kov": 8363,
      "▁AI": 8364,
      "hog": 8365,
      "pol": 8366,
      "▁gus": 8367,
      "▁pasig": 8368,
      "▁vacci": 8369,
      "▁ukulan": 8370,
      "ategories": 8371,
      "BM": 8372,
      "▁niyan": 8373,
      "▁makumpleto": 8374,
      "▁SCP": 8375,
      "loyd": 8376,
      "▁tiago": 8377,
      "mano": 8378,
      "▁Tok": 8379,
      "ultural": 8380,
      "musal": 8381,
      "kos": 8382,
      "▁kumpleto": 8383,
      "▁Oper": 8384,
      "▁van": 8385,
      "▁anyos": 8386,
      "▁kuts": 8387,
      "utube": 8388,
      "ikal": 8389,
      "▁promo": 8390,
      "sesong": 8391,
      "▁konteks": 8392,
      "▁bubo": 8393,
      "▁France": 8394,
      "▁subscription": 8395,
      "▁Indust": 8396,
      "ctive": 8397,
      "▁ket": 8398,
      "▁hyper": 8399,
      "▁silindro": 8400,
      "zan": 8401,
      "▁date": 8402,
      "imula": 8403,
      "▁Security": 8404,
      "▁college": 8405,
      "demiko": 8406,
      "▁emo": 8407,
      "▁piloso": 8408,
      "▁Just": 8409,
      "▁session": 8410,
      "-K": 8411,
      "OP": 8412,
      "roke": 8413,
      "▁komprehensibong": 8414,
      "▁PL": 8415,
      "▁Jessi": 8416,
      "▁scam": 8417,
      "▁gradu": 8418,
      "-la": 8419,
      "▁might": 8420,
      "▁tauhan": 8421,
      "▁maa": 8422,
      "ueva": 8423,
      "witch": 8424,
      "▁ita": 8425,
      "ened": 8426,
      "lect": 8427,
      "▁HIV": 8428,
      "umber": 8429,
      "▁Local": 8430,
      "▁repolyo": 8431,
      "▁estra": 8432,
      "▁Hay": 8433,
      "gent": 8434,
      "▁depar": 8435,
      "▁disorder": 8436,
      "▁nararanasan": 8437,
      "▁naapektuhan": 8438,
      "▁Kon": 8439,
      "▁working": 8440,
      "▁puki": 8441,
      "▁cover": 8442,
      "▁ratio": 8443,
      "▁cu": 8444,
      "▁makipag": 8445,
      "▁magic": 8446,
      "raps": 8447,
      "▁mix": 8448,
      "▁Website": 8449,
      "ITY": 8450,
      "▁chal": 8451,
      "▁gum": 8452,
      "▁Sil": 8453,
      "▁fran": 8454,
      "bato": 8455,
      "tilyo": 8456,
      "▁Luis": 8457,
      "▁Mad": 8458,
      "▁Trump": 8459,
      "rect": 8460,
      "toms": 8461,
      "▁almusal": 8462,
      "▁busy": 8463,
      "▁tupa": 8464,
      "▁Dad": 8465,
      "resses": 8466,
      "▁demo": 8467,
      "▁Engine": 8468,
      "yudad": 8469,
      "▁pag-re": 8470,
      "▁lagnat": 8471,
      "▁manufac": 8472,
      "▁percent": 8473,
      "▁alko": 8474,
      "subscribe": 8475,
      "ernador": 8476,
      "▁Tal": 8477,
      "pika": 8478,
      "▁mik": 8479,
      "▁Island": 8480,
      "▁zero": 8481,
      "▁malas": 8482,
      "rench": 8483,
      "▁oport": 8484,
      "▁lutang": 8485,
      "wang-tao": 8486,
      "paign": 8487,
      "▁Ci": 8488,
      "▁ayuda": 8489,
      "▁AL": 8490,
      "▁puma": 8491,
      "▁conn": 8492,
      "▁Cagayan": 8493,
      "prise": 8494,
      "▁kulot": 8495,
      "▁illegal": 8496,
      "cre": 8497,
      "hiti": 8498,
      "rr": 8499,
      "ulate": 8500,
      "▁Microsoft": 8501,
      "▁Chat": 8502,
      "▁Mor": 8503,
      "▁Fin": 8504,
      "▁yaya": 8505,
      "nergy": 8506,
      "▁gene": 8507,
      "▁Cons": 8508,
      "lene": 8509,
      "▁station": 8510,
      "▁high-": 8511,
      "▁Form": 8512,
      "▁Common": 8513,
      "▁psycho": 8514,
      "47": 8515,
      "wari": 8516,
      "▁Hahaha": 8517,
      "ffairs": 8518,
      "▁palas": 8519,
      "▁Eva": 8520,
      "▁Ky": 8521,
      "▁niyon": 8522,
      "▁word": 8523,
      "▁Fac": 8524,
      "▁See": 8525,
      "▁Express": 8526,
      "▁hiwaga": 8527,
      "▁sabaw": 8528,
      "▁palo": 8529,
      "▁protekta": 8530,
      "▁Kids": 8531,
      "latin": 8532,
      "tellig": 8533,
      "rical": 8534,
      "▁kabi": 8535,
      "▁turismo": 8536,
      "sic": 8537,
      "▁Hal": 8538,
      "▁1000": 8539,
      "OV": 8540,
      "▁fer": 8541,
      "cide": 8542,
      "unduan": 8543,
      "15": 8544,
      "▁tr": 8545,
      "inter": 8546,
      "▁Den": 8547,
      "▁grow": 8548,
      "▁pesos": 8549,
      "tamento": 8550,
      "▁GR": 8551,
      "▁korpor": 8552,
      "upak": 8553,
      "suit": 8554,
      "▁49": 8555,
      "▁offer": 8556,
      "urgery": 8557,
      "▁exchange": 8558,
      "xygen": 8559,
      "▁powder": 8560,
      "leas": 8561,
      "bula": 8562,
      "▁kumonekta": 8563,
      "▁CB": 8564,
      "▁Del": 8565,
      "▁Year": 8566,
      "▁Jake": 8567,
      "▁Dubai": 8568,
      "▁questions": 8569,
      "▁chocolate": 8570,
      "▁tape": 8571,
      "mptoms": 8572,
      "eks": 8573,
      "▁medium": 8574,
      "▁akademiko": 8575,
      "▁Entertainment": 8576,
      "▁firm": 8577,
      "▁Street": 8578,
      "▁haha": 8579,
      "▁small": 8580,
      "▁wallpaper": 8581,
      "▁Rate": 8582,
      "▁ministro": 8583,
      "▁ibabaw": 8584,
      "▁production": 8585,
      "vertise": 8586,
      "ml": 8587,
      "likod": 8588,
      "atibo": 8589,
      "▁i-play": 8590,
      "▁regla": 8591,
      "▁aci": 8592,
      "▁reme": 8593,
      "ews": 8594,
      "▁guide": 8595,
      "▁Any": 8596,
      "ena": 8597,
      "▁another": 8598,
      "▁Rose": 8599,
      "cking": 8600,
      "▁seed": 8601,
      "▁itsura": 8602,
      "▁Happy": 8603,
      "▁korporasyon": 8604,
      "riga": 8605,
      "dero": 8606,
      "gorith": 8607,
      "▁mes": 8608,
      "▁hustis": 8609,
      "▁facil": 8610,
      "▁Rev": 8611,
      "onald": 8612,
      "▁kutsara": 8613,
      "▁Sub": 8614,
      "▁Global": 8615,
      "▁hustisya": 8616,
      "▁cli": 8617,
      "▁reac": 8618,
      "ensity": 8619,
      "▁extension": 8620,
      "▁appro": 8621,
      "▁kapal": 8622,
      "▁Care": 8623,
      "nganga": 8624,
      "▁tex": 8625,
      "ruary": 8626,
      "▁entertainment": 8627,
      "▁pinansyal": 8628,
      "▁dalisay": 8629,
      "▁Sar": 8630,
      "▁RE": 8631,
      "matis": 8632,
      "▁Custo": 8633,
      "urces": 8634,
      "▁litro": 8635,
      "yy": 8636,
      "▁Pot": 8637,
      "▁AND": 8638,
      "▁sau": 8639,
      "▁diba": 8640,
      "▁May": 8641,
      "▁vib": 8642,
      "high": 8643,
      "▁____": 8644,
      "▁Cre": 8645,
      "▁tig": 8646,
      "▁Body": 8647,
      "kasya": 8648,
      "▁Exc": 8649,
      "▁anggulo": 8650,
      "asis": 8651,
      "▁lehiti": 8652,
      "▁langoy": 8653,
      "▁Japanese": 8654,
      "pac": 8655,
      "darama": 8656,
      "▁GC": 8657,
      "-H": 8658,
      "▁mig": 8659,
      "▁marri": 8660,
      "not": 8661,
      "▁daga": 8662,
      "▁tanga": 8663,
      "▁Not": 8664,
      "▁bloke": 8665,
      "ciety": 8666,
      "▁packaging": 8667,
      "▁desktop": 8668,
      "17": 8669,
      "bus": 8670,
      "ote": 8671,
      "▁hamak": 8672,
      "▁gobernador": 8673,
      "▁Manny": 8674,
      "df": 8675,
      "▁moral": 8676,
      "▁easy": 8677,
      "▁against": 8678,
      "▁Back": 8679,
      "▁Account": 8680,
      "TA": 8681,
      "▁atta": 8682,
      "rees": 8683,
      "▁Bela": 8684,
      "eon": 8685,
      "▁hardware": 8686,
      "▁sinusuportahan": 8687,
      "▁nguni": 8688,
      "eplay": 8689,
      "▁Now": 8690,
      "ched": 8691,
      "▁cere": 8692,
      "▁Festival": 8693,
      "▁padre": 8694,
      "▁Non": 8695,
      "▁bangga": 8696,
      "▁Malay": 8697,
      "▁intsik": 8698,
      "boslim": 8699,
      "▁lamblia": 8700,
      "▁ligsa": 8701,
      "▁Naka": 8702,
      "▁taguri": 8703,
      "bunyag": 8704,
      "zh": 8705,
      "▁dalawampu": 8706,
      "ulto": 8707,
      "rator": 8708,
      "▁pulgada": 8709,
      "▁tuldok": 8710,
      "▁dream": 8711,
      "▁rebel": 8712,
      "▁Mate": 8713,
      "II": 8714,
      "riel": 8715,
      "▁chance": 8716,
      "▁MD": 8717,
      "▁impluw": 8718,
      "▁monoxide": 8719,
      "▁solid": 8720,
      "jan": 8721,
      "▁bitcoin": 8722,
      "royo": 8723,
      "▁Wes": 8724,
      "▁istorya": 8725,
      "▁sibol": 8726,
      "quiao": 8727,
      "▁memorya": 8728,
      "plasty": 8729,
      "▁bom": 8730,
      "▁kapital": 8731,
      "▁mushroom": 8732,
      "▁Step": 8733,
      "▁pwet": 8734,
      "▁deter": 8735,
      "▁haw": 8736,
      "▁Come": 8737,
      "▁pores": 8738,
      "hiyoso": 8739,
      "▁benef": 8740,
      "▁pahid": 8741,
      "▁republika": 8742,
      "-ba": 8743,
      "▁pilak": 8744,
      "▁kasunduan": 8745,
      "▁shot": 8746,
      "▁600": 8747,
      "▁require": 8748,
      "kar": 8749,
      "▁bath": 8750,
      "▁Mag-click": 8751,
      "▁demonyo": 8752,
      "▁kamatis": 8753,
      "pped": 8754,
      "▁panty": 8755,
      "bing": 8756,
      "▁dina": 8757,
      "▁booking": 8758,
      "sules": 8759,
      "▁Task": 8760,
      "▁Sout": 8761,
      "-Ong": 8762,
      "▁bura": 8763,
      "▁lehitimo": 8764,
      "sal": 8765,
      "▁belie": 8766,
      "▁facebook": 8767,
      "insk": 8768,
      "▁bacter": 8769,
      "ural": 8770,
      "edyer": 8771,
      "EST": 8772,
      "▁Turboslim": 8773,
      "▁resolusyon": 8774,
      "45": 8775,
      "▁mari": 8776,
      "leen": 8777,
      "▁CS": 8778,
      "▁conver": 8779,
      "▁USD": 8780,
      "▁Ramoso": 8781,
      "▁Ramoso-Ong": 8782,
      "rek": 8783,
      "sanas": 8784,
      "▁propesor": 8785,
      "▁bunsod": 8786,
      "▁morning": 8787,
      "▁ast": 8788,
      "ulad": 8789,
      "▁prepa": 8790,
      "▁polit": 8791,
      "upload": 8792,
      "▁carbs": 8793,
      "▁plate": 8794,
      "▁sumailalim": 8795,
      "▁visual": 8796,
      "▁ubas": 8797,
      "▁Anti-A": 8798,
      "▁British": 8799,
      "upaktura": 8800,
      "▁naa": 8801,
      "▁bastos": 8802,
      "gether": 8803,
      "▁clos": 8804,
      "mahala": 8805,
      "▁possible": 8806,
      "mpany": 8807,
      "▁figure": 8808,
      "▁egg": 8809,
      "trade": 8810,
      "▁mag-apply": 8811,
      "▁norte": 8812,
      "▁pagbabag": 8813,
      "may": 8814,
      "ils": 8815,
      "▁opo": 8816,
      "doro": 8817,
      "▁Bur": 8818,
      "▁mansanas": 8819,
      "▁laglag": 8820,
      "▁wife": 8821,
      "lee": 8822,
      "▁alahas": 8823,
      "pisyal": 8824,
      "▁mananatiling": 8825,
      "▁package": 8826,
      "▁student": 8827,
      "▁Phen": 8828,
      "▁Mid": 8829,
      "▁NE": 8830,
      "▁services": 8831,
      "cation": 8832,
      "▁Bob": 8833,
      "▁i-save": 8834,
      "▁inggit": 8835,
      "pela": 8836,
      "mond": 8837,
      "▁spray": 8838,
      "▁abiso": 8839,
      "▁sabwat": 8840,
      "organ": 8841,
      "▁Bud": 8842,
      "▁thing": 8843,
      "▁hea": 8844,
      "▁Lee": 8845,
      "▁palapit": 8846,
      "▁tustos": 8847,
      "▁Tony": 8848,
      "▁using": 8849,
      "bor": 8850,
      "▁Slot": 8851,
      "▁road": 8852,
      "▁senyales": 8853,
      "▁continue": 8854,
      "ards": 8855,
      "▁Log": 8856,
      "▁inspek": 8857,
      "▁CEO": 8858,
      "▁version": 8859,
      "▁palasyo": 8860,
      "▁46": 8861,
      "friendly": 8862,
      "▁transportation": 8863,
      "▁fungi": 8864,
      "▁mys": 8865,
      "▁Taiwan": 8866,
      "▁bunso": 8867,
      "▁amin": 8868,
      "▁stri": 8869,
      "▁garden": 8870,
      "▁Categories": 8871,
      "▁Zam": 8872,
      "▁roller": 8873,
      "ertificate": 8874,
      "lod": 8875,
      "▁shabu": 8876,
      "presyon": 8877,
      "▁Washing": 8878,
      "▁stor": 8879,
      "▁die": 8880,
      "▁inda": 8881,
      "▁robot": 8882,
      "▁Hair": 8883,
      "▁Spokes": 8884,
      "▁Bulate": 8885,
      "▁move": 8886,
      "hhhhhhhh": 8887,
      "▁brief": 8888,
      "▁lusot": 8889,
      "▁Pacquiao": 8890,
      "▁impluwensiya": 8891,
      "cape": 8892,
      "▁AR": 8893,
      "▁bagkus": 8894,
      "helyo": 8895,
      "▁takbuhin": 8896,
      "vigate": 8897,
      "▁nag-a": 8898,
      "esearch": 8899,
      "▁PHP": 8900,
      "IE": 8901,
      "aplay": 8902,
      "▁carb": 8903,
      "▁poly": 8904,
      "▁College": 8905,
      "▁February": 8906,
      "TT": 8907,
      "eum": 8908,
      "masa": 8909,
      "▁Sat": 8910,
      "▁Dream": 8911,
      "▁Ann": 8912,
      "rgin": 8913,
      "▁both": 8914,
      "▁umunlad": 8915,
      "▁har": 8916,
      "cular": 8917,
      "▁Van": 8918,
      "▁Ans": 8919,
      "▁sensiti": 8920,
      "▁oportunidad": 8921,
      "mahal": 8922,
      "▁Gal": 8923,
      "▁coup": 8924,
      "▁algorith": 8925,
      "▁diskwento": 8926,
      "▁alkohol": 8927,
      "-star": 8928,
      "wes": 8929,
      "▁protesta": 8930,
      "▁Ven": 8931,
      "▁Cola": 8932,
      "-publish": 8933,
      "▁pataas": 8934,
      "-out": 8935,
      "▁eskwela": 8936,
      "uum": 8937,
      "▁PEP": 8938,
      "18": 8939,
      "▁atras": 8940,
      "▁taxi": 8941,
      "▁hours": 8942,
      "▁Camp": 8943,
      "▁Anti-Aging": 8944,
      "diin": 8945,
      "▁loss": 8946,
      "▁porma": 8947,
      "kumpirma": 8948,
      "▁Audiobook": 8949,
      "▁konteksto": 8950,
      "medi": 8951,
      "▁sandal": 8952,
      "eration": 8953,
      "▁Tim": 8954,
      "▁bakwit": 8955,
      "▁tuluy": 8956,
      "▁study": 8957,
      "▁cross": 8958,
      "▁oh": 8959,
      "ella": 8960,
      "▁mapahusay": 8961,
      "▁espesyalista": 8962,
      "▁pagmamanupaktura": 8963,
      "IK": 8964,
      "▁tingi": 8965,
      "▁creams": 8966,
      "▁artipisyal": 8967,
      "▁cabin": 8968,
      "fare": 8969,
      "▁DepEd": 8970,
      "▁ebanghelyo": 8971,
      "olo": 8972,
      "▁maki": 8973,
      "▁Lac": 8974,
      "▁Rey": 8975,
      "▁relationship": 8976,
      "▁dira": 8977,
      "▁flash": 8978,
      "mical": 8979,
      "dex": 8980,
      "▁sanib": 8981,
      "▁building": 8982,
      "-tuloy": 8983,
      "ctional": 8984,
      "oting": 8985,
      "▁Women": 8986,
      "▁Mommy": 8987,
      "▁tas": 8988,
      "▁ext": 8989,
      "-party": 8990,
      "cations": 8991,
      "▁sabon": 8992,
      "▁kamara": 8993,
      "▁trade": 8994,
      "▁USEC": 8995,
      "▁Baccarat": 8996,
      "▁IT": 8997,
      "eworm": 8998,
      "▁Grade": 8999,
      "▁risk": 9000,
      "▁'yung": 9001,
      "▁ayuno": 9002,
      "▁mahayag": 9003,
      "▁everything": 9004,
      "70": 9005,
      "▁reel": 9006,
      "meter": 9007,
      "▁hor": 9008,
      "▁Am": 9009,
      "patupad": 9010,
      "▁sofa": 9011,
      "▁Princess": 9012,
      "▁konstruksyon": 9013,
      "▁blockchain": 9014,
      "▁minutes": 9015,
      "▁Add": 9016,
      "▁ramdam": 9017,
      "▁George": 9018,
      "▁Night": 9019,
      "▁alm": 9020,
      "▁cone": 9021,
      "▁katha": 9022,
      "tology": 9023,
      "▁Sign": 9024,
      "▁china": 9025,
      "▁clear": 9026,
      "▁tuluy-tuloy": 9027,
      "▁kesa": 9028,
      "▁dakila": 9029,
      "▁magka": 9030,
      "▁Def": 9031,
      "▁Energy": 9032,
      "▁Washington": 9033,
      "▁pwesto": 9034,
      "▁himala": 9035,
      "▁Tar": 9036,
      "▁intro": 9037,
      "▁Carbon": 9038,
      "▁pokus": 9039,
      "ully": 9040,
      "▁paramdam": 9041,
      "▁Executive": 9042,
      "▁Harry": 9043,
      "▁etc": 9044,
      "fast": 9045,
      "▁Avenue": 9046,
      "pm": 9047,
      "doza": 9048,
      "▁tangkad": 9049,
      "▁stra": 9050,
      "▁pigmentation": 9051,
      "▁Iglesia": 9052,
      "▁photos": 9053,
      "▁hak": 9054,
      "break": 9055,
      "▁konstruksiyon": 9056,
      "▁Ran": 9057,
      "▁mit": 9058,
      "re-re": 9059,
      "▁plato": 9060,
      "▁kabutihan": 9061,
      "-friendly": 9062,
      "phy": 9063,
      "▁2nd": 9064,
      "▁milk": 9065,
      "▁instant": 9066,
      "▁general": 9067,
      "▁estratehiya": 9068,
      "▁imbestigahan": 9069,
      "▁aut": 9070,
      "▁From": 9071,
      "▁kaila": 9072,
      "▁tiklop": 9073,
      "utista": 9074,
      "▁Os": 9075,
      "xico": 9076,
      "yap": 9077,
      "lenge": 9078,
      "▁Rou": 9079,
      "▁facelift": 9080,
      "ime": 9081,
      "print": 9082,
      "▁Research": 9083,
      "istration": 9084,
      "▁talk": 9085,
      "▁chicken": 9086,
      "trigger": 9087,
      "▁Store": 9088,
      "claim": 9089,
      "uhin": 9090,
      "▁rek": 9091,
      "▁Son": 9092,
      "▁herbal": 9093,
      "moke": 9094,
      "▁Special": 9095,
      "▁complex": 9096,
      "▁tungga": 9097,
      "▁diretso": 9098,
      "▁kos": 9099,
      "ently": 9100,
      "▁welcome": 9101,
      "zen": 9102,
      "▁rosas": 9103,
      "hinga": 9104,
      "▁iling": 9105,
      "▁bigyang-diin": 9106,
      "SI": 9107,
      "tech": 9108,
      "▁article": 9109,
      "mination": 9110,
      "▁85": 9111,
      "rition": 9112,
      "rome": 9113,
      "▁together": 9114,
      "useum": 9115,
      "vator": 9116,
      "bigay": 9117,
      "▁P3": 9118,
      "▁professional": 9119,
      "panood": 9120,
      "▁salakay": 9121,
      "▁claim": 9122,
      "lymp": 9123,
      "▁product": 9124,
      "dinand": 9125,
      "▁testi": 9126,
      "▁Cone": 9127,
      "▁Credit": 9128,
      "▁wild": 9129,
      "▁prost": 9130,
      "▁def": 9131,
      "▁videos": 9132,
      "▁120": 9133,
      "-set": 9134,
      "▁sertipiko": 9135,
      "ali": 9136,
      "ngue": 9137,
      "▁Ok": 9138,
      "▁isk": 9139,
      "hintulutan": 9140,
      "vestigation": 9141,
      "▁moment": 9142,
      "▁Bagu": 9143,
      "▁iso": 9144,
      "dura": 9145,
      "▁munti": 9146,
      "▁Malaca": 9147,
      "ritis": 9148,
      "▁I-download": 9149,
      "▁departamento": 9150,
      "▁udyo": 9151,
      "▁fac": 9152,
      "▁abot-kaya": 9153,
      "▁oliba": 9154,
      "▁pranses": 9155,
      "▁udyok": 9156,
      "▁label": 9157,
      "▁pulot": 9158,
      "▁status": 9159,
      "▁words": 9160,
      "▁note": 9161,
      "▁Lea": 9162,
      "▁proteksiyon": 9163,
      "▁floor": 9164,
      "▁Thailand": 9165,
      "▁kriminal": 9166,
      "dik": 9167,
      "▁Cast": 9168,
      "▁palayo": 9169,
      "▁Trade": 9170,
      "-st": 9171,
      "mol": 9172,
      "▁aud": 9173,
      "▁ski": 9174,
      "▁sap": 9175,
      "▁kolon": 9176,
      "▁gameplay": 9177,
      "▁02": 9178,
      "▁giling": 9179,
      "▁half": 9180,
      "▁pagtalik": 9181,
      "▁consumer": 9182,
      "NA": 9183,
      "▁load": 9184,
      "▁cute": 9185,
      "▁ep": 9186,
      "▁IV": 9187,
      "▁aks": 9188,
      "▁86": 9189,
      "▁Assist": 9190,
      "▁Direk": 9191,
      "▁Christian": 9192,
      "▁Corporation": 9193,
      "bly": 9194,
      "▁layas": 9195,
      "▁pato": 9196,
      "▁Cala": 9197,
      "▁Stan": 9198,
      "▁essays": 9199,
      "▁Agric": 9200,
      "▁Land": 9201,
      "▁ground": 9202,
      "▁Victo": 9203,
      "▁distrito": 9204,
      "▁Ether": 9205,
      "ady": 9206,
      "▁favor": 9207,
      "▁swe": 9208,
      "▁ten": 9209,
      "▁Film": 9210,
      "▁prosesong": 9211,
      "▁army": 9212,
      "▁alagad": 9213,
      "▁talya": 9214,
      "▁hormones": 9215,
      "▁Mateo": 9216,
      "▁palay": 9217,
      "▁Jessica": 9218,
      "▁tell": 9219,
      "▁dy": 9220,
      "cord": 9221,
      "non": 9222,
      "▁Company": 9223,
      "▁mapang": 9224,
      "▁misteryo": 9225,
      "tro": 9226,
      "▁iti": 9227,
      "kabok": 9228,
      "▁oxygen": 9229,
      "▁lockdown": 9230,
      "urin": 9231,
      "▁sopas": 9232,
      "▁hanapbuhay": 9233,
      "▁alikabok": 9234,
      "▁Robredo": 9235,
      "▁br": 9236,
      "▁Treat": 9237,
      "▁resort": 9238,
      "▁Rol": 9239,
      "▁focus": 9240,
      "▁whole": 9241,
      "-E": 9242,
      "MS": 9243,
      "igner": 9244,
      "▁design": 9245,
      "timate": 9246,
      "▁algorithm": 9247,
      "obs": 9248,
      "▁Music": 9249,
      "tov": 9250,
      "▁until": 9251,
      "racay": 9252,
      "▁Queen": 9253,
      "▁tiktok": 9254,
      "teroid": 9255,
      "▁queen": 9256,
      "maka": 9257,
      "▁pagho-host": 9258,
      "▁Iran": 9259,
      "asahin": 9260,
      "▁Technology": 9261,
      "▁DSWD": 9262,
      "▁ada": 9263,
      "▁fair": 9264,
      "▁tugtog": 9265,
      "▁Roma": 9266,
      "lac": 9267,
      "tier": 9268,
      "▁Far": 9269,
      "▁lagyo": 9270,
      "comm": 9271,
      "▁mekani": 9272,
      "▁pait": 9273,
      "▁lift": 9274,
      "▁Han": 9275,
      "▁putik": 9276,
      "▁eleksyon": 9277,
      "▁dado": 9278,
      "▁grado": 9279,
      "itiis": 9280,
      "atistika": 9281,
      "pons": 9282,
      "▁presensya": 9283,
      "▁peace": 9284,
      "▁times": 9285,
      "▁matemati": 9286,
      "▁NBA": 9287,
      "▁tinedyer": 9288,
      "▁kredito": 9289,
      "▁apos": 9290,
      "▁Dam": 9291,
      "▁magda": 9292,
      "kadong": 9293,
      "▁Hello": 9294,
      "ices": 9295,
      "▁makaranas": 9296,
      "ratiko": 9297,
      "▁age": 9298,
      "▁author": 9299,
      "rena": 9300,
      "▁unan": 9301,
      "▁shower": 9302,
      "rowse": 9303,
      "▁sirk": 9304,
      "▁cock": 9305,
      "▁makaapekto": 9306,
      "▁wiki": 9307,
      "cot": 9308,
      "▁switch": 9309,
      "ilera": 9310,
      "▁52": 9311,
      "▁indian": 9312,
      "▁Airport": 9313,
      "ulfo": 9314,
      "▁past": 9315,
      "-free": 9316,
      "nary": 9317,
      "▁beer": 9318,
      "▁cyst": 9319,
      "vironment": 9320,
      "-cha": 9321,
      "onary": 9322,
      "▁true": 9323,
      "▁sesyon": 9324,
      "▁sulyap": 9325,
      "autiful": 9326,
      "ang-": 9327,
      "▁km": 9328,
      "hika": 9329,
      "▁Et": 9330,
      "▁Hen": 9331,
      "ungaling": 9332,
      "▁Project": 9333,
      "▁Elena": 9334,
      "▁blue": 9335,
      "▁lagas": 9336,
      "▁Minsk": 9337,
      "mmmm": 9338,
      "▁P5": 9339,
      "▁insu": 9340,
      "▁Hall": 9341,
      "quid": 9342,
      "tosterone": 9343,
      "▁snow": 9344,
      "laran": 9345,
      "onekta": 9346,
      "aly": 9347,
      "▁Dennis": 9348,
      "▁FR": 9349,
      "▁punas": 9350,
      "▁compa": 9351,
      "▁ipinakilala": 9352,
      "▁cycle": 9353,
      "▁hakbang": 9354,
      "ão": 9355,
      "▁hur": 9356,
      "▁Ayo": 9357,
      "uke": 9358,
      "▁via": 9359,
      "▁stand": 9360,
      "umang": 9361,
      "▁trial": 9362,
      "oooo": 9363,
      "▁value": 9364,
      "activate": 9365,
      "ilangan": 9366,
      "▁SC": 9367,
      "atar": 9368,
      "how": 9369,
      "▁NCR": 9370,
      "▁yours": 9371,
      "-chat": 9372,
      "▁Bags": 9373,
      "▁NPA": 9374,
      "sakit": 9375,
      "▁linta": 9376,
      "▁tatag": 9377,
      "lusyonaryo": 9378,
      "▁Tang": 9379,
      "▁excited": 9380,
      "▁stage": 9381,
      "▁shows": 9382,
      "▁selula": 9383,
      "active": 9384,
      "itulo": 9385,
      "▁Affairs": 9386,
      "▁Coco": 9387,
      "▁pregnan": 9388,
      "▁compo": 9389,
      "▁concert": 9390,
      "pret": 9391,
      "ania": 9392,
      "▁kind": 9393,
      "IVE": 9394,
      "▁male": 9395,
      "▁2006": 9396,
      "aaa": 9397,
      "▁keyword": 9398,
      "▁Sotto": 9399,
      "▁mukha-angat": 9400,
      "▁kunwari": 9401,
      "▁broad": 9402,
      "▁heneral": 9403,
      "▁Mendoza": 9404,
      "▁guard": 9405,
      "▁endor": 9406,
      "▁metabolismo": 9407,
      "bies": 9408,
      "basan": 9409,
      "▁kase": 9410,
      "▁mind": 9411,
      "▁title": 9412,
      "creen": 9413,
      "▁Series": 9414,
      "▁FAC": 9415,
      "▁shopping": 9416,
      "▁quarter": 9417,
      "▁foreign": 9418,
      "matic": 9419,
      "lements": 9420,
      "▁dual": 9421,
      "▁tamasahin": 9422,
      "▁makapangyari": 9423,
      "▁Baguio": 9424,
      "▁mood": 9425,
      "▁sungal": 9426,
      "▁cheese": 9427,
      "unch": 9428,
      "▁kalap": 9429,
      "▁Braz": 9430,
      "ointment": 9431,
      "PC": 9432,
      "▁less": 9433,
      "▁titulo": 9434,
      "rick": 9435,
      "▁ligal": 9436,
      "elly": 9437,
      "▁apps": 9438,
      "itude": 9439,
      "▁little": 9440,
      "▁imbento": 9441,
      "▁campaign": 9442,
      "▁oven": 9443,
      "▁pagdurusa": 9444,
      "▁permit": 9445,
      "▁wait": 9446,
      "▁lansang": 9447,
      "▁stars": 9448,
      "▁Customer": 9449,
      "eke": 9450,
      "▁guy": 9451,
      "▁Ther": 9452,
      "▁Alden": 9453,
      "▁statement": 9454,
      "RR": 9455,
      "ilo": 9456,
      "ping": 9457,
      "▁imprast": 9458,
      "▁templo": 9459,
      "▁Worms": 9460,
      "▁sustansya": 9461,
      "MC": 9462,
      "▁pm": 9463,
      "▁creat": 9464,
      "kie": 9465,
      "lywood": 9466,
      "▁i-install": 9467,
      "▁original": 9468,
      "▁tunggali": 9469,
      "pecial": 9470,
      "▁based": 9471,
      "▁feat": 9472,
      "FR": 9473,
      "TH": 9474,
      "▁Jour": 9475,
      "dal": 9476,
      "▁sagutan": 9477,
      "▁spins": 9478,
      "▁ilapat": 9479,
      "▁maramihan": 9480,
      "▁Sund": 9481,
      "▁proud": 9482,
      "gia": 9483,
      "pikasyon": 9484,
      "pansin": 9485,
      "▁Bautista": 9486,
      "▁weeks": 9487,
      "▁kapita": 9488,
      "▁bunot": 9489,
      "▁datu": 9490,
      "▁analy": 9491,
      "▁biti": 9492,
      "▁lilim": 9493,
      "▁Shang": 9494,
      "▁suweldo": 9495,
      "vings": 9496,
      "▁gold": 9497,
      "uction": 9498,
      "▁Family": 9499,
      "ffec": 9500,
      "cin": 9501,
      "ass": 9502,
      "▁antibo": 9503,
      "ngkok": 9504,
      "▁fact": 9505,
      "▁protektado": 9506,
      "▁camp": 9507,
      "lyo": 9508,
      "limu": 9509,
      "▁panimula": 9510,
      "▁mapagmahal": 9511,
      "▁lagkit": 9512,
      "▁prac": 9513,
      "onom": 9514,
      "boa": 9515,
      "netic": 9516,
      "paste": 9517,
      "ILI": 9518,
      "▁alemanya": 9519,
      "▁League": 9520,
      "▁multip": 9521,
      "rite": 9522,
      "▁gall": 9523,
      "cado": 9524,
      "▁lunok": 9525,
      "heads": 9526,
      "insi": 9527,
      "take": 9528,
      "▁release": 9529,
      "▁47": 9530,
      "▁idea": 9531,
      "▁supre": 9532,
      "▁tadhana": 9533,
      "ander": 9534,
      "▁Cel": 9535,
      "▁trak": 9536,
      "walya": 9537,
      "▁Season": 9538,
      "▁menor": 9539,
      "▁lyrics": 9540,
      "ganyak": 9541,
      "▁ipag": 9542,
      "▁Then": 9543,
      "cept": 9544,
      "▁token": 9545,
      "▁Leo": 9546,
      "vernor": 9547,
      "▁mananampalataya": 9548,
      "mpions": 9549,
      "GB": 9550,
      "teo": 9551,
      "▁lobo": 9552,
      "-15": 9553,
      "reement": 9554,
      "▁operations": 9555,
      "▁usap": 9556,
      "-kalidad": 9557,
      "▁bitiw": 9558,
      "▁dahan": 9559,
      "▁pagkansela": 9560,
      "▁Nico": 9561,
      "pez": 9562,
      "▁ingredi": 9563,
      "▁Boracay": 9564,
      "▁depensa": 9565,
      "▁Prime": 9566,
      "āh": 9567,
      "▁salon": 9568,
      "▁arkit": 9569,
      "INE": 9570,
      "klara": 9571,
      "▁third-party": 9572,
      "▁including": 9573,
      "▁physical": 9574,
      "just": 9575,
      "▁future": 9576,
      "▁panahunan": 9577,
      "▁agent": 9578,
      "▁Lucas": 9579,
      "▁Full": 9580,
      "▁sinungaling": 9581,
      "▁Mega": 9582,
      "21": 9583,
      "loo": 9584,
      "yor": 9585,
      "▁duma": 9586,
      "▁Belarus": 9587,
      "▁kam": 9588,
      "upgrade": 9589,
      "▁talent": 9590,
      "n't": 9591,
      "▁today": 9592,
      "▁sugod": 9593,
      "hia": 9594,
      "▁Maine": 9595,
      "maya": 9596,
      "yt": 9597,
      "▁able": 9598,
      "▁mag-sign": 9599,
      "▁progresibo": 9600,
      "▁Capital": 9601,
      "▁EDSA": 9602,
[...]
