{
  "version": "1.0",
  "truncation": null,
  "padding": null,
  "added_tokens": [
    {
      "id": 0,
      "content": "<unk>",
      "single_word": false,
      "lstrip": false,
      "rstrip": false,
      "normalized": false,
      "special": true
    },
    {
      "id": 1,
      "content": "<s>",
      "single_word": false,
      "lstrip": false,
      "rstrip": false,
      "normalized": false,
      "special": true
    },
    {
      "id": 2,
      "content": "</s>",
      "single_word": false,
      "lstrip": false,
      "rstrip": false,
      "normalized": false,
      "special": true
    }
  ],
  "normalizer": {
    "type": "Sequence",
    "normalizers": [
      {
        "type": "Nmt"
      },
      {
        "type": "NFKC"
      },
      {
        "type": "Replace",
        "pattern": {
          "Regex": " {2,}"
        },
        "content": " "
      }
    ]
  },
  "pre_tokenizer": {
    "type": "Metaspace",
    "replacement": "▁",
    "prepend_scheme": "always",
    "split": true
  },
  "post_processor": null,
  "decoder": {
    "type": "Metaspace",
    "replacement": "▁",
    "prepend_scheme": "always",
    "split": true
  },
  "model": {
    "type": "Unigram",
    "unk_id": 0,
    "vocab": [
      [
        "<unk>",
        0.0
      ],
      [
        "<s>",
        0.0
      ],
      [
        "</s>",
        0.0
      ],
      [
        "▁",
        -2.1741978880161845
      ],
      [
        "",
        -2.684538278232367
      ],
      [
        "▁sa",
        -3.3296999081762078
      ],
      [
        "▁ng",
        -3.4414787195117995
      ],
      [
        ".",
        -3.556920872889508
      ],
      [
        "▁ang",
        -3.641840162549686
      ],
      [
        "▁na",
        -3.6744992697654766
      ],
      [
        ",",
        -3.846578549347756
      ],
      [
        "▁mga",
        -4.030587895963004
      ],
      [
        "a",
        -4.317870416400913
      ],
      [
        "▁at",
        -4.435670117135908
      ],
      [
        "s",
        -4.4366980393233515
      ],
      [
        "▁ay",
        -4.512708488477832
      ],
      [
        "o",
        -4.787438504889286
      ],
      [
        "n",
        -4.997550167747319
      ],
      [
        "▁isa",
        -5.148367445891324
      ],
      [
        "t",
        -5.2285122498310574
      ],
      [
        "-",
        -5.279625180398563
      ],
      [
        "",
        -5.322709492922861
      ],
      [
        "g",
        -5.338053686676453
      ],
      [
        "i",
        -5.425719464450781
      ],
      [
        "▁ito",
        -5.43528979618471
      ],
      [
        "▁para",
        -5.45743391946198
      ],
      [
        "y",
        -5.4850956574792225
      ],
      [
        "▁kung",
        -5.515497430968933
      ],
      [
        "▁hindi",
        -5.607875243980301
      ],
      [
        "e",
        -5.658705246508466
      ],
      [
        "d",
        -5.730038539032071
      ],
      [
        "",
        -5.761729162671948
      ],
      [
        "m",
        -5.817130105549619
      ],
      [
        "▁may",
        -5.824465944787686
      ],
      [
        "",
        -5.827607816907049
      ],
      [
        "k",
        -5.834413588762072
      ],
      [
        "ng",
        -5.899052773318745
      ],
      [
        "▁pa",
        -5.902134781658999
      ],
      [
        "",
        -5.912485400002096
      ],
      [
        "",
        -5.946686772493987
      ],
      [
        "▁ko",
        -5.982031103544209
      ],
      [
        "▁upa",
        -6.011890972298264
      ],
      [
        "l",
        -6.028693180073782
      ],
      [
        "",
        -6.055778842719134
      ],
      [
        "▁ni",
        -6.071199037363501
      ],
      [
        ":",
        -6.086709170267913
      ],
      [
        "p",
        -6.111234681185348
      ],
      [
        "▁si",
        -6.115263025905026
      ],
      [
        "r",
        -6.136270129464997
      ],
      [
        "▁mo",
        -6.167927902811295
      ],
      [
        "",
        -6.187728266744232
      ],
      [
        "▁ka",
        -6.258306352929809
      ],
      [
        "",
        -6.288180397686862
      ],
      [
        "",
        -6.3310140594147875
      ],
      [
        "c",
        -6.3374830151990125
      ],
      [
        "▁iyo",
        -6.350357279105928
      ],
      [
        "",
        -6.381273135165344
      ],
      [
        ")",
        -6.412318304081817
      ],
      [
        "\"",
        -6.4256503715684605
      ],
      [
        "(",
        -6.434862958990184
      ],
      [
        "▁mula",
        -6.443186420261277
      ],
      [
        "",
        -6.4520598105463804
      ],
      [
        "u",
        -6.453941327967076
      ],
      [
        "?",
        -6.47629301115014
      ],
      [
        "b",
        -6.506418220176581
      ],
      [
        "",
        -6.510951049856427
      ],
      [
        "▁the",
        -6.528519567458231
      ],
      [
        "",
        -6.530883555061651
      ],
      [
        "",
        -6.583610327840551
      ],
      [
        "▁ako",
        -6.5886321590887444
      ],
      [
        "h",
        -6.604429516507041
      ],
      [
        "▁dahil",
        -6.6047800810793955
      ],
      [
        "",
        -6.618637127796708
      ],
      [
        "▁nang",
        -6.639271097654293
      ],
      [
        "▁ba",
        -6.651628311899582
      ],
      [
        "▁mas",
        -6.660787588536083
      ],
      [
        "▁kanyang",
        -6.660878723792978
      ],
      [
        "▁niya",
        -6.665042595583342
      ],
      [
        "▁siya",
        -6.666458346566509
      ],
      [
        "▁to",
        -6.692429406087259
      ],
      [
        "▁ban",
        -6.699644093683929
      ],
      [
        "w",
        -6.700862516991721
      ],
      [
        "!",
        -6.7364334937890575
      ],
      [
        "▁lang",
        -6.773337732173706
      ],
      [
        "▁lahat",
        -6.779500692735647
      ],
      [
        "",
        -6.782322662791785
      ],
      [
        "▁tao",
        -6.796075025145763
      ],
      [
        "f",
        -6.7963816124723735
      ],
      [
        "▁ano",
        -6.799183477499657
      ],
      [
        "“",
        -6.806807971660728
      ],
      [
        "na",
        -6.808238066702556
      ],
      [
        "’",
        -6.821323804991362
      ],
      [
        "▁ari",
        -6.83101739265129
      ],
      [
        "▁nila",
        -6.839058615444696
      ],
      [
        "▁and",
        -6.85066954997809
      ],
      [
        "”",
        -6.852243835877598
      ],
      [
        "▁rin",
        -6.883972919692887
      ],
      [
        "▁of",
        -6.886576165276445
      ],
      [
        "▁nito",
        -6.89493864646907
      ],
      [
        "to",
        -6.898477538603192
      ],
      [
        "▁bilang",
        -6.9307809201432224
      ],
      [
        "er",
        -6.93113232361846
      ],
      [
        "",
        -6.9326387097805355
      ],
      [
        "▁iba",
        -6.939106485207992
      ],
      [
        "▁timbang",
        -6.948604548673739
      ],
      [
        "",
        -6.955146003596488
      ],
      [
        "",
        -6.955434587308053
      ],
      [
        "▁wala",
        -6.9846004248814015
      ],
      [
        "ed",
        -6.9947320259842805
      ],
      [
        "▁isa",
        -7.0079693484336545
      ],
      [
        "▁ano",
        -7.0177862549949594
      ],
      [
        "",
        -7.022348508716645
      ],
      [
        "▁kaya",
        -7.024707656708806
      ],
      [
        "▁po",
        -7.032286613586603
      ],
      [
        "▁di",
        -7.032608051268822
      ],
      [
        "▁laki",
        -7.036187258331328
      ],
      [
        "|",
        -7.037933017674952
      ],
      [
        "▁dibdib",
        -7.045903398835657
      ],
      [
        "▁din",
        -7.056773906579437
      ],
      [
        "▁lamang",
        -7.072622759449709
      ],
      [
        "sa",
        -7.127057256837842
      ],
      [
        "ari",
        -7.14992748583491
      ],
      [
        "",
        -7.163680620780692
      ],
      [
        "",
        -7.169487396405669
      ],
      [
        "▁ngunit",
        -7.171321966047223
      ],
      [
        "▁in",
        -7.174671237896099
      ],
      [
        "▁sila",
        -7.177596619520537
      ],
      [
        "ang",
        -7.177764977604392
      ],
      [
        "▁pain",
        -7.179588846526864
      ],
      [
        "v",
        -7.1822726754601
      ],
      [
        "",
        -7.198054889080309
      ],
      [
        "▁mask",
        -7.201313631504892
      ],
      [
        "",
        -7.232425936100441
      ],
      [
        "",
        -7.236376794472516
      ],
      [
        "▁nila",
        -7.248937645828104
      ],
      [
        "",
        -7.254186206364418
      ],
      [
        "▁mo",
        -7.26035079877788
      ],
      [
        "re",
        -7.266167905197859
      ],
      [
        "",
        -7.270124482041339
      ],
      [
        "▁tungkol",
        -7.282917262930784
      ],
      [
        "▁re",
        -7.2903791199479535
      ],
      [
        "▁ilang",
        -7.295545153225195
      ],
      [
        "▁araw",
        -7.297774694272682
      ],
      [
        "▁dapat",
        -7.302940347220206
      ],
      [
        "▁giit",
        -7.318843690853251
      ],
      [
        "▁mata",
        -7.3280245546479605
      ],
      [
        "/",
        -7.335369140116674
      ],
      [
        "at",
        -7.340771217096364
      ],
      [
        "▁1",
        -7.343563521661094
      ],
      [
        "▁tulad",
        -7.349346588447061
      ],
      [
        "it",
        -7.34962011733518
      ],
      [
        "si",
        -7.353399447261747
      ],
      [
        "pag",
        -7.368728669647021
      ],
      [
        "▁saan",
        -7.374951524435758
      ],
      [
        "▁rami",
        -7.3767696363251805
      ],
      [
        "ri",
        -7.403571991726677
      ],
      [
        "▁ngayon",
        -7.410422914211731
      ],
      [
        "ly",
        -7.410851279877534
      ],
      [
        "▁baon",
        -7.431266846480792
      ],
      [
        "▁2",
        -7.432655103452484
      ],
      [
        "▁buhay",
        -7.443009931318359
      ],
      [
        "▁tapos",
        -7.447114391627423
      ],
      [
        "▁de",
        -7.451248416522931
      ],
      [
        "▁dito",
        -7.460581370999934
      ],
      [
        "▁noon",
        -7.467164939647173
      ],
      [
        "▁bata",
        -7.4693124810714036
      ],
      [
        "▁ina",
        -7.477372446906994
      ],
      [
        "▁pin",
        -7.482909510250417
      ],
      [
        "x",
        -7.486904347120873
      ],
      [
        "",
        -7.4905458723119
      ],
      [
        "▁kita",
        -7.495749362305819
      ],
      [
        "ka",
        -7.5036727989232155
      ],
      [
        "es",
        -7.519695657486201
      ],
      [
        "is",
        -7.5262115119651565
      ],
      [
        "▁pero",
        -7.529386847290386
      ],
      [
        "▁kay",
        -7.529396584515517
      ],
      [
        "or",
        -7.529867071231578
      ],
      [
        "▁bago",
        -7.534769970321072
      ],
      [
        "▁laro",
        -7.535559559105161
      ],
      [
        "▁suso",
        -7.536544472834704
      ],
      [
        "le",
        -7.538340980555308
      ],
      [
        "▁liit",
        -7.538824400498273
      ],
      [
        "▁kahit",
        -7.554805777291358
      ],
      [
        "▁wala",
        -7.562514206524257
      ],
      [
        "ro",
        -7.57146481187209
      ],
      [
        "▁worm",
        -7.582570669441157
      ],
      [
        "",
        -7.5849919950859395
      ],
      [
        "lo",
        -7.585672703861189
      ],
      [
        "▁alam",
        -7.592537135316105
      ],
      [
        "",
        -7.594217884754251
      ],
      [
        "li",
        -7.59522492694582
      ],
      [
        "▁for",
        -7.59688906418941
      ],
      [
        "▁3",
        -7.598860703388475
      ],
      [
        "▁haba",
        -7.599095129638881
      ],
      [
        "▁you",
        -7.609474531552227
      ],
      [
        "▁akin",
        -7.610700732805382
      ],
      [
        "▁hangga",
        -7.61377323124975
      ],
      [
        ";",
        -7.627444780542744
      ],
      [
        "▁oras",
        -7.629004052277116
      ],
      [
        "▁mukha",
        -7.6339629537335565
      ],
      [
        "ni",
        -7.643418277403313
      ],
      [
        "▁so",
        -7.644483934061741
      ],
      [
        "pa",
        -7.644725069736312
      ],
      [
        "ta",
        -7.649690474341071
      ],
      [
        "▁taon",
        -7.653953180947317
      ],
      [
        "▁bagay",
        -7.663830060128747
      ],
      [
        "▁kailangan",
        -7.665027041758233
      ],
      [
        "▁panahon",
        -7.665576481559546
      ],
      [
        "▁tayo",
        -7.6726869329326615
      ],
      [
        "▁loob",
        -7.673651006863425
      ],
      [
        "te",
        -7.6741063461623416
      ],
      [
        "▁me",
        -7.678090729550695
      ],
      [
        "yo",
        -7.6839661760776945
      ],
      [
        "mo",
        -7.6859137449670065
      ],
      [
        "z",
        -7.690799001696382
      ],
      [
        "▁sabi",
        -7.6930873656679495
      ],
      [
        "el",
        -7.696466179545373
      ],
      [
        "▁gusto",
        -7.697283430590746
      ],
      [
        "▁bawat",
        -7.700435673067048
      ],
      [
        "▁kami",
        -7.703283147425433
      ],
      [
        "▁taon",
        -7.703439250076904
      ],
      [
        "▁bahagi",
        -7.7075504683513625
      ],
      [
        "di",
        -7.709708558659788
      ],
      [
        "▁nasa",
        -7.712978443743209
      ],
      [
        "id",
        -7.7164133894128035
      ],
      [
        "▁bago",
        -7.718641073025921
      ],
      [
        "ko",
        -7.71965540778354
      ],
      [
        "▁amin",
        -7.724029158583006
      ],
      [
        "▁be",
        -7.727285735003406
      ],
      [
        "th",
        -7.731389061973619
      ],
      [
        "▁paraan",
        -7.736836035073347
      ],
      [
        "▁kang",
        -7.746563408185846
      ],
      [
        "▁ilalim",
        -7.747469102305972
      ],
      [
        "ay",
        -7.751003169603747
      ],
      [
        "ce",
        -7.754895281308318
      ],
      [
        "ch",
        -7.757625144806086
      ],
      [
        "▁ayon",
        -7.763732717854852
      ],
      [
        "ur",
        -7.765894148839179
      ],
      [
        "▁5",
        -7.783593838470923
      ],
      [
        "▁iyo",
        -7.804742658298213
      ],
      [
        "▁ati",
        -7.807503475698118
      ],
      [
        "",
        -7.81206617021264
      ],
      [
        "ter",
        -7.812978373835392
      ],
      [
        "",
        -7.814574311336521
      ],
      [
        "",
        -7.817213436255788
      ],
      [
        "▁higit",
        -7.821996116698868
      ],
      [
        "▁uri",
        -7.833263588725734
      ],
      [
        "▁yung",
        -7.836544312284241
      ],
      [
        "▁anak",
        -7.837949216179293
      ],
      [
        "ke",
        -7.838105036323681
      ],
      [
        "▁bahay",
        -7.838365909937236
      ],
      [
        "▁katawan",
        -7.8389767353457565
      ],
      [
        "▁al",
        -7.8445169112831845
      ],
      [
        "tong",
        -7.844643219158192
      ],
      [
        "▁una",
        -7.855522498691569
      ],
      [
        "▁sama",
        -7.8575047382643195
      ],
      [
        "▁review",
        -7.861981737566204
      ],
      [
        "▁sabi",
        -7.864375364558322
      ],
      [
        "ll",
        -7.870498899148652
      ],
      [
        "▁la",
        -7.872209673159624
      ],
      [
        "▁iyon",
        -7.8728778061491
      ],
      [
        "▁baba",
        -7.873570321914659
      ],
      [
        "▁ha",
        -7.875679897368981
      ],
      [
        "▁buo",
        -7.882123814834518
      ],
      [
        "▁da",
        -7.8886120967276305
      ],
      [
        "▁bansa",
        -7.889093854623331
      ],
      [
        "de",
        -7.8925026112506895
      ],
      [
        "▁online",
        -7.9065242623515
      ],
      [
        "▁sarili",
        -7.915435004497596
      ],
      [
        "▁pro",
        -7.916056335211099
      ],
      [
        "po",
        -7.920414960095087
      ],
      [
        "▁is",
        -7.921503601989578
      ],
      [
        "do",
        -7.9226685036264755
      ],
      [
        "an",
        -7.924186292293866
      ],
      [
        "0",
        -7.925068806793073
      ],
      [
        "▁lugar",
        -7.927727249719798
      ],
      [
        "▁kanya",
        -7.928239782802134
      ],
      [
        "",
        -7.931491993484178
      ],
      [
        "▁yaon",
        -7.933786652897055
      ],
      [
        "ba",
        -7.934213471428279
      ],
      [
        "ment",
        -7.9576926117436955
      ],
      [
        "",
        -7.958926778926447
      ],
      [
        "▁ko",
        -7.959136247936803
      ],
      [
        "roon",
        -7.968822192368618
      ],
      [
        "–",
        -7.969166529609307
      ],
      [
        "▁babae",
        -7.969321846123682
      ],
      [
        "▁co",
        -7.9748136381179116
      ],
      [
        "▁4",
        -7.981057573166497
      ],
      [
        "ck",
        -7.9813452043109
      ],
      [
        "ation",
        -7.988184979939128
      ],
      [
        "▁anuman",
        -7.989702614225315
      ],
      [
        "co",
        -7.989850620934133
      ],
      [
        "et",
        -7.996433942773066
      ],
      [
        "",
        -8.000303432837466
      ],
      [
        "",
        -8.00243681153754
      ],
      [
        "▁presyo",
        -8.005123692110924
      ],
      [
        "▁dalawa",
        -8.006059140235728
      ],
      [
        "▁sakit",
        -8.009188548890931
      ],
      [
        "▁husay",
        -8.014778591452885
      ],
      [
        "▁su",
        -8.01527199875887
      ],
      [
        "▁man",
        -8.015690506834925
      ],
      [
        "▁gawa",
        -8.02071631375454
      ],
      [
        "us",
        -8.026480035020581
      ],
      [
        "‘",
        -8.030563377500538
      ],
      [
        "▁diyos",
        -8.035306883654304
      ],
      [
        "▁bakit",
        -8.040507026117766
      ],
      [
        "▁ina",
        -8.043776127186101
      ],
      [
        "▁tulong",
        -8.048399741992263
      ],
      [
        "▁kasi",
        -8.066418268496669
      ],
      [
        "▁gawin",
        -8.06901693965346
      ],
      [
        "▁ti",
        -8.069109531519699
      ],
      [
        "▁tapos",
        -8.071238599195906
      ],
      [
        "bi",
        -8.073397314048657
      ],
      [
        "pe",
        -8.075191901892445
      ],
      [
        "▁ki",
        -8.090493986689788
      ],
      [
        "▁dala",
        -8.093264247005417
      ],
      [
        "▁se",
        -8.0947084951031
      ],
      [
        "bo",
        -8.105873776731931
      ],
      [
        "▁gu",
        -8.109653606286065
      ],
      [
        "▁kilala",
        -8.11336341686447
      ],
      [
        "1",
        -8.116782746971616
      ],
      [
        "ic",
        -8.123070935340085
      ],
      [
        "▁parasito",
        -8.124958324892402
      ],
      [
        "▁hi",
        -8.130244829046621
      ],
      [
        "▁siya",
        -8.135265029540307
      ],
      [
        "▁produkto",
        -8.137490978153393
      ],
      [
        "▁he",
        -8.141388736620911
      ],
      [
        "▁wala",
        -8.141750079235255
      ],
      [
        "ent",
        -8.15244787149106
      ],
      [
        "▁talaga",
        -8.154812189716107
      ],
      [
        "▁kain",
        -8.15486321389151
      ],
      [
        "▁bulate",
        -8.157793064652811
      ],
      [
        "",
        -8.15957410536984
      ],
      [
        "▁pag",
        -8.160299536548138
      ],
      [
        "5",
        -8.161735148874365
      ],
      [
        "▁gamit",
        -8.162651786853859
      ],
      [
        "▁trabaho",
        -8.165322465579788
      ],
      [
        "▁10",
        -8.17165942852116
      ],
      [
        "il",
        -8.177460189252185
      ],
      [
        "▁labas",
        -8.17785270731511
      ],
      [
        "▁video",
        -8.180959029568907
      ],
      [
        "▁with",
        -8.181915417712762
      ],
      [
        "▁ako",
        -8.191070282603546
      ],
      [
        "",
        -8.191391031517872
      ],
      [
        "▁'",
        -8.191768752414557
      ],
      [
        "",
        -8.192715652572923
      ],
      [
        "▁mundo",
        -8.19411647746257
      ],
      [
        "",
        -8.199679178437444
      ],
      [
        "▁bu",
        -8.204112090650415
      ],
      [
        "▁nais",
        -8.205503015548178
      ],
      [
        "▁that",
        -8.205922966491956
      ],
      [
        "durog",
        -8.207047640104733
      ],
      [
        "▁facial",
        -8.20764853063457
      ],
      [
        "▁laki",
        -8.208589960257015
      ],
      [
        "▁we",
        -8.209167065390854
      ],
      [
        "▁ako",
        -8.20919354927428
      ],
      [
        "▁mataas",
        -8.21819995551755
      ],
      [
        "j",
        -8.220658805419594
      ],
      [
        "▁ikaw",
        -8.222254945728782
      ],
      [
        "",
        -8.223459530866533
      ],
      [
        "▁us",
        -8.227461011462038
      ],
      [
        "▁bato",
        -8.237933475783787
      ],
      [
        "▁do",
        -8.238592315261279
      ],
      [
        "▁face",
        -8.246986943146332
      ],
      [
        "▁gamot",
        -8.247750528677997
      ],
      [
        "▁gawa",
        -8.248880943212104
      ],
      [
        "hi",
        -8.250550018412511
      ],
      [
        "▁tu",
        -8.25288790628721
      ],
      [
        "▁pilipinas",
        -8.254057251117487
      ],
      [
        "ling",
        -8.255957107855073
      ],
      [
        "▁balat",
        -8.256132679004212
      ],
      [
        "▁bilis",
        -8.256670604721606
      ],
      [
        "ate",
        -8.258448299955731
      ],
      [
        "▁rasites",
        -8.25970540050447
      ],
      [
        "ver",
        -8.263879584230635
      ],
      [
        "▁tubig",
        -8.269036943900218
      ],
      [
        "▁li",
        -8.270065336898154
      ],
      [
        "▁silang",
        -8.27376238578362
      ],
      [
        "",
        -8.273914413105377
      ],
      [
        "ting",
        -8.28114858379382
      ],
      [
        "",
        -8.281318222302863
      ],
      [
        "▁laraw",
        -8.282266979129144
      ],
      [
        "est",
        -8.287078724624994
      ],
      [
        "▁dating",
        -8.292944139918298
      ],
      [
        "▁tanong",
        -8.293576830089128
      ],
      [
        "▁gawa",
        -8.296603226048314
      ],
      [
        "▁or",
        -8.308925586826474
      ],
      [
        "▁una",
        -8.309178941242932
      ],
      [
        "ho",
        -8.30954339271992
      ],
      [
        "▁epekto",
        -8.311507595645415
      ],
      [
        "ber",
        -8.312429202139436
      ],
      [
        "▁unahin",
        -8.31571285959086
      ],
      [
        "▁laban",
        -8.3163297075759
      ],
      [
        "",
        -8.316509521710191
      ],
      [
        "▁halaga",
        -8.316751740669783
      ],
      [
        "",
        -8.317880460788203
      ],
      [
        "me",
        -8.319967950128305
      ],
      [
        "▁pera",
        -8.323112432056533
      ],
      [
        "▁pu",
        -8.323521103042161
      ],
      [
        "▁ma",
        -8.326279171941069
      ],
      [
        "ol",
        -8.326890542369048
      ],
      [
        "▁gamit",
        -8.327323367557504
      ],
      [
        "▁halimbawa",
        -8.332429960572723
      ],
      [
        "",
        -8.336615380293502
      ],
      [
        "▁ku",
        -8.338010040199583
      ],
      [
        "asyon",
        -8.338140359810934
      ],
      [
        "▁it",
        -8.343599370391717
      ],
      [
        "7",
        -8.346197664630687
      ],
      [
        "▁tunay",
        -8.352203528028948
      ],
      [
        "▁cream",
        -8.352556074527111
      ],
      [
        "",
        -8.353568411867185
      ],
      [
        "▁lalo",
        -8.355626224308283
      ],
      [
        "▁taba",
        -8.35722057145934
      ],
      [
        "▁lo",
        -8.361185695226851
      ],
      [
        "▁nya",
        -8.362678914036225
      ],
      [
        "",
        -8.36290239189686
      ],
      [
        "ul",
        -8.365695155200195
      ],
      [
        "▁alis",
        -8.366864876362676
      ],
      [
        "▁rami",
        -8.37338139464499
      ],
      [
        "um",
        -8.375115096016495
      ],
      [
        "ve",
        -8.376808912623373
      ],
      [
        "",
        -8.377073976384436
      ],
      [
        "▁kaysa",
        -8.377323885885364
      ],
      [
        "▁my",
        -8.377388646441123
      ],
      [
        "▁6",
        -8.378253064051949
      ],
      [
        "be",
        -8.378520624046743
      ],
      [
        "▁bar",
        -8.379836836672572
      ],
      [
        "▁lu",
        -8.380284039920435
      ],
      [
        "nila",
        -8.381514680327756
      ],
      [
        "▁tiyak",
        -8.382566393964428
      ],
      [
        "▁huwag",
        -8.384237462722464
      ],
      [
        "ral",
        -8.384645677190294
      ],
      [
        "▁problema",
        -8.385332487879916
      ],
      [
        "%",
        -8.386193247603188
      ],
      [
        "he",
        -8.38715065812619
      ],
      [
        "▁com",
        -8.389197181645953
      ],
      [
        "▁mi",
        -8.389216246735304
      ],
      [
        "▁casino",
        -8.390354373395656
      ],
      [
        "▁pala",
        -8.394457421849111
      ],
      [
        "tion",
        -8.395012489033183
      ],
      [
        "▁app",
        -8.398300956166606
      ],
      [
        "",
        -8.398616049515805
      ],
      [
        "lu",
        -8.399233776473823
      ],
      [
        "▁salita",
        -8.401142963503862
      ],
      [
        "der",
        -8.404096644279115
      ],
      [
        "res",
        -8.409283509721385
      ],
      [
        "▁buwa",
        -8.409521513697552
      ],
      [
        "▁ganap",
        -8.411129691192631
      ],
      [
        "ion",
        -8.412367732812012
      ],
      [
        "milya",
        -8.420832952686006
      ],
      [
        "▁husay",
        -8.424040442506344
      ],
      [
        "",
        -8.424495249039204
      ],
      [
        "▁this",
        -8.428913063348721
      ],
      [
        "▁fe",
        -8.429222877562015
      ],
      [
        "▁con",
        -8.431943707393462
      ],
      [
        "▁linggo",
        -8.435490875132322
      ],
      [
        "▁7",
        -8.4371340055154
      ],
      [
        "▁19",
        -8.437223657523658
      ],
      [
        "▁pi",
        -8.441196594334773
      ],
      [
        "tor",
        -8.44494350325996
      ],
      [
        "▁proseso",
        -8.445230572672504
      ],
      [
        "▁bilang",
        -8.446106732731632
      ],
      [
        "▁roon",
        -8.446722553021122
      ],
      [
        "▁gawa",
        -8.447067764874998
      ],
      [
        "▁serbisyo",
        -8.45035688087677
      ],
      [
        "wal",
        -8.450577352323243
      ],
      [
        "▁ca",
        -8.452584244936938
      ],
      [
        "▁bi",
        -8.45386170249268
      ],
      [
        "ado",
        -8.458182376030638
      ],
      [
        "▁lakas",
        -8.460128267544725
      ],
      [
        "▁up",
        -8.460699031383498
      ],
      [
        "pi",
        -8.462366834499123
      ],
      [
        "2",
        -8.464385598719678
      ],
      [
        "▁gamit",
        -8.468939990155391
      ],
      [
        "▁impormasyon",
        -8.472394674908681
      ],
      [
        "▁can",
        -8.473642345600714
      ],
      [
        "▁daw",
        -8.474488548271742
      ],
      [
        "▁post",
        -8.474760605234017
      ],
      [
        "",
        -8.475633992302411
      ],
      [
        "▁pareho",
        -8.477129634724069
      ],
      [
        "ers",
        -8.480144029173985
      ],
      [
        "▁sama",
        -8.480952147569328
      ],
      [
        "▁bo",
        -8.483105164286387
      ],
      [
        "▁gamit",
        -8.485439000808208
      ],
      [
        "",
        -8.487055465267652
      ],
      [
        "▁rin",
        -8.487946719868095
      ],
      [
        "▁site",
        -8.491228955263116
      ],
      [
        "▁simula",
        -8.497885877430242
      ],
      [
        "▁jo",
        -8.499360893997226
      ],
      [
        "",
        -8.500533733108018
      ],
      [
        "tal",
        -8.502984136774849
      ],
      [
        "vi",
        -8.505059365702847
      ],
      [
        "▁pati",
        -8.506077048466688
      ],
      [
        "▁sagot",
        -8.508811612681622
      ],
      [
        "wi",
        -8.510578612466707
      ],
      [
        "▁your",
        -8.51179460505171
      ],
      [
        "▁gigi",
        -8.512031793483224
      ],
      [
        "'",
        -8.513002930669202
      ],
      [
        "▁dali",
        -8.514786359573382
      ],
      [
        "▁resulta",
        -8.517619872608018
      ],
      [
        "▁gamit",
        -8.518635200295847
      ],
      [
        "3",
        -8.519232488888848
      ],
      [
        "▁by",
        -8.52556758122856
      ],
      [
        "▁noon",
        -8.52619283078102
      ],
      [
        "▁kamay",
        -8.529079741140386
      ],
      [
        "▁tapos",
        -8.531725950756
      ],
      [
        "▁ganda",
        -8.532126282563032
      ],
      [
        "▁patuloy",
        -8.535646895909453
      ],
      [
        "▁daan",
        -8.536601202614152
      ],
      [
        "▁are",
        -8.540204507151673
      ],
      [
        "roon",
        -8.540642222145445
      ],
      [
        "▁gigi",
        -8.54529853600288
      ],
      [
        "▁wala",
        -8.547502005493312
      ],
      [
        "▁dahilan",
        -8.550474963002902
      ],
      [
        "▁lang",
        -8.552352503918481
      ],
      [
        "son",
        -8.554880707553412
      ],
      [
        "▁karaniwan",
        -8.55503795610535
      ],
      [
        "",
        -8.556704783665486
      ],
      [
        "▁halos",
        -8.560657324324014
      ],
      [
        "",
        -8.56105658380114
      ],
      [
        "▁sulat",
        -8.563515577681857
      ],
      [
        "▁ex",
        -8.563539282897196
      ],
      [
        "tong",
        -8.56491085579971
      ],
      [
        "▁bigay",
        -8.56748427451996
      ],
      [
        "▁un",
        -8.571850896307554
      ],
      [
        "un",
        -8.572447088387328
      ],
      [
        "▁gamot",
        -8.572774509371792
      ],
      [
        "▁car",
        -8.573143301962546
      ],
      [
        "▁bata",
        -8.575590216584471
      ],
      [
        "▁city",
        -8.580083097399907
      ],
      [
        "▁sabi",
        -8.580304892085772
      ],
      [
        "",
        -8.580718271414467
      ],
      [
        "4",
        -8.586148307052387
      ],
      [
        "tic",
        -8.587961672162281
      ],
      [
        "▁handa",
        -8.590410433598251
      ],
      [
        "▁tiyan",
        -8.591988913972585
      ],
      [
        "▁niya",
        -8.600126717962494
      ],
      [
        "",
        -8.601162010918591
      ],
      [
        "▁8",
        -8.602357776203743
      ],
      [
        "▁mahal",
        -8.607965927442578
      ],
      [
        "▁galing",
        -8.61432672920864
      ],
      [
        "ine",
        -8.617850505451802
      ],
      [
        "▁kaso",
        -8.62048011649142
      ],
      [
        "▁taas",
        -8.621140060159235
      ],
      [
        "▁gala",
        -8.62158983420431
      ],
      [
        "▁basa",
        -8.622508542824804
      ],
      [
        "gal",
        -8.623225855889437
      ],
      [
        "*",
        -8.623416999883634
      ],
      [
        "aral",
        -8.62360541939916
      ],
      [
        "▁sya",
        -8.628182816728566
      ],
      [
        "▁not",
        -8.628665172238598
      ],
      [
        "▁le",
        -8.630591283229672
      ],
      [
        "▁asawa",
        -8.63401356319978
      ],
      [
        "▁gaano",
        -8.63571595447345
      ],
      [
        "▁slimming",
        -8.640523356002797
      ],
      [
        "▁puso",
        -8.640795388109828
      ],
      [
        "▁bili",
        -8.646191974870659
      ],
      [
        "",
        -8.650266870465234
      ],
      [
        "syon",
        -8.65110765366688
      ],
      [
        "▁talaga",
        -8.65470386582697
      ],
      [
        "in",
        -8.65678009808381
      ],
      [
        "▁doon",
        -8.659812489189449
      ],
      [
        "▁pe",
        -8.660027425327993
      ],
      [
        "▁kayo",
        -8.669119754631705
      ],
      [
        "",
        -8.66973065228183
      ],
      [
        "▁isip",
        -8.671230813969462
      ],
      [
        "▁dalas",
        -8.67245801144195
      ],
      [
        "▁tama",
        -8.672809372169402
      ],
      [
        "▁website",
        -8.673247163365897
      ],
      [
        "▁gabi",
        -8.676005173179455
      ],
      [
        "▁bayan",
        -8.678065028586396
      ],
      [
        "",
        -8.678270204637613
      ],
      [
        "▁lupa",
        -8.678900974365671
      ],
      [
        "—",
        -8.680192294630759
      ],
      [
        "▁wika",
        -8.681176715447217
      ],
      [
        "ist",
        -8.684104879525584
      ],
      [
        "▁kulay",
        -8.684233602590842
      ],
      [
        "ano",
        -8.684966408526853
      ],
      [
        "▁ano",
        -8.685196229256398
      ],
      [
        "▁negosyo",
        -8.686530518653676
      ],
      [
        "▁amin",
        -8.687446223177378
      ],
      [
        "▁kaibigan",
        -8.688652205663997
      ],
      [
        "",
        -8.689040862713645
      ],
      [
        "▁ke",
        -8.689452892217101
      ],
      [
        "▁ja",
        -8.690785545577326
      ],
      [
        "gawa",
        -8.695368797891554
      ],
      [
        "one",
        -8.696470110900927
      ],
      [
        "way",
        -8.701239474353635
      ],
      [
        "▁fa",
        -8.701629395529094
      ],
      [
        "▁dr",
        -8.702285906537199
      ],
      [
        "▁iba",
        -8.702982479648957
      ],
      [
        "▁per",
        -8.703537607853205
      ],
      [
        "▁dugo",
        -8.703596639473535
      ],
      [
        "▁breast",
        -8.705687033621032
      ],
      [
        "▁gastos",
        -8.706000109460714
      ],
      [
        "",
        -8.709549428987076
      ],
      [
        "▁mag",
        -8.710601311813763
      ],
      [
        "",
        -8.71151647521464
      ],
      [
        "les",
        -8.712144597537828
      ],
      [
        "▁ilan",
        -8.712292310191373
      ],
      [
        "▁agad",
        -8.712478284260156
      ],
      [
        "yon",
        -8.715683663700945
      ],
      [
        "▁account",
        -8.717224706336744
      ],
      [
        "min",
        -8.718864673334801
      ],
      [
        "▁ilang",
        -8.719203832310194
      ],
      [
        "▁ligid",
        -8.719672857193023
      ],
      [
        "▁laman",
        -8.719946823644214
      ],
      [
        "▁dagdag",
        -8.72040186657677
      ],
      [
        "▁kita",
        -8.724408814397915
      ],
      [
        "▁ro",
        -8.725033285636735
      ],
      [
        "age",
        -8.725406780007392
      ],
      [
        "▁kpanya",
        -8.726739770741801
      ],
      [
        "▁hu",
        -8.727099321378939
      ],
      [
        "▁baba",
        -8.727286647691711
      ],
      [
        "",
        -8.729904801649475
      ],
      [
        "▁sarili",
        -8.730266718894281
      ],
      [
        "▁pagitan",
        -8.733223527182469
      ],
      [
        "▁yun",
        -8.7333060400193
      ],
      [
        "▁pre",
        -8.734251793792433
      ],
      [
        "▁usap",
        -8.734650460524298
      ],
      [
        "▁yari",
        -8.734693377754052
      ],
      [
        "▁sino",
        -8.736284647442908
      ],
      [
        "port",
        -8.739355486976597
      ],
      [
        "▁ri",
        -8.739908448368249
      ],
      [
        "▁ho",
        -8.742929693720841
      ],
      [
        "ff",
        -8.744780811431765
      ],
      [
        "bu",
        -8.745087412694389
      ],
      [
        "",
        -8.746151558490903
      ],
      [
        "and",
        -8.746750696511155
      ],
      [
        "▁bigay",
        -8.74678412085654
      ],
      [
        "",
        -8.75004353525317
      ],
      [
        "▁20",
        -8.750519612744307
      ],
      [
        "rami",
        -8.751399639412012
      ],
      [
        "▁all",
        -8.757180556251384
      ],
      [
        "▁filipino",
        -8.75753530166686
      ],
      [
        "▁vi",
        -8.759436657487157
      ],
      [
        "]",
        -8.760124273386927
      ],
      [
        "[",
        -8.760558902464913
      ],
      [
        "▁was",
        -8.761110733433094
      ],
      [
        "▁000",
        -8.76142147779933
      ],
      [
        "▁tatlo",
        -8.763944163733951
      ],
      [
        "▁ar",
        -8.764010950503364
      ],
      [
        "#",
        -8.76617169034451
      ],
      [
        "▁dagdag",
        -8.767164674129349
      ],
      [
        "ance",
        -8.77055854477844
      ],
      [
        "las",
        -8.77094813465037
      ],
      [
        "▁bukas",
        -8.77172745455024
      ],
      [
        "▁surgery",
        -8.773301308817631
      ],
      [
        "▁puno",
        -8.773750857089937
      ],
      [
        "▁ligtas",
        -8.775915150093635
      ],
      [
        "▁out",
        -8.777007836198589
      ],
      [
        "",
        -8.780638581723107
      ],
      [
        "▁dansa",
        -8.781424866621176
      ],
      [
        "▁plano",
        -8.7823606374618
      ],
      [
        "▁kailangan",
        -8.7825339456028
      ],
      [
        "▁gayunpam",
        -8.783201586617702
      ],
      [
        "▁harap",
        -8.787288141016768
      ],
      [
        "",
        -8.787391167097315
      ],
      [
        "▁kuha",
        -8.787799822495613
      ],
      [
        "pit",
        -8.788811500746945
      ],
      [
        "ten",
        -8.79036515414065
      ],
      [
        "ph",
        -8.790734184306695
      ],
      [
        "ven",
        -8.791143573047638
      ],
      [
        "und",
        -8.793833269125855
      ],
      [
        "▁baka",
        -8.795864119323554
      ],
      [
        "ive",
        -8.795984103035817
      ],
      [
        "▁je",
        -8.79990516097878
      ],
      [
        "▁12",
        -8.801116925943195
      ],
      [
        "taon",
        -8.803118122514723
      ],
      [
        "▁sc",
        -8.804136330277506
      ],
      [
        "▁diyeta",
        -8.804834197126839
      ],
      [
        "den",
        -8.805433273311085
      ],
      [
        "bong",
        -8.807671451230902
      ],
      [
        "▁daan",
        -8.809556244737879
      ],
      [
        "up",
        -8.81208558953231
      ],
      [
        "9",
        -8.813166348325444
      ],
      [
        "ger",
        -8.813230552278492
      ],
      [
        "▁ama",
        -8.81684562773738
      ],
      [
        "land",
        -8.818284275905514
      ],
      [
        "▁bayad",
        -8.818526181727863
      ],
      [
        "▁suporta",
        -8.81868193889285
      ],
      [
        "▁sira",
        -8.819027930753471
      ],
      [
        "▁ani",
        -8.819988990768254
      ],
      [
        "▁time",
        -8.820171180348428
      ],
      [
        "▁eh",
        -8.822850255045648
      ],
      [
        "▁pilipino",
        -8.830643621418115
      ],
      [
        "▁gawa",
        -8.832095279917871
      ],
      [
        "ron",
        -8.833110483373437
      ],
      [
        "▁laba",
        -8.835434297000825
      ],
      [
        "▁sanhi",
        -8.835488679533414
      ],
      [
        "▁tina",
        -8.835986576540769
      ],
      [
        "▁her",
        -8.839433065060893
      ],
      [
        "per",
        -8.842696053126954
      ],
      [
        "▁batay",
        -8.842962140806689
      ],
      [
        "▁libre",
        -8.846747881521257
      ],
      [
        "$",
        -8.848131131248634
      ],
      [
        "ga",
        -8.848261889984688
      ],
      [
        "end",
        -8.84915785780539
      ],
      [
        "▁hakbang",
        -8.850149851419678
      ],
      [
        "▁bukod",
        -8.852831016246698
      ],
      [
        "let",
        -8.853029238815935
      ],
      [
        "lang",
        -8.854453360545193
      ],
      [
        "han",
        -8.8546513687358
      ],
      [
        "▁lagi",
        -8.85469241130123
      ],
      [
        "▁dami",
        -8.85583548829878
      ],
      [
        "▁30",
        -8.855878257421718
      ],
      [
        "awa",
        -8.855952250776092
      ],
      [
        "▁giardia",
        -8.856290309501281
      ],
      [
        "▁customer",
        -8.858188051848767
      ],
      [
        "▁kuha",
        -8.863549110320548
      ],
      [
        "lim",
        -8.863618129431698
      ],
      [
        "ther",
        -8.864929316239657
      ],
      [
        "▁15",
        -8.866315142699557
      ],
      [
        "▁programa",
        -8.866617076459896
      ],
      [
        "▁eye",
        -8.866997893104168
      ],
      [
        "▁dalawa",
        -8.869866793653753
      ],
      [
        "▁hirap",
        -8.875040974320214
      ],
      [
        "▁sta",
        -8.876192612158546
      ],
      [
        "▁hirap",
        -8.87639600538428
      ],
      [
        "▁kita",
        -8.877509464966044
      ],
      [
        "▁aral",
        -8.879949925226981
      ],
      [
        "▁tra",
        -8.883471422077958
      ],
      [
        "▁sp",
        -8.885773914005593
      ],
      [
        "▁malaki",
        -8.888189144529271
      ],
      [
        "▁ulat",
        -8.890098823368195
      ],
      [
        "▁halaga",
        -8.891293382277476
      ],
      [
        "▁personal",
        -8.892650681056741
      ],
      [
        "▁she",
        -8.894556745762344
      ],
      [
        "▁lusog",
        -8.896122365026116
      ],
      [
        "▁huli",
        -8.89841245274371
      ],
      [
        "ster",
        -8.899886159153445
      ],
      [
        "ala",
        -8.900924811265199
      ],
      [
        "▁muli",
        -8.903523285838455
      ],
      [
        "▁layo",
        -8.903704927061076
      ],
      [
        "",
        -8.905373464863542
      ],
      [
        "▁from",
        -8.905658330688308
      ],
      [
        "▁but",
        -8.906629375243613
      ],
      [
        "▁takot",
        -8.907958496425968
      ],
      [
        "▁tawa",
        -8.908316743247815
      ],
      [
        "▁tampok",
        -8.908836253036103
      ],
      [
        "▁antas",
        -8.90994034606228
      ],
      [
        "bay",
        -8.912447198485054
      ],
      [
        "▁health",
        -8.91370029890913
      ],
      [
        "▁kain",
        -8.914552720382487
      ],
      [
        "bal",
        -8.916663529164031
      ],
      [
        "bago",
        -8.917426135601907
      ],
      [
        "'s",
        -8.918141746588116
      ],
      [
        "▁hala",
        -8.918209175974054
      ],
      [
        "mer",
        -8.918841606766048
      ],
      [
        "▁love",
        -8.91992124535384
      ],
      [
        "▁bili",
        -8.927319260506605
      ],
      [
        "▁mina",
        -8.928247654827965
      ],
      [
        "▁wrinkles",
        -8.928274808110586
      ],
      [
        "ara",
        -8.929771764298266
      ],
      [
        "▁salamat",
        -8.930187040111798
      ],
      [
        "▁work",
        -8.930384107573783
      ],
      [
        "▁balita",
        -8.934519324678286
      ],
      [
        "",
        -8.935014770674254
      ],
      [
        "▁sapat",
        -8.935593931776104
      ],
      [
        "bre",
        -8.936384467108029
      ],
      [
        "▁card",
        -8.936615146997145
      ],
      [
        "▁yan",
        -8.936979982148372
      ],
      [
        "▁ibig",
        -8.93708832028351
      ],
      [
        "▁sistema",
        -8.9372829107856
      ],
      [
        "men",
        -8.937565194038022
      ],
      [
        "▁bilis",
        -8.939567273566848
      ],
      [
        "ner",
        -8.939879251983868
      ],
      [
        "lit",
        -8.93996075511375
      ],
      [
        "▁baon",
        -8.941318167920615
      ],
      [
        "▁halaman",
        -8.942487997083706
      ],
      [
        "sunod",
        -8.942528202333419
      ],
      [
        "▁kuha",
        -8.942682270698858
      ],
      [
        "▁mu",
        -8.943138503234344
      ],
      [
        "+",
        -8.944441247310989
      ],
      [
        "▁muna",
        -8.946202561468453
      ],
      [
        "▁data",
        -8.948283319711416
      ],
      [
        "▁daan",
        -8.949711652158024
      ],
      [
        "ista",
        -8.949762714323356
      ],
      [
        "tak",
        -8.953710606759422
      ],
      [
        "▁du",
        -8.95400510629978
      ],
      [
        "du",
        -8.955927656694612
      ],
      [
        "▁batas",
        -8.960872210345345
      ],
      [
        "▁buti",
        -8.960989915438116
      ],
      [
        "▁edad",
        -8.963418250091788
      ],
      [
        "",
        -8.970781147653607
      ],
      [
        "▁babae",
        -8.970855883394798
      ],
      [
        "pag",
        -8.97170172833989
      ],
      [
        "▁mens",
        -8.973468859285134
      ],
      [
        "▁don",
        -8.97384266733899
      ],
      [
        "▁have",
        -8.974655268459374
      ],
      [
        "▁huli",
        -8.974900142187717
      ],
      [
        "▁ju",
        -8.977270148317931
      ],
      [
        "▁raw",
        -8.978808799981463
      ],
      [
        "mit",
        -8.980055092168826
      ],
      [
        "",
        -8.980247685437556
      ],
      [
        "▁system",
        -8.980278095987988
      ],
      [
        "▁pri",
        -8.981154812368944
      ],
      [
        "▁9",
        -8.983106007603077
      ],
      [
        "ina",
        -8.985765421079767
      ],
      [
        "able",
        -8.991173445820346
      ],
      [
        "rap",
        -8.99130597799793
      ],
      [
        "lig",
        -8.992426918786895
      ],
      [
        "▁pansin",
        -8.995321552569928
      ],
      [
        "ight",
        -8.995649070532545
      ],
      [
        "▁ina",
        -8.998735154360286
      ],
      [
        "▁gaya",
        -9.000141176969233
      ],
      [
        "▁media",
        -9.000153438042693
      ],
      [
        "▁balik",
        -9.002464536918326
      ],
      [
        "▁langis",
        -9.002723263357769
      ],
      [
        "ary",
        -9.003571973185707
      ],
      [
        "ili",
        -9.005329280823139
      ],
      [
        "▁lapit",
        -9.005467196615063
      ],
      [
        "▁tama",
        -9.005767361649013
      ],
      [
        "▁medyo",
        -9.007634371458169
      ],
      [
        "▁ayos",
        -9.009610980395733
      ],
      [
        "pu",
        -9.012446036401425
      ],
      [
        "ction",
        -9.01342248612443
      ],
      [
        "lar",
        -9.015204625597704
      ],
      [
        "▁buhok",
        -9.016184953827308
      ],
      [
        "ris",
        -9.017006055120074
      ],
      [
        "▁will",
        -9.017484269233842
      ],
      [
        "▁social",
        -9.018010359895696
      ],
      [
        "▁dating",
        -9.018130763699267
      ],
      [
        "",
        -9.02276993063695
      ],
      [
        "tar",
        -9.023044375481318
      ],
      [
        "lik",
        -9.023740607145443
      ],
      [
        "low",
        -9.023975818046589
      ],
      [
        "▁iwan",
        -9.02451680082882
      ],
      [
        "▁ganito",
        -9.025122899406284
      ],
      [
        "▁diin",
        -9.026133388656987
      ],
      [
        "▁live",
        -9.029154095663932
      ],
      [
        "sya",
        -9.029470036823081
      ],
      [
        "ble",
        -9.030448401300134
      ],
      [
        "▁slot",
        -9.031129885479823
      ],
      [
        "ard",
        -9.032733344640754
      ],
      [
        "▁tingin",
        -9.035818537858598
      ],
      [
        "▁how",
        -9.03769589898396
      ],
      [
        "▁gra",
        -9.038183522737414
      ],
      [
        "▁ngayon",
        -9.038188252980778
      ],
      [
        "▁talo",
        -9.038870279023119
      ],
      [
        "tro",
        -9.041355845737321
      ],
      [
        "▁katotohanan",
        -9.043131957849036
      ],
      [
        "▁mismo",
        -9.043528482605426
      ],
      [
        "lad",
        -9.043546973599696
      ],
      [
        "▁high",
        -9.044593882053356
      ],
      [
        "we",
        -9.0472362688962
      ],
      [
        "▁cl",
        -9.048872594353885
      ],
      [
        "▁disenyo",
        -9.049722421314865
      ],
      [
        "ear",
        -9.051501939601216
      ],
      [
        "▁our",
        -9.051520736035297
      ],
      [
        "idad",
        -9.054570018094996
      ],
      [
        "",
        -9.056590478905232
      ],
      [
        "▁gamit",
        -9.056996732144947
      ],
      [
        "nte",
        -9.057215780701307
      ],
      [
        "▁gol",
        -9.057487788976424
      ],
      [
        "qui",
        -9.061218153724337
      ],
      [
        "▁pili",
        -9.061727622001769
      ],
      [
        "▁tuloy",
        -9.061968087019162
      ],
      [
        "▁j",
        -9.062105456357676
      ],
      [
        "▁posible",
        -9.062380791793279
      ],
      [
        "ub",
        -9.062678927305292
      ],
      [
        "▁bisita",
        -9.063657203217986
      ],
      [
        "▁ina",
        -9.063891665168612
      ],
      [
        "▁kundi",
        -9.064035406682898
      ],
      [
        "▁lakas",
        -9.06765576724291
      ],
      [
        "alok",
        -9.067696268460702
      ],
      [
        "suri",
        -9.067735455171078
      ],
      [
        "▁sub",
        -9.069164176551967
      ],
      [
        "▁lungsod",
        -9.070466861327484
      ],
      [
        "▁va",
        -9.071191976195786
      ],
      [
        "bat",
        -9.073552662133755
      ],
      [
        "nya",
        -9.074058419277348
      ],
      [
        "▁turo",
        -9.074408611889385
      ],
      [
        "▁day",
        -9.074444072704503
      ],
      [
        "▁tawag",
        -9.075263909702686
      ],
      [
        "tre",
        -9.0752924965143
      ],
      [
        "▁beses",
        -9.07747914441761
      ],
      [
        "&",
        -9.078350578533389
      ],
      [
        "▁sikat",
        -9.080113552323773
      ],
      [
        "▁buo",
        -9.080659512635457
      ],
      [
        "▁hala",
        -9.080742867003282
      ],
      [
        "▁rito",
        -9.082161919574773
      ],
      [
        "▁gulang",
        -9.082988351319718
      ],
      [
        "▁tila",
        -9.085629886698694
      ],
      [
        "▁more",
        -9.086772438188188
      ],
      [
        "ung",
        -9.086797221277308
      ],
      [
        "",
        -9.086826963028063
      ],
      [
        "▁inyo",
        -9.087697607384587
      ],
      [
        "ser",
        -9.087711119278536
      ],
      [
        "",
        -9.090596186316981
      ],
      [
        "▁muli",
        -9.091131099174456
      ],
      [
        "▁totoo",
        -9.093047490047967
      ],
      [
        "ku",
        -9.094981054848184
      ],
      [
        "▁cr",
        -9.09524604483015
      ],
      [
        "pla",
        -9.09667391214953
      ],
      [
        "▁isyu",
        -9.096915056222786
      ],
      [
        "line",
        -9.097669568875066
      ],
      [
        "▁what",
        -9.098418994829045
      ],
      [
        "▁buti",
        -9.099935347609945
      ],
      [
        "",
        -9.100554040717116
      ],
      [
        "▁tingnan",
        -9.10087105045364
      ],
      [
        "▁roon",
        -9.10235198187859
      ],
      [
        "▁kita",
        -9.102841879351562
      ],
      [
        "ila",
        -9.104306911796376
      ],
      [
        "roon",
        -9.104883232022294
      ],
      [
        "▁tiwala",
        -9.105568855600588
      ],
      [
        "▁siguro",
        -9.107212270803958
      ],
      [
        "ies",
        -9.107741103666283
      ],
      [
        "▁ulo",
        -9.108847950398419
      ],
      [
        "▁100",
        -9.109201565719514
      ],
      [
        "▁fu",
        -9.109671820926959
      ],
      [
        "▁madali",
        -9.110677742278664
      ],
      [
        "▁layo",
        -9.111584565984325
      ],
      [
        "ula",
        -9.111657663013498
      ],
      [
        "▁tali",
        -9.114316421491157
      ],
      [
        "▁hinga",
        -9.11741229675516
      ],
      [
        "▁mana",
        -9.11793021350742
      ],
      [
        "ze",
        -9.118238781315924
      ],
      [
        "▁fo",
        -9.118340493862418
      ],
      [
        "lic",
        -9.118538076709932
      ],
      [
        "▁sangkap",
        -9.118995627566076
      ],
      [
        "▁sobra",
        -9.12052801283408
      ],
      [
        "tulad",
        -9.121981031847898
      ],
      [
        "▁benta",
        -9.12360981181662
      ],
      [
        "▁kwento",
        -9.123655668677655
      ],
      [
        "▁labis",
        -9.124084254981483
      ],
      [
        "▁11",
        -9.125631364969184
      ],
      [
        "▁ganda",
        -9.127302833214783
      ],
      [
        "ric",
        -9.127450759192888
      ],
      [
        "▁pasa",
        -9.127762251850825
      ],
      [
        "▁punta",
        -9.128091015877958
      ],
      [
        "sion",
        -9.128958606537955
      ],
      [
        "ler",
        -9.129102882336777
      ],
      [
        "▁email",
        -9.12972319608853
      ],
      [
        "▁new",
        -9.131004721565747
      ],
      [
        "▁covid-19",
        -9.131404090764706
      ],
      [
        "ous",
        -9.132061713585502
      ],
      [
        "▁plastic",
        -9.132349711887258
      ],
      [
        "ib",
        -9.134009317384187
      ],
      [
        "▁col",
        -9.134541857654058
      ],
      [
        "lot",
        -9.135368712816895
      ],
      [
        "▁natural",
        -9.138147284753666
      ],
      [
        "▁host",
        -9.138202381780706
      ],
      [
        "ud",
        -9.138323554652906
      ],
      [
        "by",
        -9.138669645104095
      ],
      [
        "▁sunod",
        -9.138997225560791
      ],
      [
        "▁tula",
        -9.139182607220874
      ],
      [
        "▁sintomas",
        -9.141294966231609
      ],
      [
        "inta",
        -9.14158613487826
      ],
      [
        "▁punta",
        -9.144728538213801
      ],
      [
        "",
        -9.146194571985218
      ],
      [
        "▁init",
        -9.146498679243871
      ],
      [
        "▁tagumpay",
        -9.146551585699811
      ],
      [
        "lip",
        -9.14667539468428
      ],
      [
        "uk",
        -9.147960157184883
      ],
      [
        "m",
        -9.148514487389871
      ],
      [
        "ld",
        -9.148602744793104
      ],
      [
        "▁patay",
        -9.149678433168187
      ],
      [
        "cle",
        -9.151363511120076
      ],
      [
        "▁relasyon",
        -9.151450050298287
      ],
      [
        "lan",
        -9.15216672857108
      ],
      [
        "use",
        -9.152346524637863
      ],
      [
        "▁diet",
        -9.153282371725709
      ],
      [
        "out",
        -9.154413428766137
      ],
      [
        "▁opisyal",
        -9.15490550723763
      ],
      [
        "▁vo",
        -9.159219034977017
      ],
      [
        "▁angkop",
        -9.161071207135898
      ],
      [
        "mat",
        -9.16157233327506
      ],
      [
        "▁te",
        -9.162686264355953
      ],
      [
        "day",
        -9.16274252120002
      ],
      [
        "▁halaga",
        -9.162815932590455
      ],
      [
        "tra",
        -9.162870357290123
      ],
      [
        "dal",
        -9.166580581777499
      ],
      [
        "▁ru",
        -9.167041874089223
      ],
      [
        "▁dagdag",
        -9.167132617992445
      ],
      [
        "▁ulit",
        -9.168793438953587
      ],
      [
        "hal",
        -9.169044343698685
      ],
      [
        "nes",
        -9.173990235120508
      ],
      [
        "▁kalidad",
        -9.174293676789341
      ],
      [
        "q",
        -9.176275416265545
      ],
      [
        "▁tala",
        -9.177831923667828
      ],
      [
        "▁fi",
        -9.178314555469015
      ],
      [
        "gen",
        -9.17895489866491
      ],
      [
        "iya",
        -9.179295685956847
      ],
      [
        "▁tip",
        -9.179376656544887
      ],
      [
        "iko",
        -9.181465300169565
      ],
      [
        "ure",
        -9.18316511446573
      ],
      [
        "▁sukat",
        -9.183291282407579
      ],
      [
        "▁grupo",
        -9.184271466297247
      ],
      [
        "▁ganda",
        -9.184743317088788
      ],
      [
        "▁18",
        -9.184898973167808
      ],
      [
        "▁tawag",
        -9.185033410784271
      ],
      [
        "▁subok",
        -9.1874298889771
      ],
      [
        "▁hiwalay",
        -9.187542017431419
      ],
      [
        "▁tao",
        -9.187790545413634
      ],
      [
        "mil",
        -9.19074074796934
      ],
      [
        "",
        -9.191352268528957
      ],
      [
        "▁bigay",
        -9.191678347526636
      ],
      [
        "▁cu",
        -9.192344255375685
      ],
      [
        "▁mali",
        -9.19391942471436
      ],
      [
        "▁kuwento",
        -9.195541309002689
      ],
      [
        "▁isda",
        -9.19579070294439
      ],
      [
        "▁dagdagan",
        -9.19602283159764
      ],
      [
        "ndi",
        -9.19640043139449
      ],
      [
        "▁sha",
        -9.197095417634666
      ],
      [
        "▁ninyo",
        -9.201078353000941
      ],
      [
        "▁kuha",
        -9.202193524004823
      ],
      [
        "▁laman",
        -9.203889158066742
      ],
      [
        "pos",
        -9.204776986255197
      ],
      [
        "▁kailangan",
        -9.205036993612051
      ],
      [
        "▁apat",
        -9.205248143407287
      ],
      [
        "▁trans",
        -9.205719462351489
      ],
      [
        "▁kasalukuyan",
        -9.205868036580947
      ],
      [
        "▁papel",
        -9.205929175658653
      ],
      [
        "▁gamit",
        -9.20707930106291
      ],
      [
        "▁bri",
        -9.208576154825378
      ],
      [
        "8",
        -9.210132888754382
      ],
      [
        "▁200",
        -9.21056972292048
      ],
      [
        "",
        -9.211205983455573
      ],
      [
        "▁likha",
        -9.211446729923876
      ],
      [
        "bel",
        -9.213383998153912
      ],
      [
        "▁linaw",
        -9.214556275908658
      ],
      [
        "▁daan",
        -9.215404088671816
      ],
      [
        "▁rito",
        -9.215776073110248
      ],
      [
        "▁gigi",
        -9.216666861061329
      ],
      [
        "mal",
        -9.216895219394917
      ],
      [
        "▁partikular",
        -9.217610500525165
      ],
      [
        "▁show",
        -9.217718820246542
      ],
      [
        "▁lakad",
        -9.218394382699735
      ],
      [
        "",
        -9.218720734035768
      ],
      [
        "▁taas",
        -9.219480116463377
      ],
      [
        "▁tugon",
        -9.219530049321703
      ],
      [
        "▁takbo",
        -9.220069707800771
      ],
      [
        "▁alala",
        -9.220571922604027
      ],
      [
        "▁tional",
        -9.220797073382926
      ],
      [
        "em",
        -9.221313456495727
      ],
      [
        "▁tanda",
        -9.223204024854027
      ],
      [
        "mas",
        -9.223763518890305
      ],
      [
        "▁nuno",
        -9.225280278898387
      ],
      [
        "ano",
        -9.225689706935079
      ],
      [
        "▁order",
        -9.22570737902682
      ],
      [
        "▁th",
        -9.226299530263327
      ],
      [
        "▁panganib",
        -9.226738917928936
      ],
      [
        "",
        -9.229129181269194
      ],
      [
        "hin",
        -9.229808960538428
      ],
      [
        "▁hari",
        -9.229948859567942
      ],
      [
        "▁nter",
        -9.231125396714415
      ],
      [
        "▁che",
        -9.232996731605672
      ],
      [
        "▁proyekto",
        -9.233266905217253
      ],
      [
        "mar",
        -9.233433600741343
      ],
      [
        "▁anim",
        -9.234291373787284
      ],
      [
        "▁sabay",
        -9.234588648819408
      ],
      [
        "hing",
        -9.23511487716761
      ],
      [
        "▁fr",
        -9.235400598573351
      ],
      [
        "lay",
        -9.237333854066552
      ],
      [
        "▁mobile",
        -9.237560435976464
      ],
      [
        "▁kapatid",
        -9.238337032696744
      ],
      [
        "▁biktima",
        -9.238423815539283
      ],
      [
        "▁payo",
        -9.239062540724833
      ],
      [
        "▁one",
        -9.23941850443675
      ],
      [
        "▁itaas",
        -9.239482770488225
      ],
      [
        "▁industriya",
        -9.239914644385355
      ],
      [
        "mba",
        -9.240655169338918
      ],
      [
        "▁abot",
        -9.241447591636193
      ],
      [
        "▁network",
        -9.24153621321329
      ],
      [
        "▁lito",
        -9.24296745289939
      ],
      [
        "▁tuwa",
        -9.243259196875972
      ],
      [
        "ep",
        -9.24344565358788
      ],
      [
        "▁dating",
        -9.243555341689548
      ],
      [
        "▁subok",
        -9.244174226974707
      ],
      [
        "▁sabi",
        -9.245133366376532
      ],
      [
        "▁itlog",
        -9.246169727602709
      ],
      [
        "▁kahulugan",
        -9.247922323984303
      ],
      [
        "▁access",
        -9.249082404382165
      ],
      [
        "▁lago",
        -9.249411203717935
      ],
      [
        "an",
        -9.25272275501079
      ],
      [
        "len",
        -9.254442571535252
      ],
      [
        "king",
        -9.255250784557756
      ],
      [
        "▁dali",
        -9.256450437023936
      ],
      [
        "▁tam",
        -9.256953982427403
      ],
      [
        "ismo",
        -9.25829189278375
      ],
      [
        "▁hina",
        -9.258688023096353
      ],
      [
        "▁kontrol",
        -9.259500593830309
      ],
      [
        "ite",
        -9.261216718697836
      ],
      [
        "▁free",
        -9.26136153491591
      ],
      [
        "ari",
        -9.262103380429638
      ],
      [
        "▁teknolohiya",
        -9.263895545247266
      ],
      [
        "bot",
        -9.265532271059229
      ],
      [
        "▁che",
        -9.26687089545946
      ],
      [
        "▁pinsala",
        -9.268952116654669
      ],
      [
        "▁sunod",
        -9.269765169802007
      ],
      [
        "▁recipe",
        -9.27047998939772
      ],
      [
        "lin",
        -9.27132233130516
      ],
      [
        "▁damdam",
        -9.272050476684237
      ],
      [
        "que",
        -9.27233854002308
      ],
      [
        "",
        -9.272567667990211
      ],
      [
        "▁saya",
        -9.276562200296155
      ],
      [
        "aga",
        -9.277003292703412
      ],
      [
        "bul",
        -9.278954576689411
      ],
      [
        "▁base",
        -9.279325896055028
      ],
      [
        "▁kain",
        -9.279508781565855
      ],
      [
        "▁sanay",
        -9.279768092334967
      ],
      [
        "ram",
        -9.280628555102709
      ],
      [
        "val",
        -9.281274036972157
      ],
      [
        "ted",
        -9.285343445154766
      ],
      [
        "▁sila",
        -9.287096081050748
      ],
      [
        "▁tri",
        -9.28743862215749
      ],
      [
        "ren",
        -9.287768341890821
      ],
      [
        "▁doktor",
        -9.288191536778012
      ],
      [
        "ice",
        -9.288682370691012
      ],
      [
        "▁hawak",
        -9.289282540906695
      ],
      [
        "",
        -9.290300440127153
      ],
      [
        "▁espesyal",
        -9.293175272128261
      ],
      [
        "kin",
        -9.294562627180875
      ],
      [
        "▁ibig",
        -9.295290385300948
      ],
      [
        "▁tangi",
        -9.295301368069733
      ],
      [
        "",
        -9.296762368827672
      ],
      [
        "ino",
        -9.296851993779493
      ],
      [
        "▁hitsura",
        -9.297907161693237
      ],
      [
        "▁tv",
        -9.298236074938904
      ],
      [
        "▁suot",
        -9.29864369964964
      ],
      [
        "▁tulog",
        -9.29895231415042
      ],
      [
        "har",
        -9.299358042345764
      ],
      [
        "▁barangay",
        -9.29958353804728
      ],
      [
        "▁kahulugan",
        -9.301925460318884
      ],
      [
        "▁liwanag",
        -9.30239934864601
      ],
      [
        "▁hayag",
        -9.302645263286463
      ],
      [
        "▁wa",
        -9.302903243145053
      ],
      [
        "▁baba",
        -9.303438421321578
      ],
      [
        "▁alis",
        -9.303743959850085
      ],
      [
        "▁cor",
        -9.303793385849902
      ],
      [
        "ect",
        -9.304425258087248
      ],
      [
        "ill",
        -9.3050246382976
      ],
      [
        "",
        -9.305193016664477
      ],
      [
        "▁pelikula",
        -9.306648285408853
      ],
      [
        "tibo",
        -9.307771704170131
      ],
      [
        "▁baba",
        -9.308459342594634
      ],
      [
        "▁anyo",
        -9.309070056097928
      ],
      [
        "▁star",
        -9.310095989231923
      ],
      [
        "▁bag",
        -9.311245934309477
      ],
      [
        "▁philippines",
        -9.312554179976992
      ],
      [
        "▁news",
        -9.313573884595522
      ],
      [
        "xi",
        -9.313950089980542
      ],
      [
        "▁halip",
        -9.314393493245882
      ],
      [
        "▁sen",
        -9.315661097759437
      ],
      [
        "▁hayop",
        -9.316594740103751
      ],
      [
        "▁haba",
        -9.317226814919206
      ],
      [
        "▁samantala",
        -9.31753429853588
      ],
      [
        "▁school",
        -9.320189264462623
      ],
      [
        "▁gitna",
        -9.320485162284914
      ],
      [
        "▁lagay",
        -9.321209110773735
      ],
      [
        "ras",
        -9.322473745532669
      ],
      [
        "▁tagal",
        -9.32250174800177
      ],
      [
        "▁home",
        -9.322652448521353
      ],
      [
        "▁miyembro",
        -9.323147451115862
      ],
      [
        "ence",
        -9.323313241187464
      ],
      [
        "▁likod",
        -9.32458960117293
      ],
      [
        "ical",
        -9.326041623022208
      ],
      [
        "▁hanay",
        -9.32622927781355
      ],
      [
        "unt",
        -9.326252373846774
      ],
      [
        "▁like",
        -9.32631268829862
      ],
      [
        "▁galit",
        -9.329150005196553
      ],
      [
        "▁bigyan",
        -9.329459327773339
      ],
      [
        "",
        -9.330134462688683
      ],
      [
        "6",
        -9.33124334797423
      ],
      [
        "▁lawak",
        -9.331497859425172
      ],
      [
        "▁nina",
        -9.33328575964836
      ],
      [
        "▁masyado",
        -9.334364264549551
      ],
      [
        "▁pili",
        -9.335801381134916
      ],
      [
        "▁damit",
        -9.336168387398738
      ],
      [
        "▁roon",
        -9.336596741663616
      ],
      [
        "▁ari",
        -9.337533943047578
      ],
      [
        "▁ayaw",
        -9.337545861302976
      ],
      [
        "50",
        -9.339530168075141
      ],
      [
        "ize",
        -9.339707724468683
      ],
      [
        "no",
        -9.340144832502494
      ],
      [
        "▁gobyerno",
        -9.340464734117166
      ],
      [
        "▁sigurado",
        -9.340464786221501
      ],
      [
        "▁tap",
        -9.340752019029907
      ],
      [
        "▁ehersisyo",
        -9.340950077247903
      ],
      [
        "por",
        -9.341235923144378
      ],
      [
        "▁merkado",
        -9.341338687606326
      ],
      [
        "▁wala",
        -9.342580956925225
      ],
      [
        "▁ben",
        -9.342913163385639
      ],
      [
        "▁pangarap",
        -9.34328317910165
      ],
      [
        "▁sh",
        -9.345067986584278
      ],
      [
        "▁kailangan",
        -9.345373102963773
      ],
      [
        "▁tuto",
        -9.345511701729237
      ],
      [
        "▁good",
        -9.3458483672229
      ],
      [
        "▁bata",
        -9.345897736066462
      ],
      [
        "▁who",
        -9.346381835786113
      ],
      [
        "yan",
        -9.346902298329615
      ],
      [
        "kal",
        -9.347187509728032
      ],
      [
        "fe",
        -9.348778826646477
      ],
      [
        "▁platform",
        -9.349628894313275
      ],
      [
        "▁13",
        -9.349871851681756
      ],
      [
        "con",
        -9.350494500665686
      ],
      [
        "▁bonus",
        -9.351627506462764
      ],
      [
        "▁gamit",
        -9.351875869144946
      ],
      [
        "▁cha",
        -9.35194509598619
      ],
      [
        "▁simple",
        -9.352331490450652
      ],
      [
        "▁diskarte",
        -9.352669609274102
      ],
      [
        "▁14",
        -9.353365488821003
      ],
      [
        "▁nternet",
        -9.353652529067668
      ],
      [
        "▁if",
        -9.353898818831391
      ],
      [
        "ika",
        -9.354207563502545
      ],
      [
        "▁kapangyarihan",
        -9.355127095080931
      ],
      [
        "▁labi",
        -9.355588744145274
      ],
      [
        "▁alam",
        -9.357313131577058
      ],
      [
        "▁law",
        -9.35760910595789
      ],
      [
        "▁saysay",
        -9.357618852905363
      ],
      [
        "▁sex",
        -9.357758047875315
      ],
      [
        "▁taya",
        -9.357855808861729
      ],
      [
        "▁tablet",
        -9.357979169489335
      ],
      [
        "▁pili",
        -9.359972701864649
      ],
      [
        "isa",
        -9.360460427675514
      ],
      [
        "▁first",
        -9.361254207376824
      ],
      [
        "▁about",
        -9.3624453502071
      ],
      [
        "ish",
        -9.362573869343256
      ],
      [
        "",
        -9.364907691938193
      ],
      [
        "▁solusyon",
        -9.36512490426939
      ],
      [
        "▁sunog",
        -9.36515280956643
      ],
      [
        "▁gamit",
        -9.36685522684911
      ],
      [
        "rry",
        -9.366973545820208
      ],
      [
        "bil",
        -9.368255412679035
      ],
      [
        "▁super",
        -9.36953017033225
      ],
      [
        "▁sitwasyon",
        -9.37101053104319
      ],
      [
        "ual",
        -9.371441610827606
      ],
      [
        "",
        -9.371610995884225
      ],
      [
        "▁kuha",
        -9.372719765788938
      ],
      [
        "▁tagal",
        -9.373730705007324
      ],
      [
        "ru",
        -9.374697259443506
      ],
      [
        "▁game",
        -9.374842018493206
      ],
      [
        "hu",
        -9.375094445024896
      ],
      [
        "▁tool",
        -9.376734262147293
      ],
      [
        "▁philippine",
        -9.376997203549864
      ],
      [
        "pat",
        -9.378040666017387
      ],
      [
        "▁facebook",
        -9.378459451713095
      ],
      [
        "▁kinig",
        -9.378655049486541
      ],
      [
        "▁hanap",
        -9.37966356700506
      ],
      [
        "▁gulang",
        -9.380473620495755
      ],
      [
        "▁pagkat",
        -9.38076338780369
      ],
      [
        "▁ibabaw",
        -9.38097087765012
      ],
      [
        "▁lista",
        -9.381779278637524
      ],
      [
        "▁gayon",
        -9.381907879400954
      ],
      [
        "▁ge",
        -9.38374194516132
      ],
      [
        "▁numero",
        -9.385828020947447
      ],
      [
        "▁pilit",
        -9.386516941575326
      ],
      [
        "cc",
        -9.387866443276154
      ],
      [
        "▁turan",
        -9.38816664467155
      ],
      [
        "ture",
        -9.388308978514026
      ],
      [
        "▁lokal",
        -9.388683817444011
      ],
      [
        "▁ph",
        -9.38919265344792
      ],
      [
        "▁ayos",
        -9.395685742873486
      ],
      [
        "mis",
        -9.396945216479358
      ],
      [
        "ama",
        -9.397500547027585
      ],
      [
        "▁puksa",
        -9.397574629841467
      ],
      [
        "▁tulong",
        -9.398018172414304
      ],
      [
        "ple",
        -9.398582586144967
      ],
      [
        "ez",
        -9.398774601101143
      ],
      [
        "▁tukoy",
        -9.399354237677159
      ],
      [
        "bor",
        -9.400076900161778
      ],
      [
        "▁center",
        -9.400137263827576
      ],
      [
        "▁bula",
        -9.402936134737798
      ],
      [
        "▁dati",
        -9.403043259510635
      ],
      [
        "▁chi",
        -9.403199825002128
      ],
      [
        "▁pili",
        -9.403282097744569
      ],
      [
        "▁blog",
        -9.403466314152743
      ],
      [
        "_",
        -9.403655238956459
      ],
      [
        "ji",
        -9.403999136821225
      ],
      [
        "▁estado",
        -9.40422493895906
      ],
      [
        "▁aniya",
        -9.404699718847047
      ],
      [
        "hon",
        -9.404913332695738
      ],
      [
        "▁klase",
        -9.405731591191513
      ],
      [
        "dor",
        -9.405753202967547
      ],
      [
        "▁rate",
        -9.40623839912016
      ],
      [
        "▁yari",
        -9.406363305656992
      ],
      [
        "▁lalo",
        -9.406676252036933
      ],
      [
        "▁bags",
        -9.406892775715049
      ],
      [
        "▁lagi",
        -9.40706310437828
      ],
      [
        "▁sala",
        -9.407495199158713
      ],
      [
        "hen",
        -9.40864391337144
      ],
      [
        "▁mukha",
        -9.409061650966512
      ],
      [
        "anta",
        -9.41039679970783
      ],
      [
        "",
        -9.4105986990544
      ],
      [
        "▁wi",
        -9.411298044266761
      ],
      [
        "▁16",
        -9.411309027949276
      ],
      [
        "los",
        -9.412813907935963
      ],
      [
        "▁him",
        -9.412856743379402
      ],
      [
        "▁25",
        -9.413238486494386
      ],
      [
        "▁puti",
        -9.413938860629703
      ],
      [
        "▁spot",
        -9.414048824560581
      ],
      [
        "has",
        -9.414571163321158
      ],
      [
        "▁ugnay",
        -9.416099001558594
      ],
      [
        "▁operasyon",
        -9.417120123965875
      ],
      [
        "▁saya",
        -9.417121041971575
      ],
      [
        "▁tapat",
        -9.41823409806582
      ],
      [
        "▁just",
        -9.421144107147047
      ],
      [
        "▁laser",
        -9.423479253079913
      ],
      [
        "▁over",
        -9.424034349106376
      ],
      [
        "red",
        -9.425260546310216
      ],
      [
        "med",
        -9.42540905739302
      ],
      [
        "▁panaginip",
        -9.425603133577546
      ],
      [
        "lab",
        -9.426277063838484
      ],
      [
        "mor",
        -9.426287869516436
      ],
      [
        "▁tayong",
        -9.426651390509084
      ],
      [
        "▁get",
        -9.426857589120033
      ],
      [
        "▁luto",
        -9.427291367082306
      ],
      [
        "▁bro",
        -9.427898662550962
      ],
      [
        "▁halo",
        -9.427982602653758
      ],
      [
        "▁lubos",
        -9.428048231265532
      ],
      [
        "▁24",
        -9.430443521416407
      ],
      [
        "fer",
        -9.43056447083257
      ],
      [
        "▁desisyon",
        -9.430747004527452
      ],
      [
        "▁40",
        -9.431418554797949
      ],
      [
        "ero",
        -9.433535090131958
      ],
      [
        "man",
        -9.435835966634547
      ],
      [
        "▁wika",
        -9.435974023406047
      ],
      [
        "▁00",
        -9.437174336191193
      ],
      [
        "stra",
        -9.43749408494822
      ],
      [
        "▁basa",
        -9.438061323228593
      ],
      [
        "",
        -9.439328213365233
      ],
      [
        "▁labas",
        -9.439416113791465
      ],
      [
        "tes",
        -9.439580996592994
      ],
      [
        "▁minuto",
        -9.440402237310792
      ],
      [
        "▁saliksik",
        -9.440427808560226
      ],
      [
        "▁ikli",
        -9.440658952778044
      ],
      [
        "▁tungo",
        -9.440765214658294
      ],
      [
        "▁salo",
        -9.441607345299932
      ],
      [
        "lam",
        -9.445715061013733
      ],
      [
        "▁department",
        -9.445884558132462
      ],
      [
        "pul",
        -9.446759428640407
      ],
      [
        "▁uod",
        -9.447456003694361
      ],
      [
        "",
        -9.447472364090244
      ],
      [
        "▁ste",
        -9.447569025328143
      ],
      [
        "▁baba",
        -9.44857336611866
      ],
      [
        "tri",
        -9.448996096884294
      ],
      [
        "▁el",
        -9.450101111858947
      ],
      [
        "aral",
        -9.450725313577628
      ],
      [
        "▁program",
        -9.452246305271037
      ],
      [
        "",
        -9.453013015990372
      ],
      [
        "▁wag",
        -9.45358383399801
      ],
      [
        "",
        -9.453860524105995
      ],
      [
        "▁spa",
        -9.454180500273512
      ],
      [
        "▁kasal",
        -9.45426479517226
      ],
      [
        "sel",
        -9.454655582080397
      ],
      [
        "log",
        -9.455921442393489
      ],
      [
        "▁pondo",
        -9.456287789213492
      ],
      [
        "ide",
        -9.456967192083138
      ],
      [
        "▁silicone",
        -9.4579269057643
      ],
      [
        "▁unlad",
        -9.458472987397537
      ],
      [
        "eva",
        -9.46004318935457
      ],
      [
        "yong",
        -9.460124601684413
      ],
      [
        "▁suri",
        -9.460902639375732
      ],
      [
        "tch",
        -9.461574396361284
      ],
      [
        "list",
        -9.461576733252482
      ],
      [
        "▁sel",
        -9.462001188985704
      ],
      [
        "▁50",
        -9.462952896736486
      ],
      [
        "▁linya",
        -9.46308386148374
      ],
      [
        "▁buo",
        -9.463818502594016
      ],
      [
        "▁bawal",
        -9.463979172435128
      ],
      [
        "bit",
        -9.464760356689977
      ],
      [
        "ated",
        -9.465656214875462
      ],
      [
        "▁lunas",
        -9.465971430326423
      ],
      [
        "ugnay",
        -9.466264702453737
      ],
      [
        "▁taka",
        -9.466746911537436
      ],
      [
        "",
        -9.468100343274203
      ],
      [
        "▁lapit",
        -9.46866157076815
      ],
      [
        "▁lagay",
        -9.46962382377142
      ],
      [
        "▁duterte",
        -9.471110162446267
      ],
      [
        "",
        -9.471134291355614
      ],
      [
        "▁circles",
        -9.471330947128713
      ],
      [
        "che",
        -9.472085351900935
      ],
      [
        "",
        -9.472477307467011
      ],
      [
        "uni",
        -9.473318964262273
      ],
      [
        "board",
        -9.475421195693515
      ],
      [
        "▁sakay",
        -9.476195553602631
      ],
      [
        "▁baby",
        -9.476961734381392
      ],
      [
        "▁lam",
        -9.478879814024374
      ],
      [
        "lak",
        -9.479244580070004
      ],
      [
        "▁web",
        -9.479380575038535
      ],
      [
        "rit",
        -9.481086385901948
      ],
      [
        "▁aral",
        -9.48175082378211
      ],
      [
        "▁edukasyon",
        -9.482789565563223
      ],
      [
        "▁limang",
        -9.483500574247293
      ],
      [
        "▁tagalog",
        -9.483666941910363
      ],
      [
        "▁iba",
        -9.483852844804204
      ],
      [
        "▁text",
        -9.484315323691762
      ],
      [
        "pal",
        -9.484413369814297
      ],
      [
        "▁aso",
        -9.484678433081212
      ],
      [
        "ker",
        -9.486756540963624
      ],
      [
        "shi",
        -9.487320433096748
      ],
      [
        "▁gar",
        -9.48737467294434
      ],
      [
        "▁kondisyon",
        -9.487399328126761
      ],
      [
        "▁bakuna",
        -9.488741290781975
      ],
      [
        "▁file",
        -9.488881493638047
      ],
      [
        "▁flo",
        -9.489848398527405
      ],
      [
        "lon",
        -9.490515457852993
      ],
      [
        "ust",
        -9.490848271334032
      ],
      [
        "▁kuha",
        -9.493092475123586
      ],
      [
        "ante",
        -9.495784598677771
      ],
      [
        "▁dark",
        -9.496571530156615
      ],
      [
        "▁best",
        -9.496600250686539
      ],
      [
        "▁war",
        -9.496719037816476
      ],
      [
        "",
        -9.496873875890024
      ],
      [
        "▁simple",
        -9.497097768399735
      ],
      [
        "▁buo",
        -9.498503835049634
      ],
      [
        "▁act",
        -9.499357308285004
      ],
      [
        "▁bus",
        -9.500374465452886
      ],
      [
        "▁paligid",
        -9.501879675318213
      ],
      [
        "▁world",
        -9.502243238664608
      ],
      [
        "▁libre",
        -9.50328326170911
      ],
      [
        "rus",
        -9.505025786982669
      ],
      [
        "▁gatas",
        -9.506109085315071
      ],
      [
        "gawa",
        -9.506110213813448
      ],
      [
        "▁kapwa",
        -9.506567425925528
      ],
      [
        "time",
        -9.506729097647067
      ],
      [
        "▁inyo",
        -9.5076650961122
      ],
      [
        "▁iwas",
        -9.510434889745952
      ],
      [
        "tim",
        -9.511205451724363
      ],
      [
        "▁cat",
        -9.511429293834615
      ],
      [
        "▁utos",
        -9.51292492306804
      ],
      [
        "▁suri",
        -9.513429988454687
      ],
      [
        "▁ok",
        -9.514563184999815
      ],
      [
        "act",
        -9.515089139286532
      ],
      [
        "han",
        -9.515474580902724
      ],
      [
        "▁gulo",
        -9.515689032553492
      ],
      [
        "▁ce",
        -9.516049114742861
      ],
      [
        "▁tuwi",
        -9.516587206829536
      ],
      [
        "dge",
        -9.516695753567081
      ],
      [
        "▁kultura",
        -9.516937285127481
      ],
      [
        "▁em",
        -9.517362458031773
      ],
      [
        "▁regular",
        -9.517998011519332
      ],
      [
        "▁gen",
        -9.51906517596571
      ],
      [
        "",
        -9.519835536978617
      ],
      [
        "▁tur",
        -9.520611148422532
      ],
      [
        "ene",
        -9.520706869694644
      ],
      [
        "▁screen",
        -9.521129655961667
      ],
      [
        "▁itim",
        -9.522127140394886
      ],
      [
        "▁test",
        -9.523889470768395
      ],
      [
        "▁lipunan",
        -9.524279747029727
      ],
      [
        "▁ve",
        -9.525032622334127
      ],
      [
        "▁dagdag",
        -9.52522196731045
      ],
      [
        "▁tupad",
        -9.525241944469037
      ],
      [
        "▁download",
        -9.525830610303085
      ],
      [
        "ex",
        -9.52599293885272
      ],
      [
        "▁his",
        -9.526146259225342
      ],
      [
        "gana",
        -9.52684070391998
      ],
      [
        "cer",
        -9.526912259020383
      ],
      [
        "nut",
        -9.526945379036224
      ],
      [
        "▁takad",
        -9.527407153200242
      ],
      [
        "▁play",
        -9.527410581619227
      ],
      [
        "▁deya",
        -9.528109894417062
      ],
      [
        "▁tulong",
        -9.528327585468709
      ],
      [
        "80",
        -9.528525546071933
      ],
      [
        "▁meron",
        -9.529572802313213
      ],
      [
        "zi",
        -9.530248519122589
      ],
      [
        "▁normal",
        -9.530299960507577
      ],
      [
        "▁haba",
        -9.531875551512586
      ],
      [
        "▁pasok",
        -9.531999457434608
      ],
      [
        "ros",
        -9.532022105005682
      ],
      [
        "ming",
        -9.534837398697373
      ],
      [
        "▁epektibong",
        -9.535603809634358
      ],
      [
        "try",
        -9.53567903782753
      ],
      [
        "▁17",
        -9.53597137108234
      ],
      [
        "▁service",
        -9.536580139580503
      ],
      [
        "▁set",
        -9.538619595204558
      ],
      [
        "▁lamang",
        -9.539246864412066
      ],
      [
        "▁yaman",
        -9.539862505270978
      ],
      [
        "car",
        -9.53993045752627
      ],
      [
        "▁fla",
        -9.540256075642738
      ],
      [
        "▁del",
        -9.54080433561965
      ],
      [
        "▁simula",
        -9.541218439710544
      ],
      [
        "▁balik",
        -9.54124063125615
      ],
      [
        "▁know",
        -9.5416647293043
      ],
      [
        "▁bigla",
        -9.541818329007803
      ],
      [
        "vit",
        -9.54273545327645
      ],
      [
        "▁photo",
        -9.544761059282523
      ],
      [
        "▁they",
        -9.54526399965545
      ],
      [
        "▁bila",
        -9.5457099949778
      ],
      [
        "▁kilala",
        -9.545831713986935
      ],
      [
        "▁food",
        -9.546689624368772
      ],
      [
        "▁honey",
        -9.547141523660454
      ],
      [
        "▁back",
        -9.549201323705855
      ],
      [
        "▁mensahe",
        -9.54940765893486
      ],
      [
        "kla",
        -9.550571703157193
      ],
      [
        "",
        -9.551181150277047
      ],
      [
        "▁hapon",
        -9.551277675109889
      ],
      [
        "▁tagpo",
        -9.551364315127714
      ],
      [
        "press",
        -9.551633379414659
      ],
      [
        "▁gusto",
        -9.552248325295388
      ],
      [
        "asa",
        -9.552304088042144
      ],
      [
        "for",
        -9.553009670119904
      ],
      [
        "60",
        -9.5532110837743
      ],
      [
        "galang",
        -9.553218593062399
      ],
      [
        "▁sakop",
        -9.55484671348164
      ],
      [
        "▁alok",
        -9.554920135970407
      ],
      [
        "wala",
        -9.555628512232994
      ],
      [
        "hay",
        -9.555732664152634
      ],
      [
        "▁subalit",
        -9.556492319830165
      ],
      [
        "▁sakay",
        -9.556611255143297
      ],
      [
        "10",
        -9.556799614238711
      ],
      [
        "cu",
        -9.556877797529513
      ],
      [
        "cha",
        -9.55764627520666
      ],
      [
        "▁bur",
        -9.558114800311065
      ],
      [
        "tiko",
        -9.558543524555567
      ],
      [
        "▁mp",
        -9.558871233871844
      ],
      [
        "ving",
        -9.558897246058498
      ],
      [
        "▁chat",
        -9.559231645167833
      ],
      [
        "▁update",
        -9.55989808884578
      ],
      [
        "▁lungkot",
        -9.561439283440414
      ],
      [
        "▁kailanman",
        -9.561802466547473
      ],
      [
        "▁application",
        -9.562529412297907
      ],
      [
        "ele",
        -9.562787690459794
      ],
      [
        "",
        -9.563329034695265
      ],
      [
        "▁tag",
        -9.564171673599096
      ],
      [
        "▁lawak",
        -9.565694876537119
      ],
      [
        "▁gilid",
        -9.565968569594556
      ],
      [
        "lala",
        -9.56636880595478
      ],
      [
        "▁house",
        -9.568762304995722
      ],
      [
        "ness",
        -9.569124109027369
      ],
      [
        "▁ndibidwal",
        -9.569704269918152
      ],
      [
        "str",
        -9.569704916395262
      ],
      [
        "▁ngiti",
        -9.56986139080455
      ],
      [
        "ulo",
        -9.570216987699066
      ],
      [
        "iv",
        -9.57059538498902
      ],
      [
        "▁any",
        -9.570991261242401
      ],
      [
        "▁mplants",
        -9.57227056820025
      ],
      [
        "▁hanap",
        -9.572449146716515
      ],
      [
        "▁uwi",
        -9.573726330822131
      ],
      [
        "▁bra",
        -9.574650547216073
      ],
      [
        "cent",
        -9.57646656281256
      ],
      [
        "▁cy",
        -9.577646335661996
      ],
      [
        "kina",
        -9.578333612285627
      ],
      [
        "cur",
        -9.578569086285775
      ],
      [
        "▁enerhiya",
        -9.579516086071097
      ],
      [
        "▁wakas",
        -9.58063540129902
      ],
      [
        "▁tabi",
        -9.582402577927565
      ],
      [
        "▁bigay",
        -9.582506269496479
      ],
      [
        "▁hugas",
        -9.582604015967217
      ],
      [
        "sec",
        -9.585871187781812
      ],
      [
        "ative",
        -9.586181582615753
      ],
      [
        "bet",
        -9.588249722050548
      ],
      [
        "ost",
        -9.588678067496486
      ],
      [
        "rin",
        -9.589916075083824
      ],
      [
        "▁pwede",
        -9.589932880009181
      ],
      [
        "▁simula",
        -9.590762551856107
      ],
      [
        "▁police",
        -9.59258508231853
      ],
      [
        "▁tiwala",
        -9.593042463021602
      ],
      [
        "par",
        -9.593093802088566
      ],
      [
        "mun",
        -9.593288297885072
      ],
      [
        "▁benepisyo",
        -9.59354138766578
      ],
      [
        "▁anti",
        -9.59359462009365
      ],
      [
        "▁detalye",
        -9.594666981263556
      ],
      [
        "tik",
        -9.594934721323883
      ],
      [
        "▁office",
        -9.595224639081225
      ],
      [
        "▁punto",
        -9.595246881572427
      ],
      [
        "",
        -9.595258920777823
      ],
      [
        "rom",
        -9.595340551138207
      ],
      [
        "aryo",
        -9.595355817707487
      ],
      [
        "ura",
        -9.597068637246037
      ],
      [
        "mic",
        -9.598165097493053
      ],
      [
        "▁sarap",
        -9.598275111376093
      ],
      [
        "ash",
        -9.598433198991879
      ],
      [
        "▁air",
        -9.598946351124793
      ],
      [
        "lis",
        -9.60008985615045
      ],
      [
        "▁eu",
        -9.600823651588483
      ],
      [
        "▁pra",
        -9.601070251805092
      ],
      [
        "view",
        -9.601744558741274
      ],
      [
        "▁jesus",
        -9.601960859482759
      ],
      [
        "▁hiya",
        -9.602039311944692
      ],
      [
        "",
        -9.602203254009966
      ],
      [
        "bra",
        -9.603259450503327
      ],
      [
        "▁team",
        -9.603992699982513
      ],
      [
        "▁unti",
        -9.604091084993433
      ],
      [
        "paki-pakinabang",
        -9.60611937826234
      ],
      [
        "",
        -9.606466116556957
      ],
      [
        "cas",
        -9.607256207993665
      ],
      [
        "▁user",
        -9.607794411447069
      ],
      [
        "▁after",
        -9.608283810330075
      ],
      [
        "▁tahan",
        -9.609036345685643
      ],
      [
        "▁tago",
        -9.609309879369478
      ],
      [
        "▁gawi",
        -9.61012793684256
      ],
      [
        "▁takda",
        -9.610894048829314
      ],
      [
        "zo",
        -9.611130898480559
      ],
      [
        "▁tigil",
        -9.611228938334314
      ],
      [
        "▁depende",
        -9.61137432325299
      ],
      [
        "▁bigay",
        -9.611870276154695
      ],
      [
        "ham",
        -9.613798293228607
      ],
      [
        "▁pareho",
        -9.615159243319757
      ],
      [
        "laro",
        -9.615176414062667
      ],
      [
        "▁gabay",
        -9.615672929652598
      ],
      [
        "▁black",
        -9.61582014504224
      ],
      [
        "ating",
        -9.616605185760692
      ],
      [
        "▁rt",
        -9.618231948676147
      ],
      [
        "isyon",
        -9.618670009724408
      ],
      [
        "▁log",
        -9.618892744185631
      ],
      [
        "▁hatid",
        -9.621055250255731
      ],
      [
        "rd",
        -9.62174093830151
      ],
      [
        "qu",
        -9.622097885918976
      ],
      [
        "▁sports",
        -9.622749377169844
      ],
      [
        "▁gulong",
        -9.622941191501921
      ],
      [
        "▁dapat",
        -9.62343919467369
      ],
      [
        "▁bunga",
        -9.623689043309911
      ],
      [
        "pak",
        -9.623715212980299
      ],
      [
        "▁litrato",
        -9.62387035505796
      ],
      [
        "▁likas",
        -9.62436634938456
      ],
      [
        "",
        -9.624514225323868
      ],
      [
        "play",
        -9.625317266013292
      ],
      [
        "▁ligtas",
        -9.627169317569123
      ],
      [
        "▁bayad",
        -9.629987160323573
      ],
      [
        "kul",
        -9.630032606183795
      ],
      [
        "ise",
        -9.630127250382394
      ],
      [
        "▁laman",
        -9.63026320009646
      ],
      [
        "",
        -9.630872608354984
      ],
      [
        "shop",
        -9.630995944068408
      ],
      [
        "cal",
        -9.631181272849522
      ],
      [
        "ful",
        -9.631182668667254
      ],
      [
        "▁hangin",
        -9.631284892691303
      ],
      [
        "▁big",
        -9.631933022669356
      ],
      [
        "less",
        -9.631934439955108
      ],
      [
        "ory",
        -9.632709369457
      ],
      [
        "▁kaya",
        -9.63284833827667
      ],
      [
        "pot",
        -9.632905068104101
      ],
      [
        "▁akala",
        -9.633487705446388
      ],
      [
        "▁bir",
        -9.63567800598195
      ],
      [
        "ves",
        -9.635785205356921
      ],
      [
        "gue",
        -9.635965485801435
      ],
      [
        "▁miss",
        -9.636480048588327
      ],
      [
        "late",
        -9.636746131594116
      ],
      [
        "▁cre",
        -9.636860052612159
      ],
      [
        "▁tangi",
        -9.637184419795041
      ],
      [
        "▁laki",
        -9.639063723273507
      ],
      [
        "ator",
        -9.639532581043023
      ],
      [
        "wat",
        -9.64015325323539
      ],
      [
        "▁cho",
        -9.641319806847953
      ],
      [
        "▁dila",
        -9.641547754808835
      ],
      [
        "",
        -9.64174457941168
      ],
      [
        "▁pasok",
        -9.641799429345944
      ],
      [
        "▁posible",
        -9.643211990225259
      ],
      [
        "@",
        -9.644173757048682
      ],
      [
        "▁aktibidad",
        -9.644831392220432
      ],
      [
        "▁2020",
        -9.64484554463087
      ],
      [
        "▁read",
        -9.645507609767225
      ],
      [
        "lap",
        -9.646483118867422
      ],
      [
        "▁artikulo",
        -9.646834222068245
      ],
      [
        "",
        -9.647471939154975
      ],
      [
        "hol",
        -9.64767295218002
      ],
      [
        "▁people",
        -9.647732458449916
      ],
      [
        "▁laro",
        -9.647779993437643
      ],
      [
        "▁sama",
        -9.647895753510708
      ],
      [
        "▁cons",
        -9.649087366443029
      ],
      [
        "▁bayo",
        -9.64931481767617
      ],
      [
        "▁modelo",
        -9.650061908969919
      ],
      [
        "▁q",
        -9.653815944116447
      ],
      [
        "ela",
        -9.654697567201936
      ],
      [
        "▁tanda",
        -9.65500080407918
      ],
      [
        "ries",
        -9.656572805293495
      ],
      [
        "▁bun",
        -9.657461293155125
      ],
      [
        "▁lapat",
        -9.657503361624714
      ],
      [
        "sen",
        -9.65835207831987
      ],
      [
        "ium",
        -9.65843680216668
      ],
      [
        "▁bigo",
        -9.659880514703763
      ],
      [
        "▁exp",
        -9.659906575625996
      ],
      [
        "▁ekonomiya",
        -9.660211211421759
      ],
      [
        "▁tanggi",
        -9.660478650337502
      ],
      [
        "▁forum",
        -9.660700736691183
      ],
      [
        "·",
        -9.661815811616515
      ],
      [
        "pad",
        -9.662399773682907
      ],
      [
        "rac",
        -9.662677260640896
      ],
      [
        "▁when",
        -9.66347436014674
      ],
      [
        "▁life",
        -9.66561902325473
      ],
      [
        "▁propesyonal",
        -9.66677962620612
      ],
      [
        "▁software",
        -9.667048616776784
      ],
      [
        "▁buntis",
        -9.66734175787616
      ],
      [
        "bol",
        -9.667791184325194
      ],
      [
        "imp",
        -9.668892589508685
      ],
      [
        "bog",
        -9.670405577538453
      ],
      [
        "▁pulis",
        -9.670918865499504
      ],
      [
        "90",
        -9.672417149114175
      ],
      [
        "▁buti",
        -9.672577460054033
      ],
      [
        "ev",
        -9.673536931214347
      ],
      [
        "",
        -9.673887202246334
      ],
      [
        "da",
        -9.67429558452544
      ],
      [
        "▁petsa",
        -9.674758880006806
      ],
      [
        "sum",
        -9.675409002599265
      ],
      [
        "▁silbi",
        -9.675865905712506
      ],
      [
        "got",
        -9.67642172512646
      ],
      [
        "=",
        -9.676645877792302
      ],
      [
        "▁makatuwid",
        -9.677461150612888
      ],
      [
        "▁story",
        -9.67748857825073
      ],
      [
        "▁komunidad",
        -9.678005364731378
      ],
      [
        "hel",
        -9.67854329132694
      ],
      [
        "▁nood",
        -9.67912994687818
      ],
      [
        "▁check",
        -9.679217909735778
      ],
      [
        "▁gulo",
        -9.679879258025151
      ],
      [
        "▁dama",
        -9.68059113074768
      ],
      [
        "▁computer",
        -9.680593471050347
      ],
      [
        "▁kakayahan",
        -9.680728905010282
      ],
      [
        "▁comp",
        -9.681618650329856
      ],
      [
        "▁sea",
        -9.681981819990975
      ],
      [
        "▁some",
        -9.68387837043782
      ],
      [
        "▁dulot",
        -9.685525786285265
      ],
      [
        "▁wo",
        -9.685791257261322
      ],
      [
        "▁tunay",
        -9.686528046340129
      ],
      [
        "▁seguridad",
        -9.687433912004396
      ],
      [
        "form",
        -9.687853686819647
      ],
      [
        "▁jose",
        -9.688103746989244
      ],
      [
        "▁posisyon",
        -9.688285820693599
      ],
      [
        "ley",
        -9.689387432616035
      ],
      [
        "▁top",
        -9.689924438585479
      ],
      [
        "kaw",
        -9.69048324936173
      ],
      [
        "▁rehiyon",
        -9.690597610708977
      ],
      [
        "▁init",
        -9.69141021604876
      ],
      [
        "▁protina",
        -9.692130057162215
      ],
      [
        "pik",
        -9.692664531348871
      ],
      [
        "jo",
        -9.692905712513816
      ],
      [
        "▁group",
        -9.69307602207332
      ],
      [
        "▁harap",
        -9.693371688438233
      ],
      [
        "▁nstagram",
        -9.693769604330528
      ],
      [
        "▁see",
        -9.69392082573497
      ],
      [
        "▁palad",
        -9.693922609413935
      ],
      [
        "▁under",
        -9.694186749189061
      ],
      [
        "hor",
        -9.695029996743742
      ],
      [
        "her",
        -9.696000225580702
      ],
      [
        "▁metro",
        -9.696070873991557
      ],
      [
        "▁publiko",
        -9.69625909863382
      ],
      [
        "▁handa",
        -9.696521464987596
      ],
      [
        "▁amo",
        -9.698524261031027
      ],
      [
        "eks",
        -9.698579802380879
      ],
      [
        "bak",
        -9.699630306016937
      ],
      [
        "▁lusog",
        -9.699867623471658
      ],
      [
        "▁aparato",
        -9.700981389984396
      ],
      [
        "▁salita",
        -9.701179550229979
      ],
      [
        "▁pasyente",
        -9.701398045315626
      ],
      [
        "",
        -9.701945714614123
      ],
      [
        "▁gas",
        -9.704412456156353
      ],
      [
        "▁power",
        -9.704484759774903
      ],
      [
        "nder",
        -9.7052915406904
      ],
      [
        "liban",
        -9.70610812663429
      ],
      [
        "70",
        -9.706543288475848
      ],
      [
        "▁taya",
        -9.70706520045244
      ],
      [
        "▁bago",
        -9.708453714366573
      ],
      [
        "▁kita",
        -9.710475466102503
      ],
      [
        "▁baril",
        -9.711233494626457
      ],
      [
        "▁akit",
        -9.711478030206104
      ],
      [
        "▁other",
        -9.713353693732705
      ],
      [
        "▁pagod",
        -9.714288734580023
      ],
      [
        "gad",
        -9.714649942478744
      ],
      [
        "▁well",
        -9.715793130191685
      ],
      [
        "▁babae",
        -9.718431432040425
      ],
      [
        "▁iyo",
        -9.71868943174183
      ],
      [
        "▁2021",
        -9.718813271895392
      ],
      [
        "mina",
        -9.719079319942432
      ],
      [
        "▁suspek",
        -9.719382822214675
      ],
      [
        "▁litaw",
        -9.7201026153516
      ],
      [
        "▁tulong",
        -9.720968861081259
      ],
      [
        "▁ci",
        -9.721079004990493
      ],
      [
        "cha",
        -9.721792574494536
      ],
      [
        "wan",
        -9.722378644789197
      ],
      [
        "▁linis",
        -9.722638431267223
      ],
      [
        "▁real",
        -9.723335685240071
      ],
      [
        "pro",
        -9.723598237495029
      ],
      [
        "▁lahok",
        -9.723647139529028
      ],
      [
        "▁dalaga",
        -9.72413628434385
      ],
      [
        "▁keto",
        -9.72415556506032
      ],
      [
        "▁serye",
        -9.724357179458593
      ],
      [
        "▁guro",
        -9.724559496158903
      ],
      [
        "▁book",
        -9.725024587127955
      ],
      [
        "▁buto",
        -9.725260862899761
      ],
      [
        "▁buo",
        -9.72615413735712
      ],
      [
        "▁unawa",
        -9.7263297613406
      ],
      [
        "",
        -9.726918587573849
      ],
      [
        "▁now",
        -9.727466455960402
      ],
      [
        "▁tuon",
        -9.727720959431101
      ],
      [
        "▁state",
        -9.728027085780436
      ],
      [
        "▁lasa",
        -9.728378997890152
      ],
      [
        "▁2019",
        -9.72842165814863
      ],
      [
        "▁patay",
        -9.728493605856952
      ],
      [
        "down",
        -9.728665307521482
      ],
      [
        "art",
        -9.729963310558182
      ],
      [
        "ugh",
        -9.73081361424073
      ],
      [
        "▁nipis",
        -9.731220189498057
      ],
      [
        "▁sona",
        -9.731222454273027
      ],
      [
        "▁materyal",
        -9.732204616346644
      ],
      [
        "▁takip",
        -9.732365621136983
      ],
      [
        "▁tuyo",
        -9.734989135542524
      ],
      [
        "",
        -9.735332980513608
      ],
      [
        "▁posibilidad",
        -9.736680690581466
      ],
      [
        "▁dusa",
        -9.737797357498769
      ],
      [
        "ilya",
        -9.737838622187619
      ],
      [
        "▁uli",
        -9.738334402572216
      ],
      [
        "▁ganap",
        -9.738900941337645
      ],
      [
        "",
        -9.741675361523372
      ],
      [
        "▁kailangan",
        -9.742765460193544
      ],
      [
        "lk",
        -9.743011885260803
      ],
      [
        "▁john",
        -9.743807659782451
      ],
      [
        "▁libo",
        -9.744466413764915
      ],
      [
        "▁halik",
        -9.744773940576026
      ],
      [
        "rate",
        -9.745438246508456
      ],
      [
        "▁espiritu",
        -9.745808546855695
      ],
      [
        "▁kris",
        -9.74706413999671
      ],
      [
        "▁simula",
        -9.747440910959616
      ],
      [
        "▁off",
        -9.747467527568093
      ],
      [
        "•",
        -9.749600016595828
      ],
      [
        "▁cal",
        -9.74969740515328
      ],
      [
        "▁unawa",
        -9.750060096622008
      ],
      [
        "▁sanay",
        -9.75331209439352
      ],
      [
        "▁bersyon",
        -9.753348055040965
      ],
      [
        "▁mayor",
        -9.753894903594352
      ],
      [
        "▁ganito",
        -9.75420338811108
      ],
      [
        "▁tanaw",
        -9.75443306656336
      ],
      [
        "▁blo",
        -9.756514500313054
      ],
      [
        "nci",
        -9.756626190904182
      ],
      [
        "▁saka",
        -9.757343381484146
      ],
      [
        "▁dun",
        -9.758013328650376
      ],
      [
        "▁dalhin",
        -9.758133167380299
      ],
      [
        "▁wala",
        -9.758418929778246
      ],
      [
        "▁rep",
        -9.759058547164155
      ],
      [
        "▁tistis",
        -9.759142075573084
      ],
      [
        "▁siyempre",
        -9.759879864333476
      ],
      [
        "cam",
        -9.760114093227825
      ],
      [
        "▁pinoy",
        -9.760371983537981
      ],
      [
        "the",
        -9.762239541689661
      ],
      [
        "▁kopon",
        -9.762688769510458
      ],
      [
        "rge",
        -9.763076870214812
      ],
      [
        "▁telepono",
        -9.763280736742734
      ],
      [
        "▁kuha",
        -9.764573593329322
      ],
      [
        "▁there",
        -9.765420911107725
      ],
      [
        "wor",
        -9.765715444117047
      ],
      [
        "",
        -9.766768759098156
      ],
      [
        "▁daloy",
        -9.76790408696736
      ],
      [
        "▁char",
        -9.768487072081848
      ],
      [
        "▁tea",
        -9.76884184377919
      ],
      [
        "▁plant",
        -9.768912918103522
      ],
      [
        "▁saklaw",
        -9.769653475319219
      ],
      [
        "bla",
        -9.770004219314835
      ],
      [
        "▁oil",
        -9.77021575486072
      ],
      [
        "",
        -9.771161805875161
      ],
      [
        "ilan",
        -9.7713995423432
      ],
      [
        "▁dinig",
        -9.771577598516114
      ],
      [
        "▁laman",
        -9.77209632601415
      ],
      [
        "▁water",
        -9.772683853884706
      ],
      [
        "▁likas",
        -9.773524209207968
      ],
      [
        "lock",
        -9.774216779737529
      ],
      [
        "▁sur",
        -9.774941237012172
      ],
      [
        "",
        -9.774951550418093
      ],
      [
        "een",
        -9.775441841974231
      ],
      [
        "▁tanim",
        -9.7759508107657
      ],
      [
        "▁tahimik",
        -9.776100653630806
      ],
      [
        "▁report",
        -9.77620701637904
      ],
      [
        "amp",
        -9.776297974434286
      ],
      [
        "▁lakbay",
        -9.77658190715997
      ],
      [
        "▁higit",
        -9.776853882305986
      ],
      [
        "▁simulan",
        -9.777538269264577
      ],
      [
        "▁google",
        -9.778052704759425
      ],
      [
        "lalim",
        -9.779212959987575
      ],
      [
        "▁cap",
        -9.77927535820359
      ],
      [
        "▁mode",
        -9.779759872486878
      ],
      [
        "▁kuha",
        -9.780461094877865
      ],
      [
        "▁address",
        -9.78107526790283
      ],
      [
        "▁kama",
        -9.781100331343143
      ],
      [
        "▁kasalukuyan",
        -9.782213734764202
      ],
      [
        "20",
        -9.782391351812702
      ],
      [
        "▁gawa",
        -9.783924480644087
      ],
      [
        "▁reg",
        -9.785011120780245
      ],
      [
        "▁friend",
        -9.78544692267178
      ],
      [
        "▁alaga",
        -9.785761204031873
      ],
      [
        "▁2018",
        -9.78596572759001
      ],
      [
        "ensya",
        -9.786721486145169
      ],
      [
        "▁tono",
        -9.787720419317427
      ],
      [
        "▁ginhawa",
        -9.787871512895423
      ],
      [
        "▁gayundin",
        -9.788479056415943
      ],
      [
        "des",
        -9.788522380736625
      ],
      [
        "▁want",
        -9.788608628059995
      ],
      [
        "uti",
        -9.788666972232706
      ],
      [
        "▁bibig",
        -9.788941433872766
      ],
      [
        "▁hawak",
        -9.789346169741387
      ],
      [
        "box",
        -9.790946706706835
      ],
      [
        "▁ingat",
        -9.791903486863223
      ],
      [
        "▁dan",
        -9.792128750040996
      ],
      [
        "▁basta",
        -9.792184679126722
      ],
      [
        "▁kun",
        -9.792822143653915
      ],
      [
        "▁suka",
        -9.792874412938149
      ],
      [
        "▁their",
        -9.793298352198175
      ],
      [
        "▁aba",
        -9.793888656605219
      ],
      [
        "▁right",
        -9.793898130346493
      ],
      [
        "▁pantay",
        -9.79472787405673
      ],
      [
        "▁plan",
        -9.794840024576427
      ],
      [
        "do",
        -9.795345665520959
      ],
      [
        "▁mana",
        -9.79542484631651
      ],
      [
        "▁gro",
        -9.795844329533924
      ],
      [
        "ire",
        -9.796399730420454
      ],
      [
        "▁estudyante",
        -9.79656191654774
      ],
      [
        "▁gulay",
        -9.79833494082678
      ],
      [
        "▁cri",
        -9.799295206739627
      ],
      [
        "▁has",
        -9.799551956419277
      ],
      [
        "▁baga",
        -9.799949808221733
      ],
      [
        "tika",
        -9.800063264115456
      ],
      [
        "▁higa",
        -9.800190535683498
      ],
      [
        "▁kuya",
        -9.80098349408967
      ],
      [
        "▁ahon",
        -9.801013686799145
      ],
      [
        "▁akda",
        -9.801324697853591
      ],
      [
        "▁fan",
        -9.801330563879857
      ],
      [
        "▁public",
        -9.801628743261224
      ],
      [
        "▁orihinal",
        -9.802089763277475
      ],
      [
        "▁week",
        -9.802386536930143
      ],
      [
        "▁hangga",
        -9.802562175468013
      ],
      [
        "▁crusher",
        -9.803607657732217
      ],
      [
        "▁bawi",
        -9.803874011450851
      ],
      [
        "▁sign",
        -9.804022665309269
      ],
      [
        "▁green",
        -9.804930618690108
      ],
      [
        "▁bitco",
        -9.806875239077062
      ],
      [
        "▁nyo",
        -9.806901300845153
      ],
      [
        "▁sulong",
        -9.806985034162944
      ],
      [
        "bon",
        -9.808626489473962
      ],
      [
        "▁alis",
        -9.808828649459066
      ],
      [
        "▁help",
        -9.809826100560837
      ],
      [
        "▁rehistro",
        -9.810128965823699
      ],
      [
        "com",
        -9.812474865797437
      ],
      [
        "▁last",
        -9.813978973088636
      ],
      [
        "▁komp",
        -9.81415482744853
      ],
      [
        "ef",
        -9.816108336860239
      ],
      [
        "▁dating",
        -9.816257845712318
      ],
      [
        "▁des",
        -9.816791838079718
      ],
      [
        "dar",
        -9.816908158801457
      ],
      [
        "▁laman",
        -9.817298125769113
      ],
      [
        "▁kuha",
        -9.818634595003637
      ],
      [
        "▁tinda",
        -9.819657055227855
      ],
      [
        "▁ilaw",
        -9.819703728129078
      ],
      [
        "anti",
        -9.819864858830599
      ],
      [
        "▁poker",
        -9.821030622005333
      ],
      [
        "▁sw",
        -9.822084729620078
      ],
      [
        "▁gamit",
        -9.822678504849343
      ],
      [
        "▁tugma",
        -9.822782373180623
      ],
      [
        "▁laya",
        -9.823390013427492
      ],
      [
        "▁tagumpay",
        -9.82452268399617
      ],
      [
        "▁pili",
        -9.824598436710403
      ],
      [
        "▁net",
        -9.8250503933921
      ],
      [
        "cut",
        -9.825460727739348
      ],
      [
        "tional",
        -9.826558417008576
      ],
      [
        "▁durog",
        -9.826702123507937
      ],
      [
        "▁isip",
        -9.82695988895805
      ],
      [
        "ova",
        -9.82741567186264
      ],
      [
        "▁gising",
        -9.82864559943399
      ],
      [
        "ente",
        -9.829731010460968
      ],
      [
        "▁sama",
        -9.829731230713344
      ],
      [
        "▁bili",
        -9.830040484187
      ],
      [
        "▁damdam",
        -9.83011430236047
      ],
      [
        "nding",
        -9.830485112429727
      ],
      [
        "▁luwa",
        -9.830511963331295
      ],
      [
        "▁baha",
        -9.830718653230324
      ],
      [
        "▁code",
        -9.831925113893814
      ],
      [
        "▁tindi",
        -9.831943815318457
      ],
      [
        "▁gaan",
        -9.83198813867699
      ],
      [
        "rti",
        -9.832037334425667
      ],
      [
        "▁payag",
        -9.832603602466905
      ],
      [
        "▁buntis",
        -9.833186171875033
      ],
      [
        "▁tibay",
        -9.833707871457202
      ],
      [
        "▁bigay",
        -9.833861467756687
      ],
      [
        "▁yugto",
        -9.834327081161138
      ],
      [
        "▁langit",
        -9.834661936651619
      ],
      [
        "-up",
        -9.834981962951828
      ],
      [
        "▁libro",
        -9.83576009624614
      ],
      [
        "bin",
        -9.835859247618627
      ],
      [
        "▁banal",
        -9.835999861903272
      ],
      [
        "▁karaniwan",
        -9.836201222523613
      ],
      [
        "▁kati",
        -9.837936421776554
      ],
      [
        "▁kuko",
        -9.838312867977594
      ],
      [
        "▁titi",
        -9.838468058686985
      ],
      [
        "▁produkto",
        -9.83919035306644
      ],
      [
        "wer",
        -9.839205013842118
      ],
      [
        "▁hayag",
        -9.839277218248377
      ],
      [
        "lus",
        -9.839304564383427
      ],
      [
        "▁kalahatan",
        -9.839424503151346
      ],
      [
        "▁sangkot",
        -9.840388584444051
      ],
      [
        "▁pisikal",
        -9.840710756551521
      ],
      [
        "ward",
        -9.840923214850248
      ],
      [
        "▁galaw",
        -9.842043630739637
      ],
      [
        "28",
        -9.842604872979425
      ],
      [
        "26",
        -9.843228596458701
      ],
      [
        "▁temperatura",
        -9.843267890103702
      ],
      [
        "▁suk",
        -9.844727538735565
      ],
      [
        "▁hina",
        -9.844975406635156
      ],
      [
        "▁south",
        -9.845000126637725
      ],
      [
        "▁bigay",
        -9.845339443813055
      ],
      [
        "stro",
        -9.846487290327161
      ],
      [
        "cia",
        -9.846661799016358
      ],
      [
        "▁inom",
        -9.846789476748599
      ],
      [
        "▁ganda",
        -9.847715809079022
      ],
      [
        "ito",
        -9.84809687012254
      ],
      [
        "▁aklat",
        -9.848910891767906
      ],
      [
        "▁kulang",
        -9.849227415971162
      ],
      [
        "yo",
        -9.849261781112912
      ],
      [
        "▁doc",
        -9.850140696183885
      ],
      [
        "▁acid",
        -9.850376082742981
      ],
      [
        "rial",
        -9.850569148856865
      ],
      [
        "▁dagat",
        -9.850700660500975
      ],
      [
        "▁bitamina",
        -9.850999393240365
      ],
      [
        "▁kalahati",
        -9.851127859167768
      ],
      [
        "▁deposito",
        -9.851964494841976
      ],
      [
        "▁hugis",
        -9.851980579340086
      ],
      [
        "▁driver",
        -9.852053021313594
      ],
      [
        "▁manatili",
        -9.852132365868707
      ],
      [
        "▁tubo",
        -9.852740902264598
      ],
      [
        "▁lokasyon",
        -9.8529460337991
      ],
      [
        "net",
        -9.853211171086633
      ],
      [
        "pre",
        -9.853483595387717
      ],
      [
        "▁yari",
        -9.853690855972996
      ],
      [
        "▁hanap",
        -9.853984924881564
      ],
      [
        "rio",
        -9.854420204662022
      ],
      [
        "▁kalat",
        -9.854935201416648
      ],
      [
        "▁likha",
        -9.855063448282015
      ],
      [
        "▁haya",
        -9.855339754078114
      ],
      [
        "▁interes",
        -9.85562525563031
      ],
      [
        "▁imbak",
        -9.857333106579437
      ],
      [
        "▁laki",
        -9.857496105124854
      ],
      [
        "▁multi",
        -9.857781854030344
      ],
      [
        "▁body",
        -9.858108660674137
      ],
      [
        "▁kanta",
        -9.85952651762284
      ],
      [
        "▁22",
        -9.859983606812788
      ],
      [
        "▁pigil",
        -9.860275207806305
      ],
      [
        "▁hamon",
        -9.861923444985312
      ],
      [
        "▁share",
        -9.862149162063407
      ],
      [
        "▁utak",
        -9.862280592838626
      ],
      [
        "▁banggit",
        -9.86235111060106
      ],
      [
        "▁tubo",
        -9.862546159152894
      ],
      [
        "▁higpit",
        -9.863874259149412
      ],
      [
        "▁bilog",
        -9.86473672905475
      ],
      [
        "▁agad",
        -9.86486482689775
      ],
      [
        "▁bala",
        -9.864877628089197
      ],
      [
        "▁kabuuan",
        -9.865494636030574
      ],
      [
        "▁tauhan",
        -9.865497492139447
      ],
      [
        "lor",
        -9.86551913049031
      ],
      [
        "▁utang",
        -9.86613956688354
      ],
      [
        "▁hantong",
        -9.86647950276911
      ],
      [
        "▁bigay",
        -9.866675916918952
      ],
      [
        "▁ginto",
        -9.867465759241389
      ],
      [
        "▁kotse",
        -9.868795565299767
      ],
      [
        "yun",
        -9.869116160766565
      ],
      [
        "▁facials",
        -9.869218437931568
      ],
      [
        "▁hand",
        -9.869994141032796
      ],
      [
        "▁arm",
        -9.870190554844221
      ],
      [
        "▁class",
        -9.872275097091386
      ],
      [
        "tun",
        -9.87276515526324
      ],
      [
        "▁dumi",
        -9.872790026786818
      ],
      [
        "▁simbahan",
        -9.873490443221003
      ],
      [
        "▁silid",
        -9.87510479182398
      ],
      [
        "taw",
        -9.87542205066148
      ],
      [
        "▁ospital",
        -9.878872218516017
      ],
      [
        "▁bituka",
        -9.879540781146822
      ],
      [
        "▁alam",
        -9.88026541150796
      ],
      [
        "▁tanggal",
        -9.880842947252956
      ],
      [
        "▁mahal",
        -9.881750609639067
      ],
      [
        "▁also",
        -9.882228507811083
      ],
      [
        "▁pigil",
        -9.882323135510465
      ],
      [
        "▁pc",
        -9.882752471483279
      ],
      [
        "▁bigla",
        -9.883038778834583
      ],
      [
        "▁damdam",
        -9.884005276858298
      ],
      [
        "▁year",
        -9.884509348409907
      ],
      [
        "▁puti",
        -9.88567762884934
      ],
      [
        "▁trabaho",
        -9.886031441949777
      ],
      [
        "▁dec",
        -9.88627702254727
      ],
      [
        "ship",
        -9.886697826296903
      ],
      [
        "led",
        -9.886961951908894
      ],
      [
        "ami",
        -9.887026730320082
      ],
      [
        "▁tanghal",
        -9.8878920489486
      ],
      [
        "▁diwa",
        -9.888151832500354
      ],
      [
        "▁film",
        -9.889309866523696
      ],
      [
        "▁kita",
        -9.889374544660354
      ],
      [
        "ations",
        -9.889398906275215
      ],
      [
        "▁essay",
        -9.889583390773321
      ],
      [
        "▁milyon",
        -9.889859114365844
      ],
      [
        "▁auto",
        -9.889940586545242
      ],
      [
        "▁asa",
        -9.890141739277444
      ],
      [
        "▁lagay",
        -9.891237201697967
      ],
      [
        "▁paksa",
        -9.891720429178942
      ],
      [
        "til",
        -9.892074289603684
      ],
      [
        "▁abot",
        -9.893115563469332
      ],
      [
        "▁simbolo",
        -9.89335663767818
      ],
      [
        "▁damdam",
        -9.893361350709213
      ],
      [
        "▁years",
        -9.893902406288822
      ],
      [
        "nic",
        -9.894658497683748
      ],
      [
        "▁luwang",
        -9.897332845614468
      ],
      [
        "▁university",
        -9.898856078307945
      ],
      [
        "rot",
        -9.899612217116223
      ],
      [
        "",
        -9.900553727465397
      ],
      [
        "wala",
        -9.900655699178895
      ],
      [
        "▁dali",
        -9.901134320210144
      ],
      [
        "▁pun",
        -9.901362073623584
      ],
      [
        "nga",
        -9.902027725605071
      ],
      [
        "ome",
        -9.902413732218434
      ],
      [
        "isip",
        -9.902981211721912
      ],
      [
        "",
        -9.90321594054174
      ],
      [
        "▁kalawang",
        -9.903275975587011
      ],
      [
        "▁kilos",
        -9.903749308659181
      ],
      [
        "siya",
        -9.905184990768547
      ],
      [
        "▁sunod",
        -9.90596143107184
      ],
      [
        "ped",
        -9.906559843965187
      ],
      [
        "▁tungo",
        -9.906806698505164
      ],
      [
        "row",
        -9.90724495814282
      ],
      [
        "▁cell",
        -9.9076233767196
      ],
      [
        "▁materyales",
        -9.907904512080949
      ],
      [
        "",
        -9.907958846381462
      ],
      [
        "▁rami",
        -9.910176390840634
      ],
      [
        "▁puna",
        -9.910772976086374
      ],
      [
        "▁unti",
        -9.911150918414078
      ],
      [
        "▁atbp",
        -9.91143466623976
      ],
      [
        "▁ubo",
        -9.911491491758934
      ],
      [
        "'y",
        -9.912139677644388
      ],
      [
        "▁laman",
        -9.912806027323748
      ],
      [
        "▁bill",
        -9.912984468223236
      ],
      [
        "",
        -9.91320671320334
      ],
      [
        "▁sara",
        -9.913510806485203
      ],
      [
        "fit",
        -9.914788828798697
      ],
      [
        "▁ganun",
        -9.915449459196306
      ],
      [
        "▁need",
        -9.91636270520448
      ],
      [
        "▁gawa",
        -9.916806772160434
      ],
      [
        "▁sun",
        -9.917146749353574
      ],
      [
        "▁tatag",
        -9.918108521833746
      ],
      [
        "▁tindi",
        -9.918535167075037
      ],
      [
        "zon",
        -9.91967514395385
      ],
      [
        "▁kulang",
        -9.919946832218603
      ],
      [
        "▁epektibo",
        -9.920151670741808
      ],
      [
        "sol",
        -9.920632234182621
      ],
      [
        "▁rizal",
        -9.920633588770292
      ],
      [
        "▁drug",
        -9.92135647806738
      ],
      [
        "lie",
        -9.921426059677245
      ],
      [
        "▁bawas",
        -9.923918051194288
      ],
      [
        "lag",
        -9.924710761168706
      ],
      [
        "gawa",
        -9.924862991486957
      ],
      [
        "emi",
        -9.925414231305984
      ],
      [
        "▁turing",
        -9.92613951826937
      ],
      [
        "ities",
        -9.92692310637208
      ],
      [
        "▁singil",
        -9.927120880682155
      ],
      [
        "kum",
        -9.927268177158313
      ],
      [
        "",
        -9.927594207935519
      ],
      [
        "",
        -9.927831899407783
      ],
      [
        "▁available",
        -9.928989232511508
      ],
      [
        "▁lampas",
        -9.929000091626106
      ],
      [
        "zz",
        -9.929030305203545
      ],
      [
        "▁putol",
        -9.929358266860218
      ],
      [
        "▁sarap",
        -9.930331009251004
      ],
      [
        "▁lingkod",
        -9.930564669380784
      ],
      [
        "▁linis",
        -9.931007750682161
      ],
      [
        "▁pangkat",
        -9.931440364776046
      ],
      [
        "▁panatili",
        -9.93162433404989
      ],
      [
        "▁business",
        -9.933018773573686
      ],
      [
        "▁nternational",
        -9.933369037370726
      ],
      [
        "bert",
        -9.934256381336265
      ],
      [
        "▁baba",
        -9.935594711462894
      ],
      [
        "gil",
        -9.936041645763105
      ],
      [
        "▁sisi",
        -9.936882038331325
      ],
      [
        "▁mangayayat",
        -9.937944495821093
      ],
      [
        "▁kontra",
        -9.938102100783363
      ],
      [
        "▁sugat",
        -9.938144220615033
      ],
      [
        "▁sama",
        -9.938196236779763
      ],
      [
        "▁jan",
        -9.938867610216423
      ],
      [
        "yo",
        -9.93948487845949
      ],
      [
        "lata",
        -9.9398525267581
      ],
      [
        "▁produksyon",
        -9.942541036073772
      ],
      [
        "▁limitasyon",
        -9.943205448064244
      ],
      [
        "",
        -9.943959416778576
      ],
      [
        "▁yari",
        -9.94396021677079
      ],
      [
        "▁government",
        -9.944492032961197
      ],
      [
        "▁bansa",
        -9.944520368060747
      ],
      [
        "▁palit",
        -9.94475242842463
      ],
      [
        "ized",
        -9.94540936501453
      ],
      [
        "▁bango",
        -9.945544177118347
      ],
      [
        "vic",
        -9.945716801572868
      ],
      [
        "▁organ",
        -9.945931030961935
      ],
      [
        "▁ke",
        -9.94672224684692
      ],
      [
        "▁buhay",
        -9.946985434198073
      ],
      [
        "mad",
        -9.947397013481865
      ],
      [
        "ed",
        -9.948819662493685
      ],
      [
        "▁tunog",
        -9.94894967667375
      ],
      [
        "ksyon",
        -9.949685535686534
      ],
      [
        "▁heart",
        -9.949702864458368
      ],
      [
        "▁ganap",
        -9.949806929611206
      ],
      [
        "▁ugnay",
        -9.949896369890611
      ],
      [
        "▁hila",
        -9.950782061946992
      ],
      [
        "rse",
        -9.951775453881666
      ],
      [
        "▁youtube",
        -9.952156562051808
      ],
      [
        "tina",
        -9.952222424936876
      ],
      [
        "▁nor",
        -9.952231979017967
      ],
      [
        "▁sala",
        -9.95236596915962
      ],
      [
        "▁digital",
        -9.952871590572997
      ],
      [
        "▁very",
        -9.953469519002066
      ],
      [
        "▁mr",
        -9.953552656307854
      ],
      [
        "▁hangad",
        -9.953829245970173
      ],
      [
        "▁rating",
        -9.953965751282558
      ],
      [
        "▁sanay",
        -9.95412831438926
      ],
      [
        "▁apple",
        -9.954234155538463
      ],
      [
        "▁sup",
        -9.95539652289488
      ],
      [
        "chi",
        -9.9562693884085
      ],
      [
        "▁tiyak",
        -9.956451022950025
      ],
      [
        "▁opsyon",
        -9.958056613968381
      ],
      [
        "vpn",
        -9.958164779343697
      ],
      [
        "▁komento",
        -9.958612288597894
      ],
      [
        "▁cash",
        -9.958710437509295
      ],
      [
        "▁ukol",
        -9.959051663421231
      ],
      [
        "▁dagdag",
        -9.959669198053598
      ],
      [
        "▁bahala",
        -9.959781457835271
      ],
      [
        "▁leg",
        -9.960246966902574
      ],
      [
        "▁tangi",
        -9.960474106287535
      ],
      [
        "▁bansa",
        -9.960614813555177
      ],
      [
        "pol",
        -9.961902410151447
      ],
      [
        "▁secretary",
        -9.962090238166422
      ],
      [
        "gawa",
        -9.963110542421532
      ],
      [
        "▁saalang-alang",
        -9.963309792425562
      ],
      [
        "ient",
        -9.963785892758196
      ],
      [
        "▁hotel",
        -9.963864473582115
      ],
      [
        "rma",
        -9.964018550591389
      ],
      [
        "ju",
        -9.964081445968512
      ],
      [
        "▁hanap",
        -9.965259127813885
      ],
      [
        "▁kaya",
        -9.968208251880927
      ],
      [
        "▁hinto",
        -9.97028489509386
      ],
      [
        "▁binti",
        -9.971488197601616
      ],
      [
        "▁ugat",
        -9.97186235236942
      ],
      [
        "lug",
        -9.972390676286524
      ],
      [
        "▁thank",
        -9.973381541664073
      ],
      [
        "▁control",
        -9.973497628377736
      ],
      [
        "▁potensyal",
        -9.974041107810821
      ],
      [
        "▁reklamo",
        -9.974773402927731
      ],
      [
        "pur",
        -9.974905559350878
      ],
      [
        "▁family",
        -9.974957506562859
      ],
      [
        "rty",
        -9.975039867592601
      ],
      [
        "rad",
        -9.97552720239173
      ],
      [
        "▁panig",
        -9.976505300167293
      ],
      [
        "▁daan",
        -9.976547121651796
      ],
      [
        "▁project",
        -9.976788214142235
      ],
      [
        "▁park",
        -9.977437066957917
      ],
      [
        "▁girl",
        -9.977710398471835
      ],
      [
        "▁ski",
        -9.978129768416133
      ],
      [
        "▁za",
        -9.978696362224191
      ],
      [
        "▁rec",
        -9.978758260739355
      ],
      [
        "oon",
        -9.979076456024385
      ],
      [
        "▁halaga",
        -9.979082613842305
      ],
      [
        "ekta",
        -9.980245243197512
      ],
      [
        "▁kayo",
        -9.981294164284849
      ],
      [
        "▁okay",
        -9.981477555362186
      ],
      [
        "ganap",
        -9.982042883376385
      ],
      [
        "▁buhay",
        -9.983381134189514
      ],
      [
        "▁lipas",
        -9.983414191529004
      ],
      [
        "▁alak",
        -9.983477908857035
      ],
      [
        "▁hulog",
        -9.983716435822965
      ],
      [
        "▁popular",
        -9.983788326773366
      ],
      [
        "▁23",
        -9.983926404967951
      ],
      [
        "▁balak",
        -9.984911335134038
      ],
      [
        "▁tong",
        -9.985024696348177
      ],
      [
        "▁add",
        -9.985926696673879
      ],
      [
        "▁benta",
        -9.987226926636357
      ],
      [
        "▁lipat",
        -9.98744736602015
      ],
      [
        "▁empleyado",
        -9.987665516856048
      ],
      [
        "▁asya",
        -9.988430340353291
      ],
      [
        "▁dry",
        -9.991031985510812
      ],
      [
        "▁president",
        -9.991763700171076
      ],
      [
        "▁pres",
        -9.99370616792144
      ],
      [
        "▁month",
        -9.994195529070232
      ],
      [
        "▁hanga",
        -9.994498766467085
      ],
      [
        "itis",
        -9.994740455338054
      ],
      [
        "sabay",
        -9.996891336359848
      ],
      [
        "pir",
        -9.997109152331758
      ],
      [
        "▁bisita",
        -9.997959762173842
      ],
      [
        "▁residente",
        -9.998100830457153
      ],
      [
        "▁milyon",
        -9.998769703851014
      ],
      [
        "▁laro",
        -9.999646331825717
      ],
      [
        "▁enjoy",
        -10.000538837990792
      ],
      [
        "▁niya",
        -10.001310460037962
      ],
      [
        "▁remedyo",
        -10.001666817569953
      ],
      [
        "▁here",
        -10.002032003645553
      ],
      [
        "",
        -10.002395503869963
      ],
      [
        "tive",
        -10.00324645967674
      ],
      [
        "▁bati",
        -10.003386839959246
      ],
      [
        "▁metal",
        -10.003775387617173
      ],
      [
        "▁rasite",
        -10.004112977633785
      ],
      [
        "▁full",
        -10.00502947966881
      ],
      [
        "▁mineral",
        -10.005056321444005
      ],
      [
        "▁husay",
        -10.005373459642634
      ],
      [
        "▁god",
        -10.00579180055062
      ],
      [
        "▁piraso",
        -10.005814624843753
      ],
      [
        "▁kamit",
        -10.00583140459789
      ],
      [
        "▁bagaman",
        -10.006836838033117
      ],
      [
        "▁mula",
        -10.007398900900776
      ],
      [
        "▁bigayda",
        -10.008456884308886
      ],
      [
        "▁pili",
        -10.00867955520864
      ],
      [
        "ency",
        -10.009335281232746
      ],
      [
        "▁lapi",
        -10.00971102915849
      ],
      [
        "▁unit",
        -10.010279676909136
      ],
      [
        "-2",
        -10.011438293625535
      ],
      [
        "▁quezon",
        -10.012071140435673
      ],
      [
        "ikal",
        -10.013343442192234
      ],
      [
        "▁makailan",
        -10.013389979370682
      ],
      [
        "▁tuwid",
        -10.013396720951278
      ],
      [
        "tura",
        -10.013408642329747
      ],
      [
        "▁iwas",
        -10.013552432847511
      ],
      [
        "▁alaga",
        -10.01453751346221
      ],
      [
        "12",
        -10.015158611296307
      ],
      [
        "▁www",
        -10.015679554320897
      ],
      [
        "ssage",
        -10.016057832629365
      ],
      [
        "▁pribado",
        -10.016075452644062
      ],
      [
        "▁open",
        -10.018040717563037
      ],
      [
        "mul",
        -10.018483034459218
      ],
      [
        "▁sigaw",
        -10.018892205888577
      ],
      [
        "▁trade",
        -10.018904064277661
      ],
      [
        "▁kilos",
        -10.019172020544756
      ],
      [
        "▁source",
        -10.019305642213405
      ],
      [
        "▁salamin",
        -10.019830854389015
      ],
      [
        "▁ugali",
        -10.019956802296724
      ],
      [
        "▁movie",
        -10.020051813462908
      ],
      [
        "nov",
        -10.020263493827477
      ],
      [
        "99",
        -10.020579585975709
      ],
      [
        "▁tanda",
        -10.023056559220851
      ],
      [
        "▁hingi",
        -10.023192884336403
      ],
      [
        "▁pen",
        -10.024265560551555
      ],
      [
        "▁ingles",
        -10.024502747308851
      ],
      [
        "laki",
        -10.02467469407378
      ],
      [
        "ally",
        -10.025310270376155
      ],
      [
        "▁channel",
        -10.025449837221169
      ],
      [
        "▁tingi",
        -10.025818676038284
      ],
      [
        "qua",
        -10.026692042064633
      ],
      [
        "▁yu",
        -10.026877906360717
      ],
      [
        "bid",
        -10.02702892596085
      ],
      [
        "install",
        -10.028150151608394
      ],
      [
        "side",
        -10.028155363475726
      ],
      [
        "▁kita",
        -10.028212905145734
      ],
      [
        "▁isip",
        -10.029012140681708
      ],
      [
        "▁awit",
        -10.029548882108635
      ],
      [
        "▁rami",
        -10.029831830796114
      ],
      [
        "▁beauty",
        -10.02988264901303
      ],
      [
        "pin",
        -10.02988290241796
      ],
      [
        "▁militar",
        -10.030082740237047
      ],
      [
        "▁games",
        -10.030264926845682
      ],
      [
        "▁target",
        -10.031241127748405
      ],
      [
        "▁tah",
        -10.031745210461201
      ],
      [
        "▁disc",
        -10.032424110714437
      ],
      [
        "▁2016",
        -10.03326656837099
      ],
      [
        "▁device",
        -10.033376227025494
      ],
      [
        "ari",
        -10.034320599065422
      ],
      [
        "▁dagdag",
        -10.034818852634904
      ],
      [
        "▁rket",
        -10.034923747941841
      ],
      [
        "air",
        -10.035306130708204
      ],
      [
        "",
        -10.035345369889912
      ],
      [
        "▁lang",
        -10.038359494397737
      ],
      [
        "▁cancer",
        -10.038613042987945
      ],
      [
        "mus",
        -10.039475632946536
      ],
      [
        "▁because",
        -10.03959808592537
      ],
      [
        "ose",
        -10.040214179245918
      ],
      [
        "▁tulong",
        -10.040939674435084
      ],
      [
        "▁ayos",
        -10.041676387659175
      ],
      [
        "rt",
        -10.041751754804695
      ],
      [
        "▁karne",
        -10.041765799481507
      ],
      [
        "▁sikap",
        -10.041932407290268
      ],
      [
        "buhay",
        -10.041975324308018
      ],
      [
        "▁legal",
        -10.042580667451674
      ],
      [
        "spect",
        -10.042889248990857
      ],
      [
        "▁perpekto",
        -10.043268929293705
      ],
      [
        "▁piling",
        -10.043900058254717
      ],
      [
        "▁pet",
        -10.044314498358784
      ],
      [
        "▁mahe",
        -10.044795802164328
      ],
      [
        "▁fra",
        -10.045586921057453
      ],
      [
        "▁500",
        -10.045710859248915
      ],
      [
        "▁iwas",
        -10.045799431649165
      ],
      [
        "ri",
        -10.045809674387783
      ],
      [
        "▁tanong",
        -10.04650349688688
      ],
      [
        "▁support",
        -10.04775976263703
      ],
      [
        "▁ali",
        -10.047965441801749
      ],
      [
        "▁2017",
        -10.048029950592069
      ],
      [
        "▁puro",
        -10.048452394914797
      ],
      [
        "▁halaga",
        -10.049008383391218
      ],
      [
        "▁droga",
        -10.049806321368314
      ],
      [
        "ka",
        -10.050241274068108
      ],
      [
        "▁anti-",
        -10.050319177738523
      ],
      [
        "▁tangka",
        -10.050809169276478
      ],
      [
        "▁tagpo",
        -10.050957694040472
      ],
      [
        "▁acne",
        -10.051981193485476
      ],
      [
        "tsa",
        -10.052049813865002
      ],
      [
        "▁tira",
        -10.052899489536767
      ],
      [
        "▁panatili",
        -10.053040425670579
      ],
      [
        "▁ugnay",
        -10.054054794586486
      ],
      [
        "▁pili",
        -10.054476206736261
      ],
      [
        "▁talakay",
        -10.054978426724833
      ],
      [
        "▁salo",
        -10.055901434723797
      ],
      [
        "▁gana",
        -10.05712099686286
      ],
      [
        "▁tren",
        -10.057267867417714
      ],
      [
        "▁manok",
        -10.05732612941887
      ],
      [
        "▁biyahe",
        -10.057327482427816
      ],
      [
        "▁elemento",
        -10.057328079380628
      ],
      [
        "000",
        -10.058645045007822
      ],
      [
        "▁tanyag",
        -10.058918623007626
      ],
      [
        "lum",
        -10.058999025096156
      ],
      [
        "▁aga",
        -10.059123962884248
      ],
      [
        "▁ali",
        -10.061053393088232
      ],
      [
        "▁check",
        -10.061086437578272
      ],
      [
        "var",
        -10.061478193454619
      ],
      [
        "▁iwas",
        -10.061969063055118
      ],
      [
        "▁panganib",
        -10.063932425366458
      ],
      [
        "▁menu",
        -10.063949622922749
      ],
      [
        "▁fat",
        -10.064573280213946
      ],
      [
        "▁person",
        -10.064713782962178
      ],
      [
        "▁ugnay",
        -10.064837587571398
      ],
      [
        "pek",
        -10.065416590675483
      ],
      [
        "▁kahulugan",
        -10.065910276951787
      ],
      [
        "",
        -10.066289164703635
      ],
      [
        "▁sunod",
        -10.066895091939829
      ],
      [
        "▁una",
        -10.067038883152906
      ],
      [
        "▁isip",
        -10.067059311093265
      ],
      [
        "▁tab",
        -10.067772613906552
      ],
      [
        "▁acc",
        -10.068020840857846
      ],
      [
        "▁taga",
        -10.068606674400906
      ],
      [
        "▁tatak",
        -10.069147644237662
      ],
      [
        "ari",
        -10.069359870040241
      ],
      [
        "▁alex",
        -10.069876864420895
      ],
      [
        "▁proteksyon",
        -10.070128933047501
      ],
      [
        "rant",
        -10.070229233220914
      ],
      [
        "long",
        -10.070874944890983
      ],
      [
        "▁call",
        -10.071365392220958
      ],
      [
        "▁dulo",
        -10.071462607459463
      ],
      [
        "▁hanap",
        -10.071766109491874
      ],
      [
        "▁prutas",
        -10.072749250282987
      ],
      [
        "▁virus",
        -10.074286038744674
      ],
      [
        "▁guhit",
        -10.07498804436722
      ],
      [
        "uta",
        -10.076622171590248
      ],
      [
        "wel",
        -10.076789787101529
      ],
      [
        "▁labas",
        -10.07694997161911
      ],
      [
        "▁boy",
        -10.077669464867686
      ],
      [
        "tom",
        -10.077818581530305
      ],
      [
        "▁sama",
        -10.080727301723249
      ],
      [
        "▁puri",
        -10.080798683370288
      ],
      [
        "▁halamang-singaw",
        -10.081466031678632
      ],
      [
        "hikayat",
        -10.081466420934857
      ],
      [
        "▁english",
        -10.083096197902663
      ],
      [
        "▁karera",
        -10.083915852681471
      ],
      [
        "▁panukala",
        -10.084729017747511
      ],
      [
        "▁gusali",
        -10.084732614406713
      ],
      [
        "law",
        -10.084833843653362
      ],
      [
        "▁pnp",
        -10.085265297322831
      ],
      [
        "▁medikal",
        -10.085354759747919
      ],
      [
        "▁dahilan",
        -10.086115118518904
      ],
      [
        "unti",
        -10.086739777640302
      ],
      [
        "▁short",
        -10.086984788828847
      ],
      [
        "▁special",
        -10.087185210447206
      ],
      [
        "▁kulong",
        -10.088281321858846
      ],
      [
        "▁sulat",
        -10.088317251627062
      ],
      [
        "▁tumpak",
        -10.089029401455612
      ],
      [
        "▁tabletas",
        -10.08914912502616
      ],
      [
        "▁sabi",
        -10.089253902911283
      ],
      [
        "▁aksyon",
        -10.089554155573277
      ],
      [
        "imb",
        -10.090237165954198
      ],
      [
        "mik",
        -10.0902420608589
      ],
      [
        "tine",
        -10.090250853131105
      ],
      [
        "▁pansin",
        -10.090798910935423
      ],
      [
        "▁engine",
        -10.090880627005642
      ],
      [
        "▁local",
        -10.091740303256275
      ],
      [
        "▁tira",
        -10.091959210634792
      ],
      [
        "gaw",
        -10.09203333450939
      ],
      [
        "▁stress",
        -10.092120434209543
      ],
      [
        "▁tapon",
        -10.092435534680703
      ],
      [
        "▁credit",
        -10.093566359733117
      ],
      [
        "▁artista",
        -10.094655561952697
      ],
      [
        "▁kalahati",
        -10.095450105214885
      ],
      [
        "á",
        -10.095820835691647
      ],
      [
        "▁bio",
        -10.096213913063842
      ],
      [
        "▁larang",
        -10.096441411971815
      ],
      [
        "▁kpara",
        -10.098096083291196
      ],
      [
        "▁kita",
        -10.098745957689012
      ],
      [
        "▁nun",
        -10.0993874856224
      ],
      [
        "▁bulaklak",
        -10.100171135501803
      ],
      [
        "▁bagyo",
        -10.100422080603224
      ],
      [
        "▁tugon",
        -10.100554187648367
      ],
      [
        "▁basura",
        -10.100622442111833
      ],
      [
        "30",
        -10.10186928414892
      ],
      [
        "not",
        -10.102038567825064
      ],
      [
        "▁layo",
        -10.103308977786934
      ],
      [
        "▁take",
        -10.10335647560459
      ],
      [
        "▁general",
        -10.103516837393759
      ],
      [
        "▁rcos",
        -10.104117124294573
      ],
      [
        "ute",
        -10.104242729336217
      ],
      [
        "▁ju",
        -10.104337771632299
      ],
      [
        "▁tulak",
        -10.104585886653295
      ],
      [
        "▁tema",
        -10.10689672432239
      ],
      [
        "ksiyon",
        -10.10713775167501
      ],
      [
        "▁dali",
        -10.10724689886572
      ],
      [
        "▁lala",
        -10.107283728257805
      ],
      [
        "▁radi",
        -10.107392978465105
      ],
      [
        "▁villa",
        -10.109209319735868
      ],
      [
        "iwa",
        -10.109360289372178
      ],
      [
        "▁bisa",
        -10.11002650736136
      ],
      [
        "▁sobra",
        -10.110139247235006
      ],
      [
        "bago",
        -10.110538909918477
      ],
      [
        "▁lawa",
        -10.110803960622828
      ],
      [
        "zh",
        -10.11107557872207
      ],
      [
        "▁gel",
        -10.111092545416435
      ],
      [
        "▁server",
        -10.112302553090135
      ],
      [
        "▁linis",
        -10.112305339870113
      ],
      [
        "▁effect",
        -10.113170403182
      ],
      [
        "▁sk",
        -10.113275705972034
      ],
      [
        "▁every",
        -10.113339111308001
      ],
      [
        "▁marka",
        -10.113642781440811
      ],
      [
        "▁iyak",
        -10.114111672779842
      ],
      [
        "▁tulungan",
        -10.114797718915565
      ],
      [
        "▁isip",
        -10.114999042152714
      ],
      [
        "tem",
        -10.116965753853334
      ],
      [
        "▁bulati",
        -10.117324949955037
      ],
      [
        "▁dinig",
        -10.11741884230053
      ],
      [
        "▁bawas",
        -10.117665820027593
      ],
      [
        "▁ikot",
        -10.117969397155129
      ],
      [
        "ber",
        -10.11891770076862
      ],
      [
        "▁higpit",
        -10.118996226908028
      ],
      [
        "▁netizen",
        -10.119015496601937
      ],
      [
        "▁komunikasyon",
        -10.119225937101882
      ],
      [
        "▁dula",
        -10.119226119064361
      ],
      [
        "▁bihira",
        -10.11954553493036
      ],
      [
        "▁gre",
        -10.11965345854266
      ],
      [
        "▁aktres",
        -10.120919163082373
      ],
      [
        "▁positibo",
        -10.121127475953664
      ],
      [
        "▁taas",
        -10.122026307305843
      ],
      [
        "dol",
        -10.122818133414944
      ],
      [
        "▁tuluyan",
        -10.123166358614808
      ],
      [
        "▁director",
        -10.125727394203231
      ],
      [
        "▁amb",
        -10.125855918513711
      ],
      [
        "▁roll",
        -10.126669263525402
      ],
      [
        "▁daigdig",
        -10.127505983737851
      ],
      [
        "▁kalakal",
        -10.129025026035915
      ],
      [
        "▁poon",
        -10.1302824624133
      ],
      [
        "▁tatag",
        -10.130310641348661
      ],
      [
        "tru",
        -10.130364851784822
      ],
      [
        "▁boto",
        -10.131096392787937
      ],
      [
        "▁weight",
        -10.131387386096806
      ],
      [
        "▁kahoy",
        -10.131831570946897
      ],
      [
        "▁aktibong",
        -10.132850443728922
      ],
      [
        "ation",
        -10.133032425155461
      ],
      [
        "▁lagay",
        -10.133309994786169
      ],
      [
        "▁marte",
        -10.133420238677182
      ],
      [
        "▁plus",
        -10.133554690412065
      ],
      [
        "▁tanggap",
        -10.133922687264315
      ],
      [
        "▁lima",
        -10.134599603931198
      ],
      [
        "▁unidos",
        -10.13521230583321
      ],
      [
        "▁laki",
        -10.136197228748395
      ],
      [
        "tao",
        -10.136636908828486
      ],
      [
        "die",
        -10.137154730449302
      ],
      [
        "▁seryoso",
        -10.137361749224517
      ],
      [
        "▁sino",
        -10.137579877561905
      ],
      [
        "▁laan",
        -10.137940310185465
      ],
      [
        "▁fish",
        -10.138143572140278
      ],
      [
        "▁batay",
        -10.13825357817993
      ],
      [
        "▁tungkol",
        -10.138709376860605
      ],
      [
        "▁dalas",
        -10.138759176366925
      ],
      [
        "▁store",
        -10.139167943758395
      ],
      [
        "▁care",
        -10.139377963808833
      ],
      [
        "▁pinto",
        -10.139592792994364
      ],
      [
        "▁development",
        -10.139631700964484
      ],
      [
        "▁lipat",
        -10.141070932315579
      ],
      [
        "ering",
        -10.141289324104942
      ],
      [
        "▁soda",
        -10.141400697163748
      ],
      [
        "▁pwedeng",
        -10.141444470888132
      ],
      [
        "pis",
        -10.14153509525617
      ],
      [
        "ental",
        -10.141913427554854
      ],
      [
        "▁gulat",
        -10.143135195781667
      ],
      [
        "▁rosa",
        -10.143149954421748
      ],
      [
        "▁case",
        -10.144189997528066
      ],
      [
        "▁sikap",
        -10.144591898803064
      ],
      [
        "▁anuman",
        -10.144921873229498
      ],
      [
        "▁bantay",
        -10.145705326640428
      ],
      [
        "▁type",
        -10.145846489698917
      ],
      [
        "▁mura",
        -10.14584894088312
      ],
      [
        "dahil",
        -10.145878623240744
      ],
      [
        "▁cook",
        -10.146955923873252
      ],
      [
        "▁matay",
        -10.146959582197667
      ],
      [
        "lift",
        -10.1470314389277
      ],
      [
        "▁hambing",
        -10.147324594522127
      ],
      [
        "▁dios",
        -10.147799479423131
      ],
      [
        "▁carbon",
        -10.148044251647073
      ],
      [
        "nay",
        -10.14849778410494
      ],
      [
        "▁tipid",
        -10.149206358726836
      ],
      [
        "▁artikulo",
        -10.149665058319764
      ],
      [
        "▁puno",
        -10.149851951113785
      ],
      [
        "tech",
        -10.150186863679627
      ],
      [
        "▁tunton",
        -10.1503643795859
      ],
      [
        "▁abs-cbn",
        -10.150582527209497
      ],
      [
        "▁halaga",
        -10.151074896542701
      ],
      [
        "▁bagama",
        -10.151602660300684
      ],
      [
        "olohiya",
        -10.15181299234396
      ],
      [
        "▁lihim",
        -10.151984660723798
      ],
      [
        "▁cast",
        -10.152188474588577
      ],
      [
        "▁apo",
        -10.15323202494222
      ],
      [
        "da",
        -10.15335204737147
      ],
      [
        "ology",
        -10.154326218301671
      ],
      [
        "▁player",
        -10.15512095959175
      ],
      [
        "▁awtoridad",
        -10.155174707864994
      ],
      [
        "▁bangko",
        -10.155509556431468
      ],
      [
        "▁old",
        -10.155966599704914
      ],
      [
        "▁word",
        -10.156496139812022
      ],
      [
        "▁vice",
        -10.157276888393875
      ],
      [
        "▁banda",
        -10.15735879725907
      ],
      [
        "▁loob",
        -10.15776115989824
      ],
      [
        "▁fd",
        -10.158199621716081
      ],
      [
        "▁lipas",
        -10.158839426586663
      ],
      [
        "temp",
        -10.159370697479796
      ],
      [
        "▁tapos",
        -10.160137110062786
      ],
      [
        "▁alinman",
        -10.160895045182217
      ],
      [
        "asa",
        -10.161199001302961
      ],
      [
        "▁bigay",
        -10.161644639725775
      ],
      [
        "▁contact",
        -10.162009998584908
      ],
      [
        "▁puwede",
        -10.162221265727599
      ],
      [
        "bell",
        -10.162264728118076
      ],
      [
        "▁dalasa",
        -10.163538383579455
      ],
      [
        "▁2022",
        -10.16398088641432
      ],
      [
        "▁yakap",
        -10.1644230385133
      ],
      [
        "▁aquino",
        -10.164423321676239
      ],
      [
        "▁pantay",
        -10.164423587701586
      ],
      [
        "▁estados",
        -10.164696323309089
      ],
      [
        "▁alaga",
        -10.165152063355151
      ],
      [
        "▁community",
        -10.165529503965107
      ],
      [
        "▁teksto",
        -10.166860323435772
      ],
      [
        "▁sining",
        -10.167341390934668
      ],
      [
        "▁direkta",
        -10.16781428348275
      ],
      [
        "▁koneksyon",
        -10.1681907055335
      ],
      [
        "▁micro",
        -10.1693449849716
      ],
      [
        "▁abu",
        -10.169670801077872
      ],
      [
        "▁kuryente",
        -10.16996853340799
      ],
      [
        "▁lahi",
        -10.170172102474138
      ],
      [
        "▁nina",
        -10.170260918610163
      ],
      [
        "serv",
        -10.170619737113268
      ],
      [
        "▁daliri",
        -10.171048980563972
      ],
      [
        "▁rock",
        -10.171129950601786
      ],
      [
        "▁rk",
        -10.171151466904046
      ],
      [
        "▁balanse",
        -10.171527913749092
      ],
      [
        "▁dokumento",
        -10.173980592638388
      ],
      [
        "▁sama",
        -10.17407082589925
      ],
      [
        "▁kliyente",
        -10.174427349214644
      ],
      [
        "▁follow",
        -10.174428424607614
      ],
      [
        "▁level",
        -10.174453641439596
      ],
      [
        "▁lutas",
        -10.1753307895259
      ],
      [
        "▁gri",
        -10.176125481506565
      ],
      [
        "book",
        -10.17651734912829
      ],
      [
        "▁kim",
        -10.176706395111134
      ],
      [
        "▁timog",
        -10.176915780670798
      ],
      [
        "▁pahintulot",
        -10.176941880693382
      ],
      [
        "▁tukoy",
        -10.177003678580874
      ],
      [
        "▁kanser",
        -10.17738098352082
      ],
      [
        "▁inom",
        -10.177470022840334
      ],
      [
        "bing",
        -10.17908183051507
      ],
      [
        "▁libog",
        -10.179436479100984
      ],
      [
        "▁organisasyon",
        -10.179696001894092
      ],
      [
        "▁oh",
        -10.179908106431881
      ],
      [
        "▁sugal",
        -10.180480680844017
      ],
      [
        "▁record",
        -10.181845443388754
      ],
      [
        "loob",
        -10.182653586223104
      ],
      [
        "▁daan",
        -10.18295916504246
      ],
      [
        "▁medical",
        -10.182980860632082
      ],
      [
        "ge",
        -10.184393558692065
      ],
      [
        "▁most",
        -10.184432497299966
      ],
      [
        "▁lala",
        -10.184552653876928
      ],
      [
        "▁bayani",
        -10.185300304482114
      ],
      [
        "▁kalsada",
        -10.185662175092727
      ],
      [
        "▁chief",
        -10.18580258432858
      ],
      [
        "mark",
        -10.185924175479796
      ],
      [
        "▁himok",
        -10.186404654435629
      ],
      [
        "▁lamig",
        -10.186552238323921
      ],
      [
        "▁panayam",
        -10.187018881105061
      ],
      [
        "▁motor",
        -10.18713108714323
      ],
      [
        "▁rat",
        -10.187325444792268
      ],
      [
        "▁bawas",
        -10.187473595349298
      ],
      [
        "hir",
        -10.18885087481925
      ],
      [
        "▁asahan",
        -10.189284123662004
      ],
      [
        "▁which",
        -10.189965155201696
      ],
      [
        "▁diyan",
        -10.190047014138052
      ],
      [
        "▁senador",
        -10.191086401552772
      ],
      [
        "▁hingi",
        -10.191338593740062
      ],
      [
        "▁hiwatig",
        -10.191513591126755
      ],
      [
        "▁mali",
        -10.191748622171128
      ],
      [
        "-3",
        -10.192087741457684
      ],
      [
        "▁asia",
        -10.193090339063783
      ],
      [
        "ches",
        -10.193120873349311
      ],
      [
        "▁butas",
        -10.1934957978854
      ],
      [
        "▁kuwarto",
        -10.194743308353015
      ],
      [
        "fic",
        -10.195618411974207
      ],
      [
        "",
        -10.195678804997382
      ],
      [
        "▁regalo",
        -10.196608926294877
      ],
      [
        "▁tanggap",
        -10.197710497466364
      ],
      [
        "▁hati",
        -10.197831296819494
      ],
      [
        "▁pila",
        -10.198353237538132
      ],
      [
        "▁sakit",
        -10.198772140116345
      ],
      [
        "▁pm",
        -10.198818927259037
      ],
      [
        "▁tapos",
        -10.199068811182386
      ],
      [
        "▁likha",
        -10.19963866161221
      ],
      [
        "▁kabuluhan",
        -10.200458695664851
      ],
      [
        "▁mister",
        -10.20156462902644
      ],
      [
        "▁kw",
        -10.202451964285743
      ],
      [
        "osis",
        -10.20259425640684
      ],
      [
        "▁sumang",
        -10.203215011141385
      ],
      [
        "▁ago",
        -10.203851182208531
      ],
      [
        "▁opisina",
        -10.203904750560865
      ],
      [
        "▁awtomatiko",
        -10.203938727987902
      ],
      [
        "▁ran",
        -10.204625299520425
      ],
      [
        "▁yaman",
        -10.204915502341747
      ],
      [
        "▁opera",
        -10.205232394553201
      ],
      [
        "▁layer",
        -10.205896288796113
      ],
      [
        "▁sali",
        -10.206160810104853
      ],
      [
        "▁musika",
        -10.206640593125295
      ],
      [
        "▁banta",
        -10.206708632243839
      ],
      [
        "▁asin",
        -10.20675475155534
      ],
      [
        "▁sama",
        -10.207362389374218
      ],
      [
        "mag",
        -10.207437966525225
      ],
      [
        "",
        -10.20782436364109
      ],
      [
        "▁hanap",
        -10.208171160924918
      ],
      [
        "▁sektor",
        -10.208523701638866
      ],
      [
        "ira",
        -10.209298101573623
      ],
      [
        "▁puke",
        -10.20955534283248
      ],
      [
        "''",
        -10.209707419839837
      ],
      [
        "▁sadya",
        -10.209762741244555
      ],
      [
        "▁kusina",
        -10.210153538369685
      ],
      [
        "▁sige",
        -10.210308781373456
      ],
      [
        "▁md",
        -10.211467552043656
      ],
      [
        "▁agement",
        -10.2115276866011
      ],
      [
        "▁buo",
        -10.211960626393433
      ],
      [
        "▁limitado",
        -10.212916594018349
      ],
      [
        "▁tiwala",
        -10.212926221223588
      ],
      [
        "▁only",
        -10.213027142893111
      ],
      [
        "▁bayad",
        -10.213677400907558
      ],
      [
        "▁amerika",
        -10.213793447299059
      ],
      [
        "▁buhangin",
        -10.214081686788779
      ],
      [
        "▁aplikasyon",
        -10.214779303367209
      ],
      [
        "▁jap",
        -10.214806408214427
      ],
      [
        "▁start",
        -10.21494833080498
      ],
      [
        "▁lemon",
        -10.215512665818572
      ],
      [
        "▁tagpo",
        -10.215953724161315
      ],
      [
        "▁tatay",
        -10.216181777184985
      ],
      [
        "▁pakita",
        -10.216409103701343
      ],
      [
        "▁chese",
        -10.21766655528245
      ],
      [
        "▁bigat",
        -10.217941827241981
      ],
      [
        "▁pangako",
        -10.218042882594625
      ],
      [
        "▁amerikano",
        -10.218098057387799
      ],
      [
        "iral",
        -10.21829824199005
      ],
      [
        "",
        -10.218508474050612
      ],
      [
        "▁tagubilin",
        -10.218508477732463
      ],
      [
        "▁pasok",
        -10.21860982867294
      ],
      [
        "▁balik",
        -10.218908051330118
      ],
      [
        "▁blue",
        -10.218989082367985
      ],
      [
        "▁season",
        -10.219226442784402
      ],
      [
        "ndia",
        -10.219534128228185
      ],
      [
        "ingat",
        -10.220223824016285
      ],
      [
        "▁balot",
        -10.22069337716133
      ],
      [
        "▁lipat",
        -10.220817510053758
      ],
      [
        "li",
        -10.2225055732959
      ],
      [
        "▁feature",
        -10.222727971186176
      ],
      [
        "▁sunod",
        -10.22338390805511
      ],
      [
        "▁ganoon",
        -10.224088601030557
      ],
      [
        "▁inumin",
        -10.224137624757557
      ],
      [
        "mir",
        -10.225250574147296
      ],
      [
        "▁away",
        -10.225929952013306
      ],
      [
        "▁hanap",
        -10.226474518512703
      ],
      [
        "▁hawa",
        -10.227245502755753
      ],
      [
        "anne",
        -10.227427790488251
      ],
      [
        "▁liwanag",
        -10.227616580171778
      ],
      [
        "▁liit",
        -10.228123325212943
      ],
      [
        "▁kilos",
        -10.228330162113144
      ],
      [
        "▁hatid",
        -10.22845474592965
      ],
      [
        "▁award",
        -10.229691396772973
      ],
      [
        "▁lola",
        -10.229693719581572
      ],
      [
        "ger",
        -10.230652428476976
      ],
      [
        "▁fire",
        -10.230703031110949
      ],
      [
        "▁russia",
        -10.231200565590465
      ],
      [
        "▁brand",
        -10.231395720033003
      ],
      [
        "▁please",
        -10.233350372665852
      ],
      [
        "sha",
        -10.235096469028006
      ],
      [
        "é",
        -10.235464019700474
      ],
      [
        "▁tigas",
        -10.235760318207355
      ],
      [
        "▁tatlo",
        -10.236872274783462
      ],
      [
        "▁tanggap",
        -10.237127913750149
      ],
      [
        "▁nutrisyon",
        -10.23736601244586
      ],
      [
        "▁sosyo",
        -10.237611619195574
      ],
      [
        "hapon",
        -10.23806811600536
      ],
      [
        "▁buwis",
        -10.23810401170788
      ],
      [
        "▁buhos",
        -10.238341408993264
      ],
      [
        "▁stock",
        -10.238822768435316
      ],
      [
        "▁linis",
        -10.239516120909641
      ],
      [
        "▁nyang",
        -10.23951897501011
      ],
      [
        "▁asawa",
        -10.240896953152566
      ],
      [
        "▁phone",
        -10.24117522530118
      ],
      [
        "▁seksyon",
        -10.242075897504437
      ],
      [
        "▁conf",
        -10.242320243790333
      ],
      [
        "▁sentro",
        -10.242740847138354
      ],
      [
        "▁moderno",
        -10.244064842170884
      ],
      [
        "▁tanggap",
        -10.244530048653345
      ],
      [
        "▁hd",
        -10.244679435245969
      ],
      [
        "▁sampa",
        -10.245661663459344
      ],
      [
        "▁round",
        -10.246558616175065
      ],
      [
        "▁bundok",
        -10.246691545001026
      ],
      [
        "labas",
        -10.247131708131572
      ],
      [
        "rak",
        -10.247755091670003
      ],
      [
        "▁hilig",
        -10.247883690687557
      ],
      [
        "▁bagsak",
        -10.248297043705003
      ],
      [
        "▁ngipin",
        -10.248360191552987
      ],
      [
        "▁mapa",
        -10.248632218848174
      ],
      [
        "mate",
        -10.249080432247203
      ],
      [
        "kar",
        -10.249343234710578
      ],
      [
        "lagay",
        -10.249625972027586
      ],
      [
        "▁series",
        -10.251631308089811
      ],
      [
        "▁hubad",
        -10.251753011009471
      ],
      [
        "▁twitter",
        -10.251987614094157
      ],
      [
        "▁two",
        -10.252045729258352
      ],
      [
        "▁deal",
        -10.252967995981933
      ],
      [
        "▁aspeto",
        -10.254163039637136
      ],
      [
        "▁research",
        -10.25416386687117
      ],
      [
        "▁loko",
        -10.254214080329804
      ],
      [
        "▁tita",
        -10.25450707210016
      ],
      [
        "▁asukal",
        -10.254889162350484
      ],
      [
        "▁amoy",
        -10.255810338286702
      ],
      [
        "▁setting",
        -10.256150885313415
      ],
      [
        "ood",
        -10.256698860002714
      ],
      [
        "▁araw",
        -10.256949626897239
      ],
      [
        "▁br",
        -10.257325359716774
      ],
      [
        "▁panatili",
        -10.25769240815017
      ],
      [
        "▁kurso",
        -10.257768230048326
      ],
      [
        "",
        -10.25793241457662
      ],
      [
        "▁pusa",
        -10.258433431839775
      ],
      [
        "ark",
        -10.25847108464845
      ],
      [
        "▁saka",
        -10.258486144280043
      ],
      [
        "▁diin",
        -10.258880900994392
      ],
      [
        "▁putok",
        -10.260009022002627
      ],
      [
        "▁publiko",
        -10.260231978115156
      ],
      [
        "▁opinyon",
        -10.260718102079188
      ],
      [
        "▁edit",
        -10.260891310884965
      ],
      [
        "▁mangha",
        -10.261272332685433
      ],
      [
        "▁ligaw",
        -10.262003367787447
      ],
      [
        "uwa",
        -10.262232235243355
      ],
      [
        "32",
        -10.2626181710031
      ],
      [
        "therapy",
        -10.262801979936693
      ],
      [
        "▁dako",
        -10.262910302259222
      ],
      [
        "▁club",
        -10.264289834307016
      ],
      [
        "sky",
        -10.264371055227242
      ],
      [
        "▁exercise",
        -10.264622712673377
      ],
      [
        "isip",
        -10.264684547598861
      ],
      [
        "vision",
        -10.264914092492718
      ],
      [
        "▁operation",
        -10.265106731266842
      ],
      [
        "▁hospital",
        -10.265117508655901
      ],
      [
        "▁hirap",
        -10.265985701893964
      ],
      [
        "▁turing",
        -10.26622759849851
      ],
      [
        "▁alaga",
        -10.26632774256438
      ],
      [
        "▁porsyento",
        -10.266580858016674
      ],
      [
        "▁camera",
        -10.266841205494517
      ],
      [
        "▁alis",
        -10.266880285269545
      ],
      [
        "ي",
        -10.267070993148307
      ],
      [
        "sama",
        -10.26778273507546
      ],
      [
        "▁profile",
        -10.268545621846775
      ],
      [
        "▁great",
        -10.268609964152274
      ],
      [
        "▁relihiyon",
        -10.269279583538728
      ],
      [
        "▁dayuhan",
        -10.270414658890592
      ],
      [
        "▁bigay",
        -10.270925412964138
      ],
      [
        "▁akyat",
        -10.27124725860733
      ],
      [
        "▁happy",
        -10.27124800269434
      ],
      [
        "zar",
        -10.271594548656493
      ],
      [
        "▁commission",
        -10.271739368613003
      ],
      [
        "▁alon",
        -10.271869340590275
      ],
      [
        "▁tanda",
        -10.27303160075135
      ],
      [
        "laya",
        -10.273552788647319
      ],
      [
        "▁mura",
        -10.274165246885643
      ],
      [
        "▁damdam",
        -10.275062601585116
      ],
      [
        "hhhhh",
        -10.27555785808953
      ],
      [
        "▁paborito",
        -10.27673751714158
      ],
      [
        "▁sigla",
        -10.277198818275348
      ],
      [
        "tac",
        -10.277573363838455
      ],
      [
        "▁lawig",
        -10.277921371163675
      ],
      [
        "▁pigment",
        -10.278278458925064
      ],
      [
        "meter",
        -10.279306429826367
      ],
      [
        "▁hair",
        -10.280095896923811
      ],
      [
        "▁even",
        -10.280156194773975
      ],
      [
        "▁bahagi",
        -10.280760179988887
      ],
      [
        "▁dagdag",
        -10.280912712321124
      ],
      [
        "▁willie",
        -10.281445166942143
      ],
      [
        "▁luha",
        -10.281536687165346
      ],
      [
        "▁treatment",
        -10.281550649010057
      ],
      [
        "▁payapa",
        -10.281887910790338
      ],
      [
        "▁gaming",
        -10.282022571663193
      ],
      [
        "▁bakal",
        -10.282427507597312
      ],
      [
        "",
        -10.283630936494573
      ],
      [
        "▁klima",
        -10.28389865580896
      ],
      [
        "▁ugali",
        -10.284285268529421
      ],
      [
        "▁partido",
        -10.284387947641857
      ],
      [
        "▁stu",
        -10.284647362458017
      ],
      [
        "▁tulog",
        -10.284698185563112
      ],
      [
        "▁gutom",
        -10.284784338759408
      ],
      [
        "▁pasko",
        -10.285074730533184
      ],
      [
        "01",
        -10.285517403225606
      ],
      [
        "▁giling",
        -10.286333823654553
      ],
      [
        ">",
        -10.286376134111496
      ],
      [
        "▁tuto",
        -10.286794497930448
      ],
      [
        "▁pulitika",
        -10.287379614739017
      ],
      [
        "▁abala",
        -10.287540875772443
      ],
      [
        "▁anu",
        -10.288435820598421
      ],
      [
        "rra",
        -10.288871071674196
      ],
      [
        "▁phil",
        -10.289440118920265
      ],
      [
        "▁kina",
        -10.289638284186635
      ],
      [
        "▁aga",
        -10.290885078437563
      ],
      [
        "▁give",
        -10.291422377557414
      ],
      [
        "▁bigat",
        -10.291631251848173
      ],
      [
        "▁liga",
        -10.292508041024469
      ],
      [
        "can",
        -10.292555820939189
      ],
      [
        "▁solo",
        -10.292923905838942
      ],
      [
        "▁kampanya",
        -10.29314648128503
      ],
      [
        "▁likha",
        -10.293815803131043
      ],
      [
        "",
        -10.294657235344209
      ],
      [
        "siya",
        -10.294937030614369
      ],
      [
        "▁tingi",
        -10.295332797689838
      ],
      [
        "▁dahon",
        -10.29534704567764
      ],
      [
        "tir",
        -10.29767677785981
      ],
      [
        "▁question",
        -10.298193809367552
      ],
      [
        "▁think",
        -10.298367994634551
      ],
      [
        "sama",
        -10.298667732027415
      ],
      [
        "▁answer",
        -10.298697787903249
      ],
      [
        "▁landas",
        -10.2992845277326
      ],
      [
        "▁batid",
        -10.300031855696377
      ],
      [
        "▁liwanag",
        -10.300033257606055
      ],
      [
        "ensiya",
        -10.300758926737458
      ],
      [
        "▁taglay",
        -10.301183864710106
      ],
      [
        "▁kwarto",
        -10.30148466018919
      ],
      [
        "▁limot",
        -10.301657773500844
      ],
      [
        "▁ganda",
        -10.302667239950694
      ],
      [
        "▁europa",
        -10.30300804613492
      ],
      [
        "▁malay",
        -10.303528541377995
      ],
      [
        "▁supply",
        -10.304026359908564
      ],
      [
        "▁android",
        -10.304541058090454
      ],
      [
        "▁pulisya",
        -10.305407851355946
      ],
      [
        "▁example",
        -10.30555278815785
      ],
      [
        "▁station",
        -10.306147835903634
      ],
      [
        "▁look",
        -10.306395579477053
      ],
      [
        "poli",
        -10.306641122232463
      ],
      [
        "▁gulong",
        -10.306785658083811
      ],
      [
        "▁siglo",
        -10.308274051853104
      ],
      [
        "▁habol",
        -10.30834893609505
      ],
      [
        "▁tingi",
        -10.30905285896342
      ],
      [
        "ense",
        -10.309374844310746
      ],
      [
        "▁product",
        -10.309945256660077
      ],
      [
        "▁would",
        -10.3111736332285
      ],
      [
        "▁tele",
        -10.311214236973127
      ],
      [
        "▁process",
        -10.312317107063313
      ],
      [
        "▁buksan",
        -10.312966887690644
      ],
      [
        "▁kailangan",
        -10.312998625402527
      ],
      [
        "▁rekomenda",
        -10.313235494275682
      ],
      [
        "▁dilim",
        -10.31402436662902
      ],
      [
        "▁taas",
        -10.314995016341266
      ],
      [
        "▁populasyon",
        -10.315279703941092
      ],
      [
        "▁disease",
        -10.3152857027068
      ],
      [
        "▁ilog",
        -10.31552303430293
      ],
      [
        "▁agham",
        -10.315550788491574
      ],
      [
        "▁harap",
        -10.315931440956822
      ],
      [
        "▁feed",
        -10.316327284645906
      ],
      [
        "▁pula",
        -10.3163909353722
      ],
      [
        "al",
        -10.316671376186171
      ],
      [
        "▁puhunan",
        -10.31708178792478
      ],
      [
        "▁pito",
        -10.317893794423048
      ],
      [
        "88",
        -10.31801398809101
      ],
      [
        "▁labas",
        -10.318458139940725
      ],
      [
        "▁enero",
        -10.318518684502225
      ],
      [
        "▁tawag",
        -10.31928741351582
      ],
      [
        "▁demya",
        -10.319412254798324
      ],
      [
        "▁lagi",
        -10.31971155808046
      ],
      [
        "▁puwang",
        -10.32225906963098
      ],
      [
        "▁pula",
        -10.322592163042444
      ],
      [
        "▁puno",
        -10.32319810533812
      ],
      [
        "▁negatibo",
        -10.323219854745266
      ],
      [
        "▁ganyan",
        -10.323286450487345
      ],
      [
        "▁aktor",
        -10.323833868376468
      ],
      [
        "▁subok",
        -10.323860638523088
      ],
      [
        "▁punta",
        -10.324948732025135
      ],
      [
        "▁blood",
        -10.325364746010703
      ],
      [
        "▁own",
        -10.32551948027473
      ],
      [
        "ا",
        -10.325591108590533
      ],
      [
        "▁inom",
        -10.325857998894191
      ],
      [
        "▁puhunan",
        -10.326918650466578
      ],
      [
        "▁rketing",
        -10.328484936901964
      ],
      [
        "▁force",
        -10.32901719125446
      ],
      [
        "▁susi",
        -10.329770327383295
      ],
      [
        "▁jr",
        -10.331168556262014
      ],
      [
        "▁tanda",
        -10.332588516689162
      ],
      [
        "▁istilo",
        -10.332934721499113
      ],
      [
        "▁cosmetic",
        -10.334235838964517
      ],
      [
        "alok",
        -10.334505619467846
      ],
      [
        "▁buti",
        -10.334902661651501
      ],
      [
        "▁kabang",
        -10.335022612838214
      ],
      [
        "haw",
        -10.335084637995626
      ],
      [
        "▁ulit",
        -10.335113308293442
      ],
      [
        "95",
        -10.335757362832748
      ],
      [
        "▁damo",
        -10.337896257032593
      ],
      [
        "▁konsepto",
        -10.337912788327316
      ],
      [
        "▁suma",
        -10.338832068987843
      ],
      [
        "▁cm",
        -10.340338126887094
      ],
      [
        "payat",
        -10.340583665331458
      ],
      [
        "▁tax",
        -10.340656161615344
      ],
      [
        "baba",
        -10.341417446199454
      ],
      [
        "tribu",
        -10.341570919163662
      ],
      [
        "▁hggil",
        -10.341604480285728
      ],
      [
        "▁table",
        -10.343410080208441
      ],
      [
        "▁hanga",
        -10.344948021363903
      ],
      [
        "▁company",
        -10.345309363110793
      ],
      [
        "ñ",
        -10.34538395854106
      ],
      [
        "▁security",
        -10.346368416398507
      ],
      [
        "▁garantiya",
        -10.347164778306352
      ],
      [
        "▁hard",
        -10.347187715098325
      ],
      [
        "▁protekta",
        -10.347662288431984
      ],
      [
        "▁ligo",
        -10.347710357995467
      ],
      [
        "▁subaybay",
        -10.347961825893709
      ],
      [
        "▁white",
        -10.347963328091167
      ],
      [
        "▁bituin",
        -10.347996812591603
      ],
      [
        "▁giit",
        -10.348062361179537
      ],
      [
        "▁these",
        -10.349054580071153
      ],
      [
        "▁tuon",
        -10.349352345154074
      ],
      [
        "▁average",
        -10.350625124990355
      ],
      [
        "ria",
        -10.350895569221754
      ],
      [
        "▁perpekto",
        -10.351218941241328
      ],
      [
        "▁character",
        -10.351423438464685
      ],
      [
        "▁marso",
        -10.351726171395216
      ],
      [
        "▁search",
        -10.352386151407972
      ],
      [
        "▁dalubhasa",
        -10.35275732791559
      ],
      [
        "▁abs",
        -10.352953149912079
      ],
      [
        "▁kuha",
        -10.354727759331617
      ],
      [
        "▁wala",
        -10.355159307453487
      ],
      [
        "▁eksperto",
        -10.355163781158787
      ],
      [
        "▁th",
        -10.355456558741052
      ],
      [
        "▁payag",
        -10.355562887817719
      ],
      [
        "▁global",
        -10.35557794745997
      ],
      [
        "▁dikit",
        -10.355757283653277
      ],
      [
        "▁tawag",
        -10.356766435972988
      ],
      [
        "▁porn",
        -10.356889366734956
      ],
      [
        "▁apekto",
        -10.35757597007186
      ],
      [
        "▁sabi",
        -10.357767038099805
      ],
      [
        "▁roma",
        -10.358096439020567
      ],
      [
        "▁2015",
        -10.358382256987435
      ],
      [
        "▁bayo",
        -10.35865007960523
      ],
      [
        "▁fal",
        -10.35912443470195
      ],
      [
        "▁rasitiko",
        -10.359187356887555
      ],
      [
        "▁lunsad",
        -10.359198565269898
      ],
      [
        "▁ibig",
        -10.359272355139327
      ],
      [
        "▁publish",
        -10.360802171960003
      ],
      [
        "▁were",
        -10.361057309149285
      ],
      [
        "",
        -10.361070596389965
      ],
      [
        "▁patay",
        -10.362367274294225
      ],
      [
        "▁maneho",
        -10.362966924627
      ],
      [
        "▁demo",
        -10.36332635480748
      ],
      [
        "▁tawag",
        -10.36381182561177
      ],
      [
        "▁place",
        -10.364350923400862
      ],
      [
        "▁tugon",
        -10.364523891582108
      ],
      [
        "▁been",
        -10.366594266851237
      ],
      [
        "▁hunyo",
        -10.36757298406401
      ],
      [
        "▁bangka",
        -10.368258557667607
      ],
      [
        "▁lamig",
        -10.368832363179056
      ],
      [
        "▁tela",
        -10.369175422364968
      ],
      [
        "▁hiwatig",
        -10.369502602227453
      ],
      [
        "isasyon",
        -10.370092474954681
      ],
      [
        "▁function",
        -10.370826191223784
      ],
      [
        "▁sure",
        -10.371531625051684
      ],
      [
        "▁lambot",
        -10.371901261251816
      ],
      [
        "▁talent",
        -10.372006342069543
      ],
      [
        "cult",
        -10.37210937459709
      ],
      [
        "lipas",
        -10.372718543620756
      ],
      [
        "▁crypto",
        -10.373213843662015
      ],
      [
        "▁kaiba",
        -10.373262566131752
      ],
      [
        "▁puno",
        -10.375794577422884
      ],
      [
        "▁dinig",
        -10.376318859969068
      ],
      [
        "▁pulong",
        -10.376813597635525
      ],
      [
        "▁experience",
        -10.377086141115612
      ],
      [
        "▁leeg",
        -10.377216950836981
      ],
      [
        "▁interesado",
        -10.378042639546702
      ],
      [
        "▁prinsipyo",
        -10.378729300206771
      ],
      [
        "▁lisensya",
        -10.379024585076674
      ],
      [
        "▁reaksyon",
        -10.379293277153845
      ],
      [
        "▁fast",
        -10.37993911641256
      ],
      [
        "trop",
        -10.380083982592334
      ],
      [
        "▁liza",
        -10.38023569161956
      ],
      [
        "▁kopya",
        -10.380659915012204
      ],
      [
        "ma",
        -10.38113699902466
      ],
      [
        "▁tulong",
        -10.381226270658331
      ],
      [
        "▁simula",
        -10.382841898243814
      ],
      [
        "▁tukoy",
        -10.383819267116344
      ],
      [
        "▁sadya",
        -10.384618422458422
      ],
      [
        "▁komposisyon",
        -10.384777455976856
      ],
      [
        "▁education",
        -10.385053260036035
      ],
      [
        "▁antala",
        -10.385329076612491
      ],
      [
        "elle",
        -10.38571560596406
      ],
      [
        "▁saka",
        -10.386493596252828
      ],
      [
        "▁lunes",
        -10.38732134387587
      ],
      [
        "▁tuktok",
        -10.389199237735603
      ],
      [
        "▁pananampalataya",
        -10.389753250808592
      ],
      [
        "ل",
        -10.390829558455518
      ],
      [
        "cad",
        -10.391808951939913
      ],
      [
        "▁alis",
        -10.394519826398373
      ],
      [
        "▁abot",
        -10.394935441039689
      ],
      [
        "▁salalay",
        -10.395590450892144
      ],
      [
        "▁advanced",
        -10.39608668742744
      ],
      [
        "▁why",
        -10.3964522872971
      ],
      [
        "ality",
        -10.396812578583
      ],
      [
        "▁suporta",
        -10.39695464357471
      ],
      [
        "ization",
        -10.397293291200159
      ],
      [
        "▁mungkahi",
        -10.397524303623012
      ],
      [
        "▁transaksyon",
        -10.397545364664955
      ],
      [
        "gawa",
        -10.39792328499203
      ],
      [
        "▁daigdigan",
        -10.399500252304327
      ],
      [
        "▁inis",
        -10.399935684588222
      ],
      [
        "▁dangal",
        -10.400125127930108
      ],
      [
        "▁kalinga",
        -10.400567049447437
      ],
      [
        "▁lakbay",
        -10.401167920622543
      ],
      [
        "▁http",
        -10.40143896860761
      ],
      [
        "▁download",
        -10.402156675196542
      ],
      [
        "▁kaling",
        -10.40231452666298
      ],
      [
        "▁israel",
        -10.403144657281105
      ],
      [
        "▁dagdag",
        -10.403556370597201
      ],
      [
        "▁nood",
        -10.40374018791494
      ],
      [
        "▁neg",
        -10.404205117998192
      ],
      [
        "75",
        -10.404864431458963
      ],
      [
        "▁dealer",
        -10.405010560501703
      ],
      [
        "▁malay",
        -10.405526055456281
      ],
      [
        "▁salo",
        -10.406354996929124
      ],
      [
        "ay",
        -10.406729759359319
      ],
      [
        "36",
        -10.40696523323948
      ],
      [
        "ال",
        -10.40796385172662
      ],
      [
        "▁drive",
        -10.408391513483364
      ],
      [
        "▁beach",
        -10.40899884247379
      ],
      [
        "▁superhost",
        -10.409908202576558
      ],
      [
        "▁wordpress",
        -10.410000025216378
      ],
      [
        "▁term",
        -10.411045047378193
      ],
      [
        "▁sayang",
        -10.412061426657443
      ],
      [
        "▁tigas",
        -10.412511150656877
      ],
      [
        "▁showbiz",
        -10.413875012115009
      ],
      [
        "▁north",
        -10.414223249010837
      ],
      [
        "▁folk",
        -10.414471467619697
      ],
      [
        "▁official",
        -10.415010693478969
      ],
      [
        "▁straktura",
        -10.41529491426141
      ],
      [
        "cing",
        -10.415327950378648
      ],
      [
        "▁dansa",
        -10.417304132930042
      ],
      [
        "gran",
        -10.417708776198133
      ],
      [
        "▁alarm",
        -10.418015963044548
      ],
      [
        "▁esp",
        -10.418029327567895
      ],
      [
        "▁oktubre",
        -10.418712264478044
      ],
      [
        "▁eksena",
        -10.41871326195036
      ],
      [
        "▁sauna",
        -10.418997615975792
      ],
      [
        "▁gawain",
        -10.419173083310113
      ],
      [
        "▁sama",
        -10.419452826466383
      ],
      [
        "▁komisyon",
        -10.419872282295607
      ],
      [
        "▁mommy",
        -10.420142235601443
      ],
      [
        "▁lantad",
        -10.420432858686668
      ],
      [
        "▁tupad",
        -10.420827882530501
      ],
      [
        "▁airbnb",
        -10.42128299256621
      ],
      [
        "▁eksakto",
        -10.421389549489268
      ],
      [
        "nto",
        -10.421889661410594
      ],
      [
        "م",
        -10.422141325114278
      ],
      [
        "▁ahensya",
        -10.422432031649151
      ],
      [
        "ght",
        -10.422555206841206
      ],
      [
        "▁epi",
        -10.422658047932053
      ],
      [
        "▁suporta",
        -10.422818416802315
      ],
      [
        "stone",
        -10.423594626021004
      ],
      [
        "▁really",
        -10.424536436794055
      ],
      [
        "▁lagay",
        -10.42527364595608
      ],
      [
        "11",
        -10.425333543582243
      ],
      [
        "▁huma",
        -10.425582844943234
      ],
      [
        "▁pasahero",
        -10.42644714785546
      ],
      [
        "▁tangi",
        -10.427192813468112
      ],
      [
        "▁kategorya",
        -10.427594840465488
      ],
      [
        "▁content",
        -10.427903925101385
      ],
      [
        "inc",
        -10.427991745579567
      ],
      [
        "tial",
        -10.428987101582914
      ],
      [
        "▁ketogenic",
        -10.429323265509137
      ],
      [
        "▁dulot",
        -10.429612628515079
      ],
      [
        "▁lapit",
        -10.431809096234671
      ],
      [
        "▁boses",
        -10.43213571229989
      ],
      [
        "▁block",
        -10.432344721938362
      ],
      [
        "wag",
        -10.432363828760838
      ],
      [
        "▁hintay",
        -10.432499642823958
      ],
      [
        "▁bawa",
        -10.432793771765747
      ],
      [
        "▁music",
        -10.433281594833453
      ],
      [
        "▁pasok",
        -10.433322492039888
      ],
      [
        "▁pagkakakilanlan",
        -10.433367695100412
      ],
      [
        "▁gay",
        -10.433832987142253
      ],
      [
        "▁subukan",
        -10.435686370043273
      ],
      [
        "▁agosto",
        -10.43686311659265
      ],
      [
        "▁bomb",
        -10.43702731380216
      ],
      [
        "▁dekada",
        -10.4374291549982
      ],
      [
        "▁picture",
        -10.43772073528081
      ],
      [
        "▁insidente",
        -10.438883104190378
      ],
      [
        "▁withdraw",
        -10.438885000524598
      ],
      [
        "house",
        -10.439460523600472
      ],
      [
        "▁thesis",
        -10.43962922599979
      ],
      [
        "▁bahagya",
        -10.439680194067826
      ],
      [
        "▁gulat",
        -10.44015629908402
      ],
      [
        "▁tunaw",
        -10.440649922938915
      ],
      [
        "▁abril",
        -10.441214523501532
      ],
      [
        "▁kalakal",
        -10.441544200086126
      ],
      [
        "▁court",
        -10.441811853354812
      ],
      [
        "▁watch",
        -10.442166088275764
      ],
      [
        "▁direksyon",
        -10.444580093108955
      ],
      [
        "▁tuloy",
        -10.444760774765333
      ],
      [
        "▁gawa",
        -10.444890339177915
      ],
      [
        "▁trading",
        -10.445313739142252
      ],
      [
        "▁aliw",
        -10.445844088603497
      ],
      [
        "hap",
        -10.447361829460178
      ],
      [
        "▁before",
        -10.447657854539333
      ],
      [
        "▁lalake",
        -10.448356459846668
      ],
      [
        "▁buo",
        -10.448370287925437
      ],
      [
        "▁still",
        -10.450093111730881
      ],
      [
        "laro",
        -10.450385874099137
      ],
      [
        "▁ilong",
        -10.45139100586035
      ],
      [
        "▁provider",
        -10.451995831830144
      ],
      [
        "▁unawa",
        -10.452015312459814
      ],
      [
        "kata",
        -10.453750004428716
      ],
      [
        "rk",
        -10.45601323044367
      ],
      [
        "protect",
        -10.456510000643172
      ],
      [
        "▁kolehiyo",
        -10.457391120985994
      ],
      [
        "▁close",
        -10.45786344327129
      ],
      [
        "",
        -10.459426290218053
      ],
      [
        "▁rest",
        -10.459530106143099
      ],
      [
        "▁apektado",
        -10.459766065130282
      ],
      [
        "▁travel",
        -10.459930366096431
      ],
      [
        "▁crush",
        -10.460059967140346
      ],
      [
        "▁represent",
        -10.4600635171105
      ],
      [
        "haha",
        -10.46015038638436
      ],
      [
        "▁diabetes",
        -10.460360705884545
      ],
      [
        "▁baboy",
        -10.460718637607416
      ],
      [
        "▁disk",
        -10.461147569015331
      ],
      [
        "▁konti",
        -10.461325728326086
      ],
      [
        "▁york",
        -10.46220158507351
      ],
      [
        "▁misis",
        -10.463105001695308
      ],
      [
        "▁electric",
        -10.463638077099814
      ],
      [
        "▁kompanya",
        -10.464535725136505
      ],
      [
        "▁hilaga",
        -10.464636381385942
      ],
      [
        "▁gana",
        -10.464881895210903
      ],
      [
        "▁clay",
        -10.46508536203273
      ],
      [
        "▁canada",
        -10.465733661014216
      ],
      [
        "▁sangkap",
        -10.466204738241887
      ],
      [
        "33",
        -10.466507487676362
      ],
      [
        "psych",
        -10.466647093934098
      ],
      [
        "▁cristo",
        -10.466653279673125
      ],
      [
        "▁kain",
        -10.467021803689297
      ],
      [
        "▁feeling",
        -10.467242504229652
      ],
      [
        "▁custom",
        -10.467314866719288
      ],
      [
[...]
