{
  "version": "1.0",
  "truncation": null,
  "padding": null,
  "added_tokens": [
    {
      "id": 0,
      "content": "<unk>",
      "single_word": false,
      "lstrip": false,
      "rstrip": false,
      "normalized": false,
      "special": true
    },
    {
      "id": 1,
      "content": "<s>",
      "single_word": false,
      "lstrip": false,
      "rstrip": false,
      "normalized": false,
      "special": true
    },
    {
      "id": 2,
      "content": "</s>",
      "single_word": false,
      "lstrip": false,
      "rstrip": false,
      "normalized": false,
      "special": true
    }
  ],
  "normalizer": {
    "type": "NFKC"
  },
  "pre_tokenizer": {
    "type": "Metaspace",
    "replacement": "▁",
    "prepend_scheme": "always",
    "split": true
  },
  "post_processor": null,
  "decoder": {
    "type": "Metaspace",
    "replacement": "▁",
    "prepend_scheme": "always",
    "split": true
  },
  "model": {
    "type": "BPE",
    "dropout": null,
    "unk_token": "<unk>",
    "continuing_subword_prefix": null,
    "end_of_word_suffix": null,
    "fuse_unk": false,
    "byte_fallback": false,
    "ignore_merges": false,
    "vocab": {
      "<unk>": 0,
      "<s>": 1,
      "</s>": 2,
      "'": 3,
      "-": 4,
      "0": 5,
      "1": 6,
      "2": 7,
      "3": 8,
      "4": 9,
      "5": 10,
      "6": 11,
      "7": 12,
      "8": 13,
      "9": 14,
      "A": 15,
      "B": 16,
      "C": 17,
      "D": 18,
      "E": 19,
      "F": 20,
      "G": 21,
      "H": 22,
      "I": 23,
      "J": 24,
      "K": 25,
      "L": 26,
      "M": 27,
      "N": 28,
      "O": 29,
      "P": 30,
      "Q": 31,
      "R": 32,
      "S": 33,
      "T": 34,
      "U": 35,
      "V": 36,
      "W": 37,
      "X": 38,
      "Y": 39,
      "Z": 40,
      "_": 41,
      "a": 42,
      "b": 43,
      "c": 44,
      "d": 45,
      "e": 46,
      "f": 47,
      "g": 48,
      "h": 49,
      "i": 50,
      "j": 51,
      "k": 52,
      "l": 53,
      "m": 54,
      "n": 55,
      "o": 56,
      "p": 57,
      "q": 58,
      "r": 59,
      "s": 60,
      "t": 61,
      "u": 62,
      "v": 63,
      "w": 64,
      "x": 65,
      "y": 66,
      "z": 67,
      "Á": 68,
      "Â": 69,
      "Ã": 70,
      "Ä": 71,
      "Å": 72,
      "Ç": 73,
      "É": 74,
      "Í": 75,
      "Î": 76,
      "Ñ": 77,
      "Ó": 78,
      "Ö": 79,
      "Ø": 80,
      "Ú": 81,
      "Ü": 82,
      "ß": 83,
      "à": 84,
      "á": 85,
      "â": 86,
      "ã": 87,
      "ä": 88,
      "å": 89,
      "æ": 90,
      "ç": 91,
      "è": 92,
      "é": 93,
      "ê": 94,
      "ë": 95,
      "ì": 96,
      "í": 97,
      "î": 98,
      "ï": 99,
      "ñ": 100,
      "ò": 101,
      "ó": 102,
      "ô": 103,
      "õ": 104,
      "ö": 105,
      "ø": 106,
      "ù": 107,
      "ú": 108,
      "û": 109,
      "ü": 110,
      "ý": 111,
      "ÿ": 112,
      "Ā": 113,
      "ā": 114,
      "ă": 115,
      "ą": 116,
      "ć": 117,
      "Č": 118,
      "č": 119,
      "Đ": 120,
      "đ": 121,
      "ē": 122,
      "ė": 123,
      "ę": 124,
      "ě": 125,
      "ğ": 126,
      "ī": 127,
      "ĭ": 128,
      "į": 129,
      "İ": 130,
      "ı": 131,
      "ł": 132,
      "ń": 133,
      "ņ": 134,
      "ň": 135,
      "ō": 136,
      "ř": 137,
      "ś": 138,
      "Ş": 139,
      "ş": 140,
      "Š": 141,
      "š": 142,
      "ū": 143,
      "ų": 144,
      "ż": 145,
      "ž": 146,
      "ơ": 147,
      "ư": 148,
      "ș": 149,
      "ț": 150,
      "ɑ": 151,
      "ɔ": 152,
      "ə": 153,
      "ɪ": 154,
      "ʀ": 155,
      "ʻ": 156,
      "ʼ": 157,
      "ˈ": 158,
      "ː": 159,
      "Ε": 160,
      "Λ": 161,
      "Π": 162,
      "Φ": 163,
      "ά": 164,
      "έ": 165,
      "ή": 166,
      "ί": 167,
      "α": 168,
      "β": 169,
      "γ": 170,
      "δ": 171,
      "ε": 172,
      "ζ": 173,
      "η": 174,
      "θ": 175,
      "ι": 176,
      "κ": 177,
      "λ": 178,
      "μ": 179,
      "ν": 180,
      "ξ": 181,
      "ο": 182,
      "π": 183,
      "ρ": 184,
      "ς": 185,
      "σ": 186,
      "τ": 187,
      "υ": 188,
      "φ": 189,
      "χ": 190,
      "ψ": 191,
      "ω": 192,
      "ό": 193,
      "ύ": 194,
      "ώ": 195,
      "А": 196,
      "Б": 197,
      "В": 198,
      "Г": 199,
      "Д": 200,
      "Е": 201,
      "Ж": 202,
      "З": 203,
      "И": 204,
      "Й": 205,
      "К": 206,
      "Л": 207,
      "М": 208,
      "Н": 209,
      "О": 210,
      "П": 211,
      "Р": 212,
      "С": 213,
      "Т": 214,
      "У": 215,
      "Ф": 216,
      "Х": 217,
      "Ц": 218,
      "Ч": 219,
      "Ш": 220,
      "Ы": 221,
      "Ь": 222,
      "Э": 223,
      "Я": 224,
      "а": 225,
      "б": 226,
      "в": 227,
      "г": 228,
      "д": 229,
      "е": 230,
      "ж": 231,
      "з": 232,
      "и": 233,
      "й": 234,
      "к": 235,
      "л": 236,
      "м": 237,
      "н": 238,
      "о": 239,
      "п": 240,
      "р": 241,
      "с": 242,
      "т": 243,
      "у": 244,
      "ф": 245,
      "х": 246,
      "ц": 247,
      "ч": 248,
      "ш": 249,
      "щ": 250,
      "ы": 251,
      "ь": 252,
      "э": 253,
      "ю": 254,
      "я": 255,
      "ё": 256,
      "є": 257,
      "ѕ": 258,
      "і": 259,
      "ї": 260,
      "א": 261,
      "ב": 262,
      "ג": 263,
      "ד": 264,
      "ה": 265,
      "ו": 266,
      "ז": 267,
      "ח": 268,
      "ט": 269,
      "י": 270,
      "ך": 271,
      "כ": 272,
      "ל": 273,
      "ם": 274,
      "מ": 275,
      "ן": 276,
      "נ": 277,
      "ס": 278,
      "ע": 279,
      "פ": 280,
      "צ": 281,
      "ק": 282,
      "ר": 283,
      "ש": 284,
      "ת": 285,
      "ء": 286,
      "آ": 287,
      "أ": 288,
      "ؤ": 289,
      "إ": 290,
      "ئ": 291,
      "ا": 292,
      "ب": 293,
      "ة": 294,
      "ت": 295,
      "ث": 296,
      "ج": 297,
      "ح": 298,
      "خ": 299,
      "د": 300,
      "ذ": 301,
      "ر": 302,
      "ز": 303,
      "س": 304,
      "ش": 305,
      "ص": 306,
      "ض": 307,
      "ط": 308,
      "ظ": 309,
      "ع": 310,
      "غ": 311,
      "ـ": 312,
      "ف": 313,
      "ق": 314,
      "ك": 315,
      "ل": 316,
      "م": 317,
      "ن": 318,
      "ه": 319,
      "و": 320,
      "ى": 321,
      "ي": 322,
      "ٱ": 323,
      "ک": 324,
      "گ": 325,
      "ی": 326,
      "अ": 327,
      "आ": 328,
      "इ": 329,
      "उ": 330,
      "ए": 331,
      "औ": 332,
      "क": 333,
      "ख": 334,
      "ग": 335,
      "घ": 336,
      "च": 337,
      "छ": 338,
      "ज": 339,
      "झ": 340,
      "ट": 341,
      "ड": 342,
      "त": 343,
      "द": 344,
      "ध": 345,
      "न": 346,
      "प": 347,
      "फ": 348,
      "ब": 349,
      "भ": 350,
      "म": 351,
      "य": 352,
      "र": 353,
      "ल": 354,
      "व": 355,
      "श": 356,
      "ष": 357,
      "स": 358,
      "ह": 359,
      "অ": 360,
      "আ": 361,
      "ই": 362,
      "উ": 363,
      "এ": 364,
      "ও": 365,
      "ক": 366,
      "খ": 367,
      "গ": 368,
      "চ": 369,
      "ছ": 370,
      "জ": 371,
      "ট": 372,
      "ড": 373,
      "ণ": 374,
      "ত": 375,
      "থ": 376,
      "দ": 377,
      "ধ": 378,
      "ন": 379,
      "প": 380,
      "ব": 381,
      "ভ": 382,
      "ম": 383,
      "য": 384,
      "র": 385,
      "ল": 386,
      "শ": 387,
      "ষ": 388,
      "স": 389,
      "হ": 390,
      "ৎ": 391,
      "ก": 392,
      "ค": 393,
      "ด": 394,
      "ท": 395,
      "น": 396,
      "ม": 397,
      "ย": 398,
      "ร": 399,
      "ล": 400,
      "ว": 401,
      "ห": 402,
      "อ": 403,
      "า": 404,
      "เ": 405,
      "ሁ": 406,
      "ለ": 407,
      "ላ": 408,
      "ል": 409,
      "መ": 410,
      "ም": 411,
      "ር": 412,
      "ስ": 413,
      "በ": 414,
      "ብ": 415,
      "ተ": 416,
      "ታ": 417,
      "ት": 418,
      "ች": 419,
      "ና": 420,
      "ን": 421,
      "አ": 422,
      "እ": 423,
      "ከ": 424,
      "ው": 425,
      "የ": 426,
      "ያ": 427,
      "ይ": 428,
      "ደ": 429,
      "ḥ": 430,
      "ạ": 431,
      "ả": 432,
      "ấ": 433,
      "ầ": 434,
      "ắ": 435,
      "ế": 436,
      "ễ": 437,
      "ệ": 438,
      "ố": 439,
      "ỗ": 440,
      "▁": 441,
      "あ": 442,
      "い": 443,
      "う": 444,
      "え": 445,
      "お": 446,
      "か": 447,
      "が": 448,
      "き": 449,
      "く": 450,
      "け": 451,
      "こ": 452,
      "さ": 453,
      "し": 454,
      "す": 455,
      "そ": 456,
      "た": 457,
      "だ": 458,
      "ち": 459,
      "っ": 460,
      "つ": 461,
      "て": 462,
      "で": 463,
      "と": 464,
      "ど": 465,
      "な": 466,
      "に": 467,
      "の": 468,
      "は": 469,
      "ま": 470,
      "も": 471,
      "よ": 472,
      "ら": 473,
      "り": 474,
      "る": 475,
      "れ": 476,
      "ろ": 477,
      "わ": 478,
      "を": 479,
      "ん": 480,
      "ア": 481,
      "イ": 482,
      "エ": 483,
      "ク": 484,
      "グ": 485,
      "サ": 486,
      "シ": 487,
      "ス": 488,
      "テ": 489,
      "ト": 490,
      "ビ": 491,
      "ム": 492,
      "メ": 493,
      "ラ": 494,
      "リ": 495,
      "ル": 496,
      "レ": 497,
      "ン": 498,
      "ー": 499,
      "一": 500,
      "丁": 501,
      "万": 502,
      "三": 503,
      "上": 504,
      "下": 505,
      "不": 506,
      "世": 507,
      "东": 508,
      "丝": 509,
      "个": 510,
      "中": 511,
      "为": 512,
      "主": 513,
      "么": 514,
      "也": 515,
      "买": 516,
      "了": 517,
      "事": 518,
      "二": 519,
      "于": 520,
      "井": 521,
      "亚": 522,
      "些": 523,
      "人": 524,
      "什": 525,
      "今": 526,
      "介": 527,
      "他": 528,
      "代": 529,
      "以": 530,
      "们": 531,
      "件": 532,
      "任": 533,
      "伊": 534,
      "会": 535,
      "但": 536,
      "位": 537,
      "住": 538,
      "体": 539,
      "作": 540,
      "你": 541,
      "使": 542,
      "來": 543,
      "保": 544,
      "信": 545,
      "們": 546,
      "候": 547,
      "做": 548,
      "健": 549,
      "像": 550,
      "元": 551,
      "充": 552,
      "先": 553,
      "光": 554,
      "克": 555,
      "入": 556,
      "全": 557,
      "公": 558,
      "兰": 559,
      "共": 560,
      "具": 561,
      "内": 562,
      "再": 563,
      "出": 564,
      "击": 565,
      "刀": 566,
      "分": 567,
      "切": 568,
      "利": 569,
      "到": 570,
      "制": 571,
      "前": 572,
      "力": 573,
      "功": 574,
      "加": 575,
      "动": 576,
      "化": 577,
      "北": 578,
      "区": 579,
      "十": 580,
      "单": 581,
      "南": 582,
      "博": 583,
      "卡": 584,
      "印": 585,
      "去": 586,
      "友": 587,
      "发": 588,
      "取": 589,
      "受": 590,
      "变": 591,
      "口": 592,
      "叫": 593,
      "可": 594,
      "台": 595,
      "号": 596,
      "司": 597,
      "吃": 598,
      "各": 599,
      "合": 600,
      "吉": 601,
      "名": 602,
      "后": 603,
      "吗": 604,
      "告": 605,
      "员": 606,
      "呼": 607,
      "和": 608,
      "哈": 609,
      "喜": 610,
      "器": 611,
      "回": 612,
      "因": 613,
      "国": 614,
      "图": 615,
      "在": 616,
      "地": 617,
      "场": 618,
      "型": 619,
      "城": 620,
      "基": 621,
      "塔": 622,
      "外": 623,
      "多": 624,
      "大": 625,
      "天": 626,
      "夫": 627,
      "失": 628,
      "头": 629,
      "套": 630,
      "好": 631,
      "如": 632,
      "子": 633,
      "字": 634,
      "孟": 635,
      "它": 636,
      "安": 637,
      "官": 638,
      "定": 639,
      "客": 640,
      "家": 641,
      "对": 642,
      "射": 643,
      "将": 644,
      "小": 645,
      "尔": 646,
      "就": 647,
      "尼": 648,
      "尿": 649,
      "岛": 650,
      "工": 651,
      "己": 652,
      "巴": 653,
      "市": 654,
      "希": 655,
      "帕": 656,
      "帮": 657,
      "常": 658,
      "平": 659,
      "年": 660,
      "度": 661,
      "康": 662,
      "开": 663,
      "式": 664,
      "当": 665,
      "影": 666,
      "很": 667,
      "律": 668,
      "後": 669,
      "得": 670,
      "心": 671,
      "快": 672,
      "思": 673,
      "性": 674,
      "您": 675,
      "情": 676,
      "想": 677,
      "意": 678,
      "愛": 679,
      "感": 680,
      "成": 681,
      "我": 682,
      "戸": 683,
      "所": 684,
      "手": 685,
      "打": 686,
      "托": 687,
      "把": 688,
      "抗": 689,
      "拉": 690,
      "拿": 691,
      "按": 692,
      "提": 693,
      "支": 694,
      "放": 695,
      "文": 696,
      "斯": 697,
      "新": 698,
      "方": 699,
      "旅": 700,
      "无": 701,
      "日": 702,
      "时": 703,
      "明": 704,
      "是": 705,
      "時": 706,
      "普": 707,
      "更": 708,
      "書": 709,
      "曼": 710,
      "最": 711,
      "會": 712,
      "月": 713,
      "有": 714,
      "朋": 715,
      "服": 716,
      "望": 717,
      "期": 718,
      "本": 719,
      "机": 720,
      "来": 721,
      "林": 722,
      "查": 723,
      "样": 724,
      "格": 725,
      "業": 726,
      "模": 727,
      "次": 728,
      "欢": 729,
      "正": 730,
      "母": 731,
      "毒": 732,
      "比": 733,
      "民": 734,
      "气": 735,
      "氧": 736,
      "水": 737,
      "沒": 738,
      "沙": 739,
      "法": 740,
      "活": 741,
      "海": 742,
      "源": 743,
      "激": 744,
      "点": 745,
      "為": 746,
      "然": 747,
      "父": 748,
      "片": 749,
      "物": 750,
      "特": 751,
      "状": 752,
      "玛": 753,
      "现": 754,
      "瓦": 755,
      "生": 756,
      "用": 757,
      "甲": 758,
      "电": 759,
      "病": 760,
      "登": 761,
      "的": 762,
      "相": 763,
      "看": 764,
      "真": 765,
      "眼": 766,
      "着": 767,
      "知": 768,
      "社": 769,
      "祝": 770,
      "福": 771,
      "离": 772,
      "种": 773,
      "程": 774,
      "站": 775,
      "第": 776,
      "简": 777,
      "管": 778,
      "米": 779,
      "类": 780,
      "糖": 781,
      "系": 782,
      "素": 783,
      "紧": 784,
      "约": 785,
      "级": 786,
      "纳": 787,
      "线": 788,
      "细": 789,
      "给": 790,
      "统": 791,
      "绳": 792,
      "编": 793,
      "网": 794,
      "置": 795,
      "美": 796,
      "老": 797,
      "者": 798,
      "而": 799,
      "職": 800,
      "育": 801,
      "肺": 802,
      "胰": 803,
      "能": 804,
      "腐": 805,
      "腺": 806,
      "自": 807,
      "色": 808,
      "花": 809,
      "英": 810,
      "菲": 811,
      "萨": 812,
      "蒂": 813,
      "藤": 814,
      "螺": 815,
      "行": 816,
      "表": 817,
      "被": 818,
      "装": 819,
      "裡": 820,
      "西": 821,
      "要": 822,
      "親": 823,
      "角": 824,
      "言": 825,
      "語": 826,
      "论": 827,
      "评": 828,
      "诉": 829,
      "语": 830,
      "说": 831,
      "请": 832,
      "豆": 833,
      "起": 834,
      "路": 835,
      "车": 836,
      "轮": 837,
      "辑": 838,
      "达": 839,
      "过": 840,
      "还": 841,
      "这": 842,
      "进": 843,
      "過": 844,
      "道": 845,
      "那": 846,
      "邦": 847,
      "部": 848,
      "都": 849,
      "里": 850,
      "重": 851,
      "量": 852,
      "金": 853,
      "链": 854,
      "锯": 855,
      "长": 856,
      "门": 857,
      "问": 858,
      "间": 859,
      "阿": 860,
      "電": 861,
      "非": 862,
      "面": 863,
      "风": 864,
      "食": 865,
      "首": 866,
      "马": 867,
      "高": 868,
      "黑": 869,
      "龙": 870,
      "가": 871,
      "거": 872,
      "것": 873,
      "게": 874,
      "고": 875,
      "곳": 876,
      "과": 877,
      "국": 878,
      "그": 879,
      "기": 880,
      "길": 881,
      "까": 882,
      "깨": 883,
      "께": 884,
      "나": 885,
      "내": 886,
      "너": 887,
      "는": 888,
      "니": 889,
      "님": 890,
      "다": 891,
      "대": 892,
      "데": 893,
      "도": 894,
      "돌": 895,
      "동": 896,
      "되": 897,
      "두": 898,
      "든": 899,
      "들": 900,
      "땅": 901,
      "때": 902,
      "라": 903,
      "람": 904,
      "러": 905,
      "려": 906,
      "로": 907,
      "를": 908,
      "리": 909,
      "마": 910,
      "만": 911,
      "말": 912,
      "머": 913,
      "며": 914,
      "면": 915,
      "명": 916,
      "모": 917,
      "무": 918,
      "문": 919,
      "물": 920,
      "므": 921,
      "미": 922,
      "바": 923,
      "받": 924,
      "밥": 925,
      "버": 926,
      "보": 927,
      "복": 928,
      "부": 929,
      "분": 930,
      "브": 931,
      "비": 932,
      "빔": 933,
      "사": 934,
      "살": 935,
      "상": 936,
      "생": 937,
      "서": 938,
      "섯": 939,
      "성": 940,
      "세": 941,
      "셉": 942,
      "소": 943,
      "손": 944,
      "수": 945,
      "스": 946,
      "습": 947,
      "시": 948,
      "식": 949,
      "신": 950,
      "실": 951,
      "십": 952,
      "아": 953,
      "안": 954,
      "않": 955,
      "았": 956,
      "야": 957,
      "어": 958,
      "었": 959,
      "에": 960,
      "여": 961,
      "였": 962,
      "영": 963,
      "오": 964,
      "와": 965,
      "요": 966,
      "우": 967,
      "운": 968,
      "워": 969,
      "위": 970,
      "으": 971,
      "은": 972,
      "을": 973,
      "음": 974,
      "의": 975,
      "이": 976,
      "인": 977,
      "일": 978,
      "임": 979,
      "입": 980,
      "있": 981,
      "자": 982,
      "전": 983,
      "점": 984,
      "정": 985,
      "제": 986,
      "종": 987,
      "주": 988,
      "지": 989,
      "진": 990,
      "집": 991,
      "축": 992,
      "치": 993,
      "탕": 994,
      "트": 995,
      "하": 996,
      "한": 997,
      "할": 998,
      "함": 999,
      "해": 1000,
      "호": 1001,
      "히": 1002,
      "ng": 1003,
      "▁a": 1004,
      "▁s": 1005,
      "▁sa": 1006,
      "▁m": 1007,
      "la": 1008,
      "na": 1009,
      "▁ng": 1010,
      "ga": 1011,
      "▁t": 1012,
      "▁na": 1013,
      "▁k": 1014,
      "▁b": 1015,
      "▁p": 1016,
      "▁ang": 1017,
      "it": 1018,
      "an": 1019,
      "▁d": 1020,
      "in": 1021,
      "▁mga": 1022,
      "on": 1023,
      "▁h": 1024,
      "li": 1025,
      "at": 1026,
      "as": 1027,
      "ay": 1028,
      "er": 1029,
      "▁la": 1030,
      "▁at": 1031,
      "ag": 1032,
      "ar": 1033,
      "▁ay": 1034,
      "▁da": 1035,
      "ya": 1036,
      "▁i": 1037,
      "re": 1038,
      "▁n": 1039,
      "▁ta": 1040,
      "▁ba": 1041,
      "or": 1042,
      "en": 1043,
      "lo": 1044,
      "es": 1045,
      "▁ga": 1046,
      "ro": 1047,
      "▁ko": 1048,
      "ra": 1049,
      "is": 1050,
      "▁u": 1051,
      "wa": 1052,
      "di": 1053,
      "▁si": 1054,
      "ito": 1055,
      "yo": 1056,
      "▁ka": 1057,
      "al": 1058,
      "us": 1059,
      "to": 1060,
      "ti": 1061,
      "▁c": 1062,
      "▁tu": 1063,
      "▁ni": 1064,
      "ri": 1065,
      "▁an": 1066,
      "un": 1067,
      "ba": 1068,
      "▁ha": 1069,
      "ko": 1070,
      "il": 1071,
      "pa": 1072,
      "▁pa": 1073,
      "os": 1074,
      "ula": 1075,
      "ing": 1076,
      "le": 1077,
      "▁li": 1078,
      "▁f": 1079,
      "▁ma": 1080,
      "ma": 1081,
      "▁ito": 1082,
      "ig": 1083,
      "da": 1084,
      "ta": 1085,
      "▁w": 1086,
      "indi": 1087,
      "ka": 1088,
      "▁C": 1089,
      "▁S": 1090,
      "▁bi": 1091,
      "▁may": 1092,
      "ot": 1093,
      "ha": 1094,
      "▁bu": 1095,
      "▁di": 1096,
      "▁hindi": 1097,
      "yon": 1098,
      "▁g": 1099,
      "he": 1100,
      "▁e": 1101,
      "te": 1102,
      "sa": 1103,
      "▁o": 1104,
      "▁re": 1105,
      "▁P": 1106,
      "mp": 1107,
      "▁A": 1108,
      "lu": 1109,
      "▁mo": 1110,
      "▁in": 1111,
      "mi": 1112,
      "ata": 1113,
      "▁ano": 1114,
      "ki": 1115,
      "▁ti": 1116,
      "▁mas": 1117,
      "man": 1118,
      "ati": 1119,
      "wala": 1120,
      "▁M": 1121,
      "▁par": 1122,
      "▁upa": 1123,
      "▁gam": 1124,
      "▁B": 1125,
      "▁su": 1126,
      "bi": 1127,
      "▁pag": 1128,
      "et": 1129,
      "ent": 1130,
      "ho": 1131,
      "bo": 1132,
      "ed": 1133,
      "▁ku": 1134,
      "▁T": 1135,
      "hi": 1136,
      "do": 1137,
      "si": 1138,
      "▁D": 1139,
      "ce": 1140,
      "ita": 1141,
      "uk": 1142,
      "▁kay": 1143,
      "el": 1144,
      "▁iyo": 1145,
      "▁pro": 1146,
      "▁ari": 1147,
      "od": 1148,
      "anya": 1149,
      "▁r": 1150,
      "▁R": 1151,
      "▁wala": 1152,
      "▁mula": 1153,
      "hat": 1154,
      "▁the": 1155,
      "▁G": 1156,
      "▁to": 1157,
      "hil": 1158,
      "▁man": 1159,
      "▁1": 1160,
      "▁F": 1161,
      "ur": 1162,
      "▁niya": 1163,
      "▁tao": 1164,
      "lan": 1165,
      "ter": 1166,
      "▁ako": 1167,
      "▁N": 1168,
      "▁kanya": 1169,
      "gay": 1170,
      "ara": 1171,
      "id": 1172,
      "ili": 1173,
      "▁I": 1174,
      "▁lu": 1175,
      "▁L": 1176,
      "om": 1177,
      "ek": 1178,
      "▁laki": 1179,
      "▁dahil": 1180,
      "▁hala": 1181,
      "ck": 1182,
      "orm": 1183,
      "▁gamit": 1184,
      "▁siya": 1185,
      "▁bag": 1186,
      "ol": 1187,
      "▁2": 1188,
      "lis": 1189,
      "▁E": 1190,
      "lang": 1191,
      "ir": 1192,
      "▁tap": 1193,
      "▁of": 1194,
      "▁H": 1195,
      "▁gawa": 1196,
      "ut": 1197,
      "▁ro": 1198,
      "▁nila": 1199,
      "▁ra": 1200,
      "ci": 1201,
      "ve": 1202,
      "mba": 1203,
      "▁y": 1204,
      "ok": 1205,
      "res": 1206,
      "▁W": 1207,
      "▁lo": 1208,
      "▁mag": 1209,
      "▁and": 1210,
      "ine": 1211,
      "pat": 1212,
      "ina": 1213,
      "ul": 1214,
      "ment": 1215,
      "hay": 1216,
      "am": 1217,
      "▁rin": 1218,
      "▁sabi": 1219,
      "▁l": 1220,
      "▁tapos": 1221,
      "wan": 1222,
      "▁bila": 1223,
      "han": 1224,
      "▁per": 1225,
      "▁bago": 1226,
      "▁ara": 1227,
      "ic": 1228,
      "▁baba": 1229,
      "▁po": 1230,
      "▁ala": 1231,
      "▁ak": 1232,
      "▁pu": 1233,
      "▁lab": 1234,
      "▁J": 1235,
      "ch": 1236,
      "▁mask": 1237,
      "yan": 1238,
      "dib": 1239,
      "▁dib": 1240,
      "de": 1241,
      "ino": 1242,
      "ob": 1243,
      "▁dibdib": 1244,
      "▁lahat": 1245,
      "uso": 1246,
      "▁dala": 1247,
      "pp": 1248,
      "▁or": 1249,
      "▁rami": 1250,
      "um": 1251,
      "ad": 1252,
      "▁roon": 1253,
      "ble": 1254,
      "▁is": 1255,
      "▁una": 1256,
      "ngga": 1257,
      "▁am": 1258,
      "▁laman": 1259,
      "gi": 1260,
      "ver": 1261,
      "lim": 1262,
      "vi": 1263,
      "▁tulo": 1264,
      "▁kita": 1265,
      "▁no": 1266,
      "ung": 1267,
      "ew": 1268,
      "▁hi": 1269,
      "00": 1270,
      "tu": 1271,
      "lad": 1272,
      "lat": 1273,
      "▁paras": 1274,
      "nay": 1275,
      "▁nito": 1276,
      "ation": 1277,
      "▁O": 1278,
      "ec": 1279,
      "nal": 1280,
      "▁nag": 1281,
      "les": 1282,
      "▁sila": 1283,
      "▁timba": 1284,
      "▁din": 1285,
      "dad": 1286,
      "st": 1287,
      "▁pili": 1288,
      "▁K": 1289,
      "asyon": 1290,
      "▁hu": 1291,
      "▁bat": 1292,
      "ari": 1293,
      "ngko": 1294,
      "▁du": 1295,
      "syon": 1296,
      "▁kaya": 1297,
      "▁de": 1298,
      "▁sp": 1299,
      "▁sama": 1300,
      "ye": 1301,
      "ts": 1302,
      "▁yo": 1303,
      "ukha": 1304,
      "▁fa": 1305,
      "itan": 1306,
      "▁mukha": 1307,
      "go": 1308,
      "▁on": 1309,
      "▁mam": 1310,
      "▁gan": 1311,
      "tion": 1312,
      "▁gamot": 1313,
      "ng-": 1314,
      "nap": 1315,
      "her": 1316,
      "ran": 1317,
      "▁V": 1318,
      "lik": 1319,
      "▁v": 1320,
      "unit": 1321,
      "▁mata": 1322,
      "▁bigay": 1323,
      "▁pin": 1324,
      "ayo": 1325,
      "iti": 1326,
      "▁bata": 1327,
      "cial": 1328,
      "ly": 1329,
      "asa": 1330,
      "▁tan": 1331,
      "tor": 1332,
      "▁kuha": 1333,
      "▁20": 1334,
      "agd": 1335,
      "ite": 1336,
      "up": 1337,
      "▁al": 1338,
      "gan": 1339,
      "▁ban": 1340,
      "so": 1341,
      "▁me": 1342,
      "▁tulad": 1343,
      "▁buo": 1344,
      "ayon": 1345,
      "▁taas": 1346,
      "agdag": 1347,
      "▁worm": 1348,
      "mb": 1349,
      "mo": 1350,
      "hon": 1351,
      "ap": 1352,
      "▁dapat": 1353,
      "usto": 1354,
      "kas": 1355,
      "aw": 1356,
      "big": 1357,
      "▁araw": 1358,
      "▁sun": 1359,
      "ate": 1360,
      "▁so": 1361,
      "▁tala": 1362,
      "▁kas": 1363,
      "▁ngayon": 1364,
      "▁akin": 1365,
      "▁tag": 1366,
      "me": 1367,
      "▁para": 1368,
      "se": 1369,
      "▁U": 1370,
      "▁tungko": 1371,
      "▁laro": 1372,
      "▁tungkol": 1373,
      "▁ton": 1374,
      "▁bula": 1375,
      "▁dagdag": 1376,
      "▁hus": 1377,
      "▁pun": 1378,
      "log": 1379,
      "▁kah": 1380,
      "ke": 1381,
      "▁taon": 1382,
      "▁baw": 1383,
      "no": 1384,
      "ila": 1385,
      "▁co": 1386,
      "agitan": 1387,
      "der": 1388,
      "view": 1389,
      "▁suso": 1390,
      "▁mamagitan": 1391,
      "tin": 1392,
      "hin": 1393,
      "▁halaga": 1394,
      "▁husay": 1395,
      "▁haba": 1396,
      "▁liit": 1397,
      "▁buhay": 1398,
      "ani": 1399,
      "ity": 1400,
      "ist": 1401,
      "co": 1402,
      "nan": 1403,
      "▁for": 1404,
      "▁pos": 1405,
      "▁hig": 1406,
      "tas": 1407,
      "wag": 1408,
      "▁se": 1409,
      "▁alam": 1410,
      "kit": 1411,
      "▁pas": 1412,
      "▁as": 1413,
      "sing": 1414,
      "aya": 1415,
      "per": 1416,
      "qu": 1417,
      "▁kon": 1418,
      "rap": 1419,
      "▁noo": 1420,
      "▁kar": 1421,
      "▁alis": 1422,
      "hag": 1423,
      "▁kata": 1424,
      "pek": 1425,
      "▁mu": 1426,
      "▁ilang": 1427,
      "▁lalim": 1428,
      "▁bay": 1429,
      "▁es": 1430,
      "nas": 1431,
      "ento": 1432,
      "th": 1433,
      "▁te": 1434,
      "▁kai": 1435,
      "ry": 1436,
      "▁In": 1437,
      "bay": 1438,
      "▁imp": 1439,
      "▁gaw": 1440,
      "▁maging": 1441,
      "pe": 1442,
      "kal": 1443,
      "▁tra": 1444,
      "▁be": 1445,
      "▁dito": 1446,
      "▁con": 1447,
      "▁spot": 1448,
      "▁pero": 1449,
      "▁hangga": 1450,
      "▁kami": 1451,
      "▁ac": 1452,
      "ers": 1453,
      "ream": 1454,
      "▁natin": 1455,
      "pit": 1456,
      "▁Y": 1457,
      "nak": 1458,
      "▁loob": 1459,
      "▁katawan": 1460,
      "pon": 1461,
      "▁do": 1462,
      "▁review": 1463,
      "▁pres": 1464,
      "▁th": 1465,
      "langan": 1466,
      "▁dis": 1467,
      "▁bahag": 1468,
      "ac": 1469,
      "ano": 1470,
      "ff": 1471,
      "▁ganda": 1472,
      "▁ngunit": 1473,
      "▁kahit": 1474,
      "ling": 1475,
      "ard": 1476,
      "▁le": 1477,
      "▁3": 1478,
      "ess": 1479,
      "kat": 1480,
      "▁ser": 1481,
      "▁tayo": 1482,
      "▁gusto": 1483,
      "▁asa": 1484,
      "gal": 1485,
      "▁pang": 1486,
      "▁dali": 1487,
      "▁nga": 1488,
      "eo": 1489,
      "▁we": 1490,
      "▁igi": 1491,
      "▁pag-": 1492,
      "mang-": 1493,
      "▁isi": 1494,
      "tic": 1495,
      "▁st": 1496,
      "▁mil": 1497,
      "lay": 1498,
      "rog": 1499,
      "▁aral": 1500,
      "▁parasito": 1501,
      "▁tang": 1502,
      "singaw": 1503,
      "mang-singaw": 1504,
      "▁dati": 1505,
      "▁ne": 1506,
      "▁halamang-singaw": 1507,
      "▁you": 1508,
      "▁pan": 1509,
      "las": 1510,
      "duk": 1511,
      "▁bansa": 1512,
      "▁j": 1513,
      "▁it": 1514,
      "im": 1515,
      "▁res": 1516,
      "wal": 1517,
      "ites": 1518,
      "▁aga": 1519,
      "ato": 1520,
      "ens": 1521,
      "▁un": 1522,
      "est": 1523,
      "▁Re": 1524,
      "▁labas": 1525,
      "▁bahagi": 1526,
      "▁oras": 1527,
      "gu": 1528,
      "one": 1529,
      "▁lig": 1530,
      "ente": 1531,
      "▁gawin": 1532,
      "▁balat": 1533,
      "▁talaga": 1534,
      "▁sunod": 1535,
      "▁kit": 1536,
      "▁ahon": 1537,
      "ort": 1538,
      "bu": 1539,
      "▁pig": 1540,
      "ith": 1541,
      "unt": 1542,
      "▁ayon": 1543,
      "▁kailangan": 1544,
      "ting": 1545,
      "isyo": 1546,
      "dia": 1547,
      "line": 1548,
      "▁higit": 1549,
      "ast": 1550,
      "gar": 1551,
      "art": 1552,
      "▁bulate": 1553,
      "ong": 1554,
      "ust": 1555,
      "▁bawat": 1556,
      "ys": 1557,
      "▁facial": 1558,
      "▁bagay": 1559,
      "▁babae": 1560,
      "pag": 1561,
      "▁ex": 1562,
      "▁min": 1563,
      "▁kala": 1564,
      "▁anak": 1565,
      "▁pilip": 1566,
      "▁ar": 1567,
      "▁big": 1568,
      "yal": 1569,
      "▁kuko": 1570,
      "▁laban": 1571,
      "▁tangga": 1572,
      "▁sim": 1573,
      "▁ibig": 1574,
      "▁lib": 1575,
      "▁uri": 1576,
      "ht": 1577,
      "▁san": 1578,
      "ug": 1579,
      "uman": 1580,
      "po": 1581,
      "mple": 1582,
      "los": 1583,
      "▁durog": 1584,
      "▁isip": 1585,
      "▁201": 1586,
      "ep": 1587,
      "▁bahay": 1588,
      "▁pat": 1589,
      "▁sal": 1590,
      "▁parasites": 1591,
      "▁bili": 1592,
      "arap": 1593,
      "▁lin": 1594,
      "▁tuloy": 1595,
      "ub": 1596,
      "▁An": 1597,
      "ilala": 1598,
      "▁he": 1599,
      "▁pana": 1600,
      "tos": 1601,
      "rin": 1602,
      "▁bilis": 1603,
      "end": 1604,
      "▁produk": 1605,
      "raw": 1606,
      "▁ad": 1607,
      "▁yung": 1608,
      "▁hanap": 1609,
      "lic": 1610,
      "▁kara": 1611,
      "ika": 1612,
      "▁cream": 1613,
      "▁ganap": 1614,
      "▁han": 1615,
      "und": 1616,
      "nga": 1617,
      "ark": 1618,
      "▁ab": 1619,
      "▁anuman": 1620,
      "hal": 1621,
      "are": 1622,
      "ge": 1623,
      "▁presyo": 1624,
      "▁alo": 1625,
      "isyon": 1626,
      "▁com": 1627,
      "▁hali": 1628,
      "▁yari": 1629,
      "ku": 1630,
      "lot": 1631,
      "onal": 1632,
      "▁ika": 1633,
      "ne": 1634,
      "▁simula": 1635,
      "uan": 1636,
      "▁that": 1637,
      "▁lugar": 1638,
      "mit": 1639,
      "▁kilala": 1640,
      "▁gu": 1641,
      "▁epek": 1642,
      "mer": 1643,
      "▁dalaw": 1644,
      "baho": 1645,
      "tura": 1646,
      "yos": 1647,
      "wak": 1648,
      "yak": 1649,
      "▁with": 1650,
      "▁iyon": 1651,
      "▁sak": 1652,
      "ork": 1653,
      "ura": 1654,
      "▁tin": 1655,
      "ct": 1656,
      "tibo": 1657,
      "▁bakit": 1658,
      "▁dili": 1659,
      "▁ug": 1660,
      "▁The": 1661,
      "▁op": 1662,
      "▁bo": 1663,
      "ant": 1664,
      "undo": 1665,
      "wn": 1666,
      "bs": 1667,
      "▁bas": 1668,
      "▁ugnay": 1669,
      "ip": 1670,
      "▁pati": 1671,
      "▁naging": 1672,
      "walan": 1673,
      "▁Co": 1674,
      "hok": 1675,
      "eho": 1676,
      "ero": 1677,
      "▁produkto": 1678,
      "▁laraw": 1679,
      "▁tunay": 1680,
      "▁balik": 1681,
      "ure": 1682,
      "ia": 1683,
      "▁10": 1684,
      "▁fre": 1685,
      "inas": 1686,
      "▁ben": 1687,
      "▁tanda": 1688,
      "▁5": 1689,
      "▁punta": 1690,
      "ue": 1691,
      "▁tak": 1692,
      "▁are": 1693,
      "du": 1694,
      "ill": 1695,
      "▁hirap": 1696,
      "▁en": 1697,
      "▁tanggap": 1698,
      "mon": 1699,
      "mda": 1700,
      "age": 1701,
      "▁lalo": 1702,
      "▁inter": 1703,
      "▁mat": 1704,
      "lit": 1705,
      "ris": 1706,
      "ding": 1707,
      "▁buti": 1708,
      "▁kump": 1709,
      "ayag": 1710,
      "ulat": 1711,
      "▁4": 1712,
      "va": 1713,
      "▁ke": 1714,
      "▁online": 1715,
      "law": 1716,
      "▁face": 1717,
      "pas": 1718,
      "lugan": 1719,
      "int": 1720,
      "▁mag-": 1721,
      "▁tawag": 1722,
      "ses": 1723,
      "all": 1724,
      "▁ulo": 1725,
      "▁Al": 1726,
      "ser": 1727,
      "▁sin": 1728,
      "▁lagay": 1729,
      "▁ho": 1730,
      "▁lang": 1731,
      "ost": 1732,
      "▁plan": 1733,
      "▁nais": 1734,
      "▁kaysa": 1735,
      "▁diyos": 1736,
      "ideo": 1737,
      "▁kula": 1738,
      "▁ek": 1739,
      "▁tat": 1740,
      "pi": 1741,
      "▁nya": 1742,
      "ger": 1743,
      "▁edad": 1744,
      "▁i-": 1745,
      "ber": 1746,
      "▁naka": 1747,
      "mat": 1748,
      "ular": 1749,
      "▁mawalan": 1750,
      "▁pre": 1751,
      "▁pigment": 1752,
      "bok": 1753,
      "ted": 1754,
      "▁St": 1755,
      "▁app": 1756,
      "kap": 1757,
      "ile": 1758,
      "mas": 1759,
      "▁puti": 1760,
      "▁tama": 1761,
      "▁mis": 1762,
      "▁bato": 1763,
      "gat": 1764,
      "hh": 1765,
      "▁layo": 1766,
      "▁sc": 1767,
      "▁sur": 1768,
      "mpa": 1769,
      "-1": 1770,
      "▁Fa": 1771,
      "ome": 1772,
      "▁So": 1773,
      "▁bis": 1774,
      "▁pilipinas": 1775,
      "was": 1776,
      "▁trabaho": 1777,
      "▁paa": 1778,
      "gra": 1779,
      "▁harap": 1780,
      "naw": 1781,
      "ak": 1782,
      "▁basa": 1783,
      "▁mahal": 1784,
      "▁dalas": 1785,
      "ary": 1786,
      "wi": 1787,
      "▁pareho": 1788,
      "▁19": 1789,
      "▁mundo": 1790,
      "ress": 1791,
      "▁ikaw": 1792,
      "ru": 1793,
      "por": 1794,
      "gos": 1795,
      "kod": 1796,
      "▁lik": 1797,
      "ood": 1798,
      "▁pasok": 1799,
      "gas": 1800,
      "nag": 1801,
      "▁huli": 1802,
      "ring": 1803,
      "▁00": 1804,
      "▁buhok": 1805,
      "▁tiyak": 1806,
      "ngo": 1807,
      "▁ayos": 1808,
      "▁posi": 1809,
      "san": 1810,
      "▁suri": 1811,
      "▁Ma": 1812,
      "▁isa": 1813,
      "▁cas": 1814,
      "▁ling": 1815,
      "alit": 1816,
      "ord": 1817,
      "lidad": 1818,
      "iz": 1819,
      "tili": 1820,
      "▁milya": 1821,
      "▁kasal": 1822,
      "▁maga": 1823,
      "▁muli": 1824,
      "▁buwan": 1825,
      "▁pe": 1826,
      "▁sag": 1827,
      "iar": 1828,
      "mdam": 1829,
      "▁can": 1830,
      "ump": 1831,
      "▁sala": 1832,
      "sid": 1833,
      "ckles": 1834,
      "▁taba": 1835,
      "lig": 1836,
      "rol": 1837,
      "tra": 1838,
      "ear": 1839,
      "▁lagi": 1840,
      "▁epekto": 1841,
      "▁'": 1842,
      "yer": 1843,
      "▁aw": 1844,
      "wer": 1845,
      "▁handa": 1846,
      "▁sulat": 1847,
      "▁tubig": 1848,
      "iardia": 1849,
      "og": 1850,
      "▁proble": 1851,
      "▁unahin": 1852,
      "▁iwas": 1853,
      "▁tagal": 1854,
      "▁gas": 1855,
      "yu": 1856,
      "hiya": 1857,
      "▁your": 1858,
      "▁bayad": 1859,
      "aniwan": 1860,
      "▁kaso": 1861,
      "▁video": 1862,
      "min": 1863,
      "hili": 1864,
      "kot": 1865,
      "ating": 1866,
      "▁karaniwan": 1867,
      "▁bayan": 1868,
      "cy": 1869,
      "▁pera": 1870,
      "ming": 1871,
      "ik": 1872,
      "▁sho": 1873,
      "▁by": 1874,
      "▁salita": 1875,
      "▁damdam": 1876,
      "▁mar": 1877,
      "ren": 1878,
      "▁De": 1879,
      "-a": 1880,
      "▁saya": 1881,
      "▁huwag": 1882,
      "itu": 1883,
      "▁gol": 1884,
      "rom": 1885,
      "ulta": 1886,
      "▁tanong": 1887,
      "▁ya": 1888,
      "uku": 1889,
      "hilipp": 1890,
      "▁ilan": 1891,
      "▁kapa": 1892,
      "▁iba": 1893,
      "▁kayo": 1894,
      "usog": 1895,
      "▁was": 1896,
      "▁likha": 1897,
      "▁tangi": 1898,
      "▁freckles": 1899,
      "mbawa": 1900,
      "▁libre": 1901,
      "▁kan": 1902,
      "ction": 1903,
      "▁up": 1904,
      "▁pina": 1905,
      "ell": 1906,
      "isi": 1907,
      "▁bre": 1908,
      "ab": 1909,
      "ede": 1910,
      "use": 1911,
      "▁sanay": 1912,
      "▁halimbawa": 1913,
      "▁linggo": 1914,
      "▁lapit": 1915,
      "▁sari": 1916,
      "ose": 1917,
      "▁hing": 1918,
      "edyo": 1919,
      "▁lupa": 1920,
      "▁subok": 1921,
      "wento": 1922,
      "▁202": 1923,
      "sion": 1924,
      "▁Ho": 1925,
      "▁He": 1926,
      "▁ani": 1927,
      "ins": 1928,
      "▁this": 1929,
      "▁maka": 1930,
      "▁serb": 1931,
      "▁kom": 1932,
      "▁sub": 1933,
      "oc": 1934,
      "▁Mar": 1935,
      "▁progra": 1936,
      "▁Philipp": 1937,
      "▁Ng": 1938,
      "ft": 1939,
      "its": 1940,
      "▁agad": 1941,
      "▁ulan": 1942,
      "▁Q": 1943,
      "▁Un": 1944,
      "pes": 1945,
      "ere": 1946,
      "▁wika": 1947,
      "hen": 1948,
      "▁serbisyo": 1949,
      "pad": 1950,
      "kop": 1951,
      "▁Ngunit": 1952,
      "rink": 1953,
      "▁daw": 1954,
      "gery": 1955,
      "we": 1956,
      "▁alok": 1957,
      "▁tran": 1958,
      "▁asawa": 1959,
      "▁lusog": 1960,
      "▁Yo": 1961,
      "hy": 1962,
      "▁negos": 1963,
      "▁rito": 1964,
      "▁ki": 1965,
      "▁ligtas": 1966,
      "gen": 1967,
      "be": 1968,
      "ll": 1969,
      "ice": 1970,
      "▁tinig": 1971,
      "ps": 1972,
      "▁ing": 1973,
      "▁sigu": 1974,
      "kin": 1975,
      "▁spots": 1976,
      "▁problema": 1977,
      "sik": 1978,
      "yado": 1979,
      "▁dugo": 1980,
      "▁posible": 1981,
      "kta": 1982,
      "usap": 1983,
      "▁not": 1984,
      "▁puno": 1985,
      "▁imporm": 1986,
      "ty": 1987,
      "ore": 1988,
      "seso": 1989,
      "wanag": 1990,
      "▁dep": 1991,
      "▁Ch": 1992,
      "▁galing": 1993,
      "▁puk": 1994,
      "▁bar": 1995,
      "▁alaga": 1996,
      "ton": 1997,
      "nasan": 1998,
      "▁ligid": 1999,
      "wede": 2000,
      "▁benta": 2001,
      "▁tiyan": 2002,
      "▁impormasyon": 2003,
      "▁car": 2004,
      "kay": 2005,
      "kad": 2006,
      "▁linis": 2007,
      "▁abot": 2008,
      "-p": 2009,
      "▁table": 2010,
      "and": 2011,
      "alth": 2012,
      "▁ap": 2013,
      "oy": 2014,
      "rus": 2015,
      "▁out": 2016,
      "bang": 2017,
      "eral": 2018,
      "ric": 2019,
      "▁tatlo": 2020,
      "▁comp": 2021,
      "usa": 2022,
      "form": 2023,
      "yemb": 2024,
      "▁halos": 2025,
      "▁surgery": 2026,
      "▁qu": 2027,
      "▁hayag": 2028,
      "ilip": 2029,
      "▁Pro": 2030,
      "▁des": 2031,
      "▁resulta": 2032,
      "cess": 2033,
      "ori": 2034,
      "-s": 2035,
      "▁tug": 2036,
      "koy": 2037,
      "▁alan": 2038,
      "lus": 2039,
      "▁gaano": 2040,
      "▁sya": 2041,
      "▁lit": 2042,
      "▁inyo": 2043,
      "mina": 2044,
      "▁sagot": 2045,
      "lung": 2046,
      "▁ting": 2047,
      "▁bawas": 2048,
      "lak": 2049,
      "gawa": 2050,
      "ines": 2051,
      "ud": 2052,
      "uni": 2053,
      "too": 2054,
      "-c": 2055,
      "reat": 2056,
      "uter": 2057,
      "ight": 2058,
      "▁City": 2059,
      "▁bal": 2060,
      "▁lawak": 2061,
      "▁kulay": 2062,
      "▁puso": 2063,
      "▁fe": 2064,
      "ven": 2065,
      "▁my": 2066,
      "yeta": 2067,
      "▁Se": 2068,
      "ase": 2069,
      "▁sanhi": 2070,
      "▁kun": 2071,
      "▁Ro": 2072,
      "▁12": 2073,
      "▁palit": 2074,
      "▁batay": 2075,
      "▁Di": 2076,
      "pan": 2077,
      "▁hina": 2078,
      "ensya": 2079,
      "ron": 2080,
      "▁CO": 2081,
      "▁langis": 2082,
      "▁bukas": 2083,
      "ekto": 2084,
      "▁tukoy": 2085,
      "bsite": 2086,
      "▁ri": 2087,
      "ence": 2088,
      "'s": 2089,
      "▁lakas": 2090,
      "ach": 2091,
      "▁che": 2092,
      "▁000": 2093,
      "son": 2094,
      "▁wa": 2095,
      "▁ip": 2096,
      "▁oper": 2097,
      "limming": 2098,
      "sta": 2099,
      "▁pri": 2100,
      "▁dire": 2101,
      "▁bang": 2102,
      "▁ele": 2103,
      "▁site": 2104,
      "sp": 2105,
      "tala": 2106,
      "ksyon": 2107,
      "▁diyeta": 2108,
      "▁taya": 2109,
      "ms": 2110,
      "▁ganito": 2111,
      "▁We": 2112,
      "▁inom": 2113,
      "▁mer": 2114,
      "▁To": 2115,
      "▁init": 2116,
      "▁Jo": 2117,
      "▁pagitan": 2118,
      "▁go": 2119,
      "▁doon": 2120,
      "▁gastos": 2121,
      "▁negosyo": 2122,
      "rinkles": 2123,
      "▁Be": 2124,
      "▁bigyan": 2125,
      "▁sus": 2126,
      "▁from": 2127,
      "▁gabi": 2128,
      "ect": 2129,
      "ld": 2130,
      "lin": 2131,
      "▁Po": 2132,
      "▁ali": 2133,
      "era": 2134,
      "fe": 2135,
      "▁Ca": 2136,
      "ide": 2137,
      "▁diet": 2138,
      "ID": 2139,
      "▁have": 2140,
      "▁Con": 2141,
      "▁sarili": 2142,
      "▁ulat": 2143,
      "▁totoo": 2144,
      "▁puksa": 2145,
      "▁ca": 2146,
      "▁post": 2147,
      "aran": 2148,
      "▁baka": 2149,
      "▁6": 2150,
      "▁tal": 2151,
      "count": 2152,
      "bli": 2153,
      "▁Face": 2154,
      "ista": 2155,
      "▁website": 2156,
      "▁30": 2157,
      "▁liwanag": 2158,
      "men": 2159,
      "araan": 2160,
      "▁bunt": 2161,
      "▁200": 2162,
      "▁patay": 2163,
      "▁mi": 2164,
      "▁data": 2165,
      "isa": 2166,
      "tive": 2167,
      "▁simple": 2168,
      "▁bisita": 2169,
      "▁buntis": 2170,
      "IN": 2171,
      "umpay": 2172,
      "▁dok": 2173,
      "mm": 2174,
      "▁reg": 2175,
      "▁15": 2176,
      "▁sang": 2177,
      "ese": 2178,
      "▁wrinkles": 2179,
      "▁tek": 2180,
      "▁sis": 2181,
      "ukuyan": 2182,
      "ilipino": 2183,
      "▁kasalukuyan": 2184,
      "▁dark": 2185,
      "load": 2186,
      "▁Ar": 2187,
      "▁Giardia": 2188,
      "▁kont": 2189,
      "▁breast": 2190,
      "▁us": 2191,
      "loy": 2192,
      "rat": 2193,
      "lungan": 2194,
      "▁Go": 2195,
      "sin": 2196,
      "▁her": 2197,
      "▁ind": 2198,
      "hang": 2199,
      "▁tagumpay": 2200,
      "▁No": 2201,
      "▁alala": 2202,
      "▁parti": 2203,
      "low": 2204,
      "▁sob": 2205,
      "▁plano": 2206,
      "▁kin": 2207,
      "tay": 2208,
      "▁sino": 2209,
      "tado": 2210,
      "▁mapa": 2211,
      "fi": 2212,
      "paman": 2213,
      "lid": 2214,
      "▁gana": 2215,
      "▁pak": 2216,
      "▁men": 2217,
      "har": 2218,
      "▁usa": 2219,
      "▁keto": 2220,
      "book": 2221,
      "ngay": 2222,
      "▁rela": 2223,
      "▁halaman": 2224,
      "enyo": 2225,
      "cer": 2226,
      "▁Com": 2227,
      "▁mamaraan": 2228,
      "▁9": 2229,
      "▁batas": 2230,
      "▁pilipino": 2231,
      "▁kato": 2232,
      "▁programa": 2233,
      "kado": 2234,
      "red": 2235,
      "▁lub": 2236,
      "▁hili": 2237,
      "▁kap": 2238,
      "ER": 2239,
      "tural": 2240,
      "cal": 2241,
      "▁Z": 2242,
      "▁rep": 2243,
      "ulugan": 2244,
      "▁7": 2245,
      "▁lunas": 2246,
      "▁all": 2247,
      "▁karanasan": 2248,
      "rato": 2249,
      "▁unti": 2250,
      "▁dalawa": 2251,
      "▁komp": 2252,
      "unpaman": 2253,
      "ves": 2254,
      "▁Na": 2255,
      "▁Me": 2256,
      "ono": 2257,
      "▁abo": 2258,
      "dy": 2259,
      "way": 2260,
      "ish": 2261,
      "sod": 2262,
      "▁bukod": 2263,
      "ram": 2264,
      "ise": 2265,
      "▁Bo": 2266,
      "▁opis": 2267,
      "ral": 2268,
      "ras": 2269,
      "tem": 2270,
      "▁plas": 2271,
      "▁turing": 2272,
      "▁slimming": 2273,
      "anib": 2274,
      "▁will": 2275,
      "▁says": 2276,
      "▁met": 2277,
      "▁perso": 2278,
      "▁minsan": 2279,
      "ner": 2280,
      "▁casino": 2281,
      "hit": 2282,
      "tibong": 2283,
      "ans": 2284,
      "irc": 2285,
      "▁Le": 2286,
      "ree": 2287,
      "very": 2288,
      "orta": 2289,
      "▁kahulugan": 2290,
      "▁unawa": 2291,
      "▁account": 2292,
      "▁disenyo": 2293,
      "▁sobra": 2294,
      "▁but": 2295,
      "tong": 2296,
      "▁tungo": 2297,
      "▁yan": 2298,
      "▁8": 2299,
      "▁takbo": 2300,
      "hanan": 2301,
      "kab": 2302,
      "▁kumpanya": 2303,
      "▁And": 2304,
      "▁hati": 2305,
      "land": 2306,
      "ily": 2307,
      "▁pi": 2308,
      "▁iwala": 2309,
      "reen": 2310,
      "▁Pa": 2311,
      "▁Li": 2312,
      "▁gaya": 2313,
      "▁ama": 2314,
      "other": 2315,
      "▁proseso": 2316,
      "▁ag": 2317,
      "tomas": 2318,
      "▁Th": 2319,
      "▁panatili": 2320,
      "▁antas": 2321,
      "wat": 2322,
      "▁sintomas": 2323,
      "vel": 2324,
      "ze": 2325,
      "ces": 2326,
      "▁tubo": 2327,
      "▁solo": 2328,
      "▁kal": 2329,
      "tions": 2330,
      "ni": 2331,
      "▁sabay": 2332,
      "▁tamp": 2333,
      "ition": 2334,
      "▁custo": 2335,
      "▁yun": 2336,
      "▁hawak": 2337,
      "▁lala": 2338,
      "▁Ex": 2339,
      "▁Ha": 2340,
      "▁salik": 2341,
      "ments": 2342,
      "▁atay": 2343,
      "▁Chi": 2344,
      "▁bai": 2345,
      "▁mapag": 2346,
      "ors": 2347,
      "▁dami": 2348,
      "▁bin": 2349,
      "kina": 2350,
      "ret": 2351,
      "▁sig": 2352,
      "tok": 2353,
      "▁lam": 2354,
      "ca": 2355,
      "▁muna": 2356,
      "git": 2357,
      "▁net": 2358,
      "kipag": 2359,
      "work": 2360,
      "puan": 2361,
      "▁lipat": 2362,
      "rup": 2363,
      "▁saysay": 2364,
      "here": 2365,
      "▁indi": 2366,
      "▁awa": 2367,
      "sidente": 2368,
      "▁tira": 2369,
      "-19": 2370,
      "▁sapat": 2371,
      "tohanan": 2372,
      "▁mali": 2373,
      "bas": 2374,
      "▁prote": 2375,
      "iran": 2376,
      "▁time": 2377,
      "▁linaw": 2378,
      "ten": 2379,
      "▁siste": 2380,
      "riend": 2381,
      "hala": 2382,
      "▁supp": 2383,
      "ally": 2384,
      "wid": 2385,
      "▁New": 2386,
      "▁kabu": 2387,
      "▁tagpuan": 2388,
      "lohiya": 2389,
      "▁tulungan": 2390,
      "▁panganib": 2391,
      "▁don": 2392,
      "oney": 2393,
      "▁katotohanan": 2394,
      "▁mater": 2395,
      "ple": 2396,
      "▁noon": 2397,
      "▁0": 2398,
      "kti": 2399,
      "mail": 2400,
      "▁hakab": 2401,
      "uto": 2402,
      "tional": 2403,
      "▁lan": 2404,
      "ystem": 2405,
      "▁balita": 2406,
      "mis": 2407,
      "unlad": 2408,
      "bog": 2409,
      "▁angkop": 2410,
      "ril": 2411,
      "▁You": 2412,
      "▁tim": 2413,
      "▁mana": 2414,
      "▁11": 2415,
      "▁Lo": 2416,
      "unan": 2417,
      "▁ulit": 2418,
      "▁tuk": 2419,
      "▁Gay": 2420,
      "gy": 2421,
      "▁tingin": 2422,
      "▁lipas": 2423,
      "▁gayon": 2424,
      "▁sistema": 2425,
      "▁tampok": 2426,
      "ef": 2427,
      "▁our": 2428,
      "▁itlog": 2429,
      "enti": 2430,
      "pro": 2431,
      "▁raw": 2432,
      "▁work": 2433,
      "AN": 2434,
      "AR": 2435,
      "▁more": 2436,
      "▁US": 2437,
      "sk": 2438,
      "ngy": 2439,
      "yente": 2440,
      "▁100": 2441,
      "▁nin": 2442,
      "ance": 2443,
      "orn": 2444,
      "kala": 2445,
      "▁Te": 2446,
      "▁kundi": 2447,
      "▁kilos": 2448,
      "▁18": 2449,
      "▁Car": 2450,
      "VID": 2451,
      "▁ter": 2452,
      "▁lung": 2453,
      "ign": 2454,
      "zon": 2455,
      "let": 2456,
      "▁isda": 2457,
      "ang": 2458,
      "▁media": 2459,
      "▁takot": 2460,
      "▁kalakal": 2461,
      "▁turo": 2462,
      "▁kat": 2463,
      "irst": 2464,
      "▁galaw": 2465,
      "get": 2466,
      "yonal": 2467,
      "uro": 2468,
      "una": 2469,
      "▁saliksik": 2470,
      "▁patid": 2471,
      "▁natural": 2472,
      "▁hel": 2473,
      "rado": 2474,
      "▁COVID": 2475,
      "▁sangkap": 2476,
      "▁anti": 2477,
      "enter": 2478,
      "artment": 2479,
      "vice": 2480,
      "▁Gayunpaman": 2481,
      "▁ninyo": 2482,
      "lam": 2483,
      "ngyari": 2484,
      "ents": 2485,
      "uth": 2486,
      "▁num": 2487,
      "▁antala": 2488,
      "▁gili": 2489,
      "▁lungsod": 2490,
      "▁rem": 2491,
      "▁day": 2492,
      "▁uod": 2493,
      "▁personal": 2494,
      "▁mus": 2495,
      "gin": 2496,
      "▁eh": 2497,
      "itaw": 2498,
      "lar": 2499,
      "hing": 2500,
      "▁indust": 2501,
      "▁sek": 2502,
      "▁tugon": 2503,
      "▁mismo": 2504,
      "▁sarap": 2505,
      "▁gi": 2506,
      "sak": 2507,
      "▁liga": 2508,
      "hers": 2509,
      "▁pansin": 2510,
      "ngkot": 2511,
      "▁tri": 2512,
      "▁nami": 2513,
      "kar": 2514,
      "▁ila": 2515,
      "tina": 2516,
      "-2": 2517,
      "▁customer": 2518,
      "▁medyo": 2519,
      "ode": 2520,
      "by": 2521,
      "bon": 2522,
      "▁off": 2523,
      "▁tulog": 2524,
      "▁Dep": 2525,
      "▁sira": 2526,
      "▁gay": 2527,
      "▁bes": 2528,
      "▁fung": 2529,
      "▁organ": 2530,
      "▁gin": 2531,
      "▁supor": 2532,
      "▁Inter": 2533,
      "▁hapon": 2534,
      "ss": 2535,
      "▁plastic": 2536,
      "▁likas": 2537,
      "ctor": 2538,
      "▁lista": 2539,
      "▁Mag": 2540,
      "-e": 2541,
      "▁ber": 2542,
      "▁For": 2543,
      "▁litrato": 2544,
      "▁ik": 2545,
      "pto": 2546,
      "▁sh": 2547,
      "vers": 2548,
      "▁dulot": 2549,
      "▁It": 2550,
      "con": 2551,
      "ks": 2552,
      "likula": 2553,
      "mento": 2554,
      "▁sing": 2555,
      "▁pay": 2556,
      "▁arti": 2557,
      "ational": 2558,
      "uld": 2559,
      "▁circ": 2560,
      "▁apat": 2561,
      "▁payag": 2562,
      "rit": 2563,
      "▁On": 2564,
      "▁pelikula": 2565,
      "▁det": 2566,
      "▁bawal": 2567,
      "lub": 2568,
      "▁sikat": 2569,
      "▁How": 2570,
      "▁laya": 2571,
      "▁grup": 2572,
      "▁gra": 2573,
      "▁Philippines": 2574,
      "▁suot": 2575,
      "▁eye": 2576,
      "▁uta": 2577,
      "▁grupo": 2578,
      "ire": 2579,
      "▁she": 2580,
      "▁isyu": 2581,
      "xt": 2582,
      "▁year": 2583,
      "kano": 2584,
      "▁tanggal": 2585,
      "▁fol": 2586,
      "▁labis": 2587,
      "ds": 2588,
      "▁pul": 2589,
      "bid": 2590,
      "ations": 2591,
      "war": 2592,
      "igh": 2593,
      "net": 2594,
      "ngyarihan": 2595,
      "▁pab": 2596,
      "▁tupad": 2597,
      "▁pap": 2598,
      "▁tindi": 2599,
      "oro": 2600,
      "▁bigla": 2601,
      "▁medi": 2602,
      "▁pagka": 2603,
      "ical": 2604,
      "▁lag": 2605,
      "▁Ba": 2606,
      "▁kina": 2607,
      "▁gob": 2608,
      "▁pigmentation": 2609,
      "▁check": 2610,
      "▁bro": 2611,
      "utan": 2612,
      "sala": 2613,
      "▁ins": 2614,
      "walay": 2615,
      "yerno": 2616,
      "▁siguro": 2617,
      "ugh": 2618,
      "▁int": 2619,
      "▁relasyon": 2620,
      "ungan": 2621,
      "ormal": 2622,
      "▁lima": 2623,
      "▁baga": 2624,
      "▁beses": 2625,
      "▁suporta": 2626,
      "▁tip": 2627,
      "dio": 2628,
      "▁hint": 2629,
      "▁Cream": 2630,
      "tat": 2631,
      "mic": 2632,
      "▁tila": 2633,
      "▁nood": 2634,
      "▁industri": 2635,
      "za": 2636,
      "wnload": 2637,
      "usan": 2638,
      "▁reci": 2639,
      "ilit": 2640,
      "ulan": 2641,
      "vid": 2642,
      "hol": 2643,
      "▁tawa": 2644,
      "▁COVID-19": 2645,
      "▁pop": 2646,
      "ator": 2647,
      "▁doktor": 2648,
      "▁about": 2649,
      "▁opisyal": 2650,
      "ture": 2651,
      "▁En": 2652,
      "▁Lu": 2653,
      "▁mon": 2654,
      "▁25": 2655,
      "fa": 2656,
      "AT": 2657,
      "▁Sec": 2658,
      "▁litaw": 2659,
      "▁tig": 2660,
      "▁lim": 2661,
      "io": 2662,
      "▁system": 2663,
      "▁hintay": 2664,
      "▁turan": 2665,
      "tom": 2666,
      "▁luwa": 2667,
      "▁Filipino": 2668,
      "▁Dr": 2669,
      "kan": 2670,
      "▁ide": 2671,
      "▁kulang": 2672,
      "▁social": 2673,
      "▁show": 2674,
      "▁masyado": 2675,
      "hone": 2676,
      "▁tele": 2677,
      "▁hits": 2678,
      "▁kapangyarihan": 2679,
      "EN": 2680,
      "▁nar": 2681,
      "▁sec": 2682,
      "ondo": 2683,
      "▁payo": 2684,
      "▁ener": 2685,
      "agda": 2686,
      "▁13": 2687,
      "▁form": 2688,
      "▁pulis": 2689,
      "hool": 2690,
      "▁order": 2691,
      "now": 2692,
      "inst": 2693,
      "▁kla": 2694,
      "▁14": 2695,
      "▁kole": 2696,
      "▁pwede": 2697,
      "▁hitsura": 2698,
      "ving": 2699,
      "dor": 2700,
      "▁pet": 2701,
      "▁remedyo": 2702,
      "tory": 2703,
      "▁fo": 2704,
      "▁Philippine": 2705,
      "lie": 2706,
      "▁sukat": 2707,
      "-pa": 2708,
      "▁new": 2709,
      "▁publi": 2710,
      "▁kalidad": 2711,
      "agdagan": 2712,
      "tan": 2713,
      "▁takda": 2714,
      "▁dig": 2715,
      "▁industriya": 2716,
      "▁bus": 2717,
      "▁him": 2718,
      "▁git": 2719,
      "▁sto": 2720,
      "▁hiwalay": 2721,
      "▁pinsala": 2722,
      "ON": 2723,
      "▁lun": 2724,
      "▁card": 2725,
      "hiyon": 2726,
      "uti": 2727,
      "▁pasa": 2728,
      "ray": 2729,
      "lick": 2730,
      "▁Sc": 2731,
      "ES": 2732,
      "▁temp": 2733,
      "▁50": 2734,
      "kulo": 2735,
      "uhan": 2736,
      "▁tekno": 2737,
      "yas": 2738,
      "yante": 2739,
      "▁lak": 2740,
      "has": 2741,
      "kipag-": 2742,
      "▁sakit": 2743,
      "▁who": 2744,
      "ukan": 2745,
      "tud": 2746,
      "chine": 2747,
      "bag": 2748,
      "▁publiko": 2749,
      "▁one": 2750,
      "pital": 2751,
      "esti": 2752,
      "▁kaba": 2753,
      "bong": 2754,
      "▁proy": 2755,
      "wit": 2756,
      "lack": 2757,
      "ies": 2758,
      "▁lamat": 2759,
      "▁Ad": 2760,
      "▁pigil": 2761,
      "esa": 2762,
      "siyon": 2763,
      "▁proyekto": 2764,
      "▁magkano": 2765,
      "▁banggit": 2766,
      "▁Sup": 2767,
      "arangay": 2768,
      "▁Sp": 2769,
      "▁ch": 2770,
      "▁bala": 2771,
      "▁16": 2772,
      "yembro": 2773,
      "kular": 2774,
      "▁milyon": 2775,
      "▁karagdagan": 2776,
      "ayop": 2777,
      "▁opera": 2778,
      "▁papel": 2779,
      "ene": 2780,
      "▁base": 2781,
      "▁hayop": 2782,
      "▁ung": 2783,
      "▁gro": 2784,
      "ght": 2785,
      "ote": 2786,
      "▁oo": 2787,
      "▁gobyerno": 2788,
      "▁trans": 2789,
      "▁anim": 2790,
      "ated": 2791,
      "▁high": 2792,
      "▁kuwento": 2793,
      "yat": 2794,
      "▁Sa": 2795,
      "▁hatid": 2796,
      "▁teknolohiya": 2797,
      "bado": 2798,
      "▁Da": 2799,
      "▁lago": 2800,
      "lia": 2801,
      "duc": 2802,
      "lants": 2803,
      "▁his": 2804,
      "▁iwan": 2805,
      "hersisyo": 2806,
      "uterte": 2807,
      "ons": 2808,
      "ning": 2809,
      "OR": 2810,
      "▁cal": 2811,
      "▁partikular": 2812,
      "▁artikulo": 2813,
      "yn": 2814,
      "▁law": 2815,
      "▁hinga": 2816,
      "say": 2817,
      "lish": 2818,
      "bile": 2819,
      "▁damit": 2820,
      "ater": 2821,
      "▁love": 2822,
      "▁like": 2823,
      "▁hulugan": 2824,
      "▁ehersisyo": 2825,
      "urt": 2826,
      "▁health": 2827,
      "▁miyembro": 2828,
      "▁matay": 2829,
      "ktima": 2830,
      "bal": 2831,
      "▁Ac": 2832,
      "day": 2833,
      "▁aniya": 2834,
      "aa": 2835,
      "kip": 2836,
      "▁biktima": 2837,
      "tain": 2838,
      "▁tigil": 2839,
      "mpre": 2840,
      "▁Duterte": 2841,
      "▁Mari": 2842,
      "▁tuto": 2843,
      "yembre": 2844,
      "▁alin": 2845,
      "'t": 2846,
      "▁sakyan": 2847,
      "br": 2848,
      "ening": 2849,
      "ful": 2850,
      "atak": 2851,
      "ult": 2852,
      "hel": 2853,
      "▁Is": 2854,
      "mber": 2855,
      "▁Par": 2856,
      "▁likod": 2857,
      "▁higpit": 2858,
      "▁pondo": 2859,
      "▁ipina": 2860,
      "fter": 2861,
      "▁24": 2862,
      "▁hanga": 2863,
      "▁ikli": 2864,
      "op": 2865,
      "▁sit": 2866,
      "siya": 2867,
      "▁ht": 2868,
      "▁email": 2869,
      "▁cont": 2870,
      "hip": 2871,
      "▁tun": 2872,
      "▁add": 2873,
      "▁kali": 2874,
      "▁dinig": 2875,
      "ilan": 2876,
      "▁As": 2877,
      "▁spe": 2878,
      "lice": 2879,
      "▁network": 2880,
      "▁Mo": 2881,
      "▁has": 2882,
      "latform": 2883,
      "hatan": 2884,
      "▁detal": 2885,
      "orld": 2886,
      "▁National": 2887,
      "-f": 2888,
      "▁mobile": 2889,
      "ware": 2890,
      "▁gitna": 2891,
      "▁mode": 2892,
      "rip": 2893,
      "▁bita": 2894,
      "pir": 2895,
      "▁bags": 2896,
      "esus": 2897,
      "▁upo": 2898,
      "▁gatas": 2899,
      "▁pahi": 2900,
      "▁kalahatan": 2901,
      "ous": 2902,
      "dar": 2903,
      "▁halip": 2904,
      "▁narara": 2905,
      "sia": 2906,
      "▁TV": 2907,
      "▁gawi": 2908,
      "▁bet": 2909,
      "ody": 2910,
      "bilidad": 2911,
      "bur": 2912,
      "▁propes": 2913,
      "▁isina": 2914,
      "__": 2915,
      "▁crus": 2916,
      "▁sunog": 2917,
      "date": 2918,
      "▁recipe": 2919,
      "nar": 2920,
      "▁pla": 2921,
      "▁lakad": 2922,
      "▁lamig": 2923,
      "▁sel": 2924,
      "▁ingat": 2925,
      "-C": 2926,
      "ismo": 2927,
      "▁inst": 2928,
      "▁art": 2929,
      "▁bil": 2930,
      "▁uwi": 2931,
      "▁circles": 2932,
      "▁kalam": 2933,
      "▁nung": 2934,
      "ush": 2935,
      "▁tula": 2936,
      "▁lokal": 2937,
      "lop": 2938,
      "alang": 2939,
      "▁ayaw": 2940,
      "▁Ra": 2941,
      "ale": 2942,
      "▁Gu": 2943,
      "▁laser": 2944,
      "▁pilit": 2945,
      "irl": 2946,
      "que": 2947,
      "▁Cas": 2948,
      "▁inc": 2949,
      "uporta": 2950,
      "▁espes": 2951,
      "fer": 2952,
      "fic": 2953,
      "▁eff": 2954,
      "▁Ke": 2955,
      "eople": 2956,
      "▁first": 2957,
      "▁Inst": 2958,
      "▁Ta": 2959,
      "▁sigurado": 2960,
      "▁bon": 2961,
      "istr": 2962,
      "▁hingi": 2963,
      "▁kontrol": 2964,
      "▁Department": 2965,
      "ced": 2966,
      "▁imb": 2967,
      "▁blo": 2968,
      "▁kris": 2969,
      "sasa": 2970,
      "▁over": 2971,
      "▁bitamina": 2972,
      "▁yaman": 2973,
      "▁lakbay": 2974,
      "ospital": 2975,
      "▁Wil": 2976,
      "▁they": 2977,
      "▁nag-": 2978,
      "▁merkado": 2979,
      "▁Off": 2980,
      "▁Ang": 2981,
      "bit": 2982,
      "yag": 2983,
      "watig": 2984,
      "▁tago": 2985,
      "karte": 2986,
      "kuna": 2987,
      "AL": 2988,
      "kol": 2989,
      "▁if": 2990,
      "ness": 2991,
      "▁machine": 2992,
      "cos": 2993,
      "▁App": 2994,
      "▁Qu": 2995,
      "▁silic": 2996,
      "▁siga": 2997,
      "▁dri": 2998,
      "i-": 2999,
      "▁hanay": 3000,
      "▁17": 3001,
      "▁giardia": 3002,
      "pekto": 3003,
      "▁nut": 3004,
      "lab": 3005,
      "▁kwento": 3006,
      "▁implants": 3007,
      "nel": 3008,
      "▁back": 3009,
      "dya": 3010,
      "▁sil": 3011,
      "▁honey": 3012,
      "▁desisyon": 3013,
      "itiko": 3014,
      "▁slot": 3015,
      "▁platform": 3016,
      "-alang": 3017,
      "▁hot": 3018,
      "▁Su": 3019,
      "haha": 3020,
      "mos": 3021,
      "▁bakuna": 3022,
      "ital": 3023,
      "▁tool": 3024,
      "ante": 3025,
      "▁dar": 3026,
      "gali": 3027,
      "logy": 3028,
      "▁mura": 3029,
      "wasyon": 3030,
      "val": 3031,
      "▁what": 3032,
      "▁any": 3033,
      "▁hari": 3034,
      "alang-alang": 3035,
      "▁ah": 3036,
      "yong": 3037,
      "atiko": 3038,
      "▁X": 3039,
      "▁team": 3040,
      "▁pala": 3041,
      "▁just": 3042,
      "ham": 3043,
      "kinabang": 3044,
      "hhhh": 3045,
      "▁bitu": 3046,
      "ligiran": 3047,
      "hn": 3048,
      "▁hin": 3049,
      "▁sena": 3050,
      "vern": 3051,
      "cle": 3052,
      "▁tuon": 3053,
      "▁pag-unlad": 3054,
      "lication": 3055,
      "▁pagkat": 3056,
      "atura": 3057,
      "▁sikap": 3058,
      "yempre": 3059,
      "▁usapan": 3060,
      "▁kalat": 3061,
      "▁Vi": 3062,
      "▁tiwala": 3063,
      "▁talo": 3064,
      "▁tist": 3065,
      "▁alog": 3066,
      "host": 3067,
      "▁sitwasyon": 3068,
      "▁This": 3069,
      "▁set": 3070,
      "▁bituka": 3071,
      "▁col": 3072,
      "▁klase": 3073,
      "▁amer": 3074,
      "iko": 3075,
      "iness": 3076,
      "▁get": 3077,
      "▁estado": 3078,
      "▁Ja": 3079,
      "▁kamp": 3080,
      "▁Facebook": 3081,
      "▁Doc": 3082,
      "ones": 3083,
      "uty": 3084,
      "▁chi": 3085,
      "tiv": 3086,
      "▁silicone": 3087,
      "▁tapat": 3088,
      "▁kg": 3089,
      "▁live": 3090,
      "▁eduk": 3091,
      "nat": 3092,
      "▁Rus": 3093,
      "▁other": 3094,
      "▁tahi": 3095,
      "▁enerhiya": 3096,
      "ual": 3097,
      "orya": 3098,
      "▁pangarap": 3099,
      "▁tistis": 3100,
      "kaya": 3101,
      "▁tuklas": 3102,
      "▁numero": 3103,
      "▁ugali": 3104,
      "▁kapwa": 3105,
      "▁na-": 3106,
      "bol": 3107,
      "▁positi": 3108,
      "su": 3109,
      "▁z": 3110,
      "idad": 3111,
      "ulasyon": 3112,
      "▁lubos": 3113,
      "▁benep": 3114,
      "▁daig": 3115,
      "rang": 3116,
      "▁edukasyon": 3117,
      "▁linya": 3118,
      "▁tibay": 3119,
      "▁pula": 3120,
      "den": 3121,
      "itor": 3122,
      "onomi": 3123,
      "▁tuwa": 3124,
      "led": 3125,
      "▁fat": 3126,
      "ond": 3127,
      "▁their": 3128,
      "▁sm": 3129,
      "▁pino": 3130,
      "▁pabor": 3131,
      "▁sulo": 3132,
      "▁htt": 3133,
      "▁anyo": 3134,
      "▁normal": 3135,
      "▁Bre": 3136,
      "▁under": 3137,
      "bil": 3138,
      "▁minuto": 3139,
      "▁prin": 3140,
      "▁Nag": 3141,
      "▁part": 3142,
      "▁segu": 3143,
      "▁pot": 3144,
      "▁Min": 3145,
      "▁kli": 3146,
      "▁depen": 3147,
      "▁trad": 3148,
      "▁know": 3149,
      "▁make": 3150,
      "▁diskarte": 3151,
      "▁pek": 3152,
      "▁paligiran": 3153,
      "▁babaw": 3154,
      "unidad": 3155,
      "orts": 3156,
      "ridad": 3157,
      "▁Fran": 3158,
      "▁star": 3159,
      "▁pis": 3160,
      "▁mass": 3161,
      "▁akti": 3162,
      "▁kul": 3163,
      "▁hy": 3164,
      "▁dr": 3165,
      "▁tunton": 3166,
      "ler": 3167,
      "rop": 3168,
      "▁luto": 3169,
      "▁Health": 3170,
      "vo": 3171,
      "▁hango": 3172,
      "ST": 3173,
      "my": 3174,
      "▁respon": 3175,
      "▁pir": 3176,
      "▁uni": 3177,
      "▁ok": 3178,
      "▁than": 3179,
      "▁ve": 3180,
      "▁Air": 3181,
      "▁treat": 3182,
      "▁inf": 3183,
      "▁naka-": 3184,
      "▁bonus": 3185,
      "ason": 3186,
      "▁hugas": 3187,
      "▁regular": 3188,
      "ee": 3189,
      "warto": 3190,
      "▁Ser": 3191,
      "hayag": 3192,
      "tatra": 3193,
      "▁gula": 3194,
      "rate": 3195,
      "▁bec": 3196,
      "▁some": 3197,
      "▁kawal": 3198,
      "▁fungus": 3199,
      "▁Uni": 3200,
      "dig": 3201,
      "▁La": 3202,
      "▁40": 3203,
      "ja": 3204,
      "ppy": 3205,
      "irus": 3206,
      "▁perpekto": 3207,
      "vin": 3208,
      "kla": 3209,
      "▁espesyal": 3210,
      "▁kailan": 3211,
      "▁mang": 3212,
      "▁liban": 3213,
      "hist": 3214,
      "oo": 3215,
      "pin": 3216,
      "▁paki": 3217,
      "▁DO": 3218,
      "IL": 3219,
      "mang": 3220,
      "▁forum": 3221,
      "▁tinda": 3222,
      "▁takad": 3223,
      "ora": 3224,
      "▁ekonomi": 3225,
      "wis": 3226,
      "ited": 3227,
      "▁tuwi": 3228,
      "▁taga": 3229,
      "▁bulati": 3230,
      "▁exp": 3231,
      "▁pok": 3232,
      "▁bigat": 3233,
      "▁laba": 3234,
      "▁sex": 3235,
      "▁vi": 3236,
      "▁oil": 3237,
      "gis": 3238,
      "aryo": 3239,
      "▁ideya": 3240,
      "▁ass": 3241,
      "▁good": 3242,
      "download": 3243,
      "IT": 3244,
      "▁2020": 3245,
      "▁tablet": 3246,
      "AC": 3247,
      "▁sakop": 3248,
      "wang": 3249,
      "▁facials": 3250,
      "che": 3251,
      "lina": 3252,
      "▁kapaki": 3253,
      "bel": 3254,
      "▁tahan": 3255,
      "bidwal": 3256,
      "▁konde": 3257,
      "▁Que": 3258,
      "ters": 3259,
      "tics": 3260,
      "▁benepisyo": 3261,
      "lip": 3262,
      "▁lamb": 3263,
      "▁rec": 3264,
      "▁Do": 3265,
      "▁puwede": 3266,
      "▁haya": 3267,
      "▁gulo": 3268,
      "▁protina": 3269,
      "ities": 3270,
      "hintu": 3271,
      "▁pol": 3272,
      "ela": 3273,
      "▁food": 3274,
      "tatrabaho": 3275,
      "dot": 3276,
      "sagawa": 3277,
      "▁Worm": 3278,
      "install": 3279,
      "▁tabi": 3280,
      "burg": 3281,
      "MA": 3282,
      "▁Res": 3283,
      "genic": 3284,
      "▁Pet": 3285,
      "▁Eng": 3286,
      "▁angat": 3287,
      "▁ata": 3288,
      "▁blog": 3289,
      "▁buto": 3290,
      "hoto": 3291,
      "arket": 3292,
      "ie": 3293,
      "usyon": 3294,
      "bidad": 3295,
      "▁sina": 3296,
      "▁mayor": 3297,
      "eksyon": 3298,
      "▁dilim": 3299,
      "▁21": 3300,
      "inal": 3301,
      "mik": 3302,
      "▁fil": 3303,
      "▁Online": 3304,
      "▁dun": 3305,
      "als": 3306,
      "▁kailanman": 3307,
      "▁pampa": 3308,
      "▁akt": 3309,
      "-pakinabang": 3310,
      "▁acid": 3311,
      "▁free": 3312,
      "▁dagat": 3313,
      "▁kapaki-pakinabang": 3314,
      "EC": 3315,
      "▁labi": 3316,
      "▁need": 3317,
      "▁jesus": 3318,
      "▁Mic": 3319,
      "▁limit": 3320,
      "▁application": 3321,
      "▁indibidwal": 3322,
      "▁also": 3323,
      "▁ma-": 3324,
      "mpas": 3325,
      "ian": 3326,
      "▁baby": 3327,
      "tol": 3328,
      "▁Super": 3329,
      "▁darating": 3330,
      "ging": 3331,
      "gement": 3332,
      "mus": 3333,
      "▁China": 3334,
      "▁wakas": 3335,
      "▁nakaka": 3336,
      "▁had": 3337,
      "ET": 3338,
      "▁detalye": 3339,
      "yales": 3340,
      "▁PN": 3341,
      "▁Ne": 3342,
      "▁mensa": 3343,
      "▁direkta": 3344,
      "▁makat": 3345,
      "▁reli": 3346,
      "▁Pag": 3347,
      "▁hard": 3348,
      "-up": 3349,
      "▁play": 3350,
      "▁serye": 3351,
      "ala": 3352,
      "osme": 3353,
      "▁tanggi": 3354,
      "▁binti": 3355,
      "▁when": 3356,
      "sy": 3357,
      "inoon": 3358,
      "▁niyo": 3359,
      "▁bati": 3360,
      "▁Gen": 3361,
      "pis": 3362,
      "▁ikot": 3363,
      "EL": 3364,
      "▁sti": 3365,
      "▁panginoon": 3366,
      "ED": 3367,
      "▁people": 3368,
      "▁pinoy": 3369,
      "▁lawa": 3370,
      "▁positibo": 3371,
      "▁My": 3372,
      "▁parasite": 3373,
      "▁subalit": 3374,
      "▁daigdig": 3375,
      "▁subukan": 3376,
      "▁asi": 3377,
      "▁aktibidad": 3378,
      "▁mensahe": 3379,
      "▁tar": 3380,
      "▁hang": 3381,
      "nes": 3382,
      "▁gabay": 3383,
      "▁adv": 3384,
      "▁rate": 3385,
      "ny": 3386,
      "▁Red": 3387,
      "▁bisa": 3388,
      "▁nyo": 3389,
      "▁fi": 3390,
      "IC": 3391,
      "sc": 3392,
      "hati": 3393,
      "time": 3394,
      "osis": 3395,
      "▁lungkot": 3396,
      "▁2019": 3397,
      "▁Tra": 3398,
      "ved": 3399,
      "▁presid": 3400,
      "dro": 3401,
      "-A": 3402,
      "jec": 3403,
      "kuku": 3404,
      "rist": 3405,
      "▁chan": 3406,
      "▁22": 3407,
      "▁soft": 3408,
      "▁wo": 3409,
      "▁propesyonal": 3410,
      "▁Man": 3411,
      "▁aba": 3412,
      "mbak": 3413,
      "▁lemon": 3414,
      "▁salamat": 3415,
      "▁Pre": 3416,
      "tis": 3417,
      "him": 3418,
      "▁silbi": 3419,
      "▁2021": 3420,
      "uwid": 3421,
      "▁galit": 3422,
      "▁file": 3423,
      "hasa": 3424,
      "ww": 3425,
      "▁cons": 3426,
      "▁Paras": 3427,
      "▁cell": 3428,
      "umento": 3429,
      "dow": 3430,
      "dies": 3431,
      "▁lubha": 3432,
      "▁help": 3433,
      "▁daliri": 3434,
      "▁kor": 3435,
      "▁gilid": 3436,
      "pos": 3437,
      "BS": 3438,
      "▁suspek": 3439,
      "mpu": 3440,
      "-3": 3441,
      "▁makailan": 3442,
      "▁Col": 3443,
      "▁2018": 3444,
      "▁suma": 3445,
      "▁pindot": 3446,
      "pasya": 3447,
      "▁depende": 3448,
      "bre": 3449,
      "▁halo": 3450,
      "▁Las": 3451,
      "▁punto": 3452,
      "cks": 3453,
      "inan": 3454,
      "kom": 3455,
      "▁sta": 3456,
      "▁pasyente": 3457,
      "▁transp": 3458,
      "▁epektibong": 3459,
      "▁wasto": 3460,
      "▁years": 3461,
      "▁komunidad": 3462,
      "mission": 3463,
      "▁kons": 3464,
      "▁tigas": 3465,
      "▁akala": 3466,
      "▁modelo": 3467,
      "daan": 3468,
      "▁panagin": 3469,
      "▁kultura": 3470,
      "play": 3471,
      "nganak": 3472,
      "▁panaginip": 3473,
      "gg": 3474,
      "▁palad": 3475,
      "▁lawig": 3476,
      "▁away": 3477,
      "▁makatuwid": 3478,
      "national": 3479,
      "▁host": 3480,
      "▁seguridad": 3481,
      "▁body": 3482,
      "▁after": 3483,
      "▁rehiyon": 3484,
      "▁rehist": 3485,
      "▁aso": 3486,
      "▁ekonomiya": 3487,
      "rd": 3488,
      "agram": 3489,
      "wo": 3490,
      "apekto": 3491,
      "▁petsa": 3492,
      "▁pr": 3493,
      "▁Facial": 3494,
      "▁pub": 3495,
      "arch": 3496,
      "velop": 3497,
      "sip": 3498,
      "read": 3499,
      "▁paksa": 3500,
      "ented": 3501,
      "▁kanta": 3502,
      "▁bun": 3503,
      "illa": 3504,
      "une": 3505,
      "hild": 3506,
      "pak": 3507,
      "▁Cha": 3508,
      "ards": 3509,
      "▁cam": 3510,
      "retary": 3511,
      "▁intindi": 3512,
      "bot": 3513,
      "hu": 3514,
      "arato": 3515,
      "▁talakay": 3516,
      "kayahan": 3517,
      "▁nob": 3518,
      "▁real": 3519,
      "▁salit": 3520,
      "yoso": 3521,
      "▁Cor": 3522,
      "▁uhay": 3523,
      "▁look": 3524,
      "▁exc": 3525,
      "▁metro": 3526,
      "▁Mas": 3527,
      "late": 3528,
      "▁cha": 3529,
      "▁Ka": 3530,
      "ories": 3531,
      "▁lahok": 3532,
      "▁kakayahan": 3533,
      "ogle": 3534,
      "▁Police": 3535,
      "▁Dis": 3536,
      "eni": 3537,
      "pono": 3538,
      "mdaman": 3539,
      "50": 3540,
      "▁espir": 3541,
      "▁bali": 3542,
      "▁hantong": 3543,
      "▁pagpa": 3544,
      "elf": 3545,
      "▁ipis": 3546,
      "▁import": 3547,
      "eratura": 3548,
      "▁tur": 3549,
      "▁pribado": 3550,
      "▁eng": 3551,
      "▁asahan": 3552,
      "boy": 3553,
      "▁talino": 3554,
      "▁super": 3555,
      "▁Win": 3556,
      "▁mot": 3557,
      "tiko": 3558,
      "vaila": 3559,
      "ball": 3560,
      "ause": 3561,
      "access": 3562,
      "ket": 3563,
      "▁lipon": 3564,
      "▁John": 3565,
      "▁miss": 3566,
      "▁Gam": 3567,
      "▁interes": 3568,
      "▁mapagkuku": 3569,
      "ini": 3570,
      "▁tagu": 3571,
      "▁screen": 3572,
      "▁Sho": 3573,
      "ugto": 3574,
      "▁banda": 3575,
      "▁cho": 3576,
      "OS": 3577,
      "ull": 3578,
      "vernment": 3579,
      "▁malay": 3580,
      "ative": 3581,
      "hitening": 3582,
      "oon": 3583,
      "▁pinto": 3584,
      "tern": 3585,
      "auty": 3586,
      "▁posisyon": 3587,
      "▁win": 3588,
      "▁school": 3589,
      "ING": 3590,
      "til": 3591,
      "versity": 3592,
      "▁Can": 3593,
      "yento": 3594,
      "▁whi": 3595,
      "lease": 3596,
      "▁muhon": 3597,
      "row": 3598,
      "ley": 3599,
      "▁computer": 3600,
      "bad": 3601,
      "▁ed": 3602,
      "▁bilog": 3603,
      "tudyante": 3604,
      "▁poker": 3605,
      "▁friend": 3606,
      "ney": 3607,
      "▁mul": 3608,
      "▁pahintu": 3609,
      "▁lip": 3610,
      "▁bigo": 3611,
      "▁pus": 3612,
      "els": 3613,
      "▁soda": 3614,
      "▁mama": 3615,
      "▁them": 3616,
      "▁Ele": 3617,
      "▁ketogenic": 3618,
      "▁takip": 3619,
      "-w": 3620,
      "hawa": 3621,
      "▁Ju": 3622,
      "ilya": 3623,
      "▁por": 3624,
      "▁iyan": 3625,
      "▁kopon": 3626,
      "kipag-usap": 3627,
      "▁ts": 3628,
      "sad": 3629,
      "▁telepono": 3630,
      "▁posibilidad": 3631,
      "IS": 3632,
      "nana": 3633,
      "likasyon": 3634,
      "▁yugto": 3635,
      "▁bawi": 3636,
      "▁materyal": 3637,
      "▁very": 3638,
      "▁pinaka": 3639,
      "▁crusher": 3640,
      "dan": 3641,
      "cket": 3642,
      "▁loka": 3643,
      "less": 3644,
      "▁hal": 3645,
      "zo": 3646,
      "▁there": 3647,
      "▁kur": 3648,
      "esto": 3649,
      "sina": 3650,
      "▁legal": 3651,
      "▁wal": 3652,
      "luhan": 3653,
      "▁pagod": 3654,
      "▁kinig": 3655,
      "▁Her": 3656,
      "rypto": 3657,
      "▁moder": 3658,
      "▁sent": 3659,
      "▁depos": 3660,
      "ktahan": 3661,
      "round": 3662,
      "▁Day": 3663,
      "aranas": 3664,
      "▁What": 3665,
      "▁ligaya": 3666,
      "▁dro": 3667,
      "pen": 3668,
      "urren": 3669,
      "▁link": 3670,
      "▁Bu": 3671,
      "▁Fe": 3672,
      "▁gat": 3673,
      "oder": 3674,
      "▁pulo": 3675,
      "▁siyempre": 3676,
      "▁bit": 3677,
      "undin": 3678,
      "▁gen": 3679,
      "rand": 3680,
      "▁prof": 3681,
      "▁silid": 3682,
      "▁program": 3683,
      "▁ilaw": 3684,
      "esis": 3685,
      "▁utang": 3686,
      "akit": 3687,
      "▁pande": 3688,
      "▁bagsak": 3689,
      "▁aparato": 3690,
      "▁tahimik": 3691,
      "isk": 3692,
      "amily": 3693,
      "itik": 3694,
      "ube": 3695,
      "▁News": 3696,
      "▁hila": 3697,
      "hod": 3698,
      "lala": 3699,
      "▁libro": 3700,
      "▁tam": 3701,
      "▁last": 3702,
      "ings": 3703,
      "▁estudyante": 3704,
      "fy": 3705,
      "tot": 3706,
      "light": 3707,
      "▁rehistro": 3708,
      "old": 3709,
      "▁week": 3710,
      "▁akda": 3711,
      "▁uno": 3712,
      "▁Jan": 3713,
      "▁Or": 3714,
      "meric": 3715,
      "lex": 3716,
      "▁espiritu": 3717,
      "mak": 3718,
      "▁jo": 3719,
      "▁guro": 3720,
      "▁kapit": 3721,
      "tilo": 3722,
      "▁pisi": 3723,
      "tad": 3724,
      "bra": 3725,
      "▁Bar": 3726,
      "▁pagsasa": 3727,
      "▁president": 3728,
      "▁gayundin": 3729,
      "▁Per": 3730,
      "▁which": 3731,
      "EA": 3732,
      "vailable": 3733,
      "▁kong": 3734,
      "▁ori": 3735,
      "▁now": 3736,
      "▁essay": 3737,
      "cia": 3738,
      "▁basta": 3739,
      "cep": 3740,
      "▁www": 3741,
      "▁Part": 3742,
      "tle": 3743,
      "▁susi": 3744,
      "unod": 3745,
      "ath": 3746,
      "▁tuyo": 3747,
      "▁sadya": 3748,
      "▁tugu": 3749,
      "▁payat": 3750,
      "▁skin": 3751,
      "menda": 3752,
      "▁apo": 3753,
      "urse": 3754,
      "▁month": 3755,
      "▁tugunan": 3756,
      "▁pakita": 3757,
      "esn": 3758,
      "ich": 3759,
      "ena": 3760,
      "komenda": 3761,
      "▁utak": 3762,
      "▁pali": 3763,
      "▁care": 3764,
      "▁Rob": 3765,
      "lion": 3766,
      "▁sha": 3767,
      "unity": 3768,
      "▁bawa": 3769,
      "▁way": 3770,
      "▁hiwatig": 3771,
      "▁Google": 3772,
      "▁kabuuan": 3773,
      "▁cap": 3774,
      "▁tabletas": 3775,
      "▁hilig": 3776,
      "▁nutr": 3777,
      "▁software": 3778,
      "for": 3779,
      "▁ginhawa": 3780,
      "▁labag": 3781,
      "▁ginto": 3782,
      "▁user": 3783,
      "▁cat": 3784,
      "ject": 3785,
      "uno": 3786,
      "pang": 3787,
      "▁pisikal": 3788,
      "▁Ram": 3789,
      "▁Instagram": 3790,
      "nog": 3791,
      "▁gulay": 3792,
      "erc": 3793,
      "ules": 3794,
      "▁mapagkukunan": 3795,
      "▁23": 3796,
      "▁Video": 3797,
      "baybay": 3798,
      "ensyal": 3799,
      "ministr": 3800,
      "▁Ed": 3801,
      "▁Rep": 3802,
      "-in": 3803,
      "▁life": 3804,
      "▁nanaw": 3805,
      "▁bibig": 3806,
      "▁internet": 3807,
      "apan": 3808,
      "▁bigay-": 3809,
      "▁saka": 3810,
      "▁sos": 3811,
      "▁subaybay": 3812,
      "ال": 3813,
      "aso": 3814,
      "▁temperatura": 3815,
      "-k": 3816,
      "▁thin": 3817,
      "▁hom": 3818,
      "▁bersyon": 3819,
      "ory": 3820,
      "▁sulit": 3821,
      "▁best": 3822,
      "▁Word": 3823,
      "uel": 3824,
      "▁cosme": 3825,
      "▁mineral": 3826,
      "▁pahid": 3827,
      "sper": 3828,
      "ym": 3829,
      "▁daloy": 3830,
      "lock": 3831,
      "▁Wi": 3832,
      "▁black": 3833,
      "▁Mon": 3834,
      "▁Breast": 3835,
      "▁bigay-daan": 3836,
      "ngal": 3837,
      "▁meron": 3838,
      "▁lihim": 3839,
      "▁because": 3840,
      "▁Fer": 3841,
      "▁ili": 3842,
      "urs": 3843,
      "▁imbak": 3844,
      "▁folk": 3845,
      "lismo": 3846,
      "▁stu": 3847,
      "▁tanim": 3848,
      "▁motor": 3849,
      "▁fun": 3850,
      "▁2017": 3851,
      "▁sports": 3852,
      "▁ganoon": 3853,
      "▁She": 3854,
      "mpak": 3855,
      "ates": 3856,
      "▁saklaw": 3857,
      "▁acne": 3858,
      "▁Review": 3859,
      "imum": 3860,
      "sto": 3861,
      "▁produksyon": 3862,
      "▁dira": 3863,
      "▁sugat": 3864,
      "▁kausap": 3865,
      "tox": 3866,
      "mpleto": 3867,
      "ateg": 3868,
      "▁girl": 3869,
      "▁Bro": 3870,
      "▁Casino": 3871,
      "▁PC": 3872,
      "▁At": 3873,
      "▁hotel": 3874,
      "enda": 3875,
      "▁antay": 3876,
      "▁bunga": 3877,
      "lataya": 3878,
      "▁chat": 3879,
      "▁kuya": 3880,
      "bp": 3881,
      "▁Fo": 3882,
      "▁bra": 3883,
      "yahe": 3884,
      "▁nega": 3885,
      "▁All": 3886,
      "▁popular": 3887,
      "▁Quezon": 3888,
      "ayat": 3889,
      "▁limita": 3890,
      "▁panas": 3891,
      "▁vac": 3892,
      "▁2016": 3893,
      "▁tasa": 3894,
      "friend": 3895,
      "▁World": 3896,
      "tika": 3897,
      "tse": 3898,
      "-t": 3899,
      "▁salin": 3900,
      "dam": 3901,
      "▁PNP": 3902,
      "ial": 3903,
      "▁land": 3904,
      "▁manatili": 3905,
      "▁OF": 3906,
      "▁alit": 3907,
      "▁Val": 3908,
      "▁If": 3909,
      "▁materyales": 3910,
      "▁bir": 3911,
      "▁199": 3912,
      "▁cle": 3913,
      "iza": 3914,
      "▁aklat": 3915,
      "lusyon": 3916,
      "gency": 3917,
      "▁bos": 3918,
      "▁Marcos": 3919,
      "▁exper": 3920,
      "▁senador": 3921,
      "▁book": 3922,
      "yod": 3923,
      "▁address": 3924,
      "▁hugis": 3925,
      "yes": 3926,
      "mbing": 3927,
      "▁iral": 3928,
      "▁baril": 3929,
      "▁tugma": 3930,
      "osco": 3931,
      "▁bak": 3932,
      "▁parasitiko": 3933,
      "▁Cap": 3934,
      "▁home": 3935,
      "uran": 3936,
      "coin": 3937,
      "urce": 3938,
      "lass": 3939,
      "▁Pe": 3940,
      "▁PH": 3941,
      "▁pahintulot": 3942,
      "▁lapat": 3943,
      "tel": 3944,
      "bos": 3945,
      "ids": 3946,
      "▁web": 3947,
      "xide": 3948,
      "ely": 3949,
      "-m": 3950,
      "liz": 3951,
      "▁Center": 3952,
      "▁suka": 3953,
      "cil": 3954,
      "▁Rod": 3955,
      "▁Eye": 3956,
      "UR": 3957,
      "formation": 3958,
      "▁produ": 3959,
      "▁milit": 3960,
      "AS": 3961,
      "▁deposito": 3962,
      "kahi": 3963,
      "▁atbp": 3964,
      "▁emple": 3965,
      "▁ther": 3966,
      "cter": 3967,
      "▁mak": 3968,
      "▁El": 3969,
      "▁Office": 3970,
      "▁kaiba": 3971,
      "▁pantay": 3972,
      "kump": 3973,
      "▁But": 3974,
      "▁iyak": 3975,
      "▁paya": 3976,
      "dong": 3977,
      "daragdag": 3978,
      "tiz": 3979,
      "hed": 3980,
      "▁massage": 3981,
      "▁orihi": 3982,
      "▁University": 3983,
      "cha": 3984,
      "▁panu": 3985,
      "▁its": 3986,
      "▁rese": 3987,
      "▁barangay": 3988,
      "▁langit": 3989,
      "▁Net": 3990,
      "▁epektibo": 3991,
      "▁manok": 3992,
      "▁orihinal": 3993,
      "mented": 3994,
      "▁war": 3995,
      "▁sw": 3996,
      "ngayayat": 3997,
      "▁mangha": 3998,
      "▁pra": 3999,
      "▁tulu": 4000,
      "mpalataya": 4001,
      "ick": 4002,
      "▁pusa": 4003,
      "▁sundo": 4004,
      "▁Anti": 4005,
      "ries": 4006,
      "ism": 4007,
      "joy": 4008,
      "▁balan": 4009,
      "ban": 4010,
      "dic": 4011,
      "▁deal": 4012,
      "BN": 4013,
      "▁San": 4014,
      "▁Ben": 4015,
      "pot": 4016,
      "▁ugat": 4017,
      "nasyon": 4018,
      "▁pangkat": 4019,
      "▁ite": 4020,
      "▁hulog": 4021,
      "▁how": 4022,
      "▁Pri": 4023,
      "ining": 4024,
      "▁mung": 4025,
      "mantala": 4026,
      "▁sinus": 4027,
      "▁banal": 4028,
      "▁hinto": 4029,
      "▁Laser": 4030,
      "▁alak": 4031,
      "▁bur": 4032,
      "▁ABS": 4033,
      "▁inir": 4034,
      "ision": 4035,
      "▁lampas": 4036,
      "▁treatment": 4037,
      "▁dry": 4038,
      "kada": 4039,
      "▁komun": 4040,
      "hyd": 4041,
      "TI": 4042,
      "▁tili": 4043,
      "▁access": 4044,
      "-ta": 4045,
      "yano": 4046,
      "chi": 4047,
      "proseso": 4048,
      "▁panig": 4049,
      "▁hamon": 4050,
      "▁kotse": 4051,
      "mog": 4052,
      "▁dist": 4053,
      "▁Chin": 4054,
      "▁ospital": 4055,
      "dos": 4056,
      "cies": 4057,
      "jo": 4058,
      "▁horm": 4059,
      "▁sangkot": 4060,
      "▁Bit": 4061,
      "▁news": 4062,
      "▁residente": 4063,
      "▁saad": 4064,
      "▁sugal": 4065,
      "▁mangayayat": 4066,
      "▁alas": 4067,
      "▁mungkahi": 4068,
      "▁press": 4069,
      "▁dahol": 4070,
      "ential": 4071,
      "likado": 4072,
      "▁tunog": 4073,
      "▁awtor": 4074,
      "▁nararamdaman": 4075,
      "▁tit": 4076,
      "ux": 4077,
      "▁ima": 4078,
      "▁Aqu": 4079,
      "lista": 4080,
      "▁elect": 4081,
      "▁karne": 4082,
      "ctions": 4083,
      "hagi": 4084,
      "isasyon": 4085,
      "fo": 4086,
      "▁bul": 4087,
      "▁rating": 4088,
      "▁comm": 4089,
      "diri": 4090,
      "▁cy": 4091,
      "▁dalaga": 4092,
      "▁taguyod": 4093,
      "▁eksper": 4094,
      "▁quar": 4095,
      "vie": 4096,
      "▁Gra": 4097,
      "▁halik": 4098,
      "vent": 4099,
      "fac": 4100,
      "did": 4101,
      "▁500": 4102,
      "wiran": 4103,
      "▁droga": 4104,
      "▁linga": 4105,
      "▁lat": 4106,
      "klamo": 4107,
      "▁tanungan": 4108,
      "ars": 4109,
      "▁dalo": 4110,
      "▁euro": 4111,
      "▁want": 4112,
      "▁every": 4113,
      "PN": 4114,
      "PA": 4115,
      "▁kontra": 4116,
      "▁been": 4117,
      "▁panukala": 4118,
      "▁naki": 4119,
      "harma": 4120,
      "peto": 4121,
      "▁ph": 4122,
      "bibi": 4123,
      "▁hiya": 4124,
      "weet": 4125,
      "▁tulugan": 4126,
      "unin": 4127,
      "velopment": 4128,
      "itika": 4129,
      "▁awit": 4130,
      "ading": 4131,
      "▁Sm": 4132,
      "ders": 4133,
      "-o": 4134,
      "▁empleyado": 4135,
      "▁aktres": 4136,
      "▁ngiti": 4137,
      "▁26": 4138,
      "▁sayo": 4139,
      "▁diab": 4140,
      "▁Secretary": 4141,
      "▁Americ": 4142,
      "atic": 4143,
      "word": 4144,
      "tik": 4145,
      "ele": 4146,
      "▁here": 4147,
      "top": 4148,
      "▁end": 4149,
      "uns": 4150,
      "▁reak": 4151,
      "ffer": 4152,
      "▁Ver": 4153,
      "▁gisi": 4154,
      "ental": 4155,
      "▁guhit": 4156,
      "▁kaliwa": 4157,
      "▁side": 4158,
      "▁utos": 4159,
      "▁nagtatrabaho": 4160,
      "▁drug": 4161,
      "ices": 4162,
      "▁lasa": 4163,
      "▁Ste": 4164,
      "▁said": 4165,
      "▁available": 4166,
      "tab": 4167,
      "▁only": 4168,
      "ute": 4169,
      "▁buk": 4170,
      "▁Barangay": 4171,
      "▁60": 4172,
      "▁Br": 4173,
      "▁see": 4174,
      "com": 4175,
      "mya": 4176,
      "-re": 4177,
      "eg": 4178,
      "▁pila": 4179,
      "▁read": 4180,
      "dali": 4181,
      "▁proteksyon": 4182,
      "▁Ag": 4183,
      "▁photo": 4184,
      "▁inis": 4185,
      "▁pagm": 4186,
      "eter": 4187,
      "rilyo": 4188,
      "▁digma": 4189,
      "▁simbo": 4190,
      "▁im": 4191,
      "▁Dire": 4192,
      "▁Willie": 4193,
      "nate": 4194,
      "ils": 4195,
      "▁pam": 4196,
      "▁kurso": 4197,
      "atch": 4198,
      "back": 4199,
      "AM": 4200,
      "erya": 4201,
      "▁then": 4202,
      "▁Japan": 4203,
      "irma": 4204,
      "▁hangad": 4205,
      "▁samantala": 4206,
      "▁Vic": 4207,
      "fore": 4208,
      "lon": 4209,
      "▁Chinese": 4210,
      "ures": 4211,
      "▁exa": 4212,
      "▁sine": 4213,
      "▁partido": 4214,
      "ros": 4215,
      "rik": 4216,
      "▁Jose": 4217,
      "▁crypto": 4218,
      "▁Mac": 4219,
      "prote": 4220,
      "verage": 4221,
      "▁bagaman": 4222,
      "▁reklamo": 4223,
      "▁ste": 4224,
      "▁27": 4225,
      "port": 4226,
      "eta": 4227,
      "ature": 4228,
      "▁low": 4229,
      "▁ver": 4230,
      "▁limitasyon": 4231,
      "▁simulan": 4232,
      "▁agos": 4233,
      "▁28": 4234,
      "▁higa": 4235,
      "click": 4236,
      "ekta": 4237,
      "bat": 4238,
      "▁pata": 4239,
      "▁ru": 4240,
      "▁tablets": 4241,
      "▁Set": 4242,
      "oth": 4243,
      "▁spa": 4244,
      "▁feed": 4245,
      "▁lapi": 4246,
      "rid": 4247,
      "▁transa": 4248,
      "▁menu": 4249,
      "▁potensyal": 4250,
      "▁game": 4251,
      "▁top": 4252,
      "▁II": 4253,
      "estiga": 4254,
      "lor": 4255,
      "▁vari": 4256,
      "tim": 4257,
      "▁Liza": 4258,
      "▁ref": 4259,
      "idos": 4260,
      "▁karat": 4261,
      "▁dec": 4262,
      "▁pare": 4263,
      "▁pito": 4264,
      "▁emp": 4265,
      "▁party": 4266,
      "yam": 4267,
      "▁isaalang-alang": 4268,
      "▁kabuluhan": 4269,
      "lap": 4270,
      "tiling": 4271,
      "list": 4272,
      "▁opsyon": 4273,
      "▁child": 4274,
      "mpan": 4275,
      "orth": 4276,
      "orona": 4277,
      "uthor": 4278,
      "hero": 4279,
      "▁basura": 4280,
      "20": 4281,
      "▁would": 4282,
      "kra": 4283,
      "ngkod": 4284,
      "▁atake": 4285,
      "BA": 4286,
      "▁himok": 4287,
      "rib": 4288,
      "▁High": 4289,
      "▁Rodri": 4290,
      "▁sens": 4291,
      "cky": 4292,
      "ikasyon": 4293,
      "pping": 4294,
      "▁ate": 4295,
      "erekomenda": 4296,
      "etes": 4297,
      "▁Sur": 4298,
      "▁Peters": 4299,
      "▁sara": 4300,
      "▁most": 4301,
      "roid": 4302,
      "▁pad": 4303,
      "hange": 4304,
      "au": 4305,
      "▁uli": 4306,
      "▁Bi": 4307,
      "▁Tur": 4308,
      "dol": 4309,
      "▁Home": 4310,
      "luw": 4311,
      "apy": 4312,
      "▁panana": 4313,
      "▁sigarilyo": 4314,
      "▁amo": 4315,
      "▁family": 4316,
      "▁term": 4317,
      "▁putol": 4318,
      "▁sik": 4319,
      "▁lipad": 4320,
      "▁ty": 4321,
      "▁control": 4322,
      "▁http": 4323,
      "▁Parasites": 4324,
      "▁pama": 4325,
      "cent": 4326,
      "▁Bel": 4327,
      "▁report": 4328,
      "utas": 4329,
      "▁asin": 4330,
      "-i": 4331,
      "DA": 4332,
      "tes": 4333,
      "▁ent": 4334,
      "buti": 4335,
      "▁target": 4336,
      "kayat": 4337,
      "▁netiz": 4338,
      "-b": 4339,
      "▁Skin": 4340,
      "▁lingkod": 4341,
      "▁metal": 4342,
      "zoder": 4343,
      "▁Esta": 4344,
      "ways": 4345,
      "dala": 4346,
      "▁bulo": 4347,
      "HH": 4348,
      "▁sakay": 4349,
      "hangin": 4350,
      "▁dula": 4351,
      "ruk": 4352,
      "ward": 4353,
      "▁makamit": 4354,
      "▁Star": 4355,
      "bago": 4356,
      "pre": 4357,
      "puti": 4358,
      "▁GMA": 4359,
      "▁boto": 4360,
      "▁salamin": 4361,
      "▁mag-a": 4362,
      "▁lahi": 4363,
      "▁simbolo": 4364,
      "hos": 4365,
      "▁prutas": 4366,
      "dyo": 4367,
      "▁karera": 4368,
      "▁2022": 4369,
      "ktura": 4370,
      "itis": 4371,
      "▁biyahe": 4372,
      "▁mayo": 4373,
      "ortable": 4374,
      "▁filipino": 4375,
      "▁even": 4376,
      "▁lipunan": 4377,
      "▁Petersburg": 4378,
      "tice": 4379,
      "▁diwa": 4380,
      "▁Juan": 4381,
      "▁konse": 4382,
      "▁hen": 4383,
      "▁Yung": 4384,
      "▁Black": 4385,
      "▁sum": 4386,
      "▁Unidos": 4387,
      "▁channel": 4388,
      "▁Sin": 4389,
      "▁dat": 4390,
      "▁transport": 4391,
      "urity": 4392,
      "▁right": 4393,
      "▁pekas": 4394,
      "uportahan": 4395,
      "▁ipon": 4396,
      "▁puro": 4397,
      "▁Angel": 4398,
      "ots": 4399,
      "▁dila": 4400,
      "win": 4401,
      "▁level": 4402,
      "▁fee": 4403,
      "pal": 4404,
      "▁P1": 4405,
      "▁bagyo": 4406,
      "nada": 4407,
      "tomatiko": 4408,
      "▁buhangin": 4409,
      "hoy": 4410,
      "▁bayaran": 4411,
      "▁kri": 4412,
      "-CBN": 4413,
      "yle": 4414,
      "▁talu": 4415,
      "ilin": 4416,
      "▁35": 4417,
      "▁Si": 4418,
      "▁Gro": 4419,
      "hai": 4420,
      "▁kum": 4421,
      "▁tanyag": 4422,
      "▁test": 4423,
      "sada": 4424,
      "ymp": 4425,
      "▁cor": 4426,
      "▁weight": 4427,
      "▁pampaputi": 4428,
      "▁mala": 4429,
      "▁page": 4430,
      "▁larang": 4431,
      "car": 4432,
      "▁pigmented": 4433,
      "▁piraso": 4434,
      "▁kam": 4435,
      "▁Estados": 4436,
      "dom": 4437,
      "▁Best": 4438,
      "▁ot": 4439,
      "▁these": 4440,
      "bohyd": 4441,
      "▁tumpak": 4442,
      "▁ABS-CBN": 4443,
      "▁sor": 4444,
      "▁Ti": 4445,
      "▁Get": 4446,
      "▁awtomatiko": 4447,
      "rong": 4448,
      "ico": 4449,
      "ills": 4450,
      "▁air": 4451,
      "his": 4452,
      "witter": 4453,
      "lom": 4454,
      "▁International": 4455,
      "▁device": 4456,
      "▁kanser": 4457,
      "▁yon": 4458,
      "▁singil": 4459,
      "iya": 4460,
      "▁kuwarto": 4461,
      "▁I-": 4462,
      "vac": 4463,
      "phone": 4464,
      "ather": 4465,
      "hic": 4466,
      "minal": 4467,
      "▁view": 4468,
      "sive": 4469,
      "des": 4470,
      "▁wag": 4471,
      "▁hikayat": 4472,
      "pper": 4473,
      "▁think": 4474,
      "▁tsina": 4475,
      "▁Regi": 4476,
      "▁imahe": 4477,
      "▁aksyon": 4478,
      "▁vesn": 4479,
      "▁key": 4480,
      "ikano": 4481,
      "▁kus": 4482,
      "sakto": 4483,
      "▁two": 4484,
      "▁into": 4485,
      "ker": 4486,
      "CP": 4487,
      "▁Ukra": 4488,
      "zoderil": 4489,
      "▁ilo": 4490,
      "▁ju": 4491,
      "▁area": 4492,
      "▁group": 4493,
      "▁were": 4494,
      "ublic": 4495,
      "▁eksakto": 4496,
      "▁diabetes": 4497,
      "▁fec": 4498,
      "▁well": 4499,
      "cho": 4500,
      "mint": 4501,
      "▁pwedeng": 4502,
      "ns": 4503,
      "▁ukol": 4504,
      "usali": 4505,
      "▁story": 4506,
      "▁Ce": 4507,
      "▁lambot": 4508,
      "hira": 4509,
      "lif": 4510,
      "-7": 4511,
      "▁TH": 4512,
      "agu": 4513,
      "▁English": 4514,
      "▁own": 4515,
      "▁moderno": 4516,
      "eld": 4517,
      "▁banta": 4518,
      "▁puri": 4519,
      "▁ligo": 4520,
      "-S": 4521,
      "ash": 4522,
      "▁gusali": 4523,
      "edy": 4524,
      "▁militar": 4525,
      "bn": 4526,
      "▁PR": 4527,
      "▁balanse": 4528,
      "▁leeg": 4529,
      "wersa": 4530,
      "▁head": 4531,
      "▁elemento": 4532,
      "▁gala": 4533,
      "par": 4534,
      "cio": 4535,
      "can": 4536,
      "▁panayam": 4537,
      "▁market": 4538,
      "ages": 4539,
      "sian": 4540,
      "▁ingles": 4541,
      "▁use": 4542,
      "▁pagkaka": 4543,
      "▁artista": 4544,
      "ency": 4545,
      "▁service": 4546,
      "▁imbestiga": 4547,
      "▁break": 4548,
      "▁Dark": 4549,
      "▁inv": 4550,
      "▁dulo": 4551,
      "▁Internet": 4552,
      "▁id": 4553,
      "▁down": 4554,
      "▁House": 4555,
      "▁limot": 4556,
      "▁ال": 4557,
      "▁hun": 4558,
      "▁hula": 4559,
      "▁panga": 4560,
      "▁laga": 4561,
      "▁libo": 4562,
      "▁pinak": 4563,
      "ind": 4564,
      "▁il": 4565,
      "▁amoy": 4566,
      "▁dios": 4567,
      "ety": 4568,
      "▁fla": 4569,
      "udio": 4570,
      "zing": 4571,
      "▁tema": 4572,
      "ky": 4573,
      "▁29": 4574,
      "hite": 4575,
      "▁Russia": 4576,
      "▁whitening": 4577,
      "lue": 4578,
      "▁EU": 4579,
      "▁alinman": 4580,
      "▁tatak": 4581,
      "▁tapon": 4582,
      "umig": 4583,
      "▁bulak": 4584,
      "▁negatibo": 4585,
      "pt": 4586,
      "rea": 4587,
      "diriwang": 4588,
      "▁bihira": 4589,
      "-P": 4590,
      "piko": 4591,
      "▁business": 4592,
      "oscow": 4593,
      "▁kliyente": 4594,
      "vey": 4595,
      "▁Sh": 4596,
      "▁driver": 4597,
      "lation": 4598,
      "▁Mer": 4599,
      "▁lola": 4600,
      "mbas": 4601,
      "▁Maria": 4602,
      "▁tour": 4603,
      "▁God": 4604,
      "▁power": 4605,
      "▁awtoridad": 4606,
      "▁kulo": 4607,
      "▁hiling": 4608,
      "▁Ge": 4609,
      "resent": 4610,
      "▁public": 4611,
      "▁balak": 4612,
      "▁By": 4613,
      "cine": 4614,
      "▁pasko": 4615,
      "▁Riz": 4616,
      "paka": 4617,
      "werte": 4618,
      "pala": 4619,
      "hile": 4620,
      "▁virus": 4621,
      "▁organisasyon": 4622,
      "AP": 4623,
      "cis": 4624,
      "▁transaksyon": 4625,
      "uri": 4626,
      "▁tali": 4627,
      "▁Chris": 4628,
      "bers": 4629,
      "▁Act": 4630,
      "▁45": 4631,
      "nao": 4632,
      "▁pass": 4633,
      "▁mic": 4634,
      "▁kuting": 4635,
      "▁pors": 4636,
      "ubilin": 4637,
      "▁31": 4638,
      "inga": 4639,
      "▁item": 4640,
      "▁tagubilin": 4641,
      "▁mister": 4642,
      "elo": 4643,
      "▁saktan": 4644,
      "▁boy": 4645,
      "▁nyang": 4646,
      "mu": 4647,
      "▁follow": 4648,
      "▁administr": 4649,
      "-ang": 4650,
      "▁kape": 4651,
      "▁patu": 4652,
      "▁ig": 4653,
      "oke": 4654,
      "▁huk": 4655,
      "▁government": 4656,
      "▁ganun": 4657,
      "col": 4658,
      "▁presyon": 4659,
      "▁lis": 4660,
      "▁park": 4661,
      "▁code": 4662,
      "▁Your": 4663,
      "▁porsyento": 4664,
      "▁clo": 4665,
      "▁mad": 4666,
      "▁Bula": 4667,
      "ungin": 4668,
      "▁amerikano": 4669,
      "AY": 4670,
      "ips": 4671,
      "ira": 4672,
      "▁tulak": 4673,
      "▁Ber": 4674,
      "▁amerika": 4675,
      "ets": 4676,
      "▁labor": 4677,
      "bes": 4678,
      "gil": 4679,
      "redit": 4680,
      "▁kalsada": 4681,
      "▁bahagya": 4682,
      "▁Jr": 4683,
      "▁Gar": 4684,
      "▁Good": 4685,
      "▁Aquino": 4686,
      "▁marka": 4687,
      "▁relihiyon": 4688,
      "▁hag": 4689,
      "▁should": 4690,
      "galo": 4691,
      "▁room": 4692,
      "▁Pas": 4693,
      "mand": 4694,
      "ror": 4695,
      "▁et": 4696,
      "▁non": 4697,
      "▁person": 4698,
      "ion": 4699,
      "ukas": 4700,
      "liko": 4701,
      "▁water": 4702,
      "rogen": 4703,
      "▁ja": 4704,
      "▁limitado": 4705,
      "▁taka": 4706,
      "▁pic": 4707,
      "▁Cla": 4708,
      "IA": 4709,
      "essi": 4710,
      "▁really": 4711,
      "▁bait": 4712,
      "▁Moscow": 4713,
      "-4": 4714,
      "ports": 4715,
      "▁digital": 4716,
      "▁pharma": 4717,
      "▁kury": 4718,
      "▁gutom": 4719,
      "▁kumpara": 4720,
      "▁sentro": 4721,
      "▁ina": 4722,
      "▁tr": 4723,
      "ganda": 4724,
      "IV": 4725,
      "vert": 4726,
      "zz": 4727,
      "▁er": 4728,
      "▁insp": 4729,
      "osi": 4730,
      "▁Du": 4731,
      "▁long": 4732,
      "▁kampanya": 4733,
      "▁sosyo": 4734,
      "▁bara": 4735,
      "▁payapa": 4736,
      "put": 4737,
      "oly": 4738,
      "▁timog": 4739,
      "▁opisina": 4740,
      "▁bundo": 4741,
      "▁number": 4742,
      "▁Rizal": 4743,
      "ience": 4744,
      "ches": 4745,
      "bility": 4746,
      "▁klin": 4747,
      "▁medikal": 4748,
      "▁bantay": 4749,
      "naryo": 4750,
      "tact": 4751,
      "ushki": 4752,
      "▁Euro": 4753,
      "rates": 4754,
      "▁wit": 4755,
      "▁nakaw": 4756,
      "▁Bitcoin": 4757,
      "▁kuryente": 4758,
      "iss": 4759,
      "▁sure": 4760,
      "▁diyan": 4761,
      "dema": 4762,
      "▁much": 4763,
      "▁emos": 4764,
      "ukal": 4765,
      "▁mem": 4766,
      "▁asya": 4767,
      "ipin": 4768,
      "ense": 4769,
      "ji": 4770,
      "▁damo": 4771,
      "▁prob": 4772,
      "▁siglo": 4773,
      "pla": 4774,
      "▁maya": 4775,
      "hana": 4776,
      "▁vis": 4777,
      "▁Commission": 4778,
      "▁heart": 4779,
      "▁ekzoderil": 4780,
      "▁nanana": 4781,
      "lant": 4782,
      "▁Ap": 4783,
      "tiya": 4784,
      "▁carbohyd": 4785,
      "▁AN": 4786,
      "▁har": 4787,
      "▁requ": 4788,
      "▁tipid": 4789,
      "▁puwa": 4790,
      "▁Keto": 4791,
      "OL": 4792,
      "▁pyat": 4793,
      "biz": 4794,
      "pil": 4795,
      "▁seksyon": 4796,
      "▁hul": 4797,
      "OW": 4798,
      "▁tho": 4799,
      "▁bulaklak": 4800,
      "▁sampu": 4801,
      "▁South": 4802,
      "▁pack": 4803,
      "▁paper": 4804,
      "▁round": 4805,
      "▁est": 4806,
      "▁kati": 4807,
      "katlo": 4808,
      "▁sumali": 4809,
      "▁sigaw": 4810,
      "▁Sal": 4811,
      "▁kolekta": 4812,
      "▁School": 4813,
      "▁bangko": 4814,
      "pektibong": 4815,
      "▁Ukraine": 4816,
      "ilalim": 4817,
      "▁stand": 4818,
      "▁pagmulan": 4819,
      "lah": 4820,
      "▁koneksyon": 4821,
      "▁clay": 4822,
      "▁birth": 4823,
      "▁tsa": 4824,
      "▁pagdiriwang": 4825,
      "fied": 4826,
      "baw": 4827,
      "▁Rec": 4828,
      "▁asukal": 4829,
      "▁tea": 4830,
      "EP": 4831,
      "▁nak": 4832,
      "ciation": 4833,
      "▁ares": 4834,
      "▁meta": 4835,
      "▁multi": 4836,
      "name": 4837,
      "▁butas": 4838,
      "▁red": 4839,
      "▁example": 4840,
      "▁edema": 4841,
      "▁anti-": 4842,
      "▁bundok": 4843,
      "inyon": 4844,
      "ph": 4845,
      "unter": 4846,
      "nы": 4847,
      "▁fore": 4848,
      "hiyo": 4849,
      "▁inde": 4850,
      "anced": 4851,
      "▁Mat": 4852,
      "▁halal": 4853,
      "rough": 4854,
      "▁YouT": 4855,
      "dget": 4856,
      "OT": 4857,
      "▁bilyon": 4858,
      "▁rebo": 4859,
      "▁state": 4860,
      "▁marso": 4861,
      "ront": 4862,
      "▁Alex": 4863,
      "▁mod": 4864,
      "ulang": 4865,
      "hihi": 4866,
      "▁bayani": 4867,
      "▁usapin": 4868,
      "▁paborito": 4869,
      "▁ngipin": 4870,
      "▁IN": 4871,
      "▁manana": 4872,
      "▁nutrisyon": 4873,
      "dog": 4874,
      "▁opinyon": 4875,
      "ficial": 4876,
      "▁sektor": 4877,
      "▁ligaw": 4878,
      "▁tren": 4879,
      "▁bibli": 4880,
      "▁count": 4881,
      "▁bahala": 4882,
      "▁ul": 4883,
      "enn": 4884,
      "▁buksan": 4885,
      "▁pulitika": 4886,
      "▁light": 4887,
      "rael": 4888,
      "▁With": 4889,
      "▁Rodrigo": 4890,
      "▁titi": 4891,
      "mentation": 4892,
      "tang": 4893,
      "▁Ban": 4894,
      "▁saga": 4895,
      "▁tuluyan": 4896,
      "▁kahoy": 4897,
      "▁lead": 4898,
      "▁Spe": 4899,
      "▁akyat": 4900,
      "nation": 4901,
      "▁lutas": 4902,
      "EM": 4903,
      "▁planta": 4904,
      "leta": 4905,
      "mize": 4906,
      "▁One": 4907,
      "▁effec": 4908,
      "▁europa": 4909,
      "reto": 4910,
      "▁aya": 4911,
      "▁del": 4912,
      "curren": 4913,
      "▁angkin": 4914,
      "▁garan": 4915,
      "▁alter": 4916,
      "mal": 4917,
      "eno": 4918,
      "▁Char": 4919,
      "AG": 4920,
      "grap": 4921,
      "laim": 4922,
      "▁tax": 4923,
      "py": 4924,
      "▁days": 4925,
      "▁tatay": 4926,
      "▁movie": 4927,
      "▁ilog": 4928,
      "▁aktor": 4929,
      "▁world": 4930,
      "▁klima": 4931,
      "▁buwis": 4932,
      "▁Har": 4933,
      "xy": 4934,
      "▁kid": 4935,
      "▁Ger": 4936,
      "▁bakal": 4937,
      "▁General": 4938,
      "tee": 4939,
      "▁baboy": 4940,
      "lum": 4941,
      "cing": 4942,
      "▁Apple": 4943,
      "▁komunikasyon": 4944,
      "god": 4945,
      "▁Pi": 4946,
      "▁Ton": 4947,
      "▁Than": 4948,
      "▁Twitter": 4949,
      "keting": 4950,
      "▁Tom": 4951,
      "▁yakap": 4952,
      "▁mal": 4953,
      "▁2015": 4954,
      "▁games": 4955,
      "▁198": 4956,
      "▁support": 4957,
      "ulet": 4958,
      "▁bagal": 4959,
      "▁tapusan": 4960,
      "▁lalake": 4961,
      "ression": 4962,
      "▁War": 4963,
      "▁pandemya": 4964,
      "vor": 4965,
      "▁many": 4966,
      "▁unit": 4967,
      "ensiya": 4968,
      "IR": 4969,
      "▁pes": 4970,
      "▁max": 4971,
      "▁Bas": 4972,
      "▁israel": 4973,
      "▁aktibong": 4974,
      "▁lunsad": 4975,
      "▁landas": 4976,
      "▁ubo": 4977,
      "▁regalo": 4978,
      "▁ob": 4979,
      "▁tro": 4980,
      "▁hay": 4981,
      "▁hambing": 4982,
      "tual": 4983,
      "▁rang": 4984,
      "▁enero": 4985,
      "▁still": 4986,
      "ercise": 4987,
      "▁stress": 4988,
      "▁before": 4989,
      "ana": 4990,
      "ruz": 4991,
      "gol": 4992,
      "▁ikatlo": 4993,
      "osisyon": 4994,
      "▁Ab": 4995,
      "▁lagyan": 4996,
      "▁say": 4997,
      "lubot": 4998,
      "-0": 4999,
      "LE": 5000,
      "▁proto": 5001,
      "▁aplikasyon": 5002,
      "▁alar": 5003,
      "▁hawa": 5004,
      "erek": 5005,
      "▁populasyon": 5006,
      "▁inclu": 5007,
      "worm": 5008,
      "hop": 5009,
      "IP": 5010,
      "westo": 5011,
      "▁film": 5012,
      "▁green": 5013,
      "tosis": 5014,
      "▁https": 5015,
      "▁YouTube": 5016,
      "____": 5017,
      "▁taglay": 5018,
      "▁Up": 5019,
      "▁glab": 5020,
      "tero": 5021,
      "▁York": 5022,
      "▁server": 5023,
      "▁komento": 5024,
      "▁helmint": 5025,
      "tri": 5026,
      "▁bayo": 5027,
      "▁pananampalataya": 5028,
      "limutan": 5029,
      "ingo": 5030,
      "▁dokumento": 5031,
      "▁dangal": 5032,
      "ection": 5033,
      "▁hand": 5034,
      "▁ale": 5035,
      "▁center": 5036,
      "▁Cat": 5037,
      "▁seg": 5038,
      "▁tech": 5039,
      "ronic": 5040,
      "▁old": 5041,
      "▁calories": 5042,
      "▁ahensya": 5043,
      "protektahan": 5044,
      "▁dahon": 5045,
      "▁lar": 5046,
      "▁90": 5047,
      "yang-": 5048,
      "▁nager": 5049,
      "ngi": 5050,
      "dalo": 5051,
      "▁OFW": 5052,
      "▁cash": 5053,
      "uusap": 5054,
      "▁Tri": 5055,
      "▁kusina": 5056,
      "▁wi": 5057,
      "▁patak": 5058,
      "▁Lin": 5059,
      "tubre": 5060,
      "▁bri": 5061,
      "lio": 5062,
      "▁house": 5063,
      "▁hunyo": 5064,
      "▁baha": 5065,
      "cker": 5066,
      "▁tainga": 5067,
      "tana": 5068,
      "down": 5069,
      "ju": 5070,
      "▁ques": 5071,
      "▁nu": 5072,
      "▁Hi": 5073,
      "▁inilala": 5074,
      "▁dise": 5075,
      "▁bom": 5076,
      "▁Af": 5077,
      "▁national": 5078,
      "▁hubad": 5079,
      "risto": 5080,
      "▁Cam": 5081,
      "▁lupon": 5082,
      "bnb": 5083,
      "▁sabog": 5084,
      "EO": 5085,
      "nam": 5086,
      "▁kalahati": 5087,
      "▁hiwa": 5088,
      "▁Vice": 5089,
      "-an": 5090,
      "▁pal": 5091,
      "▁pulisya": 5092,
      "▁chara": 5093,
      "▁kalimutan": 5094,
      "▁Ri": 5095,
      "▁hyd": 5096,
      "▁provid": 5097,
      "▁Jam": 5098,
      "▁inspir": 5099,
      "▁local": 5100,
      "▁300": 5101,
      "▁dek": 5102,
      "▁Jos": 5103,
      "unds": 5104,
      "▁boses": 5105,
      "▁kop": 5106,
      "▁Fre": 5107,
      "guni": 5108,
      "▁ble": 5109,
      "▁libog": 5110,
      "▁Francis": 5111,
      "▁oktubre": 5112,
      "▁abala": 5113,
      "kil": 5114,
      "▁CH": 5115,
      "ducation": 5116,
      "▁mun": 5117,
      "▁putok": 5118,
      "▁Airbnb": 5119,
      "▁dalub": 5120,
      "▁suko": 5121,
      "▁Christ": 5122,
      "▁prinsip": 5123,
      "▁bito": 5124,
      "zar": 5125,
      "gado": 5126,
      "▁lay": 5127,
      "▁cer": 5128,
      "▁Medi": 5129,
      "▁pagd": 5130,
      "antine": 5131,
      "ktor": 5132,
      "ags": 5133,
      "kaw": 5134,
      "ica": 5135,
      "▁kongres": 5136,
      "▁andar": 5137,
      "▁Botox": 5138,
      "▁buil": 5139,
      "▁thesis": 5140,
      "▁kili": 5141,
      "▁hair": 5142,
      "▁gulat": 5143,
      "▁disyembre": 5144,
      "▁giit": 5145,
      "▁korte": 5146,
      "▁thi": 5147,
      "▁sinta": 5148,
      "▁80": 5149,
      "ross": 5150,
      "▁Ros": 5151,
      "iso": 5152,
      "▁fit": 5153,
      "▁Rich": 5154,
      "▁equ": 5155,
      "▁conf": 5156,
      "ansya": 5157,
      "▁buhos": 5158,
      "main": 5159,
      "▁loko": 5160,
      "aniwala": 5161,
      "had": 5162,
      "nata": 5163,
      "▁supply": 5164,
      "ther": 5165,
      "▁Play": 5166,
      "▁mapabuti": 5167,
      "kula": 5168,
      "▁teksto": 5169,
      "IG": 5170,
      "▁series": 5171,
      "buhay": 5172,
      "▁TO": 5173,
      "▁Of": 5174,
      "▁problem": 5175,
      "▁Superhost": 5176,
      "SS": 5177,
      "▁konst": 5178,
      "▁brow": 5179,
      "▁cre": 5180,
      "▁dalubhasa": 5181,
      "▁tanghal": 5182,
      "▁walo": 5183,
      "▁lunes": 5184,
      "dows": 5185,
      "▁tanaw": 5186,
      "▁eksperto": 5187,
      "▁Isa": 5188,
      "▁syang": 5189,
      "▁camera": 5190,
      "luwensya": 5191,
      "vision": 5192,
      "▁ihi": 5193,
      "-angat": 5194,
      "oso": 5195,
      "▁Prog": 5196,
      "▁Russian": 5197,
      "▁Sta": 5198,
      "▁contra": 5199,
      "''": 5200,
      "▁auto": 5201,
      "rata": 5202,
      "▁insidente": 5203,
      "▁lot": 5204,
      "raso": 5205,
      "▁PD": 5206,
      "▁char": 5207,
      "▁kumplikado": 5208,
      "▁agham": 5209,
      "▁blood": 5210,
      "▁Mr": 5211,
      "▁engine": 5212,
      "▁vo": 5213,
      "▁36": 5214,
      "yunal": 5215,
      "▁ut": 5216,
      "▁nakakaapekto": 5217,
      "▁batid": 5218,
      "▁sakin": 5219,
      "nd": 5220,
      "▁fas": 5221,
      "omet": 5222,
      "-6": 5223,
      "▁writ": 5224,
      "▁did": 5225,
      "▁mara": 5226,
      "▁turis": 5227,
      "▁Ama": 5228,
      "▁Inc": 5229,
      "▁asul": 5230,
      "▁Group": 5231,
      "ategorya": 5232,
      "▁port": 5233,
      "-O": 5234,
      "fin": 5235,
      "utin": 5236,
      "▁abril": 5237,
      "▁Mark": 5238,
      "tuhan": 5239,
      "▁trap": 5240,
      "▁ekse": 5241,
      "▁sigla": 5242,
      "▁effect": 5243,
      "▁habol": 5244,
      "danao": 5245,
      "▁hinggil": 5246,
      "▁2023": 5247,
      "isyonal": 5248,
      "-d": 5249,
      "▁Ph": 5250,
      "ffee": 5251,
      "▁sayaw": 5252,
      "▁full": 5253,
      "▁musika": 5254,
      "-M": 5255,
      "itusyon": 5256,
      "rans": 5257,
      "▁itik": 5258,
      "▁beauty": 5259,
      "ulo": 5260,
      "▁ump": 5261,
      "▁pasahero": 5262,
      "▁Che": 5263,
      "▁tela": 5264,
      "▁fan": 5265,
      "▁LG": 5266,
      "▁2014": 5267,
      "▁medical": 5268,
      "sidad": 5269,
      "ige": 5270,
      "▁agosto": 5271,
      "pply": 5272,
      "lla": 5273,
      "▁lamang": 5274,
      "▁pares": 5275,
      "▁Rom": 5276,
      "▁kandid": 5277,
      "▁canada": 5278,
      "omen": 5279,
      "▁sangguni": 5280,
      "ert": 5281,
      "▁Prin": 5282,
      "▁takas": 5283,
      "mok": 5284,
      "▁Cal": 5285,
      "pektado": 5286,
      "▁United": 5287,
      "OO": 5288,
      "▁alterna": 5289,
      "▁proper": 5290,
      "▁Read": 5291,
      "▁Comm": 5292,
      "▁isinagawa": 5293,
      "save": 5294,
      "aling": 5295,
      "lian": 5296,
      "TV": 5297,
      "▁2012": 5298,
      "▁sinauna": 5299,
      "▁gampan": 5300,
      "thing": 5301,
      "▁negosyante": 5302,
      "▁Live": 5303,
      "▁colle": 5304,
      "crip": 5305,
      "▁Mi": 5306,
      "▁Diet": 5307,
      "▁That": 5308,
      "▁phone": 5309,
      "▁luha": 5310,
      "▁x": 5311,
      "▁Ga": 5312,
      "lusi": 5313,
      "▁Android": 5314,
      "-5": 5315,
      "▁seryoso": 5316,
      "zer": 5317,
      "meal": 5318,
      "▁prinsipyo": 5319,
      "rawan": 5320,
      "▁gel": 5321,
      "▁comple": 5322,
      "mental": 5323,
      "▁yaon": 5324,
      "tur": 5325,
      "▁Pos": 5326,
      "brero": 5327,
      "▁hulyo": 5328,
      "agn": 5329,
      "▁gar": 5330,
      "lution": 5331,
      "▁punda": 5332,
      "▁paliwanag": 5333,
      "room": 5334,
      "▁aller": 5335,
      "kilan": 5336,
      "▁Bra": 5337,
      "▁nail": 5338,
      "▁case": 5339,
      "▁naku": 5340,
      "▁pag-s": 5341,
      "wali": 5342,
      "▁Ve": 5343,
      "▁setting": 5344,
      "▁anal": 5345,
      "▁oat": 5346,
      "sela": 5347,
      "asal": 5348,
      "▁Europe": 5349,
      "▁padala": 5350,
      "▁Sto": 5351,
      "ah": 5352,
      "vil": 5353,
      "▁kolehiyo": 5354,
      "rict": 5355,
      "irm": 5356,
      "▁presidente": 5357,
      "▁uniber": 5358,
      "▁hat": 5359,
      "kilanlan": 5360,
      "-B": 5361,
      "▁kategorya": 5362,
      "binasyon": 5363,
      "▁stud": 5364,
      "▁tangka": 5365,
      "▁sir": 5366,
      "▁puntos": 5367,
      "face": 5368,
      "▁enter": 5369,
      "▁disk": 5370,
      "▁med": 5371,
      "▁dako": 5372,
      "traktura": 5373,
      "-li": 5374,
      "wood": 5375,
      "▁tay": 5376,
      "▁contact": 5377,
      "enta": 5378,
      "▁tuktok": 5379,
      "88": 5380,
      "ges": 5381,
      "▁istraktura": 5382,
      "▁Development": 5383,
      "hysi": 5384,
      "lash": 5385,
      "virus": 5386,
      "▁balang": 5387,
      "▁ihayag": 5388,
      "FP": 5389,
      "ubi": 5390,
      "▁sabado": 5391,
      "▁reaksyon": 5392,
      "▁coo": 5393,
      "''t": 5394,
      "▁makipag-usap": 5395,
      "▁ganti": 5396,
      "▁American": 5397,
      "▁kasa": 5398,
      "bahay": 5399,
      "▁resta": 5400,
      "rics": 5401,
      "ned": 5402,
      "▁ans": 5403,
      "▁sundan": 5404,
      "▁apektado": 5405,
      "nary": 5406,
      "▁pur": 5407,
      "sible": 5408,
      "▁juice": 5409,
      "rya": 5410,
      "BET": 5411,
      "▁sang-": 5412,
      "▁Fil": 5413,
      "▁dekada": 5414,
      "▁bust": 5415,
      "ayos": 5416,
      "▁Love": 5417,
      "ference": 5418,
      "▁swim": 5419,
      "▁More": 5420,
      "-to": 5421,
      "bar": 5422,
      "▁istilo": 5423,
      "▁konk": 5424,
      "▁Setyembre": 5425,
      "uch": 5426,
      "▁70": 5427,
      "▁Big": 5428,
      "hout": 5429,
      "10": 5430,
      "cas": 5431,
      "▁smart": 5432,
      "▁okay": 5433,
      "▁let": 5434,
      "▁process": 5435,
      "▁org": 5436,
      "▁Chief": 5437,
      "▁dra": 5438,
      "▁advanced": 5439,
      "side": 5440,
      "▁ilabas": 5441,
      "▁salalay": 5442,
      "-20": 5443,
      "▁pagkakakilanlan": 5444,
      "vices": 5445,
      "▁take": 5446,
      "▁word": 5447,
      "ensyon": 5448,
      "▁Tips": 5449,
      "▁lock": 5450,
      "key": 5451,
      "▁Sea": 5452,
      "30": 5453,
      "MM": 5454,
      "baba": 5455,
      "▁Je": 5456,
      "▁pahayag": 5457,
      "▁Top": 5458,
      "▁kopya": 5459,
      "ex": 5460,
      "▁tes": 5461,
      "▁flo": 5462,
      "lano": 5463,
      "▁I'": 5464,
      "▁Lot": 5465,
      "▁text": 5466,
      "ustra": 5467,
      "ults": 5468,
      "▁ros": 5469,
      "▁friends": 5470,
      "▁Cent": 5471,
      "▁pattern": 5472,
      "▁average": 5473,
      "▁gun": 5474,
      "ruba": 5475,
      "any": 5476,
      "▁laon": 5477,
      "roll": 5478,
      "▁dy": 5479,
      "isip": 5480,
      "▁kalkula": 5481,
      "▁differ": 5482,
      "▁Imp": 5483,
      "▁berde": 5484,
      "▁list": 5485,
      "mala": 5486,
      "▁Sha": 5487,
      "▁foot": 5488,
      "▁Cruz": 5489,
      "▁bio": 5490,
      "▁aspeto": 5491,
      "lier": 5492,
      "▁nagdaragdag": 5493,
      "▁aresto": 5494,
      "▁roman": 5495,
      "ulin": 5496,
      "aching": 5497,
      "▁dama": 5498,
      "▁Well": 5499,
      "▁saksi": 5500,
      "yernes": 5501,
      "▁komposisyon": 5502,
      "▁bida": 5503,
      "▁maneho": 5504,
      "tical": 5505,
      "▁bug": 5506,
      "▁ever": 5507,
      "box": 5508,
      "▁porn": 5509,
      "▁tamis": 5510,
      "▁VPN": 5511,
      "elebr": 5512,
      "▁pang-": 5513,
      "wel": 5514,
      "▁muslim": 5515,
      "▁cryptocurren": 5516,
      "Press": 5517,
      "▁salad": 5518,
      "▁Los": 5519,
      "▁Law": 5520,
      "ics": 5521,
      "asak": 5522,
      "▁kwarto": 5523,
      "esado": 5524,
      "▁inspirasyon": 5525,
      "▁character": 5526,
      "-host": 5527,
      "lings": 5528,
      "▁concer": 5529,
      "liran": 5530,
      "▁ketosis": 5531,
      "▁nobyembre": 5532,
      "▁community": 5533,
      "▁Cebu": 5534,
      "IM": 5535,
      "▁mart": 5536,
      "▁interesado": 5537,
      "intment": 5538,
      "onekta": 5539,
      "reas": 5540,
      "▁pader": 5541,
      "▁matagal": 5542,
      "US": 5543,
      "▁PM": 5544,
      "▁mek": 5545,
      "▁Reg": 5546,
      "▁tik": 5547,
      "▁block": 5548,
      "▁tunaw": 5549,
      "itamin": 5550,
      "▁cancer": 5551,
      "mar": 5552,
      "mor": 5553,
      "▁roll": 5554,
      "▁banyo": 5555,
      "-st": 5556,
      "▁husto": 5557,
      "▁oli": 5558,
      "▁always": 5559,
      "update": 5560,
      "insk": 5561,
      "▁research": 5562,
      "▁First": 5563,
      "▁2013": 5564,
      "▁nakak": 5565,
      "▁tingnan": 5566,
      "▁stock": 5567,
      "▁months": 5568,
      "▁imm": 5569,
      "▁far": 5570,
      "▁glo": 5571,
      "ulette": 5572,
      "bukas": 5573,
      "▁search": 5574,
      "▁Des": 5575,
      "▁activ": 5576,
      "ria": 5577,
      "atiba": 5578,
      "▁komisyon": 5579,
      "ubok": 5580,
      "vis": 5581,
      "▁point": 5582,
      "▁pebrero": 5583,
      "etro": 5584,
      "pisode": 5585,
      "▁wani": 5586,
      "▁seni": 5587,
      "▁ear": 5588,
      "▁showbiz": 5589,
      "▁eksena": 5590,
      "▁biyernes": 5591,
      "▁suliran": 5592,
      "▁too": 5593,
      "▁tanungin": 5594,
      "erba": 5595,
      "▁silang": 5596,
      "▁Slimming": 5597,
      "▁ren": 5598,
      "▁DI": 5599,
      "▁sundalo": 5600,
      "▁India": 5601,
      "▁official": 5602,
      "▁injec": 5603,
      "upit": 5604,
      "▁partner": 5605,
      "hir": 5606,
      "▁tutok": 5607,
      "apek": 5608,
      "-8": 5609,
      "UT": 5610,
      "ration": 5611,
      "▁sip": 5612,
      "uble": 5613,
      "ales": 5614,
      "loob": 5615,
      "▁32": 5616,
      "UL": 5617,
      "ecu": 5618,
      "▁Comp": 5619,
      "bet": 5620,
      "usin": 5621,
      "▁tuwid": 5622,
      "▁information": 5623,
      "▁luwag": 5624,
      "ught": 5625,
      "▁gub": 5626,
      "kido": 5627,
      "▁Bab": 5628,
      "▁hadlang": 5629,
      "imp": 5630,
      "kid": 5631,
      "▁subs": 5632,
      "patan": 5633,
      "logist": 5634,
      "ffic": 5635,
      "▁garantiya": 5636,
      "tific": 5637,
      "hie": 5638,
      "▁bigas": 5639,
      "▁produc": 5640,
      "▁tanggol": 5641,
      "▁apartment": 5642,
      "rica": 5643,
      "tainment": 5644,
      "ground": 5645,
      "▁mesa": 5646,
      "▁gym": 5647,
      "hid": 5648,
      "▁UN": 5649,
      "itional": 5650,
      "▁profile": 5651,
      "▁inirerekomenda": 5652,
      "▁kumple": 5653,
      "▁share": 5654,
      "▁pinaka-e": 5655,
      "▁Santos": 5656,
      "cu": 5657,
      "▁ID": 5658,
      "▁umpisa": 5659,
      "▁tab": 5660,
      "▁where": 5661,
      "vacy": 5662,
      "zan": 5663,
      "▁sariwa": 5664,
      "▁metabo": 5665,
      "▁great": 5666,
      "▁patuloy": 5667,
      "▁el": 5668,
      "▁sinusubok": 5669,
      "▁James": 5670,
      "aging": 5671,
      "▁Sam": 5672,
      "mples": 5673,
      "▁UP": 5674,
      "mbal": 5675,
      "▁kompanya": 5676,
      "▁austra": 5677,
      "umenda": 5678,
      "▁Oc": 5679,
      "▁Dar": 5680,
      "▁King": 5681,
      "▁artist": 5682,
      "▁Redux": 5683,
      "▁hilaga": 5684,
      "bukasan": 5685,
      "▁Reduxine": 5686,
      "▁being": 5687,
      "▁used": 5688,
      "▁ana": 5689,
      "ticle": 5690,
      "board": 5691,
      "▁Beauty": 5692,
      "▁carbohydrates": 5693,
      "▁kinis": 5694,
      "▁gayun": 5695,
      "▁dum": 5696,
      "▁call": 5697,
      "▁may-": 5698,
      "▁sand": 5699,
      "▁puke": 5700,
      "▁senior": 5701,
      "▁ST": 5702,
      "▁put": 5703,
      "▁kinabukasan": 5704,
      "▁such": 5705,
      "▁balangkas": 5706,
      "▁Food": 5707,
      "hanin": 5708,
      "▁UK": 5709,
      "verse": 5710,
      "▁deg": 5711,
      "▁through": 5712,
      "▁ingay": 5713,
      "▁short": 5714,
      "▁kinabibi": 5715,
      "▁Program": 5716,
      "▁Hel": 5717,
      "▁lito": 5718,
      "bak": 5719,
      "▁Cle": 5720,
      "▁SM": 5721,
      "hhh": 5722,
      "▁supple": 5723,
      "▁utusan": 5724,
      "SA": 5725,
      "atang": 5726,
      "▁those": 5727,
      "▁seks": 5728,
      "pano": 5729,
      "-click": 5730,
      "▁sinabi": 5731,
      "▁disease": 5732,
      "▁ses": 5733,
      "▁likido": 5734,
      "▁yong": 5735,
      "▁fungi": 5736,
      "ENT": 5737,
      "jor": 5738,
      "▁box": 5739,
      "▁tatas": 5740,
      "▁direksyon": 5741,
      "-D": 5742,
      "tal": 5743,
      "head": 5744,
      "▁krimen": 5745,
      "▁vir": 5746,
      "▁Hair": 5747,
      "uly": 5748,
      "▁sang-ayon": 5749,
      "▁eat": 5750,
      "▁Jer": 5751,
      "▁ordi": 5752,
      "▁open": 5753,
      "nge": 5754,
      "▁tipon": 5755,
      "12": 5756,
      "▁rest": 5757,
      "▁Treat": 5758,
      "▁pag-uusap": 5759,
      "▁minimum": 5760,
      "▁Windows": 5761,
      "▁kandidato": 5762,
      "▁bot": 5763,
      "▁ambag": 5764,
      "▁salu": 5765,
      "▁balot": 5766,
      "▁act": 5767,
      "▁Director": 5768,
      "mittee": 5769,
      "orial": 5770,
      "▁nun": 5771,
      "mpati": 5772,
      "logical": 5773,
      "▁ipinanganak": 5774,
      "ls": 5775,
      "▁aff": 5776,
      "▁Bri": 5777,
      "▁impeksyon": 5778,
      "▁talon": 5779,
      "ib": 5780,
      "arang": 5781,
      "▁pahiwatig": 5782,
      "▁tradisyonal": 5783,
      "▁apoy": 5784,
      "dition": 5785,
      "bisyon": 5786,
      "asy": 5787,
      "▁nipp": 5788,
      "▁Bor": 5789,
      "▁Hy": 5790,
      "ario": 5791,
      "▁lear": 5792,
      "▁klinika": 5793,
      "ago": 5794,
      "▁special": 5795,
      "▁kinabibilangan": 5796,
      "▁inte": 5797,
      "▁Book": 5798,
      "house": 5799,
      "▁pharmacy": 5800,
      "▁lason": 5801,
      "▁magsagawa": 5802,
      "ksiyon": 5803,
      "▁Remo": 5804,
      "▁Bure": 5805,
      "vertis": 5806,
      "▁Baga": 5807,
      "▁laganap": 5808,
      "lift": 5809,
      "▁tumbas": 5810,
      "▁197": 5811,
      "▁parmas": 5812,
      "vao": 5813,
      "▁fish": 5814,
      "▁isla": 5815,
      "▁million": 5816,
      "▁ahente": 5817,
      "▁balikat": 5818,
      "kapal": 5819,
      "OM": 5820,
      "▁line": 5821,
      "-ka": 5822,
      "▁cost": 5823,
      "▁dikit": 5824,
      "apektuhan": 5825,
      "-tu": 5826,
      "nganakan": 5827,
      "▁konsepto": 5828,
      "▁feces": 5829,
      "▁toena": 5830,
      "▁Make": 5831,
      "orie": 5832,
      "▁night": 5833,
      "▁happy": 5834,
      "▁katauhan": 5835,
      "▁extra": 5836,
      "▁while": 5837,
      "ultura": 5838,
      "▁Kim": 5839,
      "▁seed": 5840,
      "▁Asso": 5841,
      "▁Men": 5842,
      "▁Ig": 5843,
      "▁iwa": 5844,
      "▁kapanganakan": 5845,
      "▁biro": 5846,
      "sibo": 5847,
      "▁Jus": 5848,
      "umer": 5849,
      "tors": 5850,
      "▁lantad": 5851,
      "▁parte": 5852,
      "rest": 5853,
      "lika": 5854,
      "vy": 5855,
      "▁marketing": 5856,
      "▁pamilya": 5857,
      "▁lif": 5858,
      "luran": 5859,
      "▁yog": 5860,
      "▁Loc": 5861,
      "▁patrol": 5862,
      "▁mag-s": 5863,
      "cel": 5864,
      "uts": 5865,
      "▁Kras": 5866,
      "▁2010": 5867,
      "▁ika-1": 5868,
      "pres": 5869,
      "▁2011": 5870,
      "▁administrasyon": 5871,
      "eng": 5872,
      "▁kahon": 5873,
      "▁Dani": 5874,
      "▁next": 5875,
      "-kum": 5876,
      "▁Sy": 5877,
      "▁iP": 5878,
      "sider": 5879,
      "▁peroxide": 5880,
      "▁alalahanin": 5881,
      "▁pakikipag-": 5882,
      "▁Bureau": 5883,
      "'y": 5884,
      "lag": 5885,
      "yansa": 5886,
      "▁Ku": 5887,
      "▁unibersidad": 5888,
      "CR": 5889,
      "udi": 5890,
      "oni": 5891,
      "▁Sing": 5892,
      "▁Pan": 5893,
      "▁Es": 5894,
      "▁bola": 5895,
      "▁micro": 5896,
      "▁bed": 5897,
      "▁buod": 5898,
      "▁Mal": 5899,
      "▁experience": 5900,
      "▁aleman": 5901,
      "-kumulang": 5902,
      "erasyon": 5903,
      "▁Pu": 5904,
      "▁oatmeal": 5905,
      "kasyon": 5906,
      "sable": 5907,
      "▁kulubot": 5908,
      "stan": 5909,
      "ubos": 5910,
      "-de": 5911,
      "▁type": 5912,
      "ality": 5913,
      "▁lider": 5914,
      "▁season": 5915,
      "▁estilo": 5916,
      "▁panini": 5917,
      "▁repor": 5918,
      "ury": 5919,
      "▁DOH": 5920,
      "▁importante": 5921,
      "▁alarm": 5922,
      "bin": 5923,
      "ery": 5924,
      "rame": 5925,
      "▁office": 5926,
      "oronavirus": 5927,
      "▁third": 5928,
      "▁ket": 5929,
      "redi": 5930,
      "▁glu": 5931,
      "▁Work": 5932,
      "▁less": 5933,
      "▁Cho": 5934,
      "▁Micha": 5935,
      "▁stor": 5936,
      "it-kumulang": 5937,
      "reet": 5938,
      "mikal": 5939,
      "iao": 5940,
      "▁Cong": 5941,
      "▁Ko": 5942,
      "earch": 5943,
      "▁internas": 5944,
      "kt": 5945,
      "okes": 5946,
      "FA": 5947,
      "▁mess": 5948,
      "cience": 5949,
      "jack": 5950,
      "terol": 5951,
      "▁kabanata": 5952,
      "▁kani": 5953,
      "▁drive": 5954,
      "gad": 5955,
      "▁humig": 5956,
      "lots": 5957,
      "▁Kore": 5958,
      "tog": 5959,
      "▁Pig": 5960,
      "▁carbon": 5961,
      "▁pinaka-epektibong": 5962,
      "iting": 5963,
      "▁wasak": 5964,
      "▁Allah": 5965,
      "▁bigyang-": 5966,
      "▁yang": 5967,
      "55": 5968,
      "▁find": 5969,
      "▁isinasagawa": 5970,
      "▁humigit-kumulang": 5971,
      "▁dal": 5972,
      "▁parati": 5973,
      "▁Green": 5974,
      "▁mamahala": 5975,
      "▁Nov": 5976,
      "king": 5977,
      "ayan": 5978,
      "▁Sili": 5979,
      "▁kuts": 5980,
      "▁parada": 5981,
      "▁kaakit": 5982,
      "-akit": 5983,
      "▁pigmentnы": 5984,
      "▁siy": 5985,
      "▁trapiko": 5986,
      "▁luya": 5987,
      "nikal": 5988,
      "vate": 5989,
      "sang": 5990,
      "▁bank": 5991,
      "▁agrik": 5992,
      "▁layer": 5993,
      "▁karapatan": 5994,
      "vincial": 5995,
      "AD": 5996,
      "ints": 5997,
      "▁ge": 5998,
      "▁Author": 5999,
      "▁madali": 6000,
      "▁ly": 6001,
      "▁je": 6002,
      "▁imbestigasyon": 6003,
      "▁may-ari": 6004,
      "▁mai-": 6005,
      "▁persona": 6006,
      "▁sabik": 6007,
      "▁cosmetic": 6008,
      "▁kontrata": 6009,
      "▁self": 6010,
      "▁Aug": 6011,
      "▁David": 6012,
      "▁Pat": 6013,
      "▁pinag": 6014,
      "isado": 6015,
      "▁WordPress": 6016,
      "▁fans": 6017,
      "▁responsable": 6018,
      "▁signal": 6019,
      "▁sabo": 6020,
      "kila": 6021,
      "▁Free": 6022,
      "itikal": 6023,
      "▁gayunpaman": 6024,
      "▁nararapat": 6025,
      "umite": 6026,
      "noy": 6027,
      "▁ask": 6028,
      "▁IP": 6029,
      "▁yata": 6030,
      "ulture": 6031,
      "▁tindig": 6032,
      "▁dakil": 6033,
      "resh": 6034,
      "▁Plus": 6035,
      "zed": 6036,
      "▁dahas": 6037,
      "ties": 6038,
      "▁hain": 6039,
      "edit": 6040,
      "▁counter": 6041,
      "▁netizens": 6042,
      "▁Mus": 6043,
      "▁project": 6044,
      "arungan": 6045,
      "tila": 6046,
      "▁kono": 6047,
      "▁yogurt": 6048,
      "hikal": 6049,
      "▁since": 6050,
      "▁browser": 6051,
      "▁mono": 6052,
      "stru": 6053,
      "▁pag-install": 6054,
      "▁manu": 6055,
      "▁teorya": 6056,
      "▁isinasa": 6057,
      "sh": 6058,
      "table": 6059,
      "▁SP": 6060,
      "hali": 6061,
      "▁Davao": 6062,
      "▁puppy": 6063,
      "▁never": 6064,
      "▁pyatna": 6065,
      "▁Story": 6066,
      "▁pasidad": 6067,
      "▁gayunman": 6068,
      "▁tuta": 6069,
      "▁Dan": 6070,
      "▁que": 6071,
      "▁therapy": 6072,
      "▁titig": 6073,
      "▁sen": 6074,
      "turi": 6075,
      "▁aksidente": 6076,
      "▁val": 6077,
      "oper": 6078,
      "igure": 6079,
      "▁makaka": 6080,
      "aaaa": 6081,
      "▁bol": 6082,
      "liv": 6083,
      "▁carb": 6084,
      "▁feel": 6085,
      "▁Social": 6086,
      "▁feature": 6087,
      "▁Tech": 6088,
      "▁sipsip": 6089,
      "hunan": 6090,
      "▁suportahan": 6091,
      "▁koleksyon": 6092,
      "▁kaakit-akit": 6093,
      "lya": 6094,
      "ights": 6095,
      "ween": 6096,
      "erto": 6097,
      "▁alternatibo": 6098,
      "▁must": 6099,
      "▁obs": 6100,
      "▁Ass": 6101,
      "▁lng": 6102,
      "komend": 6103,
      "uncil": 6104,
      "char": 6105,
      "▁creams": 6106,
      "mergency": 6107,
      "▁talumpati": 6108,
      "▁kumbinasyon": 6109,
      "▁mid": 6110,
      "▁responsi": 6111,
      "-anyos": 6112,
      "▁celebr": 6113,
      "▁gug": 6114,
      "▁deli": 6115,
      "▁board": 6116,
      "▁company": 6117,
      "▁samba": 6118,
      "lec": 6119,
      "draw": 6120,
      "hig": 6121,
      "xas": 6122,
      "▁run": 6123,
      "▁isagawa": 6124,
      "▁sche": 6125,
      "▁henerasyon": 6126,
      "▁Ter": 6127,
      "▁Jac": 6128,
      "▁management": 6129,
      "▁give": 6130,
      "▁Mindanao": 6131,
      "▁salung": 6132,
      "▁balig": 6133,
      "▁ran": 6134,
      "velo": 6135,
      "▁plant": 6136,
      "erekumenda": 6137,
      "panood": 6138,
      "Fi": 6139,
      "▁credit": 6140,
      "▁kemikal": 6141,
      "▁korea": 6142,
      "nology": 6143,
      "▁beach": 6144,
      "▁pray": 6145,
      "▁AS": 6146,
      "▁could": 6147,
      "▁keep": 6148,
      "▁bilhin": 6149,
      "▁kabit": 6150,
      "▁rusa": 6151,
      "▁iPhone": 6152,
      "▁kr": 6153,
      "▁pangung": 6154,
      "untunin": 6155,
      "ization": 6156,
      "-con": 6157,
      "44": 6158,
      "ats": 6159,
      "stra": 6160,
      "▁sagi": 6161,
      "asi": 6162,
      "▁pagal": 6163,
      "▁tel": 6164,
      "▁pen": 6165,
      "▁represent": 6166,
      "▁maprotektahan": 6167,
      "▁Im": 6168,
      "▁Vil": 6169,
      "▁tits": 6170,
      "▁trato": 6171,
      "▁nor": 6172,
      "ilidad": 6173,
      "▁sunud": 6174,
      "isturi": 6175,
      "▁grap": 6176,
      "▁konklusyon": 6177,
      "ey": 6178,
      "len": 6179,
      "▁made": 6180,
      "hina": 6181,
      "▁dayo": 6182,
      "bia": 6183,
      "ider": 6184,
      "lastic": 6185,
      "▁katas": 6186,
      "▁katwiran": 6187,
      "▁Brgy": 6188,
      "▁stay": 6189,
      "▁carbs": 6190,
      "nu": 6191,
      "▁dosis": 6192,
      "▁biy": 6193,
      "▁rekomend": 6194,
      "▁Boy": 6195,
      "umo": 6196,
      "▁comments": 6197,
      "▁piso": 6198,
      "-ibang": 6199,
      "omething": 6200,
      "bayan": 6201,
      "-ex": 6202,
      "▁III": 6203,
      "zen": 6204,
      "▁hehe": 6205,
      "▁aliw": 6206,
      "▁Phil": 6207,
      "▁imposi": 6208,
      "vention": 6209,
      "eso": 6210,
      "▁advertis": 6211,
      "▁TR": 6212,
      "ocus": 6213,
      "▁sab": 6214,
      "▁maximum": 6215,
      "▁syn": 6216,
      "▁der": 6217,
      "onomic": 6218,
      "▁Custo": 6219,
      "▁Sep": 6220,
      "urant": 6221,
      "▁come": 6222,
      "▁alituntunin": 6223,
      "▁ati": 6224,
      "▁gang": 6225,
      "tian": 6226,
      "▁content": 6227,
      "▁provider": 6228,
      "▁reading": 6229,
      "▁tot": 6230,
      "▁hardin": 6231,
      "▁rekomendasyon": 6232,
      "yang": 6233,
      "▁class": 6234,
      "▁quarantine": 6235,
      "▁sweet": 6236,
      "ering": 6237,
      "▁iha": 6238,
      "HA": 6239,
      "▁sapi": 6240,
      "▁Audio": 6241,
      "ekla": 6242,
      "-pro": 6243,
      "▁regulasyon": 6244,
      "▁won": 6245,
      "▁North": 6246,
      "toster": 6247,
      "▁Pala": 6248,
      "▁why": 6249,
      "▁Amazon": 6250,
      "able": 6251,
      "ette": 6252,
      "rint": 6253,
      "▁pulu": 6254,
      "▁sunud-s": 6255,
      "▁healthy": 6256,
      "gor": 6257,
      "mance": 6258,
      "▁three": 6259,
      "▁single": 6260,
      "▁internasyonal": 6261,
      "▁kil": 6262,
      "ask": 6263,
      "▁Bus": 6264,
      "▁Thai": 6265,
      "oble": 6266,
      "▁Cont": 6267,
      "-T": 6268,
      "lakas": 6269,
      "▁nawa": 6270,
      "▁stream": 6271,
      "22": 6272,
      "rew": 6273,
      "▁exercise": 6274,
      "▁martes": 6275,
      "▁yelo": 6276,
      "▁karbon": 6277,
      "▁asiwa": 6278,
      "Ang": 6279,
      "UN": 6280,
      "cone": 6281,
      "merce": 6282,
      "▁After": 6283,
      "▁contin": 6284,
      "▁kilo": 6285,
      "▁detalyado": 6286,
      "▁tapa": 6287,
      "▁pags": 6288,
      "▁radi": 6289,
      "▁baterya": 6290,
      "▁nino": 6291,
      "▁burat": 6292,
      "▁nipples": 6293,
      "▁duda": 6294,
      "▁course": 6295,
      "▁misis": 6296,
      "oridad": 6297,
      "ornia": 6298,
      "▁agrikultura": 6299,
      "mes": 6300,
      "▁panahon": 6301,
      "BI": 6302,
      "ugan": 6303,
      "▁budget": 6304,
      "▁kontro": 6305,
      "▁gugol": 6306,
      "rasyon": 6307,
      "rant": 6308,
      "press": 6309,
      "▁children": 6310,
      "▁salungat": 6311,
      "aring": 6312,
      "sty": 6313,
      "▁dealer": 6314,
      "▁major": 6315,
      "▁Pwede": 6316,
      "▁Ni": 6317,
      "▁Sinus": 6318,
      "▁nurse": 6319,
      "▁Dom": 6320,
      "▁pool": 6321,
      "▁Network": 6322,
      "▁walang-": 6323,
      "mato": 6324,
      "vest": 6325,
      "redo": 6326,
      "long": 6327,
      "kies": 6328,
      "▁things": 6329,
      "insunod": 6330,
      "rika": 6331,
      "▁Show": 6332,
      "OC": 6333,
      "▁sisi": 6334,
      "▁bakin": 6335,
      "▁paka": 6336,
      "▁When": 6337,
      "▁present": 6338,
      "▁store": 6339,
      "irman": 6340,
      "ecutive": 6341,
      "-sa": 6342,
      "▁Ty": 6343,
      "laysay": 6344,
      "▁krisis": 6345,
      "lesterol": 6346,
      "erve": 6347,
      "▁mag-anak": 6348,
      "▁Silicone": 6349,
      "come": 6350,
      "ken": 6351,
      "▁finan": 6352,
      "▁handog": 6353,
      "urces": 6354,
      "▁adult": 6355,
      "rot": 6356,
      "▁happ": 6357,
      "eline": 6358,
      "icer": 6359,
      "lifornia": 6360,
      "-L": 6361,
      "▁alinlangan": 6362,
      "▁kumpletong": 6363,
      "▁nawalan": 6364,
      "▁kongreso": 6365,
      "uma": 6366,
      "▁result": 6367,
      "▁DIY": 6368,
      "bb": 6369,
      "lix": 6370,
      "▁ini": 6371,
      "▁Dist": 6372,
      "▁bangon": 6373,
      "▁kahihi": 6374,
      "▁mai": 6375,
      "▁condition": 6376,
      "▁place": 6377,
      "▁imposible": 6378,
      "mbu": 6379,
      "▁bibliya": 6380,
      "wili": 6381,
      "▁ped": 6382,
      "▁second": 6383,
      "iron": 6384,
      "▁record": 6385,
      "▁tapay": 6386,
      "▁pag-access": 6387,
      "▁better": 6388,
      "▁masa": 6389,
      "hotos": 6390,
      "▁labasa": 6391,
      "▁Region": 6392,
      "tar": 6393,
      "nator": 6394,
      "▁Mana": 6395,
      "▁sunud-sunod": 6396,
      "▁hos": 6397,
      "▁cra": 6398,
      "▁Spa": 6399,
      "▁ilagay": 6400,
      "▁fitness": 6401,
      "kong": 6402,
      "ild": 6403,
      "▁bily": 6404,
      "unic": 6405,
      "▁West": 6406,
      "mmy": 6407,
      "▁player": 6408,
      "33": 6409,
      "ION": 6410,
      "papa": 6411,
      "▁makina": 6412,
      "▁termino": 6413,
      "got": 6414,
      "dez": 6415,
      "TC": 6416,
      "hion": 6417,
      "▁log": 6418,
      "▁editor": 6419,
      "▁sawi": 6420,
      "▁buy": 6421,
      "▁param": 6422,
      "▁Girl": 6423,
      "▁basket": 6424,
      "▁kanluran": 6425,
      "gation": 6426,
      "bic": 6427,
      "▁Ind": 6428,
      "▁Naka": 6429,
      "▁espas": 6430,
      "▁mais": 6431,
      "aker": 6432,
      "▁Out": 6433,
      "▁ilalim": 6434,
      "ready": 6435,
      "▁event": 6436,
      "bilis": 6437,
      "▁punla": 6438,
      "▁They": 6439,
      "lids": 6440,
      "▁something": 6441,
      "▁salaysay": 6442,
      "▁Gre": 6443,
      "uc": 6444,
      "▁ero": 6445,
      "▁lisan": 6446,
      "▁ll": 6447,
      "▁baso": 6448,
      "▁State": 6449,
      "▁makinarya": 6450,
      "77": 6451,
      "vas": 6452,
      "▁Pla": 6453,
      "WD": 6454,
      "med": 6455,
      "mado": 6456,
      "▁konstruk": 6457,
      "▁gubat": 6458,
      "TS": 6459,
      "bis": 6460,
      "▁sugar": 6461,
      "▁found": 6462,
      "▁pisngi": 6463,
      "▁sensiti": 6464,
      "▁cent": 6465,
      "▁suc": 6466,
      "musta": 6467,
      "▁cryptocurrency": 6468,
      "ali": 6469,
      "▁bilang": 6470,
      "▁There": 6471,
      "▁99": 6472,
      "▁asia": 6473,
      "▁plu": 6474,
      "cken": 6475,
      "istance": 6476,
      "ior": 6477,
      "▁puna": 6478,
      "▁physi": 6479,
      "▁loss": 6480,
      "atory": 6481,
      "16": 6482,
      "▁braso": 6483,
      "kilik": 6484,
      "▁katarungan": 6485,
      "▁و": 6486,
      "▁Pac": 6487,
      "atio": 6488,
      "▁australia": 6489,
      "▁sk": 6490,
      "lok": 6491,
      "▁police": 6492,
      "▁sol": 6493,
      "itensya": 6494,
      "ists": 6495,
      "▁desk": 6496,
      "lized": 6497,
      "enjoy": 6498,
      "▁abuso": 6499,
      "▁injections": 6500,
      "mata": 6501,
      "order": 6502,
      "▁diagn": 6503,
      "▁Mig": 6504,
      "▁Bong": 6505,
      "ended": 6506,
      "tension": 6507,
      "▁THE": 6508,
      "▁wan": 6509,
      "▁2009": 6510,
      "cific": 6511,
      "▁source": 6512,
      "▁energy": 6513,
      "tually": 6514,
      "▁acc": 6515,
      "▁tangkilik": 6516,
      "hus": 6517,
      "▁brand": 6518,
      "mium": 6519,
      "irs": 6520,
      "▁perman": 6521,
      "▁makapag": 6522,
      "▁hita": 6523,
      "▁coffee": 6524,
      "vsk": 6525,
      "▁Bea": 6526,
      "▁sampa": 6527,
      "▁Sara": 6528,
      "▁Photo": 6529,
      "▁indones": 6530,
      "ffa": 6531,
      "▁38": 6532,
      "von": 6533,
      "tail": 6534,
      "▁konsulta": 6535,
      "kter": 6536,
      "mn": 6537,
      "chen": 6538,
      "▁kaun": 6539,
      "▁Pay": 6540,
      "kie": 6541,
      "urance": 6542,
      "itute": 6543,
      "40": 6544,
      "▁Et": 6545,
      "ysis": 6546,
      "▁window": 6547,
      "-ma": 6548,
      "ners": 6549,
      "agon": 6550,
      "▁Ah": 6551,
      "▁bintana": 6552,
      "▁bady": 6553,
      "▁senado": 6554,
      "▁cm": 6555,
      "bik": 6556,
      "ume": 6557,
      "▁Blue": 6558,
      "bio": 6559,
      "▁Mc": 6560,
      "PS": 6561,
      "▁demok": 6562,
      "seril": 6563,
      "▁lisensya": 6564,
      "base": 6565,
      "▁Crus": 6566,
      "▁Mom": 6567,
      "▁June": 6568,
      "▁marte": 6569,
      "▁bad": 6570,
      "▁karakter": 6571,
      "kumpleto": 6572,
      "largement": 6573,
      "▁flu": 6574,
      "▁tiya": 6575,
      "▁puwersa": 6576,
      "▁37": 6577,
      "▁espasyo": 6578,
      "▁doble": 6579,
      "▁coronavirus": 6580,
      "▁kalye": 6581,
      "▁protektahan": 6582,
      "▁electric": 6583,
      "▁different": 6584,
      "▁during": 6585,
      "▁security": 6586,
      "bala": 6587,
      "▁Public": 6588,
      "buyas": 6589,
      "▁California": 6590,
      "▁Sir": 6591,
      "▁Bac": 6592,
      "▁patos": 6593,
      "duction": 6594,
      "▁teknikal": 6595,
      "▁please": 6596,
      "▁pasilidad": 6597,
      "▁aktwal": 6598,
      "bie": 6599,
      "▁leg": 6600,
      "fect": 6601,
      "▁dag": 6602,
      "▁sibuyas": 6603,
      "inger": 6604,
      "▁Gold": 6605,
      "▁Ear": 6606,
      "▁workers": 6607,
      "hts": 6608,
      "▁pagproseso": 6609,
      "▁wel": 6610,
      "lul": 6611,
      "▁works": 6612,
      "-Ong": 6613,
      "pris": 6614,
      "▁Bet": 6615,
      "▁thread": 6616,
      "▁mamahagi": 6617,
      "▁prakti": 6618,
      "▁protocol": 6619,
      "cipal": 6620,
      "▁dulas": 6621,
      "▁birthday": 6622,
      "▁sahig": 6623,
      "▁anu": 6624,
      "▁lamblia": 6625,
      "▁Ramoso": 6626,
      "▁German": 6627,
      "veloper": 6628,
      "▁Ramoso-Ong": 6629,
      "taran": 6630,
      "▁um": 6631,
      "▁already": 6632,
      "ruit": 6633,
      "▁format": 6634,
      "▁ungol": 6635,
      "▁Game": 6636,
      "kumpitensya": 6637,
      "▁Bur": 6638,
      "▁Island": 6639,
      "▁SCP": 6640,
      "▁sumus": 6641,
      "▁huwe": 6642,
      "▁download": 6643,
      "lly": 6644,
      "▁Sinusuportahan": 6645,
      "-bas": 6646,
      "▁AP": 6647,
      "▁Fung": 6648,
      "▁direktor": 6649,
      "▁madla": 6650,
      "isyunal": 6651,
      "▁cur": 6652,
      "▁gaming": 6653,
      "▁kapitbahay": 6654,
      "▁European": 6655,
      "▁sekswal": 6656,
      "mpo": 6657,
      "▁prog": 6658,
      "▁Daniel": 6659,
      "▁Vis": 6660,
      "▁password": 6661,
      "cription": 6662,
      "▁shar": 6663,
      "▁using": 6664,
      "▁dilaw": 6665,
      "▁klasi": 6666,
      "▁boyfriend": 6667,
      "die": 6668,
      "▁kristi": 6669,
      "▁front": 6670,
      "▁CR": 6671,
      "▁try": 6672,
      "▁hahaha": 6673,
      "tilyo": 6674,
      "carat": 6675,
      "ilyo": 6676,
      "▁MM": 6677,
      "berry": 6678,
      "eting": 6679,
      "▁aki": 6680,
      "▁Vol": 6681,
      "▁function": 6682,
      "▁parmasya": 6683,
      "▁biyaya": 6684,
      "▁bel": 6685,
      "▁Sen": 6686,
      "bai": 6687,
      "▁yunit": 6688,
      "▁trading": 6689,
      "ize": 6690,
      "▁datos": 6691,
      "ister": 6692,
      "▁Council": 6693,
      "▁otbe": 6694,
      "▁pormal": 6695,
      "-10": 6696,
      "▁Luzon": 6697,
      "▁Ori": 6698,
      "▁Lucky": 6699,
      "▁paul": 6700,
      "▁paris": 6701,
      "▁stop": 6702,
      "▁young": 6703,
      "ng-ta": 6704,
      "em": 6705,
      "▁t-ibang": 6706,
      "pter": 6707,
      "▁bukol": 6708,
      "▁Fi": 6709,
      "halle": 6710,
      "dule": 6711,
      "▁Colle": 6712,
      "utes": 6713,
      "▁tradisyunal": 6714,
      "▁career": 6715,
      "▁Richard": 6716,
      "▁huwebes": 6717,
      "ribe": 6718,
      "▁luad": 6719,
      "▁seiz": 6720,
      "▁institusyon": 6721,
      "belya": 6722,
      "▁tayuan": 6723,
      "ordi": 6724,
      "▁bubelya": 6725,
      "ame": 6726,
      "▁travel": 6727,
      "hua": 6728,
      "▁segundo": 6729,
      "▁Sim": 6730,
      "ckpot": 6731,
      "-9": 6732,
      "▁ibon": 6733,
      "▁Ilo": 6734,
      "▁lolo": 6735,
      "cycle": 6736,
      "-kan": 6737,
      "cion": 6738,
      "▁lea": 6739,
      "▁city": 6740,
      "▁pow": 6741,
      "sidential": 6742,
      "▁money": 6743,
      "omm": 6744,
      "▁Kat": 6745,
      "▁Korean": 6746,
      "IO": 6747,
      "▁makapal": 6748,
      "▁Pina": 6749,
      "▁People": 6750,
      "▁baybay": 6751,
      "▁kongk": 6752,
      "▁siyam": 6753,
      "hern": 6754,
      "lyn": 6755,
      "▁gawaran": 6756,
      "▁disip": 6757,
      "▁prem": 6758,
      "▁Thank": 6759,
      "▁Filip": 6760,
      "▁monitor": 6761,
      "ml": 6762,
      "▁bana": 6763,
      "▁Ped": 6764,
      "ithdraw": 6765,
      "▁director": 6766,
      "▁malaki": 6767,
      "Date": 6768,
      "▁pagt": 6769,
      "▁Education": 6770,
      "▁deb": 6771,
      "person": 6772,
      "▁Anton": 6773,
      "▁Text": 6774,
      "-on": 6775,
      "▁whe": 6776,
      "▁Heart": 6777,
      "▁kapani": 6778,
      "gaw": 6779,
      "sasagawa": 6780,
      "ded": 6781,
      "lutan": 6782,
      "olo": 6783,
      "▁shi": 6784,
      "handa": 6785,
      "▁Jen": 6786,
      "ule": 6787,
      "cement": 6788,
      "pepres": 6789,
      "-car": 6790,
      "▁01": 6791,
      "▁bilyar": 6792,
      "-time": 6793,
      "uru": 6794,
      "▁training": 6795,
      "▁tawad": 6796,
      "▁Fore": 6797,
      "▁lus": 6798,
      "▁isk": 6799,
      "tures": 6800,
      "▁Kom": 6801,
      "mbers": 6802,
      "ondon": 6803,
      "▁His": 6804,
      "ape": 6805,
      "yshe": 6806,
      "▁hesus": 6807,
      "ulation": 6808,
      "▁Hu": 6809,
      "loyment": 6810,
      "▁song": 6811,
      "▁Inf": 6812,
      "▁operation": 6813,
      "▁Sarah": 6814,
      "ility": 6815,
      "yone": 6816,
      "▁plastik": 6817,
      "OD": 6818,
      "▁eating": 6819,
      "▁pagpapa": 6820,
      "ace": 6821,
      "dilla": 6822,
      "▁cel": 6823,
      "▁each": 6824,
      "▁herbs": 6825,
      "▁komportable": 6826,
      "▁telebisyon": 6827,
      "▁wallet": 6828,
      "▁vesnushki": 6829,
      "▁without": 6830,
      "▁tita": 6831,
      "▁Whitening": 6832,
      "▁I'm": 6833,
      "▁virtual": 6834,
      "▁salubong": 6835,
      "▁kalawa": 6836,
      "▁konsumo": 6837,
      "▁Organ": 6838,
      "▁Michael": 6839,
      "▁Bat": 6840,
      "▁benef": 6841,
      "of": 6842,
      "linic": 6843,
      "▁toenails": 6844,
      "OV": 6845,
      "var": 6846,
      "▁Site": 6847,
      "▁maskara": 6848,
      "▁track": 6849,
      "▁stat": 6850,
      "▁comment": 6851,
      "essional": 6852,
      "▁Cy": 6853,
      "▁pagba": 6854,
      "▁mut": 6855,
      "▁start": 6856,
      "▁sulok": 6857,
      "▁Bank": 6858,
      "road": 6859,
      "▁eyelids": 6860,
      "▁pagkak": 6861,
      "rum": 6862,
      "▁ago": 6863,
      "▁suwerte": 6864,
      "gie": 6865,
      "▁Association": 6866,
      "rast": 6867,
      "▁survey": 6868,
      "▁Management": 6869,
      "pepresyo": 6870,
      "iod": 6871,
      "mot": 6872,
      "▁bran": 6873,
      "▁AC": 6874,
      "▁vol": 6875,
      "▁kag": 6876,
      "▁Tan": 6877,
      "▁promos": 6878,
      "medies": 6879,
      "▁international": 6880,
      "dra": 6881,
      "▁siko": 6882,
      "▁reso": 6883,
      "▁PS": 6884,
      "▁actor": 6885,
      "lassi": 6886,
      "▁pataw": 6887,
      "▁Audiobook": 6888,
      "viron": 6889,
      "▁brown": 6890,
      "▁balisa": 6891,
      "▁Found": 6892,
      "▁hapo": 6893,
      "▁Glo": 6894,
      "act": 6895,
      "▁libing": 6896,
      "▁enlargement": 6897,
      "▁cristo": 6898,
      "▁i-download": 6899,
      "▁kis": 6900,
      "▁inin": 6901,
      "omes": 6902,
      "▁responsibilidad": 6903,
      "▁alu": 6904,
      "hensiya": 6905,
      "vesti": 6906,
      "▁feeling": 6907,
      "pilep": 6908,
      "mate": 6909,
      "vite": 6910,
      "▁196": 6911,
      "insya": 6912,
      "hanayan": 6913,
      "ium": 6914,
      "pect": 6915,
      "core": 6916,
      "-na": 6917,
      "MP": 6918,
      "▁tray": 6919,
      "▁Micro": 6920,
      "▁advertising": 6921,
      "conomic": 6922,
      "eser": 6923,
      "etnam": 6924,
      "▁lamunan": 6925,
      "mark": 6926,
      "▁Circ": 6927,
      "▁Source": 6928,
      "▁Forum": 6929,
      "▁foods": 6930,
      "▁nananatiling": 6931,
      "▁palam": 6932,
      "▁fast": 6933,
      "▁Please": 6934,
      "▁kongkreto": 6935,
      "rive": 6936,
      "▁disc": 6937,
      "erald": 6938,
      "▁bagama": 6939,
      "yasat": 6940,
      "▁transportasyon": 6941,
      "▁Hol": 6942,
      "▁alaala": 6943,
      "▁Villa": 6944,
      "▁Batang": 6945,
      "▁Anne": 6946,
      "▁dunong": 6947,
      "▁Francisco": 6948,
      "▁Christmas": 6949,
      "rubahan": 6950,
      "-ga": 6951,
      "BC": 6952,
      "lene": 6953,
      "▁bote": 6954,
      "▁tae": 6955,
      "▁few": 6956,
      "▁Mary": 6957,
      "▁vs": 6958,
      "matis": 6959,
      "▁akibat": 6960,
      "ño": 6961,
      "eworm": 6962,
      "▁does": 6963,
      "▁tanghali": 6964,
      "lisa": 6965,
      "yad": 6966,
      "cian": 6967,
      "wet": 6968,
      "▁Shi": 6969,
      "mpi": 6970,
      "▁moisturi": 6971,
      "ador": 6972,
      "▁resur": 6973,
      "▁Islam": 6974,
      "▁hydrogen": 6975,
      "▁galak": 6976,
      "▁33": 6977,
      "facing": 6978,
      "▁hukay": 6979,
      "dle": 6980,
      "ises": 6981,
      "▁March": 6982,
      "siyento": 6983,
      "▁Dia": 6984,
      "▁Gel": 6985,
      "▁Our": 6986,
      "▁siyasat": 6987,
      "▁paganda": 6988,
      "oday": 6989,
      "▁doctor": 6990,
      "▁basag": 6991,
      "▁bihis": 6992,
      "▁Bal": 6993,
      "▁Tony": 6994,
      "AK": 6995,
      "▁ngum": 6996,
      "▁Fernan": 6997,
      "▁answer": 6998,
      "▁Oh": 6999,
      "▁34": 7000,
      "▁shop": 7001,
      "-N": 7002,
      "van": 7003,
      "orasyon": 7004,
      "cember": 7005,
      "▁jour": 7006,
      "▁isinasaalang-alang": 7007,
      "▁iss": 7008,
      "▁grabe": 7009,
      "▁praktikal": 7010,
      "▁Great": 7011,
      "▁sumusuporta": 7012,
      "TM": 7013,
      "▁aka": 7014,
      "▁sample": 7015,
      "rehen": 7016,
      "▁ubra": 7017,
      "▁Ara": 7018,
      "tery": 7019,
      "▁July": 7020,
      "▁75": 7021,
      "under": 7022,
      "▁Chan": 7023,
      "▁radio": 7024,
      "unsyo": 7025,
      "▁tagpo": 7026,
      "▁iulat": 7027,
      "▁Mob": 7028,
      "▁400": 7029,
      "-paniwala": 7030,
      "▁Step": 7031,
      "▁Tor": 7032,
      "▁estra": 7033,
      "zy": 7034,
      "▁lahad": 7035,
      "unsad": 7036,
      "▁Let": 7037,
      "▁emosyonal": 7038,
      "▁kapani-paniwala": 7039,
      "▁Power": 7040,
      "▁emplo": 7041,
      "NT": 7042,
      "▁libu": 7043,
      "▁kunan": 7044,
      "▁55": 7045,
      "nabik": 7046,
      "▁baya": 7047,
      "▁price": 7048,
      "▁IG": 7049,
      "▁uho": 7050,
      "mia": 7051,
      "eks": 7052,
      "mpala": 7053,
      "▁formula": 7054,
      "cast": 7055,
      "urusa": 7056,
      "▁semento": 7057,
      "gate": 7058,
      "tso": 7059,
      "▁sahod": 7060,
      "▁mor": 7061,
      "▁Gil": 7062,
      "liday": 7063,
      "▁staff": 7064,
      "▁reseta": 7065,
      "pina": 7066,
      "▁bill": 7067,
      "ague": 7068,
      "▁regi": 7069,
      "▁Tr": 7070,
      "▁porsiyento": 7071,
      "▁Baby": 7072,
      "▁promosyon": 7073,
      "cted": 7074,
      "▁kawili": 7075,
      "hek": 7076,
      "▁nagpasya": 7077,
      "▁Enter": 7078,
      "▁Drug": 7079,
      "▁pirma": 7080,
      "pok": 7081,
      "▁abang": 7082,
      "▁pawis": 7083,
      "▁Stu": 7084,
      "kilala": 7085,
      "▁role": 7086,
      "▁santo": 7087,
      "▁going": 7088,
      "▁alay": 7089,
      "areho": 7090,
      "▁Government": 7091,
      "▁District": 7092,
      "▁resurfacing": 7093,
      "AA": 7094,
      "▁privacy": 7095,
      "▁Africa": 7096,
      "▁hatol": 7097,
      "▁kalus": 7098,
      "orning": 7099,
      "-libo": 7100,
      "▁api": 7101,
      "▁squ": 7102,
      "▁uso": 7103,
      "▁Prof": 7104,
      "aster": 7105,
      "▁pulbos": 7106,
      "natnan": 7107,
      "▁mg": 7108,
      "▁mm": 7109,
      "▁Reyes": 7110,
      "▁Atty": 7111,
      "▁tad": 7112,
      "▁clean": 7113,
      "▁Lotseril": 7114,
      "yun": 7115,
      "▁club": 7116,
      "▁Wo": 7117,
      "▁domain": 7118,
      "▁kastila": 7119,
      "xi": 7120,
      "▁lagu": 7121,
      "ising": 7122,
      "▁ngalan": 7123,
      "▁bigkas": 7124,
      "▁AND": 7125,
      "teroid": 7126,
      "▁ticket": 7127,
      "ected": 7128,
      "▁Garcia": 7129,
      "▁paano": 7130,
      "stro": 7131,
      "▁Party": 7132,
      "▁gantimpala": 7133,
      "▁paniniwala": 7134,
      "▁ibago": 7135,
      "resibo": 7136,
      "-12": 7137,
      "yl": 7138,
      "▁cake": 7139,
      "▁tutol": 7140,
      "▁small": 7141,
      "▁pandemic": 7142,
      "▁mail": 7143,
      "▁karga": 7144,
      "naryong": 7145,
      "▁probinsya": 7146,
      "went": 7147,
      "wad": 7148,
      "kov": 7149,
      "▁tiket": 7150,
      "▁talahanayan": 7151,
      "▁Station": 7152,
      "▁Senate": 7153,
      "▁country": 7154,
      "▁Justice": 7155,
      "▁mark": 7156,
      "▁baon": 7157,
      "▁Wag": 7158,
      "▁tanso": 7159,
      "coun": 7160,
      "▁enjoy": 7161,
      "siklo": 7162,
      "upad": 7163,
      "toms": 7164,
      "▁P2": 7165,
      "▁HD": 7166,
      "▁hips": 7167,
      "▁inirerekumenda": 7168,
      "▁total": 7169,
      "eklara": 7170,
      "▁wor": 7171,
      "▁epilep": 7172,
      "▁lubog": 7173,
      "▁radyo": 7174,
      "▁Common": 7175,
      "▁turista": 7176,
      "ii": 7177,
      "rumento": 7178,
      "esh": 7179,
      "▁Medical": 7180,
      "▁allergy": 7181,
      "▁indonesia": 7182,
      "▁nayon": 7183,
      "ences": 7184,
      "▁kamatis": 7185,
      "▁Fol": 7186,
      "▁mekan": 7187,
      "▁ista": 7188,
      "▁background": 7189,
      "▁libu-libo": 7190,
      "-una": 7191,
      "UP": 7192,
      "▁IC": 7193,
      "wela": 7194,
      "▁premyo": 7195,
      "▁gupit": 7196,
      "estival": 7197,
      "▁las": 7198,
      "▁Gi": 7199,
      "▁puwesto": 7200,
      "▁instrumento": 7201,
      "▁nobela": 7202,
      "▁permanente": 7203,
      "legal": 7204,
      "grade": 7205,
      "▁suspen": 7206,
      "-eye": 7207,
      "▁lyrics": 7208,
      "-di": 7209,
      "▁episode": 7210,
      "▁White": 7211,
      "▁sikip": 7212,
      "▁pangungusap": 7213,
      "inig": 7214,
      "rove": 7215,
      "▁sige": 7216,
      "▁halili": 7217,
      "▁tradisyon": 7218,
      "▁Geor": 7219,
      "▁drama": 7220,
      "▁uto": 7221,
      "▁pagma": 7222,
      "▁planeta": 7223,
      "umpirma": 7224,
      "link": 7225,
      "▁palamuti": 7226,
      "lohikal": 7227,
      "cher": 7228,
      "▁Provincial": 7229,
      "▁butter": 7230,
      "▁watch": 7231,
      "▁SS": 7232,
      "▁ranggo": 7233,
      "▁testo": 7234,
      "▁AFP": 7235,
      "eksiyon": 7236,
      "▁Er": 7237,
      "▁Quar": 7238,
      "▁hospital": 7239,
      "right": 7240,
      "▁pagtatrabaho": 7241,
      "▁ON": 7242,
      "▁48": 7243,
      "▁Batangas": 7244,
      "▁tanto": 7245,
      "▁sea": 7246,
      "ymptoms": 7247,
      "▁bihasa": 7248,
      "▁Bela": 7249,
      "▁degree": 7250,
      "▁nana": 7251,
      "▁tul": 7252,
      "arian": 7253,
      "rinkle": 7254,
      "▁around": 7255,
      "▁cut": 7256,
      "▁Brit": 7257,
      "▁Jay": 7258,
      "rush": 7259,
      "▁abogado": 7260,
      "▁plus": 7261,
      "▁PL": 7262,
      "▁ding": 7263,
      "▁white": 7264,
      "▁Hospital": 7265,
      "▁39": 7266,
      "▁bomba": 7267,
      "uit": 7268,
      "▁napaka": 7269,
      "▁System": 7270,
      "▁Minsk": 7271,
      "▁job": 7272,
      "▁Committee": 7273,
      "lusibo": 7274,
      "▁pakikipag-Date": 7275,
      "-based": 7276,
      "▁main": 7277,
      "▁balu": 7278,
      "▁Sub": 7279,
      "▁Eh": 7280,
      "hirt": 7281,
      "▁ado": 7282,
      "▁Sports": 7283,
      "▁tiwali": 7284,
      "timate": 7285,
      "▁Time": 7286,
      "▁LGU": 7287,
      "▁issue": 7288,
      "▁Bay": 7289,
      "▁Water": 7290,
      "▁hukom": 7291,
      "▁alamat": 7292,
      "▁River": 7293,
      "dium": 7294,
      "tak": 7295,
      "▁Web": 7296,
      "ribusyon": 7297,
      "▁dekorasyon": 7298,
      "▁kani-kan": 7299,
      "▁klasiko": 7300,
      "▁period": 7301,
      "▁lagda": 7302,
      "▁otbeliv": 7303,
      "▁mall": 7304,
      "▁got": 7305,
      "▁Anti-A": 7306,
      "▁Bulate": 7307,
      "▁badyet": 7308,
      "▁buka": 7309,
      "▁sele": 7310,
      "▁Under": 7311,
      "-wili": 7312,
      "▁netizen": 7313,
      "tho": 7314,
      "▁atas": 7315,
      "▁final": 7316,
      "taman": 7317,
      "▁question": 7318,
      "uento": 7319,
      "▁Kar": 7320,
      "▁thank": 7321,
      "ues": 7322,
      "▁harang": 7323,
      "▁inten": 7324,
      "▁master": 7325,
      "▁Was": 7326,
      "▁barya": 7327,
      "▁chief": 7328,
      "▁Worms": 7329,
      "palaran": 7330,
      "▁kawili-wili": 7331,
      "▁Op": 7332,
      "abin": 7333,
      "▁150": 7334,
      "cade": 7335,
      "▁Force": 7336,
      "▁species": 7337,
      "▁layon": 7338,
      "▁Mor": 7339,
      "▁Emp": 7340,
      "▁interview": 7341,
      "▁barko": 7342,
      "▁2008": 7343,
      "▁regla": 7344,
      "▁ilunsad": 7345,
      "▁Ana": 7346,
      "▁FAC": 7347,
      "▁developer": 7348,
      "▁Sum": 7349,
      "▁gri": 7350,
      "▁gran": 7351,
      "▁AL": 7352,
      "▁Ms": 7353,
      "▁output": 7354,
      "▁ma-access": 7355,
      "▁motorsiklo": 7356,
      "chain": 7357,
      "▁products": 7358,
      "▁December": 7359,
      "▁restaurant": 7360,
      "-to-": 7361,
      "▁might": 7362,
      "▁dad": 7363,
      "▁flight": 7364,
      "▁eto": 7365,
      "licy": 7366,
      "▁Cons": 7367,
      "▁Bulacan": 7368,
      "ennis": 7369,
      "▁perfor": 7370,
      "lulite": 7371,
      "▁uk": 7372,
      "tober": 7373,
      "▁private": 7374,
      "fication": 7375,
      "▁tsaa": 7376,
      "▁bleaching": 7377,
      "▁pake": 7378,
      "kim": 7379,
      "▁alkal": 7380,
      "▁Yes": 7381,
      "▁Court": 7382,
      "▁grow": 7383,
      "▁though": 7384,
      "▁rebolusyon": 7385,
      "EW": 7386,
      "▁change": 7387,
      "▁rehi": 7388,
      "▁gawad": 7389,
      "▁success": 7390,
      "▁kalusugan": 7391,
      "▁actress": 7392,
      "▁Gan": 7393,
      "▁traffic": 7394,
      "▁pressure": 7395,
      "bagong-": 7396,
      "gic": 7397,
      "▁tuwiran": 7398,
      "▁pagdaragdag": 7399,
      "mentary": 7400,
      "▁April": 7401,
      "▁hino": 7402,
      "▁singer": 7403,
      "▁mekanismo": 7404,
      "cture": 7405,
      "▁tulay": 7406,
      "▁Port": 7407,
      "▁butil": 7408,
      "venue": 7409,
      "entipiko": 7410,
      "ez": 7411,
      "vant": 7412,
      "▁Bill": 7413,
      "▁alipin": 7414,
      "▁09": 7415,
      "atlo": 7416,
      "▁pawi": 7417,
      "peta": 7418,
      "▁eksk": 7419,
      "▁iba''t": 7420,
      "▁Pedro": 7421,
      "▁tor": 7422,
      "▁kauna": 7423,
      "▁suk": 7424,
      "uture": 7425,
      "▁alinsunod": 7426,
      "▁42": 7427,
      "▁pabrika": 7428,
      "▁author": 7429,
      "gasyon": 7430,
      "▁ED": 7431,
      "▁protein": 7432,
      "▁Presidential": 7433,
      "▁Feb": 7434,
      "▁effective": 7435,
      "▁Business": 7436,
      "ried": 7437,
      "kout": 7438,
      "▁aktibo": 7439,
      "▁pare-p": 7440,
      "▁nas": 7441,
      "▁pagsa": 7442,
      "▁gulaman": 7443,
      "issue": 7444,
      "19": 7445,
      "vity": 7446,
      "yol": 7447,
      "rump": 7448,
      "▁kapana": 7449,
      "mers": 7450,
      "▁Press": 7451,
      "cover": 7452,
      "▁Yan": 7453,
      "vely": 7454,
      "▁pagsasagawa": 7455,
      "ulator": 7456,
      "ently": 7457,
      "▁cookies": 7458,
      "▁disiplina": 7459,
      "▁sapalaran": 7460,
      "▁fer": 7461,
      "▁Body": 7462,
      "▁risk": 7463,
      "▁cook": 7464,
      "▁Senator": 7465,
      "▁siyentipiko": 7466,
      "▁ikina": 7467,
      "▁tina": 7468,
      "▁Gab": 7469,
      "▁serti": 7470,
      "▁kumplikadong": 7471,
      "▁Anti-Aging": 7472,
      "▁anay": 7473,
      "▁emergency": 7474,
      "▁esp": 7475,
      "▁Cavite": 7476,
      "▁Smart": 7477,
      "▁ire": 7478,
      "▁egg": 7479,
      "dok": 7480,
      "▁Not": 7481,
      "EST": 7482,
      "▁ordinaryo": 7483,
      "▁eksklusibo": 7484,
      "wear": 7485,
      "▁mari": 7486,
      "▁icon": 7487,
      "▁mill": 7488,
      "TION": 7489,
      "▁hukbo": 7490,
      "wards": 7491,
      "lies": 7492,
      "▁tawid": 7493,
      "▁fire": 7494,
      "nance": 7495,
      "ridge": 7496,
      "▁Don": 7497,
      "▁Service": 7498,
      "▁Central": 7499,
      "▁AD": 7500,
      "▁Board": 7501,
      "▁hormone": 7502,
      "▁propeta": 7503,
      "▁Vietnam": 7504,
      "▁gluc": 7505,
      "▁jeep": 7506,
      "▁Shar": 7507,
      "▁AR": 7508,
      "mbay": 7509,
      "quiao": 7510,
      "▁lathala": 7511,
      "▁Foundation": 7512,
      "▁interface": 7513,
      "▁kampo": 7514,
      "▁kusa": 7515,
      "▁hit": 7516,
      "unyag": 7517,
      "urch": 7518,
      "imento": 7519,
      "▁abs": 7520,
      "▁cellphone": 7521,
      "▁Wiki": 7522,
      "▁Authority": 7523,
      "sec": 7524,
      "▁Mil": 7525,
      "▁suple": 7526,
      "▁close": 7527,
      "dara": 7528,
      "ua": 7529,
      "▁nasa": 7530,
      "▁bango": 7531,
      "ott": 7532,
      "▁rice": 7533,
      "▁kristo": 7534,
      "tosterone": 7535,
      "band": 7536,
      "plano": 7537,
      "▁tis": 7538,
      "▁mommy": 7539,
      "▁ist": 7540,
      "charge": 7541,
      "▁pare-pareho": 7542,
      "▁sna": 7543,
      "▁dos": 7544,
      "arta": 7545,
      "cei": 7546,
      "▁Cancer": 7547,
      "▁Vo": 7548,
      "▁pigmentnыe": 7549,
      "ña": 7550,
      "▁gaan": 7551,
      "▁kilig": 7552,
      "rier": 7553,
      "▁mac": 7554,
      "▁appro": 7555,
      "withdraw": 7556,
      "leas": 7557,
      "cking": 7558,
      "▁va": 7559,
      "▁Chs": 7560,
      "▁integ": 7561,
      "▁dose": 7562,
      "▁Del": 7563,
      "▁polo": 7564,
      "gante": 7565,
      "▁Anna": 7566,
      "▁sexy": 7567,
      "▁Republic": 7568,
      "olyar": 7569,
      "▁property": 7570,
      "▁gunita": 7571,
      "inburg": 7572,
      "▁reti": 7573,
      "▁lugod": 7574,
      "ews": 7575,
      "comp": 7576,
      "▁pag-download": 7577,
      "▁ingredi": 7578,
      "▁Games": 7579,
      "▁blackjack": 7580,
      "▁picture": 7581,
      "▁dasal": 7582,
      "ellow": 7583,
      "vember": 7584,
      "ilay": 7585,
      "▁Corpor": 7586,
      "edyul": 7587,
      "▁bukid": 7588,
      "▁talata": 7589,
      "nie": 7590,
      "▁kidney": 7591,
      "din": 7592,
      "zi": 7593,
      "▁dolyar": 7594,
      "▁Plastic": 7595,
      "▁Email": 7596,
      "▁Just": 7597,
      "▁Padilla": 7598,
      "▁kauna-una": 7599,
      "▁another": 7600,
      "mpal": 7601,
      "▁Agu": 7602,
      "▁saling": 7603,
      "inggan": 7604,
      "▁Mu": 7605,
      "▁Mala": 7606,
      "▁kani-kanila": 7607,
      "▁labo": 7608,
      "▁ice": 7609,
      "▁Sun": 7610,
      "▁Yun": 7611,
      "▁Weight": 7612,
      "jects": 7613,
      "▁flax": 7614,
      "▁emosyon": 7615,
      "▁sagana": 7616,
      "FF": 7617,
      "▁himas": 7618,
      "panyol": 7619,
      "▁Freckles": 7620,
      "▁seryosong": 7621,
      "▁eroplano": 7622,
      "uary": 7623,
      "▁taunan": 7624,
      "▁roulette": 7625,
      "▁yoga": 7626,
      "▁Ul": 7627,
      "▁study": 7628,
      "▁ahas": 7629,
      "▁anghel": 7630,
      "mad": 7631,
      "take": 7632,
      "▁amag": 7633,
      "▁demand": 7634,
      "▁least": 7635,
      "▁Supp": 7636,
      "▁model": 7637,
      "▁kauna-unahan": 7638,
      "▁dyan": 7639,
      "ined": 7640,
      "▁WH": 7641,
      "ideos": 7642,
      "▁relations": 7643,
      "suit": 7644,
      "▁pakikipag-usap": 7645,
      "▁Pag-": 7646,
      "▁PHP": 7647,
      "▁salingsing": 7648,
      "leep": 7649,
      "▁Pab": 7650,
      "▁Tito": 7651,
      "gies": 7652,
      "▁bath": 7653,
      "▁konek": 7654,
      "rinig": 7655,
      "▁asian": 7656,
      "▁October": 7657,
      "▁baligtaran": 7658,
      "▁suplemento": 7659,
      "▁Dig": 7660,
      "▁pump": 7661,
      "▁Ki": 7662,
      "onald": 7663,
      "▁iligal": 7664,
      "bibigay": 7665,
      "EE": 7666,
      "▁pintura": 7667,
      "▁linta": 7668,
      "▁cyst": 7669,
      "▁views": 7670,
      "▁norte": 7671,
      "▁nari": 7672,
      "▁pagta": 7673,
      "▁todo": 7674,
      "cious": 7675,
      "▁teach": 7676,
      "▁patas": 7677,
      "rated": 7678,
      "▁tamtaman": 7679,
      "▁laguna": 7680,
      "ass": 7681,
      "▁orig": 7682,
      "▁pilo": 7683,
      "▁bakla": 7684,
      "▁makeup": 7685,
      "▁age": 7686,
      "▁sibil": 7687,
      "▁tuhod": 7688,
      "kaso": 7689,
      "▁bea": 7690,
      "▁antibo": 7691,
      "▁em": 7692,
      "▁EC": 7693,
      "istant": 7694,
      "▁update": 7695,
      "minasyon": 7696,
      "inance": 7697,
      "-G": 7698,
      "lado": 7699,
      "iner": 7700,
      "▁OK": 7701,
      "▁conn": 7702,
      "▁trip": 7703,
      "▁message": 7704,
      "▁kristiyano": 7705,
      "▁nai": 7706,
      "▁Inir": 7707,
      "pedia": 7708,
      "itoryo": 7709,
      "▁pulutong": 7710,
      "dila": 7711,
      "▁rub": 7712,
      "▁Gerald": 7713,
      "ides": 7714,
      "▁Wal": 7715,
      "▁pagsasaayos": 7716,
      "▁pansan": 7717,
      "unicipal": 7718,
      "▁tipo": 7719,
      "eph": 7720,
      "▁respeto": 7721,
      "▁epilepsy": 7722,
      "vit": 7723,
      "haw": 7724,
      "▁pagpepresyo": 7725,
      "badura": 7726,
      "OP": 7727,
      "▁saw": 7728,
      "▁gambala": 7729,
      "▁impluwensya": 7730,
      "care": 7731,
      "ually": 7732,
      "▁mother": 7733,
      "yonaryong": 7734,
      "▁ebid": 7735,
      "▁Fed": 7736,
      "▁NBI": 7737,
      "uparan": 7738,
      "▁pakinggan": 7739,
      "lagen": 7740,
      "nang": 7741,
      "▁py": 7742,
      "timize": 7743,
      "▁demon": 7744,
      "▁lebadura": 7745,
      "AB": 7746,
      "mine": 7747,
      "▁م": 7748,
      "▁both": 7749,
      "▁Market": 7750,
      "▁Blo": 7751,
      "▁Wes": 7752,
      "▁YO": 7753,
      "▁hope": 7754,
      "▁Regional": 7755,
      "▁naririnig": 7756,
      "cry": 7757,
      "ened": 7758,
      "▁Oil": 7759,
      "tember": 7760,
      "▁Why": 7761,
      "▁cast": 7762,
      "▁frame": 7763,
      "▁Cone": 7764,
      "▁Gon": 7765,
      "▁facil": 7766,
      "▁Vir": 7767,
      "▁impeksiyon": 7768,
      "▁Zam": 7769,
      "▁sign": 7770,
      "▁safe": 7771,
      "▁development": 7772,
      "▁tining": 7773,
      "▁tsino": 7774,
      "▁nakiki": 7775,
      "▁variant": 7776,
      "zh": 7777,
      "lated": 7778,
      "inos": 7779,
      "etisyon": 7780,
      "▁magpa": 7781,
      "ective": 7782,
      "▁panguna": 7783,
      "▁Max": 7784,
      "naan": 7785,
      "▁Are": 7786,
      "▁Flo": 7787,
      "▁members": 7788,
      "▁working": 7789,
      "▁Pacquiao": 7790,
      "▁ika-2": 7791,
      "▁pesos": 7792,
      "▁masahe": 7793,
      "pend": 7794,
      "▁choco": 7795,
      "unungan": 7796,
      "▁DS": 7797,
      "▁espanyol": 7798,
      "▁Street": 7799,
      "▁pekeng": 7800,
      "-pag": 7801,
      "▁translation": 7802,
      "▁Tim": 7803,
      "rasya": 7804,
      "▁fungal": 7805,
      "▁SK": 7806,
      "▁rosa": 7807,
      "umano": 7808,
      "ipment": 7809,
      "▁Prote": 7810,
      "gether": 7811,
      "▁keyword": 7812,
      "80": 7813,
      "▁Mul": 7814,
      "▁arte": 7815,
      "▁product": 7816,
      "▁Lord": 7817,
      "husay": 7818,
      "▁amba": 7819,
      "rac": 7820,
      "ikal": 7821,
      "▁Club": 7822,
      "▁Para": 7823,
      "▁Life": 7824,
      "▁Institute": 7825,
      "▁require": 7826,
      "▁banayad": 7827,
      "lize": 7828,
      "▁buhat": 7829,
      "▁Bio": 7830,
      "▁Ray": 7831,
      "▁dead": 7832,
      "▁LT": 7833,
      "▁Ly": 7834,
      "ruck": 7835,
      "▁cellulite": 7836,
      "olyo": 7837,
      "▁pangatlo": 7838,
      "▁facelift": 7839,
      "▁Julia": 7840,
      "▁glucose": 7841,
      "▁nara": 7842,
      "▁Child": 7843,
      "▁Sw": 7844,
      "▁Science": 7845,
      "▁Jim": 7846,
      "▁against": 7847,
      "▁sakrip": 7848,
      "HHHH": 7849,
      "▁lasi": 7850,
      "▁alb": 7851,
      "▁leon": 7852,
      "▁results": 7853,
      "▁shot": 7854,
      "▁transfer": 7855,
      "▁bayaan": 7856,
      "mum": 7857,
      "wers": 7858,
      "▁ayuno": 7859,
      "iler": 7860,
      "oss": 7861,
      "▁recipes": 7862,
      "▁Treatment": 7863,
      "▁curren": 7864,
      "resses": 7865,
      "tuhin": 7866,
      "ueva": 7867,
      "▁Roque": 7868,
      "▁bingo": 7869,
      "tology": 7870,
      "▁Ru": 7871,
      "▁Hon": 7872,
      "▁Any": 7873,
      "▁November": 7874,
      "▁dayuhan": 7875,
      "▁vaccine": 7876,
      "▁invest": 7877,
      "mga": 7878,
      "▁hon": 7879,
      "miko": 7880,
      "▁balag": 7881,
      "▁fats": 7882,
      "▁acids": 7883,
      "TP": 7884,
      "▁Por": 7885,
      "▁Bir": 7886,
      "▁action": 7887,
      "▁general": 7888,
      "▁tropa": 7889,
      "▁Sil": 7890,
      "▁halata": 7891,
      "apore": 7892,
      "▁Year": 7893,
      "▁haydro": 7894,
      "mbuhay": 7895,
      "eserye": 7896,
      "▁haha": 7897,
      "▁Rid": 7898,
      "▁Lit": 7899,
      "ching": 7900,
      "▁tonela": 7901,
      "▁article": 7902,
      "ngang": 7903,
      "▁girlfriend": 7904,
      "▁testosterone": 7905,
      "▁pakete": 7906,
      "▁alkalde": 7907,
      "11": 7908,
      "▁sawa": 7909,
      "▁bac": 7910,
      "▁uma": 7911,
      "▁London": 7912,
      "▁nags": 7913,
      "▁pananag": 7914,
      "▁Rock": 7915,
      "▁Ange": 7916,
      "▁boss": 7917,
      "not": 7918,
      "yab": 7919,
      "▁ner": 7920,
      "▁wire": 7921,
      "▁Cup": 7922,
      "▁Sor": 7923,
      "▁santa": 7924,
      "-free": 7925,
      "▁sakripisyo": 7926,
      "gnan": 7927,
      "▁Cu": 7928,
      "▁194": 7929,
      "▁cats": 7930,
      "▁syempre": 7931,
      "▁pwersa": 7932,
      "▁galu": 7933,
      "▁Gol": 7934,
      "▁kahihinatnan": 7935,
      "▁tonelada": 7936,
      "▁Card": 7937,
      "▁Jun": 7938,
      "minado": 7939,
      "▁Die": 7940,
      "60": 7941,
      "veri": 7942,
      "▁Count": 7943,
      "bert": 7944,
      "▁likor": 7945,
      "▁January": 7946,
      "▁Victor": 7947,
      "▁layunin": 7948,
      "dis": 7949,
      "▁libang": 7950,
      "▁Care": 7951,
      "▁karunungan": 7952,
      "▁including": 7953,
      "CH": 7954,
      "▁amp": 7955,
      "zine": 7956,
      "yalista": 7957,
      "itive": 7958,
      "▁alm": 7959,
      "▁templo": 7960,
      "▁asset": 7961,
      "▁Capital": 7962,
      "tificate": 7963,
      "-g": 7964,
      "fety": 7965,
      "orse": 7966,
      "▁SH": 7967,
      "▁ore": 7968,
      "sibong": 7969,
      "▁operator": 7970,
      "▁button": 7971,
      "▁organismo": 7972,
      "ptop": 7973,
      "▁etc": 7974,
      "▁Mel": 7975,
      "▁hilaw": 7976,
      "▁Robredo": 7977,
      "▁nananatili": 7978,
      "▁Fungus": 7979,
      "▁atleta": 7980,
      "▁CC": 7981,
      "▁Honey": 7982,
      "▁percent": 7983,
      "▁unguento": 7984,
      "▁anyaya": 7985,
      "▁galugad": 7986,
      "mig": 7987,
      "▁psy": 7988,
      "aro": 7989,
      "▁opp": 7990,
      "▁obli": 7991,
      "▁Pot": 7992,
      "▁ratio": 7993,
      "▁From": 7994,
      "atiwala": 7995,
      "▁IT": 7996,
      "▁haydroliko": 7997,
      "▁tips": 7998,
      "▁MP": 7999,
      "▁krus": 8000,
      "▁Trump": 8001,
      "araw": 8002,
      "ultural": 8003,
      "cially": 8004,
      "▁panawag": 8005,
      "▁insulin": 8006,
      "▁bilanggo": 8007,
      "▁sipag": 8008,
      "ribu": 8009,
      "▁gaspang": 8010,
      "▁smartphone": 8011,
      "▁Palawan": 8012,
      "kules": 8013,
      "lac": 8014,
      "▁Rose": 8015,
      "▁Gat": 8016,
      "▁kolon": 8017,
      "tov": 8018,
      "wagi": 8019,
      "▁makapa": 8020,
      "▁kilom": 8021,
      "▁usbong": 8022,
      "▁between": 8023,
      "FT": 8024,
      "iyansa": 8025,
      "▁tissue": 8026,
      "▁impa": 8027,
      "▁Cris": 8028,
      "nggan": 8029,
      "latin": 8030,
      "katuparan": 8031,
      "▁Hahaha": 8032,
      "▁weeks": 8033,
      "▁student": 8034,
      "▁dan": 8035,
      "▁kuna": 8036,
      "▁Spots": 8037,
      "▁manufac": 8038,
      "▁late": 8039,
      "text": 8040,
      "▁Fac": 8041,
      "▁IV": 8042,
      "▁Lim": 8043,
      "kansela": 8044,
      "OG": 8045,
      "ido": 8046,
      "gada": 8047,
      "mical": 8048,
      "▁Ham": 8049,
      "▁hubog": 8050,
      "▁hours": 8051,
      "▁Tai": 8052,
      "▁global": 8053,
      "▁ball": 8054,
      "hood": 8055,
      "arance": 8056,
      "▁union": 8057,
      "ratehiya": 8058,
      "uin": 8059,
      "uda": 8060,
      "▁daan": 8061,
      "▁easy": 8062,
      "torial": 8063,
      "nubay": 8064,
      "▁iOS": 8065,
      "otto": 8066,
      "lesia": 8067,
      "▁diets": 8068,
      "ng-tao": 8069,
      "eration": 8070,
      "▁Last": 8071,
      "▁Covid": 8072,
      "▁palagay": 8073,
      "▁title": 8074,
      "▁College": 8075,
      "RT": 8076,
      "▁talim": 8077,
      "▁cool": 8078,
      "istry": 8079,
      "▁imperya": 8080,
      "▁thing": 8081,
      "▁Miguel": 8082,
      "▁powder": 8083,
      "▁pananagot": 8084,
      "▁e-": 8085,
      "siyal": 8086,
      "▁factor": 8087,
      "▁belie": 8088,
      "▁cases": 8089,
      "▁ngumiti": 8090,
      "▁Mobile": 8091,
      "▁Okay": 8092,
      "ublish": 8093,
      "▁salakay": 8094,
      "yerkules": 8095,
      "▁dalhin": 8096,
      "▁abu": 8097,
      "▁gaso": 8098,
      "▁ulam": 8099,
      "▁konte": 8100,
      "▁double": 8101,
      "▁41": 8102,
      "▁44": 8103,
      "▁komplikasyon": 8104,
      "▁music": 8105,
      "cra": 8106,
      "▁lagas": 8107,
      "▁rock": 8108,
      "▁court": 8109,
      "▁feedback": 8110,
      "▁August": 8111,
      "ardo": 8112,
      "rey": 8113,
      "▁spam": 8114,
      "▁Local": 8115,
      "cell": 8116,
      "▁Natura": 8117,
      "ANG": 8118,
      "lars": 8119,
      "dena": 8120,
      "▁i-click": 8121,
      "▁pinans": 8122,
      "▁95": 8123,
      "▁komprehen": 8124,
      "▁jackpot": 8125,
      "pay": 8126,
      "diya": 8127,
      "dinan": 8128,
      "▁akma": 8129,
      "▁hiram": 8130,
      "▁pinapa": 8131,
      "▁sug": 8132,
      "▁Den": 8133,
      "▁cover": 8134,
      "▁kumpetisyon": 8135,
      "▁sabwat": 8136,
      "▁Belarus": 8137,
      "▁gasolina": 8138,
      "lax": 8139,
      "▁Clo": 8140,
      "▁palibot": 8141,
      "▁teleserye": 8142,
      "claim": 8143,
      "▁FA": 8144,
      "▁Vin": 8145,
      "▁pasensya": 8146,
      "▁konop": 8147,
      "▁43": 8148,
      "▁illegal": 8149,
      "▁pinta": 8150,
      "▁alon": 8151,
      "▁miyerkules": 8152,
      "▁teritoryo": 8153,
      "▁kwentong": 8154,
      "▁Angeles": 8155,
      "▁kritikal": 8156,
      "▁basketball": 8157,
      "▁ipa": 8158,
      "▁Mad": 8159,
      "▁Tho": 8160,
      "▁coach": 8161,
      "iller": 8162,
      "▁secure": 8163,
      "nger": 8164,
      "▁keso": 8165,
      "▁together": 8166,
      "▁mag-click": 8167,
      "▁kontribusyon": 8168,
      "▁tagapa": 8169,
      "struction": 8170,
      "cor": 8171,
      "arsk": 8172,
      "estyle": 8173,
      "▁kumpiyansa": 8174,
      "▁Manny": 8175,
      "▁pagpapaunlad": 8176,
      "gent": 8177,
      "▁Lac": 8178,
      "▁magpasya": 8179,
      "ensity": 8180,
      "▁calorie": 8181,
      "▁poly": 8182,
      "ruktura": 8183,
      "▁akade": 8184,
      "▁East": 8185,
      "uko": 8186,
      "▁silip": 8187,
      "lee": 8188,
      "▁konektado": 8189,
      "▁ub": 8190,
      "▁ewan": 8191,
      "▁tamad": 8192,
      "optimize": 8193,
      "ime": 8194,
      "▁sata": 8195,
      "hak": 8196,
      "▁patnubay": 8197,
      "ligro": 8198,
      "▁chain": 8199,
      "uage": 8200,
      "▁click": 8201,
      "▁SEC": 8202,
      "▁landi": 8203,
      "▁template": 8204,
      "vertise": 8205,
      "▁September": 8206,
      "▁audio": 8207,
      "▁samb": 8208,
      "▁pista": 8209,
      "▁Jessi": 8210,
      "mination": 8211,
      "pose": 8212,
      "▁Wa": 8213,
      "▁lymp": 8214,
      "▁Oper": 8215,
      "▁meal": 8216,
      "▁Ins": 8217,
      "▁pangal": 8218,
      "▁holiday": 8219,
      "▁Download": 8220,
      "▁satanas": 8221,
      "UE": 8222,
      "kata": 8223,
      "pic": 8224,
      "▁citi": 8225,
      "▁Ipina": 8226,
      "▁Land": 8227,
      "▁peligro": 8228,
      "▁production": 8229,
      "▁effects": 8230,
      "▁alumin": 8231,
      "▁British": 8232,
      "gon": 8233,
      "gger": 8234,
      "▁Tags": 8235,
      "▁lindol": 8236,
      "riendly": 8237,
      "▁Pigmentation": 8238,
      "▁diumano": 8239,
      "▁Bud": 8240,
      "▁guys": 8241,
      "▁Surgery": 8242,
      "dian": 8243,
      "star": 8244,
      "▁Machine": 8245,
      "vation": 8246,
      "▁ahensiya": 8247,
      "▁laptop": 8248,
      "▁flat": 8249,
      "▁kaharap": 8250,
      "▁moisturizing": 8251,
      "▁chocolate": 8252,
      "phy": 8253,
      "▁Sige": 8254,
      "▁istor": 8255,
      "▁49": 8256,
      "▁singaw": 8257,
      "▁vacci": 8258,
      "▁able": 8259,
      "▁pran": 8260,
      "tial": 8261,
      "▁tupa": 8262,
      "paign": 8263,
      "▁CP": 8264,
      "urn": 8265,
      "▁Abra": 8266,
      "walat": 8267,
      "▁RE": 8268,
      "▁broker": 8269,
      "sag": 8270,
      "erna": 8271,
      "▁milk": 8272,
      "▁giliw": 8273,
      "▁sheet": 8274,
      "▁eksperimento": 8275,
      "▁nakaranas": 8276,
      "▁tiyaga": 8277,
      "IK": 8278,
      "▁ayun": 8279,
      "▁FR": 8280,
      "utube": 8281,
      "▁coup": 8282,
      "▁Road": 8283,
      "▁gradu": 8284,
      "▁mag-apply": 8285,
      "ubili": 8286,
      "fast": 8287,
      "▁atubili": 8288,
      "▁cere": 8289,
      "▁pangga": 8290,
      "▁parents": 8291,
      "▁Kids": 8292,
      "▁bulag": 8293,
      "▁operating": 8294,
      "▁panatilihin": 8295,
      "▁Malyshe": 8296,
      "ktot": 8297,
      "▁pukaw": 8298,
      "▁agaran": 8299,
      "▁army": 8300,
      "▁teror": 8301,
      "▁Master": 8302,
      "▁pagkakatiwala": 8303,
      "▁performance": 8304,
      "dinand": 8305,
      "▁nakapag": 8306,
      "▁bung": 8307,
      "▁reac": 8308,
      "▁Sout": 8309,
      "▁pagbabagong-": 8310,
      "▁baluktot": 8311,
      "rek": 8312,
      "▁gate": 8313,
      "▁ubas": 8314,
      "▁bike": 8315,
      "▁mukha-angat": 8316,
      "▁services": 8317,
      "▁tanga": 8318,
      "ugg": 8319,
      "ruary": 8320,
      "bela": 8321,
      "▁2000": 8322,
      "ched": 8323,
      "▁Peter": 8324,
      "SP": 8325,
      "▁mik": 8326,
      "▁Women": 8327,
      "▁Security": 8328,
      "▁crush": 8329,
      "▁entry": 8330,
      "▁claim": 8331,
      "▁MD": 8332,
      "▁lugi": 8333,
      "▁Lt": 8334,
      "▁aspir": 8335,
      "▁armas": 8336,
      "ITY": 8337,
      "▁nakakaranas": 8338,
      "▁buwa": 8339,
      "▁Tar": 8340,
      "▁Eli": 8341,
      "▁allow": 8342,
      "▁3D": 8343,
      "▁tattoo": 8344,
      "type": 8345,
      "noyarsk": 8346,
      "▁dam": 8347,
      "wapo": 8348,
      "▁Blog": 8349,
      "▁hilo": 8350,
      "▁hormones": 8351,
      "▁ingredients": 8352,
      "sules": 8353,
      "▁Cre": 8354,
      "▁Dec": 8355,
      "▁Full": 8356,
      "▁gramo": 8357,
      "▁Administr": 8358,
      "aning": 8359,
      "▁draw": 8360,
      "▁dawag": 8361,
      "▁tagas": 8362,
      "loe": 8363,
      "▁labatiba": 8364,
      "▁tono": 8365,
      "matay": 8366,
      "▁terminal": 8367,
      "▁America": 8368,
      "▁aqu": 8369,
      "▁liko": 8370,
      "▁Trans": 8371,
      "▁promo": 8372,
      "▁binhi": 8373,
      "▁stories": 8374,
      "uses": 8375,
      "▁offer": 8376,
      "▁Non": 8377,
      "▁Nar": 8378,
      "vernor": 8379,
      "▁turn": 8380,
      "-R": 8381,
      "▁sar": 8382,
      "itical": 8383,
      "▁siwalat": 8384,
      "▁Fire": 8385,
      "iling": 8386,
      "▁Em": 8387,
      "▁bentahe": 8388,
      "▁beauti": 8389,
      "entigo": 8390,
      "▁baliw": 8391,
      "pu": 8392,
      "▁anyos": 8393,
      "▁database": 8394,
      "▁china": 8395,
      "▁half": 8396,
      "▁Jane": 8397,
      "▁complex": 8398,
      "ommerce": 8399,
      "▁payuhan": 8400,
      "worms": 8401,
      "▁Bagama": 8402,
      "▁os": 8403,
      "ony": 8404,
      "▁kumusta": 8405,
      "▁Nor": 8406,
      "▁design": 8407,
      "▁destina": 8408,
      "▁fashion": 8409,
      "▁titik": 8410,
      "▁ulap": 8411,
      "hia": 8412,
      "stand": 8413,
      "▁trade": 8414,
      "▁dispos": 8415,
      "▁Meron": 8416,
      "▁mom": 8417,
      "▁premium": 8418,
      "wever": 8419,
      "▁tukso": 8420,
      "▁palabas": 8421,
      "gs": 8422,
      "▁2nd": 8423,
      "nown": 8424,
      "▁patol": 8425,
      "▁bangka": 8426,
      "▁Brown": 8427,
      "▁Joseph": 8428,
      "yenda": 8429,
      "▁Rate": 8430,
      "dero": 8431,
      "▁cable": 8432,
      "▁supplements": 8433,
      "▁Remove": 8434,
      "▁Krasnoyarsk": 8435,
      "▁espanya": 8436,
      "▁date": 8437,
      "000": 8438,
      "▁kase": 8439,
      "▁ilihan": 8440,
      "▁questions": 8441,
      "▁plugin": 8442,
      "flix": 8443,
      "▁son": 8444,
      "▁sau": 8445,
      "tio": 8446,
      "lect": 8447,
      "▁van": 8448,
      "▁appo": 8449,
      "▁turuan": 8450,
      "testa": 8451,
      "▁sorry": 8452,
      "▁mental": 8453,
      "▁lift": 8454,
      "▁prov": 8455,
      "▁display": 8456,
      "▁Now": 8457,
      "▁ilarawan": 8458,
      "▁Elect": 8459,
      "▁shabu": 8460,
      "ants": 8461,
      "▁Pablo": 8462,
      "-F": 8463,
      "▁Bagu": 8464,
      "▁Eva": 8465,
      "▁Ener": 8466,
      "▁cheese": 8467,
      "▁talento": 8468,
      "▁Spokes": 8469,
      "▁Ferdinand": 8470,
      "kins": 8471,
      "▁Der": 8472,
      "via": 8473,
      "▁based": 8474,
      "▁india": 8475,
      "ATION": 8476,
      "▁Acne": 8477,
      "▁levels": 8478,
      "▁naranasan": 8479,
      "bus": 8480,
      "rio": 8481,
      "▁gene": 8482,
      "▁pores": 8483,
      "istro": 8484,
      "▁kitten": 8485,
      "▁takpan": 8486,
      "▁zone": 8487,
      "▁chance": 8488,
      "14": 8489,
      "ws": 8490,
      "▁domes": 8491,
      "rease": 8492,
      "hab": 8493,
      "▁Form": 8494,
      "▁tapeworm": 8495,
      "▁salon": 8496,
      "▁lagpas": 8497,
      "▁session": 8498,
      "▁makipag": 8499,
      "gayan": 8500,
      "▁esk": 8501,
      "▁resol": 8502,
      "▁talk": 8503,
      "▁kabuti": 8504,
      "▁250": 8505,
      "tility": 8506,
      "▁essays": 8507,
      "▁graphic": 8508,
      "▁tuldok": 8509,
      "▁drink": 8510,
      "rez": 8511,
      "ulate": 8512,
      "▁solid": 8513,
      "▁These": 8514,
      "▁Luis": 8515,
      "istrito": 8516,
      "▁inilalagay": 8517,
      "▁college": 8518,
      "SO": 8519,
      "▁mys": 8520,
      "▁CD": 8521,
      "▁oc": 8522,
      "▁award": 8523,
      "▁Indust": 8524,
      "17": 8525,
      "ushek": 8526,
      "▁map": 8527,
      "▁magka": 8528,
      "istration": 8529,
      "▁Parasite": 8530,
      "▁financial": 8531,
      "▁rea": 8532,
      "▁suplay": 8533,
      "▁NBA": 8534,
      "▁hyper": 8535,
      "lipika": 8536,
      "▁subscription": 8537,
      "cations": 8538,
      "▁atensyon": 8539,
      "sipe": 8540,
      "▁prost": 8541,
      "▁possible": 8542,
      "▁cone": 8543,
      "▁2007": 8544,
      "▁domestic": 8545,
      "▁stra": 8546,
      "▁langoy": 8547,
      "gitnaan": 8548,
      "▁pusta": 8549,
      "walipika": 8550,
      "▁sibol": 8551,
      "▁pere": 8552,
      "▁isasa": 8553,
      "▁Ken": 8554,
      "▁Kump": 8555,
      "ehova": 8556,
      "▁deter": 8557,
      "▁pareha": 8558,
      "▁Antonio": 8559,
      "ech": 8560,
      "▁Sotto": 8561,
      "resyon": 8562,
      "▁kalagitnaan": 8563,
      "▁Ans": 8564,
      "▁fecal": 8565,
      "▁roller": 8566,
      "heads": 8567,
      "▁February": 8568,
      "▁kred": 8569,
      "▁distrito": 8570,
      "rime": 8571,
      "▁achie": 8572,
      "mond": 8573,
      "▁Engine": 8574,
      "▁Community": 8575,
      "▁Posted": 8576,
      "▁obserba": 8577,
      "▁senti": 8578,
      "organ": 8579,
      "▁maa": 8580,
      "▁Ci": 8581,
      "▁emo": 8582,
      "▁sumpa": 8583,
      "▁Far": 8584,
      "▁Van": 8585,
      "romote": 8586,
      "▁repub": 8587,
      "▁times": 8588,
      "▁Christian": 8589,
      "▁Ess": 8590,
      "▁sumailalim": 8591,
      "▁Earth": 8592,
      "▁bakas": 8593,
      "▁Am": 8594,
      "▁Night": 8595,
      "▁Happy": 8596,
      "▁mush": 8597,
      "▁bitaw": 8598,
      "▁whole": 8599,
      "▁getting": 8600,
      "▁Words": 8601,
      "▁banat": 8602,
      "ella": 8603,
      "soft": 8604,
      "▁pinansyal": 8605,
      "▁ml": 8606,
      "iry": 8607,
      "▁Hay": 8608,
      "▁until": 8609,
      "▁challe": 8610,
      "▁rebel": 8611,
      "▁Pol": 8612,
      "▁Log": 8613,
      "▁Def": 8614,
      "▁statement": 8615,
      "▁ع": 8616,
      "▁ointment": 8617,
      "▁Tok": 8618,
      "odes": 8619,
      "▁Mag-": 8620,
      "▁important": 8621,
      "verify": 8622,
      "-K": 8623,
      "Ed": 8624,
      "vic": 8625,
      "▁move": 8626,
      "▁toe": 8627,
      "▁panahunan": 8628,
      "▁supplier": 8629,
      "▁space": 8630,
      "▁bulok": 8631,
      "▁mananatili": 8632,
      "▁Film": 8633,
      "▁mushroom": 8634,
      "df": 8635,
      "mihan": 8636,
      "▁himala": 8637,
      "▁insurance": 8638,
      "presa": 8639,
      "▁continue": 8640,
      "15": 8641,
      "VPN": 8642,
      "▁ping": 8643,
      "▁Ir": 8644,
      "▁See": 8645,
      "▁chicken": 8646,
      "▁limitahan": 8647,
      "▁cli": 8648,
      "hiyoso": 8649,
      "▁talamak": 8650,
      "helle": 8651,
      "▁sust": 8652,
      "▁pit": 8653,
      "▁atta": 8654,
      "wang-tao": 8655,
      "ho-host": 8656,
      "▁Remedies": 8657,
      "▁don't": 8658,
      "hhhhhhhh": 8659,
      "▁professional": 8660,
      "▁drugs": 8661,
      "▁pangako": 8662,
      "ared": 8663,
      "▁Sus": 8664,
      "▁Ky": 8665,
      "ikleta": 8666,
      "▁mini": 8667,
      "▁reput": 8668,
      "▁Reso": 8669,
      "▁Agric": 8670,
      "▁yaya": 8671,
      "▁Jud": 8672,
      "▁espirituwal": 8673,
      "▁steroid": 8674,
      "▁lapad": 8675,
      "▁kapital": 8676,
      "▁capa": 8677,
      "conut": 8678,
      "scribe": 8679,
      "▁komprehensibong": 8680,
      "ernador": 8681,
      "▁Most": 8682,
      "▁DN": 8683,
      "▁bisikleta": 8684,
      "▁mix": 8685,
      "▁filter": 8686,
      "▁entertainment": 8687,
      "rick": 8688,
      "▁meeting": 8689,
      "uck": 8690,
      "▁kooper": 8691,
      "▁Clinic": 8692,
      "terya": 8693,
      "▁lutang": 8694,
      "▁dalag": 8695,
      "▁Ya": 8696,
      "▁Netflix": 8697,
      "▁version": 8698,
      "▁silin": 8699,
      "irit": 8700,
      "▁puta": 8701,
      "▁takbu": 8702,
      "▁busy": 8703,
      "▁dingding": 8704,
      "▁perehil": 8705,
      "mpla": 8706,
      "▁mike": 8707,
      "ishing": 8708,
      "▁oliba": 8709,
      "ane": 8710,
      "inip": 8711,
      "▁Come": 8712,
      "▁everything": 8713,
      "▁Singapore": 8714,
      "▁monoxide": 8715,
      "99": 8716,
      "bir": 8717,
      "▁anime": 8718,
      "▁Camp": 8719,
      "▁Crusher": 8720,
      "▁CB": 8721,
      "▁Lear": 8722,
      "▁Jehova": 8723,
      "ustos": 8724,
      "▁hop": 8725,
      "▁igting": 8726,
      "LA": 8727,
      "ged": 8728,
      "▁nec": 8729,
      "▁Categ": 8730,
      "▁Affa": 8731,
      "▁pasig": 8732,
      "▁accoun": 8733,
      "▁literal": 8734,
      "▁Baguio": 8735,
      "life": 8736,
      "▁SC": 8737,
      "duce": 8738,
      "▁nakamit": 8739,
      "▁Rostov": 8740,
      "▁tas": 8741,
      "▁BR": 8742,
      "▁nagpa": 8743,
      "▁km": 8744,
      "▁bale": 8745,
      "▁Alden": 8746,
      "▁little": 8747,
      "▁ult": 8748,
      "yna": 8749,
      "isy": 8750,
      "▁palo": 8751,
      "mano": 8752,
      "obs": 8753,
      "▁guy": 8754,
      "▁pilak": 8755,
      "▁kamara": 8756,
      "lifting": 8757,
      "▁floor": 8758,
      "cular": 8759,
      "the": 8760,
      "▁nuno": 8761,
      "▁PBA": 8762,
      "▁patients": 8763,
      "▁worker": 8764,
      "▁Naturally": 8765,
      "▁sambit": 8766,
      "'re": 8767,
      "plo": 8768,
      "▁NCR": 8769,
      "pped": 8770,
      "▁sanib": 8771,
      "▁Account": 8772,
      "▁Bible": 8773,
      "▁error": 8774,
      "▁garden": 8775,
      "▁football": 8776,
      "-kaya": 8777,
      "lili": 8778,
      "▁focus": 8779,
      "▁kumpleto": 8780,
      "▁Dad": 8781,
      "▁favor": 8782,
      "▁nutri": 8783,
      "▁transpar": 8784,
      "▁building": 8785,
      "▁creat": 8786,
      "▁Light": 8787,
      "▁Hall": 8788,
      "▁stage": 8789,
      "gasig": 8790,
      "tya": 8791,
      "▁cabin": 8792,
      "▁gum": 8793,
      "▁espe": 8794,
      "▁pag-click": 8795,
      "▁extension": 8796,
      "▁intro": 8797,
      "comm": 8798,
      "▁Special": 8799,
      "ladi": 8800,
      "▁lower": 8801,
      "▁exam": 8802,
      "▁mind": 8803,
      "▁Queen": 8804,
      "tre": 8805,
      "riga": 8806,
      "▁gus": 8807,
      "▁Task": 8808,
      "▁plate": 8809,
      "▁Taiwan": 8810,
      "-H": 8811,
      "▁ayo": 8812,
      "▁figure": 8813,
      "▁Sign": 8814,
      "edding": 8815,
      "lisasyon": 8816,
      "▁yours": 8817,
      "▁niyog": 8818,
      "umigmig": 8819,
      "▁Jessica": 8820,
      "▁kos": 8821,
      "dex": 8822,
      "▁videos": 8823,
      "▁elekt": 8824,
      "▁munti": 8825,
      "-ki": 8826,
      "hot": 8827,
      "▁ilat": 8828,
      "▁Ryan": 8829,
      "▁tox": 8830,
      "▁Kin": 8831,
      "▁Exc": 8832,
      "▁circuit": 8833,
      "witch": 8834,
      "▁halumigmig": 8835,
      "▁Corporation": 8836,
      "▁ning": 8837,
      "▁puwit": 8838,
      "▁alko": 8839,
      "mmmm": 8840,
      "ERS": 8841,
      "▁medicine": 8842,
      "▁owner": 8843,
      "▁physical": 8844,
      "xid": 8845,
      "lished": 8846,
      "▁lentigo": 8847,
      "eograp": 8848,
      "▁pag-re": 8849,
      "▁common": 8850,
      "▁cosmetology": 8851,
      "▁clearance": 8852,
      "▁Hello": 8853,
      "▁silindro": 8854,
      "▁ada": 8855,
      "▁remo": 8856,
      "▁recei": 8857,
      "midad": 8858,
      "▁GR": 8859,
      "▁nagd": 8860,
      "ranch": 8861,
      "▁band": 8862,
      "▁bayaw": 8863,
      "▁riyan": 8864,
      "▁laglag": 8865,
      "▁bulsa": 8866,
      "▁personalidad": 8867,
      "▁Music": 8868,
      "▁original": 8869,
      "▁album": 8870,
      "▁photos": 8871,
      "▁giling": 8872,
      "lization": 8873,
      "▁Store": 8874,
      "vestigation": 8875,
      "liam": 8876,
      "▁reason": 8877,
      "atibo": 8878,
      "▁contain": 8879,
      "-panabik": 8880,
      "-friendly": 8881,
      "▁pison": 8882,
      "ILG": 8883,
      "lassic": 8884,
      "▁sigasig": 8885,
      "▁tung": 8886,
      "umber": 8887,
      "geon": 8888,
      "▁kumpirma": 8889,
      "drome": 8890,
      "▁rebolus": 8891,
      "TA": 8892,
      "▁hol": 8893,
      "▁docu": 8894,
      "▁station": 8895,
      "▁1000": 8896,
      "▁Research": 8897,
      "▁takipmata": 8898,
      "▁brief": 8899,
      "PR": 8900,
      "lisay": 8901,
      "▁Watch": 8902,
      "ady": 8903,
      "▁once": 8904,
      "cept": 8905,
      "▁kilometro": 8906,
      "bla": 8907,
      "▁daga": 8908,
      "▁pawa": 8909,
      "igla": 8910,
      "▁minutes": 8911,
      "▁kalamidad": 8912,
      "▁admin": 8913,
      "▁katoliko": 8914,
      "▁USD": 8915,
      "▁medium": 8916,
      "▁idea": 8917,
      "musal": 8918,
      "▁bunso": 8919,
      "▁DSWD": 8920,
      "medi": 8921,
      "▁veins": 8922,
      "▁pamahagi": 8923,
      "plasty": 8924,
      "▁bacter": 8925,
      "▁Sky": 8926,
      "ciety": 8927,
      "▁load": 8928,
      "▁meat": 8929,
      "▁02": 8930,
      "▁ground": 8931,
      "▁instant": 8932,
      "▁words": 8933,
      "impluwensya": 8934,
      "EG": 8935,
      "tro": 8936,
      "▁ur": 8937,
      "kos": 8938,
      "▁liham": 8939,
      "▁CEO": 8940,
      "▁Cagayan": 8941,
      "▁Table": 8942,
      "▁streaming": 8943,
      "pha": 8944,
      "▁ihanda": 8945,
      "▁size": 8946,
      "maw": 8947,
      "▁FOR": 8948,
      "▁points": 8949,
      "▁Kwento": 8950,
      "▁kapita": 8951,
      "zole": 8952,
      "▁analysis": 8953,
      "eth": 8954,
      "▁Stand": 8955,
      "-chat": 8956,
      "▁Add": 8957,
      "▁zero": 8958,
      "▁bunsod": 8959,
      "▁immune": 8960,
      "uction": 8961,
      "▁LED": 8962,
      "▁conver": 8963,
      "▁Website": 8964,
      "rag": 8965,
      "zal": 8966,
      "▁ev": 8967,
      "▁Festival": 8968,
      "▁Kath": 8969,
      "▁talent": 8970,
      "▁France": 8971,
      "▁via": 8972,
      "prise": 8973,
      "uga": 8974,
      "▁today": 8975,
      "utista": 8976,
      "▁true": 8977,
      "▁hosting": 8978,
      "uum": 8979,
      "rian": 8980,
      "▁def": 8981,
      "member": 8982,
      "▁komers": 8983,
      "▁Lee": 8984,
      "▁ruta": 8985,
      "▁learning": 8986,
      "-si": 8987,
      "aral": 8988,
      "▁makumpleto": 8989,
      "▁DILG": 8990,
      "▁shows": 8991,
      "istika": 8992,
      "▁cla": 8993,
      "kabok": 8994,
      "idel": 8995,
      "▁dibdib-angat": 8996,
      "▁nagsasagawa": 8997,
      "▁almusal": 8998,
      "▁asal": 8999,
      "ized": 9000,
      "▁'y": 9001,
      "▁alikabok": 9002,
      "▁herbal": 9003,
      "▁indian": 9004,
      "▁industry": 9005,
      "له": 9006,
      "into": 9007,
      "arya": 9008,
      "pikasyon": 9009,
      "▁lastname": 9010,
      "▁booking": 9011,
      "yur": 9012,
      "▁tustos": 9013,
      "▁CA": 9014,
      "▁lakip": 9015,
      "▁fact": 9016,
      "▁var": 9017,
      "mitted": 9018,
      "loyd": 9019,
      "▁field": 9020,
      "▁status": 9021,
      "▁sy": 9022,
      "▁pm": 9023,
      "▁dream": 9024,
      "▁kain": 9025,
      "▁women": 9026,
      "▁Cast": 9027,
      "▁tined": 9028,
      "▁cosmetics": 9029,
      "kita": 9030,
      "▁hap": 9031,
      "▁firstname": 9032,
      "▁concert": 9033,
      "▁Entertainment": 9034,
      "▁Energy": 9035,
      "▁reputasyon": 9036,
      "▁hur": 9037,
      "▁Tes": 9038,
      "▁copy": 9039,
      "itude": 9040,
      "▁swimsuit": 9041,
      "▁ukulan": 9042,
      "-E": 9043,
      "fort": 9044,
      "▁Cosme": 9045,
      "tead": 9046,
      "lica": 9047,
      "▁haligi": 9048,
      "▁kapal": 9049,
      "ritis": 9050,
      "▁Back": 9051,
      "▁hardware": 9052,
      "▁pagmaman": 9053,
      "▁bangga": 9054,
      "hilan": 9055,
      "▁Oli": 9056,
      "▁index": 9057,
      "ctive": 9058,
      "▁sabaw": 9059,
      "▁kumb": 9060,
      "▁luwal": 9061,
      "▁mags": 9062,
      "ured": 9063,
      "▁shopping": 9064,
      "▁four": 9065,
      "▁history": 9066,
      "▁rosas": 9067,
      "▁CN": 9068,
      "▁Abo": 9069,
      "monya": 9070,
      "ushka": 9071,
      "▁students": 9072,
      "▁Affairs": 9073,
      "▁especially": 9074,
      "ayas": 9075,
      "rown": 9076,
      "▁masdan": 9077,
      "▁Bags": 9078,
      "▁NPA": 9079,
      "▁husga": 9080,
      "▁Grade": 9081,
      "▁visit": 9082,
      "▁writing": 9083,
      "▁analog": 9084,
      "RR": 9085,
      "▁____": 9086,
      "▁Rub": 9087,
      "▁EX": 9088,
      "vies": 9089,
      "70": 9090,
      "mati": 9091,
      "▁Pen": 9092,
      "▁scam": 9093,
      "▁Carbon": 9094,
      "▁viral": 9095,
      "▁fiber": 9096,
      "finition": 9097,
      "▁kesa": 9098,
      "▁oh": 9099,
      "▁timpla": 9100,
      "▁Ras": 9101,
      "▁Nung": 9102,
      "▁campaign": 9103,
      "-mil": 9104,
      "▁turismo": 9105,
      "-carb": 9106,
      "ever": 9107,
      "ither": 9108,
      "lod": 9109,
      "▁paha": 9110,
      "▁Sat": 9111,
      "vious": 9112,
      "▁Mega": 9113,
      "▁gobernador": 9114,
      "▁producer": 9115,
      "▁transportation": 9116,
      "▁random": 9117,
      "▁FACE": 9118,
      "TR": 9119,
      "nut": 9120,
      "wari": 9121,
      "▁pwesto": 9122,
      "▁death": 9123,
      "▁ministro": 9124,
      "unduan": 9125,
      "▁porma": 9126,
      "▁maranasan": 9127,
      "weldo": 9128,
      "▁chang": 9129,
      "tamo": 9130,
      "▁Ven": 9131,
      "▁castor": 9132,
      "▁saglit": 9133,
      "▁insekto": 9134,
      "▁seguro": 9135,
      "▁relationship": 9136,
      "▁ten": 9137,
      "▁Hal": 9138,
      "▁Ufa": 9139,
      "▁52": 9140,
      "▁apple": 9141,
      "naginip": 9142,
      "izon": 9143,
      "▁Cala": 9144,
      "▁Express": 9145,
      "▁distansya": 9146,
      "▁situ": 9147,
      "hiko": 9148,
      "▁resort": 9149,
      "▁Nico": 9150,
      "▁Long": 9151,
      "rator": 9152,
      "▁edit": 9153,
      "onic": 9154,
      "▁Joy": 9155,
      "arty": 9156,
      "▁pregnan": 9157,
      "▁Officer": 9158,
      "▁benefits": 9159,
      "hes": 9160,
      "onom": 9161,
      "rect": 9162,
      "▁PEP": 9163,
      "▁Vladi": 9164,
      "lymp": 9165,
      "▁kind": 9166,
      "▁Technology": 9167,
      "UM": 9168,
      "ratiko": 9169,
      "▁morning": 9170,
      "▁truck": 9171,
      "▁kabi": 9172,
      "▁SSS": 9173,
      "▁tiago": 9174,
      "vings": 9175,
      "▁William": 9176,
      "▁expla": 9177,
      "▁tuluy": 9178,
      "eryo": 9179,
      "▁saksak": 9180,
      "ells": 9181,
      "▁inggit": 9182,
      "▁taguri": 9183,
      "▁ketone": 9184,
      "▁necess": 9185,
      "▁unan": 9186,
      "▁trial": 9187,
      "rite": 9188,
      "▁kc": 9189,
      "▁pills": 9190,
      "▁koton": 9191,
      "▁clin": 9192,
      "sesong": 9193,
      "rub": 9194,
      "▁Bul": 9195,
      "▁toes": 9196,
      "▁hea": 9197,
      "▁piloso": 9198,
      "18": 9199,
      "▁Squ": 9200,
      "▁parke": 9201,
      "▁rit": 9202,
      "▁Leni": 9203,
      "▁puff": 9204,
      "kasya": 9205,
      "▁register": 9206,
      "fully": 9207,
      "▁Mass": 9208,
      "▁siksik": 9209,
      "▁harina": 9210,
      "▁mananatiling": 9211,
      "-star": 9212,
      "mula": 9213,
      "riage": 9214,
      "boa": 9215,
      "▁lose": 9216,
      "▁tangkad": 9217,
      "▁korpor": 9218,
      "-tuloy": 9219,
      "▁ci": 9220,
      "▁BC": 9221,
      "▁Jin": 9222,
      "▁mammo": 9223,
      "▁Coco": 9224,
      "▁eno": 9225,
      "▁rig": 9226,
      "▁bor": 9227,
      "▁niyon": 9228,
      "▁future": 9229,
      "▁magic": 9230,
      "▁consider": 9231,
      "▁Mag-click": 9232,
      "ESS": 9233,
      "▁Japanese": 9234,
      "▁Congress": 9235,
      "HT": 9236,
      "▁tv": 9237,
      "asis": 9238,
      "▁palay": 9239,
      "▁issu": 9240,
      "▁armado": 9241,
      "mpapa": 9242,
      "rench": 9243,
      "▁bangkay": 9244,
      "▁Series": 9245,
      "▁Elena": 9246,
      "▁kaunti": 9247,
      "▁tuluy-tuloy": 9248,
      "▁Family": 9249,
      "▁vlog": 9250,
      "▁tex": 9251,
      "▁i-c": 9252,
      "▁cardio": 9253,
      "▁repolyo": 9254,
      "▁organic": 9255,
      "ript": 9256,
      "▁recomm": 9257,
      "▁equipment": 9258,
      "kus": 9259,
      "aged": 9260,
      "▁nmn": 9261,
      "royo": 9262,
      "▁sugg": 9263,
      "▁supre": 9264,
      "▁Lead": 9265,
      "▁Lou": 9266,
      "IVE": 9267,
      "▁blockchain": 9268,
      "ials": 9269,
      "rees": 9270,
      "logo": 9271,
      "▁firm": 9272,
      "▁proud": 9273,
      "▁camp": 9274,
      "▁kapana-panabik": 9275,
      "▁investment": 9276,
      "▁Agency": 9277,
      "▁sugo": 9278,
      "▁salmon": 9279,
      "nganga": 9280,
      "▁okasyon": 9281,
      "pisyal": 9282,
      "tellig": 9283,
      "▁Jacob": 9284,
      "▁bagama't": 9285,
      "fit": 9286,
      "▁BL": 9287,
      "▁nag-s": 9288,
      "aplay": 9289,
      "eous": 9290,
      "▁halimaw": 9291,
      "trade": 9292,
      "▁Airport": 9293,
      "asiwa": 9294,
      "▁enough": 9295,
      "oting": 9296,
      "▁pwet": 9297,
      "arin": 9298,
      "▁road": 9299,
      "▁fail": 9300,
      "▁past": 9301,
      "▁facebook": 9302,
      "▁upd": 9303,
      "▁65": 9304,
      "though": 9305,
      "cord": 9306,
      "je": 9307,
      "▁ayuda": 9308,
      "▁Chel": 9309,
      "ident": 9310,
      "▁pag-a": 9311,
      "▁59": 9312,
      "▁suppor": 9313,
      "▁sorpresa": 9314,
      "▁aspirin": 9315,
      "▁korporasyon": 9316,
      "MC": 9317,
      "bunyag": 9318,
      "aly": 9319,
      "▁hak": 9320,
      "ALL": 9321,
      "boslim": 9322,
      "wero": 9323,
      "▁sap": 9324,
      "diin": 9325,
      "▁AI": 9326,
      "▁Bob": 9327,
      "mega": 9328,
      "▁peace": 9329,
      "▁feat": 9330,
      "▁Executive": 9331,
      "▁lockdown": 9332,
      "PO": 9333,
      "SI": 9334,
      "▁male": 9335,
      "▁wild": 9336,
      "▁kulot": 9337,
      "▁Dol": 9338,
      "▁lupit": 9339,
      "▁Lam": 9340,
      "▁someone": 9341,
      "▁Fernando": 9342,
      "▁haw": 9343,
      "▁fresh": 9344,
      "itiis": 9345,
      "▁pag-update": 9346,
      "udine": 9347,
      "▁ilapat": 9348,
      "▁Chairman": 9349,
      "▁Thanks": 9350,
      "▁metabolic": 9351,
      "▁queen": 9352,
      "vironment": 9353,
      "▁tumor": 9354,
      "▁Code": 9355,
      "▁Some": 9356,
      "▁actually": 9357,
      "kumpirma": 9358,
      "▁Administration": 9359,
      "mpapawid": 9360,
      "▁slots": 9361,
      "▁sale": 9362,
      "lib": 9363,
      "▁cute": 9364,
      "▁P3": 9365,
      "▁minta": 9366,
      "▁i-play": 9367,
      "▁Governor": 9368,
      "▁backup": 9369,
      "break": 9370,
      "-the": 9371,
      "▁baccarat": 9372,
      "GE": 9373,
      "▁kulit": 9374,
      "▁Rol": 9375,
      "▁lingon": 9376,
      "halaga": 9377,
      "▁stars": 9378,
      "xygen": 9379,
      "▁bubo": 9380,
      "▁education": 9381,
      "▁Mate": 9382,
      "▁Municipal": 9383,
      "▁WOR": 9384,
      "▁Open": 9385,
      "▁kasunduan": 9386,
      "▁hops": 9387,
      "▁sagging": 9388,
      "▁120": 9389,
      "▁Week": 9390,
      "▁Ze": 9391,
      "▁proteksiyon": 9392,
      "▁espesyalista": 9393,
      "▁bloke": 9394,
      "▁pagtalik": 9395,
      "ound": 9396,
      "loc": 9397,
      "▁kambal": 9398,
      "▁rek": 9399,
      "▁Avenue": 9400,
      "mir": 9401,
      "▁projects": 9402,
      "▁alahas": 9403,
      "pela": 9404,
      "mercial": 9405,
      "▁Soft": 9406,
      "▁DepEd": 9407,
      "▁assistance": 9408,
      "▁hormonal": 9409,
      "▁pundamental": 9410,
      "▁Mommy": 9411,
      "▁tinedyer": 9412,
      "▁palas": 9413,
      "▁Cer": 9414,
      "▁Clar": 9415,
      "▁Then": 9416,
      "▁08": 9417,
      "kantot": 9418,
      "▁Diego": 9419,
      "-la": 9420,
      "ida": 9421,
      "▁tape": 9422,
      "▁meas": 9423,
      "▁56": 9424,
      "▁195": 9425,
      "▁2006": 9426,
      "▁sandal": 9427,
      "▁debate": 9428,
      "▁Malaca": 9429,
      "▁sam": 9430,
      "▁naapektuhan": 9431,
      "▁member": 9432,
      "▁imple": 9433,
      "▁presensya": 9434,
      "ubscribe": 9435,
      "▁beter": 9436,
      "▁latag": 9437,
      "▁imbestigahan": 9438,
      "▁biblia": 9439,
      "▁alemanya": 9440,
      "▁konopushki": 9441,
      "ulad": 9442,
      "igner": 9443,
      "inding": 9444,
      "▁Avon": 9445,
      "▁Tut": 9446,
      "▁guard": 9447,
      "▁artipisyal": 9448,
      "▁father": 9449,
      "▁needs": 9450,
      "▁caption": 9451,
      "▁Turboslim": 9452,
      "▁visual": 9453,
      "TH": 9454,
      "ctional": 9455,
      "print": 9456,
      "set": 9457,
      "▁av": 9458,
      "▁fin": 9459,
      "▁Every": 9460,
      "▁Rev": 9461,
      "▁ibabaw": 9462,
      "▁upload": 9463,
      "▁alkohol": 9464,
      "rs": 9465,
      "wes": 9466,
      "▁pato": 9467,
      "▁MC": 9468,
      "▁Olymp": 9469,
      "duhing": 9470,
      "▁bakwit": 9471,
      "▁bigyang-diin": 9472,
      "▁employer": 9473,
      "▁tauhan": 9474,
      "roke": 9475,
      "tig": 9476,
      "▁label": 9477,
      "istent": 9478,
      "▁Ann": 9479,
      "▁gold": 9480,
      "oca": 9481,
      "▁mapahusay": 9482,
      "▁USEC": 9483,
      "▁lagnat": 9484,
      "▁complete": 9485,
      "▁desktop": 9486,
      "▁pingga": 9487,
      "RI": 9488,
      "▁br": 9489,
      "ander": 9490,
      "▁having": 9491,
      "▁Cay": 9492,
      "▁Pin": 9493,
      "ciate": 9494,
      "like": 9495,
      "▁note": 9496,
      "otherapy": 9497,
      "facio": 9498,
      "▁high-": 9499,
      "clear": 9500,
      "VER": 9501,
      "▁paniwala": 9502,
      "▁tambal": 9503,
      "ority": 9504,
      "sam": 9505,
      "quency": 9506,
      "▁grade": 9507,
      "▁tamod": 9508,
      "▁hehehe": 9509,
      "▁seizure": 9510,
      "▁estrada": 9511,
      "▁pranses": 9512,
      "▁republika": 9513,
      "-I": 9514,
      "kes": 9515,
      "dik": 9516,
      "▁Pal": 9517,
      "mbalik": 9518,
      "-publish": 9519,
      "▁payout": 9520,
      "elfare": 9521,
      "▁Microsoft": 9522,
      "▁appointment": 9523,
      "▁subo": 9524,
      "▁talambuhay": 9525,
      "▁cong": 9526,
      "gulo": 9527,
      "▁broad": 9528,
      "▁sinusuportahan": 9529,
      "▁quarry": 9530,
      "BM": 9531,
      "ators": 9532,
      "▁dual": 9533,
      "dera": 9534,
      "▁cross": 9535,
      "▁1st": 9536,
      "▁perfect": 9537,
      "▁metabolismo": 9538,
      "GB": 9539,
      "▁clos": 9540,
      "osed": 9541,
      "▁Boni": 9542,
      "▁kumon": 9543,
      "▁Tal": 9544,
      "▁Leo": 9545,
      "▁Eff": 9546,
      "ully": 9547,
      "▁Os": 9548,
      "▁others": 9549,
      "ledge": 9550,
      "▁bunot": 9551,
      "▁Gaming": 9552,
      "▁padre": 9553,
      "ing-": 9554,
      "▁release": 9555,
      "▁mantika": 9556,
      "▁Fat": 9557,
      "▁karot": 9558,
      "▁Cola": 9559,
      "▁agree": 9560,
      "▁View": 9561,
      "▁consumer": 9562,
      "▁capsules": 9563,
      "▁baraha": 9564,
      "cs": 9565,
      "lism": 9566,
      "artamento": 9567,
      "bor": 9568,
      "▁switch": 9569,
      "▁Sund": 9570,
      "▁panty": 9571,
      "pikal": 9572,
      "▁litro": 9573,
      "▁ketones": 9574,
      "▁ebidensya": 9575,
      "ests": 9576,
      "▁dina": 9577,
      "▁od": 9578,
      "▁Grand": 9579,
      "▁Fast": 9580,
      "▁Will": 9581,
      "▁oport": 9582,
      "▁quality": 9583,
      "▁menor": 9584,
      "quez": 9585,
      "▁electronic": 9586,
      "▁Siber": 9587,
      "▁rosario": 9588,
      "▁malas": 9589,
      "▁SU": 9590,
      "▁EL": 9591,
      "patupad": 9592,
      "▁Ye": 9593,
      "▁46": 9594,
      "▁makaapekto": 9595,
      "▁dalawampu": 9596,
      "▁Direk": 9597,
      "▁ita": 9598,
      "▁salig": 9599,
      "▁biti": 9600,
      "▁tungga": 9601,
      "▁niyan": 9602,
      "▁diba": 9603,
      "▁Nic": 9604,
      "ulto": 9605,
[...]
