{
  "version": "1.0",
  "truncation": null,
  "padding": null,
  "added_tokens": [
    {
      "id": 0,
      "content": "<unk>",
      "single_word": false,
      "lstrip": false,
      "rstrip": false,
      "normalized": false,
      "special": true
    },
    {
      "id": 1,
      "content": "<s>",
      "single_word": false,
      "lstrip": false,
      "rstrip": false,
      "normalized": false,
      "special": true
    },
    {
      "id": 2,
      "content": "</s>",
      "single_word": false,
      "lstrip": false,
      "rstrip": false,
      "normalized": false,
      "special": true
    }
  ],
  "normalizer": {
    "type": "Sequence",
    "normalizers": [
      {
        "type": "Nmt"
      },
      {
        "type": "NFKC"
      },
      {
        "type": "Replace",
        "pattern": {
          "Regex": " {2,}"
        },
        "content": " "
      }
    ]
  },
  "pre_tokenizer": {
    "type": "Metaspace",
    "replacement": "▁",
    "prepend_scheme": "always",
    "split": true
  },
  "post_processor": null,
  "decoder": {
    "type": "Metaspace",
    "replacement": "▁",
    "prepend_scheme": "always",
    "split": true
  },
  "model": {
    "type": "Unigram",
    "unk_id": 0,
    "vocab": [
      [
        "<unk>",
        0.0
      ],
      [
        "<s>",
        0.0
      ],
      [
        "</s>",
        0.0
      ],
      [
        "",
        -3.1885028851439596
      ],
      [
        "▁sa",
        -3.1893777407443604
      ],
      [
        "▁ng",
        -3.28081470402563
      ],
      [
        "▁na",
        -3.542335578212022
      ],
      [
        "▁ang",
        -3.613843415471935
      ],
      [
        ",",
        -3.818679381313194
      ],
      [
        ".",
        -3.8429598866973524
      ],
      [
        "▁mga",
        -3.8953770015592752
      ],
      [
        "▁",
        -3.9747550745371747
      ],
      [
        "▁at",
        -4.282905481696837
      ],
      [
        "▁ay",
        -4.355489046340942
      ],
      [
        "s",
        -4.739867287523474
      ],
      [
        "a",
        -4.86979033528206
      ],
      [
        "o",
        -4.8794018107755495
      ],
      [
        "▁isa",
        -5.010531686635776
      ],
      [
        "-",
        -5.237632105807341
      ],
      [
        "t",
        -5.319172506298271
      ],
      [
        "▁para",
        -5.333497500519925
      ],
      [
        "▁kung",
        -5.446879055912753
      ],
      [
        "▁ito",
        -5.523186470016537
      ],
      [
        "g",
        -5.59640954023361
      ],
      [
        "",
        -5.603072117812477
      ],
      [
        "▁hindi",
        -5.614926862839953
      ],
      [
        "y",
        -5.630173440455492
      ],
      [
        "▁pa",
        -5.6449029385325264
      ],
      [
        "▁may",
        -5.709666961589425
      ],
      [
        "i",
        -5.7671766389770625
      ],
      [
        "n",
        -5.7712996269554235
      ],
      [
        "▁upa",
        -5.8850553450124075
      ],
      [
        "▁ko",
        -5.900431111868604
      ],
      [
        "▁ni",
        -5.908662011538857
      ],
      [
        "▁si",
        -5.9256016176692885
      ],
      [
        "▁ka",
        -5.9801516593776505
      ],
      [
        "▁mo",
        -6.000542934700906
      ],
      [
        "d",
        -6.033667303791196
      ],
      [
        "",
        -6.055578242183985
      ],
      [
        "ng",
        -6.059306699340059
      ],
      [
        "",
        -6.061295545173426
      ],
      [
        "",
        -6.068056927433924
      ],
      [
        "",
        -6.069429033415394
      ],
      [
        "",
        -6.0802603047066945
      ],
      [
        "",
        -6.1771060836598455
      ],
      [
        "",
        -6.183179761345878
      ],
      [
        "▁iyo",
        -6.19854671378592
      ],
      [
        "e",
        -6.231852299219696
      ],
      [
        "",
        -6.274338824194107
      ],
      [
        ":",
        -6.3014785568565905
      ],
      [
        "▁mula",
        -6.318451818232747
      ],
      [
        "▁ang",
        -6.332623142360411
      ],
      [
        "k",
        -6.337564156959022
      ],
      [
        "▁(",
        -6.348888431318057
      ],
      [
        "p",
        -6.359403005486065
      ],
      [
        "",
        -6.428998855954914
      ],
      [
        "ing",
        -6.437266934389365
      ],
      [
        "m",
        -6.451040219518385
      ],
      [
        "",
        -6.46690401448976
      ],
      [
        "▁to",
        -6.468666961936984
      ],
      [
        "c",
        -6.475519556479846
      ],
      [
        "▁ba",
        -6.491261567576222
      ],
      [
        "?",
        -6.494858258620495
      ],
      [
        "",
        -6.499489082599309
      ],
      [
        "▁nang",
        -6.502733430111578
      ],
      [
        "▁ako",
        -6.507390477137173
      ],
      [
        "▁the",
        -6.508159200143044
      ],
      [
        "▁kanyang",
        -6.508911036772615
      ],
      [
        "▁dahil",
        -6.52768413888111
      ],
      [
        "▁mas",
        -6.52913525582888
      ],
      [
        "▁siya",
        -6.5394691259489
      ],
      [
        "▁s",
        -6.603051853237671
      ],
      [
        "▁lang",
        -6.6071855591202855
      ],
      [
        ")",
        -6.621463768819577
      ],
      [
        "l",
        -6.628289490344946
      ],
      [
        "▁lahat",
        -6.64400536349439
      ],
      [
        "▁niya",
        -6.65039529673216
      ],
      [
        "b",
        -6.650444735066003
      ],
      [
        "▁’",
        -6.668284006482786
      ],
      [
        "▁nila",
        -6.686688286969108
      ],
      [
        "▁of",
        -6.690273231849281
      ],
      [
        "▁and",
        -6.696858843299356
      ],
      [
        "▁”",
        -6.702532190662879
      ],
      [
        "▁rin",
        -6.722930085649121
      ],
      [
        "▁ban",
        -6.727237210875526
      ],
      [
        "▁po",
        -6.728793294763991
      ],
      [
        "er",
        -6.74192184151476
      ],
      [
        "▁ari",
        -6.7464387199015885
      ],
      [
        "al",
        -6.746907139618518
      ],
      [
        "",
        -6.7472629071304215
      ],
      [
        "",
        -6.759990418100717
      ],
      [
        "sa",
        -6.760799093117438
      ],
      [
        "li",
        -6.794902453994082
      ],
      [
        "▁re",
        -6.797164542531881
      ],
      [
        "s",
        -6.800478190238389
      ],
      [
        "",
        -6.804564546581965
      ],
      [
        "ed",
        -6.80726830495775
      ],
      [
        "na",
        -6.807942158339264
      ],
      [
        "▁ano",
        -6.818695405735896
      ],
      [
        "▁iba",
        -6.824368776524995
      ],
      [
        "▁tao",
        -6.828715517175413
      ],
      [
        "",
        -6.83424624837272
      ],
      [
        "",
        -6.844965306275633
      ],
      [
        "w",
        -6.8509445273326826
      ],
      [
        "",
        -6.859406585277432
      ],
      [
        "r",
        -6.8896038320904545
      ],
      [
        "an",
        -6.8973519221712145
      ],
      [
        "▁isa",
        -6.898072691931299
      ],
      [
        "▁bilang",
        -6.901130690914377
      ],
      [
        "▁din",
        -6.902703049959756
      ],
      [
        "▁di",
        -6.904254429746402
      ],
      [
        "▁dibdib",
        -6.909484080758432
      ],
      [
        "u",
        -6.919336996365615
      ],
      [
        "la",
        -6.92115600203782
      ],
      [
        "▁lamang",
        -6.921629609328539
      ],
      [
        "",
        -6.922754259579813
      ],
      [
        "▁timbang",
        -6.933687135292693
      ],
      [
        "to",
        -6.935127121474375
      ],
      [
        "on",
        -6.941949199744117
      ],
      [
        "!",
        -6.942913658576014
      ],
      [
        "▁wala",
        -6.952818532298615
      ],
      [
        ".ang",
        -6.953121601017097
      ],
      [
        "▁n",
        -6.976062288008862
      ],
      [
        "re",
        -6.985675241458974
      ],
      [
        "▁\"",
        -6.9949184316289745
      ],
      [
        "",
        -7.003176943014385
      ],
      [
        "▁in",
        -7.012959936044103
      ],
      [
        "f",
        -7.014741250513266
      ],
      [
        "▁sila",
        -7.025069843238141
      ],
      [
        "▁pain",
        -7.028053855326068
      ],
      [
        "ma",
        -7.04830671647488
      ],
      [
        "▁nito",
        -7.084045376316919
      ],
      [
        "▁mo",
        -7.109488812142752
      ],
      [
        "...",
        -7.115742853893705
      ],
      [
        "▁dapat",
        -7.118830435560067
      ],
      [
        "▁p",
        -7.139205552370406
      ],
      [
        "▁|",
        -7.141188259741199
      ],
      [
        "▁de",
        -7.146627716722563
      ],
      [
        "ri",
        -7.160182322158823
      ],
      [
        "",
        -7.16049622669297
      ],
      [
        "▁tungkol",
        -7.160950189371661
      ],
      [
        "ang",
        -7.164943883924652
      ],
      [
        "▁“",
        -7.167909728340877
      ],
      [
        "▁ano",
        -7.168297261539681
      ],
      [
        "▁giit",
        -7.168506682693327
      ],
      [
        "▁ilang",
        -7.173535107338365
      ],
      [
        "▁/",
        -7.18560755225514
      ],
      [
        "in",
        -7.1960009561679925
      ],
      [
        "at",
        -7.196555858535007
      ],
      [
        "",
        -7.200651225424211
      ],
      [
        "▁ta",
        -7.209114361678692
      ],
      [
        "le",
        -7.2190192594031135
      ],
      [
        "y",
        -7.22131147796874
      ],
      [
        "ha",
        -7.22667958191202
      ],
      [
        "▁kaya",
        -7.231416161971222
      ],
      [
        "ga",
        -7.238487460488093
      ],
      [
        "▁nila",
        -7.239322998089149
      ],
      [
        "▁me",
        -7.2447941653471
      ],
      [
        "▁mask",
        -7.2550100617141755
      ],
      [
        "ra",
        -7.256779702432571
      ],
      [
        "",
        -7.267450448596946
      ],
      [
        "ang",
        -7.268506772668806
      ],
      [
        "▁m",
        -7.279420823832572
      ],
      [
        "ka",
        -7.279949589175011
      ],
      [
        "▁baon",
        -7.281112895447439
      ],
      [
        "▁tulad",
        -7.281764005930473
      ],
      [
        "da",
        -7.290972409207489
      ],
      [
        "▁rami",
        -7.292837233355714
      ],
      [
        "▁ari",
        -7.298306492980927
      ],
      [
        "▁saan",
        -7.30235171028073
      ],
      [
        "▁c",
        -7.303315724028424
      ],
      [
        "▁ha",
        -7.310395772224702
      ],
      [
        "",
        -7.3146220016950885
      ],
      [
        "",
        -7.315392938639846
      ],
      [
        "h",
        -7.321106859714275
      ],
      [
        "▁ngunit",
        -7.33355062214698
      ],
      [
        "▁pag",
        -7.338920140351513
      ],
      [
        "▁ina",
        -7.346550610258554
      ],
      [
        "▁k",
        -7.3471489163902906
      ],
      [
        "or",
        -7.355980879437871
      ],
      [
        "▁mata",
        -7.356320716366605
      ],
      [
        "▁la",
        -7.359408760674697
      ],
      [
        "pa",
        -7.363444376124688
      ],
      [
        "▁for",
        -7.364506667025525
      ],
      [
        "ro",
        -7.370601858777578
      ],
      [
        "▁bata",
        -7.374029645613495
      ],
      [
        "▁li",
        -7.381124324292589
      ],
      [
        "si",
        -7.384845297379298
      ],
      [
        "▁kay",
        -7.385312010439478
      ],
      [
        "▁noon",
        -7.39312258454229
      ],
      [
        "",
        -7.3980053655271
      ],
      [
        ":",
        -7.398269904197813
      ],
      [
        "se",
        -7.399562912075876
      ],
      [
        "il",
        -7.410041900709981
      ],
      [
        "▁bago",
        -7.418307661504507
      ],
      [
        "▁buhay",
        -7.427258209683222
      ],
      [
        "x",
        -7.429315000105184
      ],
      [
        "lo",
        -7.43079269532603
      ],
      [
        "▁r",
        -7.431841602167532
      ],
      [
        "id",
        -7.44263089668784
      ],
      [
        "▁worm",
        -7.455223841065225
      ],
      [
        "",
        -7.45543086139749
      ],
      [
        "ba",
        -7.455607585827925
      ],
      [
        "▁araw",
        -7.4577265595444935
      ],
      [
        "▁be",
        -7.462184487723796
      ],
      [
        "▁pin",
        -7.463471687202899
      ],
      [
        "▁akin",
        -7.464582596203556
      ],
      [
        "ur",
        -7.468382919378353
      ],
      [
        "ko",
        -7.4750315729956505
      ],
      [
        "▁suso",
        -7.475520477217113
      ],
      [
        "▁tayo",
        -7.4795438622959605
      ],
      [
        "▁da",
        -7.483262065095653
      ],
      [
        "hi",
        -7.485355870703113
      ],
      [
        "▁mukha",
        -7.4862854142570985
      ],
      [
        "▁as",
        -7.489128166399295
      ],
      [
        "▁1",
        -7.490342975314352
      ],
      [
        "▁3",
        -7.491977105715154
      ],
      [
        "2",
        -7.4940667758960835
      ],
      [
        "▁so",
        -7.494119024276994
      ],
      [
        "▁hangga",
        -7.494732210025019
      ],
      [
        "▁tapos",
        -7.49816128181436
      ],
      [
        "▁bahagi",
        -7.504285849727141
      ],
      [
        "▁kami",
        -7.5048464599648685
      ],
      [
        "▁sabi",
        -7.506208239454848
      ],
      [
        "▁you",
        -7.508604895186467
      ],
      [
        "▁bagay",
        -7.515554256029924
      ],
      [
        "it",
        -7.5238198328348656
      ],
      [
        "▁panahon",
        -7.52465604925221
      ],
      [
        "v",
        -7.525445295476615
      ],
      [
        "de",
        -7.531166962968296
      ],
      [
        "tu",
        -7.532606459327427
      ],
      [
        "",
        -7.534710581673004
      ],
      [
        "ni",
        -7.535251051064261
      ],
      [
        "ly",
        -7.535806894258862
      ],
      [
        "▁haba",
        -7.543946979198264
      ],
      [
        "mo",
        -7.554064183433624
      ],
      [
        "▁alam",
        -7.554691489123286
      ],
      [
        "▁bawat",
        -7.558404409624867
      ],
      [
        "ti",
        -7.559778950618185
      ],
      [
        "",
        -7.5689202617031945
      ],
      [
        "",
        -7.569121724753934
      ],
      [
        "▁amin",
        -7.572867853966764
      ],
      [
        "▁liit",
        -7.5731503174762995
      ],
      [
        "▁loob",
        -7.573496947823905
      ],
      [
        "",
        -7.574066946058412
      ],
      [
        "an",
        -7.574102547106689
      ],
      [
        "▁oras",
        -7.581454747969483
      ],
      [
        "yo",
        -7.583660001921734
      ],
      [
        "",
        -7.588047317634556
      ],
      [
        "wa",
        -7.593328792521511
      ],
      [
        "▁kang",
        -7.594189129602205
      ],
      [
        "▁ilalim",
        -7.595278874046926
      ],
      [
        "te",
        -7.596191689632963
      ],
      [
        "▁wala",
        -7.599510424448976
      ],
      [
        "▁paraan",
        -7.6032476321388
      ],
      [
        "▁nata",
        -7.605205451295523
      ],
      [
        "",
        -7.606136947579033
      ],
      [
        "th",
        -7.60970904051492
      ],
      [
        "▁is",
        -7.627397804988224
      ],
      [
        "▁2",
        -7.631803035584934
      ],
      [
        "▁kahit",
        -7.632470091770173
      ],
      [
        "▁5",
        -7.634585103343326
      ],
      [
        "▁nasa",
        -7.634621538852967
      ],
      [
        "",
        -7.636896713753142
      ],
      [
        "ll",
        -7.638197303172269
      ],
      [
        "▁d",
        -7.6432440828112345
      ],
      [
        "pe",
        -7.64588222141861
      ],
      [
        "▁anak",
        -7.64778399878678
      ],
      [
        "▁w",
        -7.648527158150904
      ],
      [
        "▁kailangan",
        -7.650987948388224
      ],
      [
        "▁ati",
        -7.657077019422532
      ],
      [
        "es",
        -7.658172479109803
      ],
      [
        "▁bago",
        -7.65843733091725
      ],
      [
        "▁b",
        -7.65897778141467
      ],
      [
        ".sa",
        -7.66569764357358
      ],
      [
        "▁taon",
        -7.667182046853682
      ],
      [
        "ent",
        -7.669792648858698
      ],
      [
        "▁lu",
        -7.671757947272859
      ],
      [
        "e",
        -7.673585958182693
      ],
      [
        "el",
        -7.674822092683511
      ],
      [
        "▁ngayon",
        -7.677688438730712
      ],
      [
        "▁tu",
        -7.68040453058226
      ],
      [
        "▁al",
        -7.683585993796383
      ],
      [
        "so",
        -7.683846300830149
      ],
      [
        "ne",
        -7.687981917170493
      ],
      [
        "me",
        -7.692421374989177
      ],
      [
        "▁uri",
        -7.6968062942929105
      ],
      [
        "\"",
        -7.696970681574628
      ],
      [
        "▁tong",
        -7.6987933884135415
      ],
      [
        "▁yung",
        -7.704780875223648
      ],
      [
        "",
        -7.70624818375059
      ],
      [
        "▁dito",
        -7.70701172333535
      ],
      [
        "▁higit",
        -7.708796803799201
      ],
      [
        "di",
        -7.710389964009401
      ],
      [
        "▁co",
        -7.711749804207928
      ],
      [
        "▁review",
        -7.715850095283459
      ],
      [
        ";",
        -7.720340817700004
      ],
      [
        "▁kita",
        -7.72266108149833
      ],
      [
        "▁gusto",
        -7.725207971293656
      ],
      [
        "▁do",
        -7.727909165418598
      ],
      [
        "▁baba",
        -7.731567271029665
      ],
      [
        "▁pro",
        -7.732128666308352
      ],
      [
        "ar",
        -7.732763998077283
      ],
      [
        "▁man",
        -7.734539298233399
      ],
      [
        "▁laro",
        -7.743228372958882
      ],
      [
        "▁ma",
        -7.745946448294854
      ],
      [
        "do",
        -7.761238441074957
      ],
      [
        "▁sarili",
        -7.763096061182473
      ],
      [
        "▁se",
        -7.766633873759654
      ],
      [
        "▁una",
        -7.767305348962232
      ],
      [
        "▁buo",
        -7.768854344159939
      ],
      [
        "▁sama",
        -7.771799608004477
      ],
      [
        "▁ti",
        -7.772937422164638
      ],
      [
        "▁ra",
        -7.774253648504461
      ],
      [
        "▁lugar",
        -7.778871868116909
      ],
      [
        "ck",
        -7.7886763910913
      ],
      [
        "▁iyo",
        -7.791823107150195
      ],
      [
        "▁pi",
        -7.799331659640632
      ],
      [
        "▁bahay",
        -7.80077606013997
      ],
      [
        "",
        -7.805952380056858
      ],
      [
        "▁pero",
        -7.8110211430156085
      ],
      [
        "ay",
        -7.813054444712382
      ],
      [
        "▁ko",
        -7.813344025394574
      ],
      [
        "3",
        -7.81366895160097
      ],
      [
        "▁an",
        -7.816036930805387
      ],
      [
        "▁katawan",
        -7.82068827878255
      ],
      [
        "▁ga",
        -7.821557378671386
      ],
      [
        "▁babae",
        -7.821905619829298
      ],
      [
        "",
        -7.823175231933563
      ],
      [
        "▁sakit",
        -7.824501202610348
      ],
      [
        "▁bu",
        -7.828885533363524
      ],
      [
        "▁on",
        -7.829217369116288
      ],
      [
        "▁le",
        -7.829353584291816
      ],
      [
        "▁l",
        -7.838792236276873
      ],
      [
        "sh",
        -7.8434493323368155
      ],
      [
        "▁anuman",
        -7.847785629482527
      ],
      [
        "▁4",
        -7.850001824978609
      ],
      [
        "▁–",
        -7.8502730125676585
      ],
      [
        "▁taon",
        -7.850906284555332
      ],
      [
        "▁ro",
        -7.855289393366316
      ],
      [
        "▁he",
        -7.8553979547431645
      ],
      [
        "4",
        -7.857089534577046
      ],
      [
        "",
        -7.859469713560925
      ],
      [
        ".“",
        -7.867664249288886
      ],
      [
        "▁su",
        -7.869648098935377
      ],
      [
        "lu",
        -7.872351339325011
      ],
      [
        "ho",
        -7.873750600335658
      ],
      [
        "▁dalawa",
        -7.87819748214007
      ],
      [
        "▁hi",
        -7.882845088106542
      ],
      [
        "▁husay",
        -7.884132142246608
      ],
      [
        "z",
        -7.88470293459215
      ],
      [
        "▁online",
        -7.888255619347039
      ],
      [
        "▁hindi",
        -7.888307704812457
      ],
      [
        "▁or",
        -7.889110747598952
      ],
      [
        "en",
        -7.894339939515568
      ],
      [
        "ce",
        -7.895836542870336
      ],
      [
        "ter",
        -7.895870111351174
      ],
      [
        "5",
        -7.898456845019696
      ],
      [
        ".-",
        -7.901150957736975
      ],
      [
        "",
        -7.901775890349072
      ],
      [
        "▁tulong",
        -7.919187138958341
      ],
      [
        "▁‘",
        -7.919336137660489
      ],
      [
        "▁bansa",
        -7.919727727117516
      ],
      [
        "▁yaon",
        -7.920586131690721
      ],
      [
        "ment",
        -7.921921294099347
      ],
      [
        "is",
        -7.925461730800601
      ],
      [
        "ad",
        -7.926740414423664
      ],
      [
        "▁gawin",
        -7.928157956267116
      ],
      [
        "▁ina",
        -7.929489457849478
      ],
      [
        "",
        -7.929613283920979
      ],
      [
        "▁kasi",
        -7.9329061097342795
      ],
      [
        "▁lo",
        -7.935514665438049
      ],
      [
        "▁bo",
        -7.936412380430122
      ],
      [
        "mp",
        -7.951030126397882
      ],
      [
        "sa",
        -7.951332368671295
      ],
      [
        "▁laki",
        -7.95204777406604
      ],
      [
        "▁labas",
        -7.956643529519921
      ],
      [
        "am",
        -7.9625447959382925
      ],
      [
        "▁no",
        -7.9683041746885905
      ],
      [
        "bo",
        -7.968937077735422
      ],
      [
        "6",
        -7.972168299103233
      ],
      [
        "▁f",
        -7.972240957801281
      ],
      [
        "ve",
        -7.976166819549997
      ],
      [
        "▁presyo",
        -7.979561717956205
      ],
      [
        "▁parasito",
        -7.982557483022658
      ],
      [
        "▁ku",
        -7.983708526164602
      ],
      [
        "▁pag",
        -7.9848723764698715
      ],
      [
        "▁siya",
        -7.986200287373139
      ],
      [
        "▁produkto",
        -7.986301717585684
      ],
      [
        "▁vi",
        -7.986475319840743
      ],
      [
        "",
        -7.98723719634779
      ],
      [
        "he",
        -7.992350539000423
      ],
      [
        "od",
        -7.992352400250066
      ],
      [
        "▁kanya",
        -7.992824999329603
      ],
      [
        "▁us",
        -7.9934845148221125
      ],
      [
        "'",
        -7.993581302559356
      ],
      [
        "▁it",
        -8.001827571627421
      ],
      [
        "▁ki",
        -8.00245267704571
      ],
      [
        "▁h",
        -8.00299469038156
      ],
      [
        "▁dala",
        -8.003148398807854
      ],
      [
        "",
        -8.003451992588577
      ],
      [
        "▁laraw",
        -8.006689965101971
      ],
      [
        "▁bi",
        -8.00806581361789
      ],
      [
        "▁gu",
        -8.00941572227808
      ],
      [
        "7",
        -8.013245354317414
      ],
      [
        "",
        -8.013487908869418
      ],
      [
        "▁talaga",
        -8.015236110097756
      ],
      [
        "▁wala",
        -8.016683750189786
      ],
      [
        "▁trabaho",
        -8.016688078669837
      ],
      [
        "▁kain",
        -8.018547848961042
      ],
      [
        "aw",
        -8.021073702845484
      ],
      [
        "▁tapos",
        -8.021291646001856
      ],
      [
        "bi",
        -8.021806015871597
      ],
      [
        "s.",
        -8.022992185545101
      ],
      [
        "ling",
        -8.023529054521019
      ],
      [
        "▁bulate",
        -8.029250056799574
      ],
      [
        "et",
        -8.034832110939778
      ],
      [
        "▁up",
        -8.039182061716433
      ],
      [
        "ic",
        -8.039332025042016
      ],
      [
        "▁gamit",
        -8.041246264325025
      ],
      [
        "▁10",
        -8.04352451388946
      ],
      [
        "co",
        -8.04415804051232
      ],
      [
        "▁pu",
        -8.044534720517369
      ],
      [
        "▁nais",
        -8.046115674569892
      ],
      [
        "▁kilala",
        -8.047456501840408
      ],
      [
        "um",
        -8.048820774031375
      ],
      [
        "▁with",
        -8.049840070985589
      ],
      [
        "",
        -8.052390146415666
      ],
      [
        "▁halaga",
        -8.054031332121141
      ],
      [
        "▁video",
        -8.054660687325569
      ],
      [
        "▁ako",
        -8.056612179120549
      ],
      [
        "▁silang",
        -8.060022835551772
      ],
      [
        "▁we",
        -8.06288174341211
      ],
      [
        "er",
        -8.063228221634468
      ],
      [
        "▁iyon",
        -8.063610884232432
      ],
      [
        "▁ito.",
        -8.064519104667866
      ],
      [
        "ch",
        -8.064971517247246
      ],
      [
        "",
        -8.066419063204568
      ],
      [
        "▁that",
        -8.068632797958534
      ],
      [
        "▁laki",
        -8.078339677039454
      ],
      [
        "ca",
        -8.07936968456806
      ],
      [
        "ry",
        -8.081393466624176
      ],
      [
        "▁tunay",
        -8.081556446883257
      ],
      [
        "1",
        -8.082222835654356
      ],
      [
        "▁ri",
        -8.084655112822427
      ],
      [
        "▁mataas",
        -8.085403741154973
      ],
      [
        "mi",
        -8.087372954768687
      ],
      [
        "ting",
        -8.089345068986027
      ],
      [
        "vi",
        -8.089949836411241
      ],
      [
        "▁roon",
        -8.093326482009592
      ],
      [
        "▁mi",
        -8.093587390152491
      ],
      [
        "ci",
        -8.093826449165114
      ],
      [
        "▁ito",
        -8.093887428884175
      ],
      [
        "▁facial",
        -8.09429903446347
      ],
      [
        "▁ito,",
        -8.09551715112936
      ],
      [
        "▁tanong",
        -8.100195646882053
      ],
      [
        "▁laki",
        -8.100664013745687
      ],
      [
        "▁durog",
        -8.101846795521421
      ],
      [
        "▁balat",
        -8.10824418463191
      ],
      [
        "ation",
        -8.115056882923568
      ],
      [
        "",
        -8.115842251602693
      ],
      [
        "▁ikaw",
        -8.117772570174195
      ],
      [
        "▁gamot",
        -8.118562686753974
      ],
      [
        "▁tubig",
        -8.123066168780012
      ],
      [
        "ol",
        -8.123576545673858
      ],
      [
        "po",
        -8.123853694886204
      ],
      [
        "asyon",
        -8.128818542495525
      ],
      [
        "▁hu",
        -8.129221309550367
      ],
      [
        "▁bato",
        -8.13087069045286
      ],
      [
        "bu",
        -8.136593511099274
      ],
      [
        "▁rasites",
        -8.13815661282949
      ],
      [
        "ir",
        -8.145520065436601
      ],
      [
        "us",
        -8.146517033443745
      ],
      [
        "un",
        -8.147609484974632
      ],
      [
        "▁bilis",
        -8.150065225311083
      ],
      [
        "be",
        -8.151371288275628
      ],
      [
        "",
        -8.15309169466427
      ],
      [
        "syon",
        -8.155599417367528
      ],
      [
        "",
        -8.155720173929474
      ],
      [
        "",
        -8.15964851861652
      ],
      [
        "▁dating",
        -8.160079673435206
      ],
      [
        "▁ca",
        -8.16244105168702
      ],
      [
        "▁com",
        -8.162892311258332
      ],
      [
        "▁gawa",
        -8.16391046198094
      ],
      [
        "▁face",
        -8.16404638555889
      ],
      [
        "tic",
        -8.165770754095218
      ],
      [
        "▁nya",
        -8.16832415188688
      ],
      [
        "nta",
        -8.169985688604251
      ],
      [
        "▁laban",
        -8.16999433516261
      ],
      [
        "▁pera",
        -8.173976243422874
      ],
      [
        "",
        -8.174320533387373
      ],
      [
        "ke",
        -8.178737232983686
      ],
      [
        "",
        -8.178812395834548
      ],
      [
        "8",
        -8.182945677802959
      ],
      [
        "▁sabi",
        -8.183325738898326
      ],
      [
        "▁ho",
        -8.188274198815511
      ],
      [
        "▁epekto",
        -8.188624631599675
      ],
      [
        "▁gamit",
        -8.19020101482203
      ],
      [
        "▁ayon",
        -8.193146964588935
      ],
      [
        "ral",
        -8.194786752852226
      ],
      [
        "▁gawa",
        -8.195861953757246
      ],
      [
        "▁una",
        -8.196198687344024
      ],
      [
        "▁unahin",
        -8.196257237850677
      ],
      [
        "",
        -8.199029448059147
      ],
      [
        "▁go",
        -8.201128629778923
      ],
      [
        "▁7",
        -8.201254720572681
      ],
      [
        "",
        -8.203462615862197
      ],
      [
        "ing",
        -8.204079912630245
      ],
      [
        "tion",
        -8.2047479809229
      ],
      [
        "9",
        -8.208273873740318
      ],
      [
        "der",
        -8.213201674579228
      ],
      [
        "▁taba",
        -8.217317693161846
      ],
      [
        "gu",
        -8.21990719560358
      ],
      [
        "ber",
        -8.228307451024131
      ],
      [
        "ok",
        -8.230108398343205
      ],
      [
        "▁cream",
        -8.23055149472355
      ],
      [
        "▁6",
        -8.23165408507619
      ],
      [
        "▁gi",
        -8.232262660892147
      ],
      [
        "▁%",
        -8.234899612302089
      ],
      [
        "▁alis",
        -8.234957190508888
      ],
      [
        "",
        -8.238527604643522
      ],
      [
        "▁app",
        -8.238805254800248
      ],
      [
        "▁problema",
        -8.238893165436242
      ],
      [
        "▁lalo",
        -8.243473350880612
      ],
      [
        "",
        -8.243796124875471
      ],
      [
        "▁dis",
        -8.244250213450972
      ],
      [
        "▁kaysa",
        -8.246324114434277
      ],
      [
        "▁salita",
        -8.257330843433152
      ],
      [
        "▁ako",
        -8.257768006213523
      ],
      [
        "▁con",
        -8.258018100481838
      ],
      [
        "▁buwa",
        -8.260736566179952
      ],
      [
        "▁ganap",
        -8.265692827262493
      ],
      [
        "▁mundo",
        -8.266877092606272
      ],
      [
        "",
        -8.268752686781687
      ],
      [
        "▁bar",
        -8.271361732944195
      ],
      [
        "▁milya",
        -8.271861969489704
      ],
      [
        "▁ad",
        -8.277094941827475
      ],
      [
        "▁lakas",
        -8.279691417846411
      ],
      [
        "ers",
        -8.282326542076664
      ],
      [
        "nd",
        -8.285279003494583
      ],
      [
        "▁'",
        -8.286898143780089
      ],
      [
        "▁bakit",
        -8.287207583968078
      ],
      [
        "▁jo",
        -8.289641166188249
      ],
      [
        "▁linggo",
        -8.2908570181501
      ],
      [
        "▁taas",
        -8.290978866965403
      ],
      [
        "▁en",
        -8.291582139767774
      ],
      [
        "wi",
        -8.291772015473454
      ],
      [
        "▁ar",
        -8.292370380210603
      ],
      [
        "ge",
        -8.293927936372503
      ],
      [
        "▁my",
        -8.29439302545588
      ],
      [
        "▁tiyak",
        -8.297517244256735
      ],
      [
        "",
        -8.30455152890483
      ],
      [
        "ut",
        -8.304609155541199
      ],
      [
        "▁serbisyo",
        -8.306455482991693
      ],
      [
        ").",
        -8.306532685597762
      ],
      [
        "",
        -8.306721474254854
      ],
      [
        "▁proseso",
        -8.31077070977019
      ],
      [
        "ity",
        -8.31188927214092
      ],
      [
        "▁husay",
        -8.312837773496174
      ],
      [
        "▁rami",
        -8.321619521998445
      ],
      [
        "▁sya",
        -8.327501557228716
      ],
      [
        "▁daw",
        -8.330976246916038
      ],
      [
        "",
        -8.3315014228009
      ],
      [
        "▁pilipinas",
        -8.332061863029203
      ],
      [
        "▁impormasyon",
        -8.333240598155468
      ],
      [
        "sta",
        -8.333705012471928
      ],
      [
        "▁rin",
        -8.337976822462332
      ],
      [
        "▁v",
        -8.338365370492282
      ],
      [
        "▁gamit",
        -8.34352495246817
      ],
      [
        "▁laki",
        -8.346057856610425
      ],
      [
        "▁pareho",
        -8.347876958459329
      ],
      [
        "▁gamit",
        -8.353132259878336
      ],
      [
        "▁lang",
        -8.354518219822232
      ],
      [
        "tor",
        -8.355210365501277
      ],
      [
        "▁wala",
        -8.355646090421049
      ],
      [
        "▁8",
        -8.357079053239685
      ],
      [
        "▁diyos",
        -8.357852469214368
      ],
      [
        "d",
        -8.357863450990004
      ],
      [
        "▁site",
        -8.357978164950774
      ],
      [
        "▁gawa",
        -8.3617087121308
      ],
      [
        "ate",
        -8.365338728714889
      ],
      [
        "▁this",
        -8.365880811381825
      ],
      [
        "du",
        -8.366440840261786
      ],
      [
        "▁patuloy",
        -8.369191184936009
      ],
      [
        "▁your",
        -8.369577731709793
      ],
      [
        "▁resulta",
        -8.369934202474019
      ],
      [
        "|",
        -8.370203689476904
      ],
      [
        "",
        -8.3715943288281
      ],
      [
        "▁gigi",
        -8.373414601242473
      ],
      [
        "",
        -8.374865834365966
      ],
      [
        "est",
        -8.375965236260273
      ],
      [
        "▁19",
        -8.37878843696729
      ],
      [
        "▁per",
        -8.380345508803092
      ],
      [
        "▁kamay",
        -8.38039901643191
      ],
      [
        "ul",
        -8.380494649102735
      ],
      [
        "",
        -8.380775855571033
      ],
      [
        "▁pati",
        -8.381921666866237
      ],
      [
        "su",
        -8.383804934293407
      ],
      [
        "▁are",
        -8.385144939372463
      ],
      [
        "▁can",
        -8.388111979310601
      ],
      [
        "▁gamit",
        -8.390631589909733
      ],
      [
        "▁lupa",
        -8.390755818987667
      ],
      [
        "al",
        -8.390904220846387
      ],
      [
        "we",
        -8.39120149137207
      ],
      [
        "▁simula",
        -8.392239001137588
      ],
      [
        "ia",
        -8.392580446846242
      ],
      [
        "▁dali",
        -8.393414748944037
      ],
      [
        "▁pe",
        -8.395304127465204
      ],
      [
        "j",
        -8.395560049136906
      ],
      [
        "ver",
        -8.395626266521546
      ],
      [
        "",
        -8.39724981135522
      ],
      [
        "▁roon",
        -8.397477018504729
      ],
      [
        "▁nila",
        -8.402135303114898
      ],
      [
        "",
        -8.406947850904142
      ],
      [
        "▁basa",
        -8.407367659589578
      ],
      [
        "▁bilang",
        -8.408525978861654
      ],
      [
        "",
        -8.409320856897422
      ],
      [
        "▁dahilan",
        -8.411650441972732
      ],
      [
        "▁fa",
        -8.413437308700532
      ],
      [
        "▁gigi",
        -8.415629226878337
      ],
      [
        "▁sc",
        -8.417908853823874
      ],
      [
        "▁un",
        -8.418682397147034
      ],
      [
        "▁isip",
        -8.419229683207007
      ],
      [
        "rt",
        -8.420410082785368
      ],
      [
        "▁tapos",
        -8.42104553596383
      ],
      [
        "▁ex",
        -8.421663299124225
      ],
      [
        "▁post",
        -8.423845957786051
      ],
      [
        "▁puso",
        -8.42590651160901
      ],
      [
        "▁pala",
        -8.43194175682503
      ],
      [
        "ist",
        -8.432031190662805
      ],
      [
        ".\"",
        -8.432324097937519
      ],
      [
        "▁te",
        -8.432425213683844
      ],
      [
        "▁daan",
        -8.432758445658637
      ],
      [
        "",
        -8.433249462527373
      ],
      [
        "▁karaniwan",
        -8.435381923042863
      ],
      [
        "▁bata",
        -8.435775277026048
      ],
      [
        "▁ph",
        -8.436723150756889
      ],
      [
        "▁sagot",
        -8.437039308662236
      ],
      [
        "▁ganda",
        -8.441467900513024
      ],
      [
        "per",
        -8.441504661108036
      ],
      [
        "",
        -8.44241135996862
      ],
      [
        "▁tiyan",
        -8.443204158124258
      ],
      [
        "▁tong",
        -8.443338198965938
      ],
      [
        "▁sulat",
        -8.446760566885501
      ],
      [
        "▁niya",
        -8.44847485838275
      ],
      [
        "▁sabi",
        -8.448572163314056
      ],
      [
        "▁roon",
        -8.450300223030007
      ],
      [
        "▁gamot",
        -8.450853812058316
      ],
      [
        "▁fe",
        -8.451780980045518
      ],
      [
        "▁by",
        -8.454145362929271
      ],
      [
        "▁casino",
        -8.455780175944625
      ],
      [
        "",
        -8.457039705255609
      ],
      [
        "▁am",
        -8.457044497753142
      ],
      [
        "▁bigay",
        -8.457479754958806
      ],
      [
        "▁mahal",
        -8.457803250395585
      ],
      [
        "pi",
        -8.457918568764551
      ],
      [
        "kung",
        -8.459501770816692
      ],
      [
        "▁ja",
        -8.460806148802563
      ],
      [
        "▁mu",
        -8.46087140661799
      ],
      [
        "▁st",
        -8.462652061816971
      ],
      [
        "ki",
        -8.466842962687661
      ],
      [
        "",
        -8.467230798430403
      ],
      [
        "▁daan",
        -8.46857101250798
      ],
      [
        "▁halos",
        -8.4697639511229
      ],
      [
        "▁aral",
        -8.47401589130894
      ],
      [
        "lang",
        -8.47443595557771
      ],
      [
        "▁sp",
        -8.475798941294705
      ],
      [
        "▁du",
        -8.479455332948048
      ],
      [
        "▁gra",
        -8.479705381867468
      ],
      [
        "tal",
        -8.480363238087572
      ],
      [
        "▁galing",
        -8.481586251376534
      ],
      [
        "▁sama",
        -8.48230983284022
      ],
      [
        "▁kaso",
        -8.483025081450352
      ],
      [
        "▁tra",
        -8.483570309574729
      ],
      [
        "",
        -8.487532974218622
      ],
      [
        "▁out",
        -8.488303562150513
      ],
      [
        "",
        -8.48866893128685
      ],
      [
        "▁handa",
        -8.49220827568148
      ],
      [
        "▁dagdag",
        -8.499263437184949
      ],
      [
        "▁gawa",
        -8.500945965974646
      ],
      [
        "",
        -8.501268950159766
      ],
      [
        "▁gala",
        -8.501277935494068
      ],
      [
        "va",
        -8.507784145434325
      ],
      [
        "▁ne",
        -8.50831907863572
      ],
      [
        "▁bayan",
        -8.508862020712078
      ],
      [
        "▁halimbawa",
        -8.512967789927322
      ],
      [
        "res",
        -8.513561307051766
      ],
      [
        "▁slimming",
        -8.514690691921045
      ],
      [
        "on",
        -8.517540123094722
      ],
      [
        "ion",
        -8.519007434307325
      ],
      [
        "▁pre",
        -8.527318029906256
      ],
      [
        "▁talaga",
        -8.528988921502132
      ],
      [
        "bay",
        -8.53209695551312
      ],
      [
        "▁nito.",
        -8.533305140124371
      ],
      [
        "▁kayo",
        -8.533587940364546
      ],
      [
        "▁doon",
        -8.5341021817469
      ],
      [
        "▁website",
        -8.534554880241286
      ],
      [
        "ado",
        -8.534797072777533
      ],
      [
        "▁asawa",
        -8.535756975275408
      ],
      [
        "▁gabi",
        -8.53937114449401
      ],
      [
        "00",
        -8.540140031622625
      ],
      [
        "▁negosyo",
        -8.540941950993247
      ],
      [
        "up",
        -8.54116553341858
      ],
      [
        "▁j",
        -8.542694555287962
      ],
      [
        "to",
        -8.543678382285618
      ],
      [
        "▁kaibigan",
        -8.543947267712968
      ],
      [
        "rap",
        -8.54413830934134
      ],
      [
        "▁not",
        -8.544524130095
      ],
      [
        "▁kulay",
        -8.54522336647254
      ],
      [
        "▁her",
        -8.545455256577146
      ],
      [
        "▁20",
        -8.545953723926921
      ],
      [
        "▁bili",
        -8.546689825180248
      ],
      [
        "▁wika",
        -8.54680834456872
      ],
      [
        "pit",
        -8.546850459980327
      ],
      [
        "ku",
        -8.548357319555969
      ],
      [
        "▁mag",
        -8.552923221382999
      ],
      [
        "in",
        -8.554646497988116
      ],
      [
        "age",
        -8.559493570869549
      ],
      [
        "),",
        -8.559750843878012
      ],
      [
        "▁dugo",
        -8.560066240323195
      ],
      [
        "▁ya",
        -8.560110820525843
      ],
      [
        "",
        -8.560689495300668
      ],
      [
        "▁iba",
        -8.561284676737671
      ],
      [
        "",
        -8.566545247365456
      ],
      [
        "▁ligid",
        -8.567274186207523
      ],
      [
        "▁amin",
        -8.56802623511056
      ],
      [
        "ger",
        -8.568757715691461
      ],
      [
        "▁account",
        -8.569783675765942
      ],
      [
        "▁bigay",
        -8.57017162252406
      ],
      [
        "▁laman",
        -8.570319817452887
      ],
      [
        "",
        -8.570362686448004
      ],
      [
        "▁yun",
        -8.571234761673923
      ],
      [
        "han",
        -8.573613281962054
      ],
      [
        "▁tama",
        -8.57400912431681
      ],
      [
        "ph",
        -8.575124286941904
      ],
      [
        "ant",
        -8.576025211662238
      ],
      [
        "▁000",
        -8.577416508854064
      ],
      [
        "▁kpanya",
        -8.578205467738156
      ],
      [
        "s,",
        -8.578508146531972
      ],
      [
        "▁th",
        -8.578633279304487
      ],
      [
        "wal",
        -8.57943662929313
      ],
      [
        "▁gastos",
        -8.57978386170434
      ],
      [
        "▁dalas",
        -8.58068870440456
      ],
      [
        "▁pagitan",
        -8.581161707621414
      ],
      [
        "▁car",
        -8.581509318512696
      ],
      [
        "▁kita",
        -8.582223247958476
      ],
      [
        "▁laro",
        -8.585510321470371
      ],
      [
        "▁ilang",
        -8.587529130072681
      ],
      [
        "mb",
        -8.589729273504801
      ],
      [
        "▁all",
        -8.592060955546758
      ],
      [
        "▁—",
        -8.593303910112619
      ],
      [
        "▁city",
        -8.594419044937702
      ],
      [
        "ther",
        -8.595820927857268
      ],
      [
        "▁was",
        -8.596048578617673
      ],
      [
        "▁kaya",
        -8.596860093336524
      ],
      [
        "▁dagdag",
        -8.599455659350218
      ],
      [
        "▁aral",
        -8.603981179237154
      ],
      [
        "im",
        -8.60655501968155
      ],
      [
        "]",
        -8.606734053561459
      ],
      [
        "▁[",
        -8.607168682665447
      ],
      [
        "▁ama",
        -8.607442573366765
      ],
      [
        "▁baka",
        -8.607753565609762
      ],
      [
        "tak",
        -8.609237106353525
      ],
      [
        "▁balik",
        -8.609660759955853
      ],
      [
        "▁hirap",
        -8.612325993566369
      ],
      [
        "lik",
        -8.613662626914985
      ],
      [
        "▁puno",
        -8.614279139864257
      ],
      [
        "▁breast",
        -8.614643410282307
      ],
      [
        "ff",
        -8.61740376141719
      ],
      [
        "yon",
        -8.618159732488525
      ],
      [
        "▁harap",
        -8.618563782535878
      ],
      [
        "▁ilan",
        -8.620490385578078
      ],
      [
        "▁surgery",
        -8.62266703788135
      ],
      [
        "▁dalawa",
        -8.622804381694063
      ],
      [
        "▁time",
        -8.631830323683024
      ],
      [
        "▁dansa",
        -8.634604033418046
      ],
      [
        "▁sarili",
        -8.635971687592606
      ],
      [
        "tro",
        -8.641273834909493
      ],
      [
        "▁she",
        -8.642408423743658
      ],
      [
        "▁ano",
        -8.643034530315997
      ],
      [
        "ive",
        -8.643053982357657
      ],
      [
        "▁ac",
        -8.644699712917653
      ],
      [
        "▁agad",
        -8.645647068842287
      ],
      [
        "▁tatlo",
        -8.645744621910481
      ],
      [
        "▁taon",
        -8.646695504948093
      ],
      [
        "▁usap",
        -8.649458159557343
      ],
      [
        "ction",
        -8.653680891305882
      ],
      [
        "▁kailangan",
        -8.654337164162198
      ],
      [
        ".ayon",
        -8.655365138617862
      ],
      [
        "▁ligtas",
        -8.655849340579202
      ],
      [
        "▁*",
        -8.65781580283003
      ],
      [
        "▁plano",
        -8.657855675357451
      ],
      [
        "",
        -8.660498841921587
      ],
      [
        "en",
        -8.660823132576832
      ],
      [
        "▁work",
        -8.661884035893817
      ],
      [
        "▁bukas",
        -8.663137558617658
      ],
      [
        "el",
        -8.664918295761117
      ],
      [
        "▁bayad",
        -8.666728300335805
      ],
      [
        "▁diyeta",
        -8.667706915475657
      ],
      [
        "ster",
        -8.670396356965894
      ],
      [
        "pu",
        -8.670785894921242
      ],
      [
        "ep",
        -8.67384977306217
      ],
      [
        "min",
        -8.675032308387772
      ],
      [
        "las",
        -8.676393072202638
      ],
      [
        "▁tala",
        -8.678436344771532
      ],
      [
        "▁ko.",
        -8.67996518542098
      ],
      [
        "▁suporta",
        -8.680453023778512
      ],
      [
        "▁tina",
        -8.683768976159682
      ],
      [
        "lig",
        -8.68383131858022
      ],
      [
        "lim",
        -8.684920352951778
      ],
      [
        "ang",
        -8.686783114699915
      ],
      [
        "▁eh",
        -8.687259869217932
      ],
      [
        "▁ngunit",
        -8.687326723413829
      ],
      [
        "▁9",
        -8.688489984610744
      ],
      [
        "▁sira",
        -8.68851623141695
      ],
      [
        "▁ibig",
        -8.689075777049386
      ],
      [
        "▁sanhi",
        -8.692678591570271
      ],
      [
        "▁rami",
        -8.693768920303862
      ],
      [
        ".mga",
        -8.694849953126697
      ],
      [
        "lad",
        -8.695887642524667
      ],
      [
        "▁ari",
        -8.696069871881742
      ],
      [
        "▁lagay",
        -8.697189992609491
      ],
      [
        "▁gawa",
        -8.698929487861658
      ],
      [
        "▁tuloy",
        -8.699732921666303
      ],
      [
        "tas",
        -8.6998558764154
      ],
      [
        "",
        -8.700988133045637
      ],
      [
        "▁laba",
        -8.702500164143744
      ],
      [
        "▁ab",
        -8.702814063975604
      ],
      [
        "▁30",
        -8.703006566598138
      ],
      [
        "▁12",
        -8.703444577431156
      ],
      [
        "ial",
        -8.704597864326116
      ],
      [
        "ru",
        -8.706492679499489
      ],
      [
        "ek",
        -8.70669799082354
      ],
      [
        "▁baga",
        -8.707081028681062
      ],
      [
        "▁customer",
        -8.71213257463196
      ],
      [
        "",
        -8.714787135041517
      ],
      [
        "▁sino",
        -8.714829222760567
      ],
      [
        "▁tan",
        -8.717695355844976
      ],
      [
        "▁programa",
        -8.718631129395618
      ],
      [
        "ista",
        -8.719515392955815
      ],
      [
        "▁kuha",
        -8.720344865258213
      ],
      [
        "▁ak",
        -8.722671041881632
      ],
      [
        "na",
        -8.722768341501487
      ],
      [
        "▁huwag",
        -8.723043400862117
      ],
      [
        "▁x",
        -8.723183876017458
      ],
      [
        "▁ke",
        -8.724514649378193
      ],
      [
        "op",
        -8.725150679394538
      ],
      [
        "low",
        -8.726193259807964
      ],
      [
        "▁dami",
        -8.726420061233002
      ],
      [
        "ance",
        -8.726723082413372
      ],
      [
        "▁personal",
        -8.728784321161552
      ],
      [
        "pos",
        -8.72899401506157
      ],
      [
        "ip",
        -8.738247580341971
      ],
      [
        "▁noon",
        -8.745043486126539
      ],
      [
        "▁katotohanan",
        -8.7451620502536
      ],
      [
        "tri",
        -8.747056951670874
      ],
      [
        "▁bago",
        -8.74938822372006
      ],
      [
        "a,",
        -8.749814499490494
      ],
      [
        "▁gaano",
        -8.751049491458053
      ],
      [
        "log",
        -8.752456683269196
      ],
      [
        "ide",
        -8.753432308873853
      ],
      [
        "▁ina",
        -8.754454362827989
      ],
      [
        "sk",
        -8.75606015905885
      ],
      [
        "gal",
        -8.759859208213724
      ],
      [
        "▁antas",
        -8.762342091944012
      ],
      [
        "!",
        -8.762610076000106
      ],
      [
        "ten",
        -8.763200318194057
      ],
      [
        "",
        -8.763207313583436
      ],
      [
        "pp",
        -8.765437500826797
      ],
      [
        "▁ano",
        -8.767297409487407
      ],
      [
        "",
        -8.768332104199747
      ],
      [
        "tra",
        -8.768602750159609
      ],
      [
        "fi",
        -8.769077914864651
      ],
      [
        "▁$",
        -8.76952267242821
      ],
      [
        "▁yan",
        -8.769819265410524
      ],
      [
        "▁disenyo",
        -8.769920133337516
      ],
      [
        "▁alala",
        -8.7700012154291
      ],
      [
        "",
        -8.774067818614679
      ],
      [
        "ct",
        -8.775587747114578
      ],
      [
        "▁ce",
        -8.777524448458434
      ],
      [
        "port",
        -8.78075768849934
      ],
      [
        "▁from",
        -8.780987881219039
      ],
      [
        "▁ulat",
        -8.781705024860106
      ],
      [
        "▁takot",
        -8.783453165166039
      ],
      [
        "▁huli",
        -8.785436504886782
      ],
      [
        "able",
        -8.785997014107107
      ],
      [
        "▁wrinkles",
        -8.786296226377987
      ],
      [
        "▁kita",
        -8.786437613787532
      ],
      [
        "▁libre",
        -8.789326956279448
      ],
      [
        "▁layo",
        -8.789329287458969
      ],
      [
        "",
        -8.78958733829772
      ],
      [
        "▁love",
        -8.78962251859459
      ],
      [
        "▁hirap",
        -8.789648223331685
      ],
      [
        "▁baon",
        -8.789834867385238
      ],
      [
        "20",
        -8.792720621153414
      ],
      [
        "▁muna",
        -8.79389388529562
      ],
      [
        "▁tampok",
        -8.794945790905382
      ],
      [
        "▁sistema",
        -8.796356490320957
      ],
      [
        "▁bili",
        -8.798129398429989
      ],
      [
        "▁malaki",
        -8.798413706101032
      ],
      [
        "▁tawa",
        -8.799815511498796
      ],
      [
        "▁sunod",
        -8.800176224471004
      ],
      [
        "▁15",
        -8.800572855565951
      ],
      [
        "▁lusog",
        -8.801284357015776
      ],
      [
        "nda",
        -8.80216053006484
      ],
      [
        "▁muli",
        -8.80237253181206
      ],
      [
        "▁wi",
        -8.803510336266662
      ],
      [
        "▁gawa",
        -8.80544990621873
      ],
      [
        "▁subok",
        -8.806221399465594
      ],
      [
        "ari",
        -8.807594069369138
      ],
      [
        "▁don",
        -8.808040562495258
      ],
      [
        "▁kain",
        -8.808603562378224
      ],
      [
        "▁balita",
        -8.809757972456312
      ],
      [
        "▁daan",
        -8.809825574490718
      ],
      [
        "▁halaman",
        -8.810629107989303
      ],
      [
        "▁sapat",
        -8.811555066066582
      ],
      [
        "",
        -8.811576430290069
      ],
      [
        ".kung",
        -8.81367160544901
      ],
      [
        "pat",
        -8.815466334830571
      ],
      [
        "▁will",
        -8.816023112661625
      ],
      [
        "▁ju",
        -8.816818854429313
      ],
      [
        "▁data",
        -8.816874062670724
      ],
      [
        "▁bilis",
        -8.816882786123207
      ],
      [
        "▁edad",
        -8.819052689150723
      ],
      [
        "mga",
        -8.81920261571264
      ],
      [
        "▁batas",
        -8.820290847523694
      ],
      [
        "▁ninyo",
        -8.821790049010223
      ],
      [
        "▁babae",
        -8.823241994753191
      ],
      [
        "pag",
        -8.82394262669609
      ],
      [
        "▁host",
        -8.824678541175793
      ],
      [
        "▁wa",
        -8.826078254880251
      ],
      [
        "bat",
        -8.826473720531302
      ],
      [
        "▁card",
        -8.826982321150219
      ],
      [
        "ture",
        -8.828049313998871
      ],
      [
        "▁halaga",
        -8.8297191880537
      ],
      [
        "ce",
        -8.829814412747965
      ],
      [
        "▁#",
        -8.830149039677318
      ],
      [
        "▁have",
        -8.830357521528681
      ],
      [
        "qu",
        -8.830366084494072
      ],
      [
        "ps",
        -8.83048802816983
      ],
      [
        "idad",
        -8.831196018251555
      ],
      [
        "▁system",
        -8.831229857097751
      ],
      [
        "▁hakbang",
        -8.832606403768695
      ],
      [
        "les",
        -8.833233158580976
      ],
      [
        "▁+",
        -8.833262588848815
      ],
      [
        "▁raw",
        -8.833719279455655
      ],
      [
        "ano",
        -8.835998414108623
      ],
      [
        "ft",
        -8.837395843648748
      ],
      [
        "bong",
        -8.838451889902604
      ],
      [
        "s",
        -8.840307481700616
      ],
      [
        "▁patay",
        -8.84158441060385
      ],
      [
        "▁gawa",
        -8.84171132385573
      ],
      [
        "▁big",
        -8.841784108685552
      ],
      [
        "▁tri",
        -8.847086813862072
      ],
      [
        "▁pero",
        -8.847087034568002
      ],
      [
        "o,",
        -8.847796122269001
      ],
      [
        "▁sta",
        -8.849427747779472
      ],
      [
        "▁nito,",
        -8.850440152616526
      ],
      [
        "que",
        -8.851657507105209
      ],
      [
        "ven",
        -8.853295362287904
      ],
      [
        "▁but",
        -8.853662700054345
      ],
      [
        "▁gaya",
        -8.855697161930392
      ],
      [
        "ner",
        -8.856682338014057
      ],
      [
        "▁media",
        -8.856685718363892
      ],
      [
        "tag",
        -8.857747382500524
      ],
      [
        "▁200",
        -8.858328045986031
      ],
      [
        "▁langis",
        -8.860053060828385
      ],
      [
        "▁ap",
        -8.861182855945463
      ],
      [
        "▁init",
        -8.861414087966091
      ],
      [
        "ous",
        -8.861812939811337
      ],
      [
        "und",
        -8.861872954704046
      ],
      [
        "▁ina",
        -8.865463048176286
      ],
      [
        "▁kuha",
        -8.865611667840533
      ],
      [
        "bil",
        -8.866489682144806
      ],
      [
        "hu",
        -8.867212048423974
      ],
      [
        "ita",
        -8.86738642061782
      ],
      [
        "isa",
        -8.867399346091933
      ],
      [
        "▁buhok",
        -8.867860513827116
      ],
      [
        "way",
        -8.868687865760384
      ],
      [
        "",
        -8.869109790278019
      ],
      [
        "▁ayos",
        -8.870272119146508
      ],
      [
        "▁ganito",
        -8.872320691667337
      ],
      [
        "▁z",
        -8.872487815712422
      ],
      [
        "ies",
        -8.873465554931741
      ],
      [
        "ik",
        -8.874428129554246
      ],
      [
        "ight",
        -8.875298404795645
      ],
      [
        "ili",
        -8.875298685457798
      ],
      [
        ":-",
        -8.876257763552431
      ],
      [
        "▁pansin",
        -8.876398896646498
      ],
      [
        "▁tama",
        -8.878210019341047
      ],
      [
        "nti",
        -8.87998991384747
      ],
      [
        "▁mina",
        -8.880562172659042
      ],
      [
        "rd",
        -8.880656502365905
      ],
      [
        "▁social",
        -8.881495684722477
      ],
      [
        "▁slot",
        -8.88239529198479
      ],
      [
        "ine",
        -8.882535962630554
      ],
      [
        "ary",
        -8.882636325117911
      ],
      [
        "▁diin",
        -8.882804214462602
      ],
      [
        "▁eye",
        -8.886057315776094
      ],
      [
        "▁fi",
        -8.8867211631875
      ],
      [
        "es",
        -8.889907904174143
      ],
      [
        "▁lapit",
        -8.889975656023134
      ],
      [
        "▁ani",
        -8.89049876627232
      ],
      [
        "man",
        -8.89089629038932
      ],
      [
        "▁sha",
        -8.891245387782586
      ],
      [
        "▁je",
        -8.892544276379327
      ],
      [
        "▁niya.",
        -8.892614078501646
      ],
      [
        ")",
        -8.89359877841919
      ],
      [
        "pas",
        -8.894516496683707
      ],
      [
        "▁batay",
        -8.894542543178913
      ],
      [
        "ub",
        -8.896726872019396
      ],
      [
        "ast",
        -8.896776071178671
      ],
      [
        "▁ve",
        -8.89684499533955
      ],
      [
        "land",
        -8.89981480277817
      ],
      [
        "▁iwan",
        -8.901804185720662
      ],
      [
        "▁medyo",
        -8.90209629693503
      ],
      [
        "▁punta",
        -8.90302196066647
      ],
      [
        "ud",
        -8.903108884795623
      ],
      [
        "“",
        -8.904792645880269
      ],
      [
        "▁mismo",
        -8.90537047683621
      ],
      [
        "▁access",
        -8.905993640924137
      ],
      [
        "▁ulo",
        -8.907683224491118
      ],
      [
        "▁em",
        -8.91005630893893
      ],
      [
        "la",
        -8.911069693511458
      ],
      [
        "▁tingin",
        -8.911574204486124
      ],
      [
        "▁pelikula",
        -8.912715348704161
      ],
      [
        "▁tawag",
        -8.914150534766915
      ],
      [
        "let",
        -8.914760905474507
      ],
      [
        "▁pili",
        -8.915357302479581
      ],
      [
        "▁high",
        -8.919895047538823
      ],
      [
        "▁bisita",
        -8.919949809600743
      ],
      [
        "fe",
        -8.920444073102887
      ],
      [
        "▁kundi",
        -8.920964772475214
      ],
      [
        "▁rito",
        -8.92114323899991
      ],
      [
        "▁live",
        -8.921419388653621
      ],
      [
        "",
        -8.92145615184503
      ],
      [
        "ra",
        -8.921692412008952
      ],
      [
        "ne",
        -8.923122497464131
      ],
      [
        "mas",
        -8.923470286430494
      ],
      [
        "▁huli",
        -8.924810725288754
      ],
      [
        "▁buo",
        -8.924864688756118
      ],
      [
        "▁mens",
        -8.92500849048594
      ],
      [
        "▁beses",
        -8.925208174762343
      ],
      [
        ".",
        -8.92633620437489
      ],
      [
        "tch",
        -8.926504330614488
      ],
      [
        "▁baba",
        -8.927197667951738
      ],
      [
        "▁lungsod",
        -8.927577221398815
      ],
      [
        "▁ala",
        -8.928685291170442
      ],
      [
        "lay",
        -8.929227483633346
      ],
      [
        "ye",
        -8.929352321970503
      ],
      [
        "▁cor",
        -8.931793824684478
      ],
      [
        "▁our",
        -8.932978588871977
      ],
      [
        "▁cha",
        -8.933409267887194
      ],
      [
        "ric",
        -8.933866171738558
      ],
      [
        "▁gulang",
        -8.934454893160405
      ],
      [
        "▁dating",
        -8.935229081448034
      ],
      [
        "",
        -8.936952179525244
      ],
      [
        "▁inyo",
        -8.937237394970843
      ],
      [
        "▁hala",
        -8.937357230066523
      ],
      [
        "▁&",
        -8.93767223629921
      ],
      [
        "end",
        -8.937923057932188
      ],
      [
        "",
        -8.938548472786385
      ],
      [
        "ino",
        -8.938746698243671
      ],
      [
        "▁suri",
        -8.940512194054435
      ],
      [
        "▁lakas",
        -8.941514091754414
      ],
      [
        "ex",
        -8.941949952925823
      ],
      [
        "▁posible",
        -8.943894528575223
      ],
      [
        "▁sikat",
        -8.94446969529911
      ],
      [
        "▁suot",
        -8.946432987859403
      ],
      [
        "▁kita",
        -8.946940671342034
      ],
      [
        "wala",
        -8.94765941449987
      ],
      [
        "▁ano",
        -8.948061582165224
      ],
      [
        "and",
        -8.948326138149259
      ],
      [
        "bal",
        -8.948431972081517
      ],
      [
        "▁salamat",
        -8.94881455465133
      ],
      [
        "▁tao.",
        -8.94906658115596
      ],
      [
        "ize",
        -8.949529957387652
      ],
      [
        "▁talo",
        -8.949530431187302
      ],
      [
        "ismo",
        -8.950596580949078
      ],
      [
        "▁lapit",
        -8.950727854047601
      ],
      [
        "ator",
        -8.951265220157628
      ],
      [
        "",
        -8.951594589906284
      ],
      [
        "▁isyu",
        -8.951860254430207
      ],
      [
        "▁el",
        -8.954305654634693
      ],
      [
        "▁gamit",
        -8.954931014692912
      ],
      [
        "▁ganda",
        -8.956539503085418
      ],
      [
        "▁roon",
        -8.957269487885107
      ],
      [
        "ice",
        -8.957957269320616
      ],
      [
        "▁buti",
        -8.958497741125171
      ],
      [
        "▁the",
        -8.960235338072016
      ],
      [
        "",
        -8.960324433528223
      ],
      [
        "lin",
        -8.961857215898272
      ],
      [
        "▁sub",
        -8.962575704021695
      ],
      [
        "▁bag",
        -8.963783263146988
      ],
      [
        "▁tip",
        -8.964416110363786
      ],
      [
        "▁mana",
        -8.964869643113454
      ],
      [
        "▁more",
        -8.966930428306945
      ],
      [
        "▁ngayon",
        -8.968888505583939
      ],
      [
        "▁apat",
        -8.969041692433615
      ],
      [
        "▁sangkap",
        -8.969245698799106
      ],
      [
        "tan",
        -8.969917985733108
      ],
      [
        "ano",
        -8.970083043274665
      ],
      [
        "nte",
        -8.970852136354281
      ],
      [
        "",
        -8.97123208370355
      ],
      [
        "▁taya",
        -8.972164438193008
      ],
      [
        "▁tulad",
        -8.973018508595082
      ],
      [
        "tiko",
        -8.974654902939628
      ],
      [
        "▁che",
        -8.974852039442801
      ],
      [
        "▁layo",
        -8.97563829719908
      ],
      [
        "line",
        -8.976337437416595
      ],
      [
        "▁kita",
        -8.976509162596694
      ],
      [
        "▁tiwala",
        -8.980622931809375
      ],
      [
        "▁takbo",
        -8.981423485130192
      ],
      [
        "",
        -8.982147217784828
      ],
      [
        "ran",
        -8.985312338111031
      ],
      [
        "▁totoo",
        -8.985877425180663
      ],
      [
        "▁buti",
        -8.986197949312594
      ],
      [
        "▁hinga",
        -8.986240887964279
      ],
      [
        "▁one",
        -8.988042131904137
      ],
      [
        ".hindi",
        -8.988286409339958
      ],
      [
        "▁madali",
        -8.988942853514356
      ],
      [
        "▁tula",
        -8.989243264008769
      ],
      [
        "▁muli",
        -8.99135092849918
      ],
      [
        "▁sunod",
        -8.991961117317235
      ],
      [
        "▁tur",
        -8.993335619606153
      ],
      [
        ";-",
        -8.995972447941005
      ],
      [
        "bot",
        -8.996606846843735
      ],
      [
        "s.",
        -8.996736311415399
      ],
      [
        "lic",
        -8.998101925569966
      ],
      [
        "▁bukod",
        -8.998226123625033
      ],
      [
        "pro",
        -8.9995779476678
      ],
      [
        "at",
        -8.9997184131299
      ],
      [
        "r",
        -9.000580879466684
      ],
      [
        "ika",
        -9.003135333624702
      ],
      [
        "▁mask",
        -9.003378482783527
      ],
      [
        "▁labis",
        -9.003457159782519
      ],
      [
        "▁turo",
        -9.00350228264676
      ],
      [
        "▁sunod",
        -9.004487302900788
      ],
      [
        "▁tagumpay",
        -9.004647567540262
      ],
      [
        "▁ulit",
        -9.004664619181796
      ],
      [
        "▁op",
        -9.005317071457032
      ],
      [
        "▁relasyon",
        -9.006127865816067
      ],
      [
        "gan",
        -9.00627675346924
      ],
      [
        "▁diet",
        -9.006383619646773
      ],
      [
        "▁hanap",
        -9.006858300959545
      ],
      [
        "▁tila",
        -9.008820877799362
      ],
      [
        "l",
        -9.009422696431455
      ],
      [
        "▁alok",
        -9.01012966231889
      ],
      [
        "▁sintomas",
        -9.01034055022858
      ],
      [
        "bit",
        -9.010693267004157
      ],
      [
        "lip",
        -9.010770766034359
      ],
      [
        "",
        -9.01156114234052
      ],
      [
        "▁br",
        -9.012191660712478
      ],
      [
        "▁reg",
        -9.014154670409104
      ],
      [
        ",",
        -9.015679385922137
      ],
      [
        "▁sobra",
        -9.016305773472567
      ],
      [
        "bre",
        -9.01634263316781
      ],
      [
        "▁kwento",
        -9.016818364830897
      ],
      [
        "lot",
        -9.018068276975772
      ],
      [
        "▁dagdag",
        -9.019324529089777
      ],
      [
        "sion",
        -9.01933471843743
      ],
      [
        "iya",
        -9.020124714555296
      ],
      [
        "▁ts",
        -9.020687267569947
      ],
      [
        "▁plastic",
        -9.020724622122906
      ],
      [
        "ron",
        -9.021532442419026
      ],
      [
        "▁angkop",
        -9.022489916218596
      ],
      [
        "▁siguro",
        -9.024020788469672
      ],
      [
        "▁natural",
        -9.024441437477636
      ],
      [
        "▁opisyal",
        -9.024674528138336
      ],
      [
        "ero",
        -9.02542712485531
      ],
      [
        "▁pri",
        -9.027379100966192
      ],
      [
        "▁cu",
        -9.027527931076644
      ],
      [
        "ld",
        -9.028005821679015
      ],
      [
        "ill",
        -9.028860662634868
      ],
      [
        "▁ganda",
        -9.030902315620452
      ],
      [
        "▁covid-19",
        -9.031130174819586
      ],
      [
        "▁punta",
        -9.032080574561395
      ],
      [
        "ence",
        -9.032157858443968
      ],
      [
        "▁kalidad",
        -9.033298369436112
      ],
      [
        "is",
        -9.033533031815058
      ],
      [
        "una",
        -9.033875843511773
      ],
      [
        "▁liwanag",
        -9.03458050596328
      ],
      [
        "mit",
        -9.034609297006053
      ],
      [
        "▁grupo",
        -9.034791627486015
      ],
      [
        "s",
        -9.037543483131985
      ],
      [
        "",
        -9.03796204870349
      ],
      [
        "▁dali",
        -9.038709475611766
      ],
      [
        "ong",
        -9.04011288895002
      ],
      [
        "▁11",
        -9.04074581636025
      ],
      [
        "▁hayag",
        -9.041376667959147
      ],
      [
        "ula",
        -9.04153488540439
      ],
      [
        "rk",
        -9.04244370267067
      ],
      [
        "mba",
        -9.044755988827726
      ],
      [
        "▁tao",
        -9.045401636047133
      ],
      [
        "▁pasa",
        -9.046639533131286
      ],
      [
        "▁cr",
        -9.048614147782086
      ],
      [
        "▁na",
        -9.049586702271327
      ],
      [
        "ndi",
        -9.049659062856183
      ],
      [
        "▁subok",
        -9.051220513543177
      ],
      [
        "▁sukat",
        -9.052296587288827
      ],
      [
        "▁bul",
        -9.054783735420544
      ],
      [
        "▁hiwalay",
        -9.054790630933798
      ],
      [
        "",
        -9.055857747573647
      ],
      [
        "▁kailangan",
        -9.055946832386695
      ],
      [
        "ze",
        -9.056467501466138
      ],
      [
        "▁isda",
        -9.05695416037224
      ],
      [
        "com",
        -9.05721273808374
      ],
      [
        "▁papel",
        -9.05897094601301
      ],
      [
        "▁email",
        -9.05908941520381
      ],
      [
        "ect",
        -9.05913904293419
      ],
      [
        "▁bigay",
        -9.060723087305526
      ],
      [
        "che",
        -9.06126941854867
      ],
      [
        "bog",
        -9.061422700657163
      ],
      [
        "▁alis",
        -9.061822034583914
      ],
      [
        "▁ban",
        -9.062949537894111
      ],
      [
        "",
        -9.06379124307128
      ],
      [
        "▁tawag",
        -9.064020888838433
      ],
      [
        "▁0",
        -9.064087115251487
      ],
      [
        "lit",
        -9.065894767496882
      ],
      [
        "▁daan",
        -9.067225599687399
      ],
      [
        "",
        -9.068692719868197
      ],
      [
        "ry",
        -9.069407976892569
      ],
      [
        "con",
        -9.070208429493384
      ],
      [
        "▁laman",
        -9.072216957288841
      ],
      [
        "▁anim",
        -9.075991977772349
      ],
      [
        "▁abot",
        -9.07715279063355
      ],
      [
        "▁show",
        -9.079611307415433
      ],
      [
        "▁gigi",
        -9.080399903422142
      ],
      [
        "mu",
        -9.08081760352841
      ],
      [
        "▁18",
        -9.08164185622767
      ],
      [
        "▁panganib",
        -9.081887940428796
      ],
      [
        "▁kuha",
        -9.082362626188532
      ],
      [
        "▁halaga",
        -9.082971775603198
      ],
      [
        "▁pilipino",
        -9.084263741548808
      ],
      [
        "",
        -9.08535262490355
      ],
      [
        "▁taas",
        -9.085720708485928
      ],
      [
        "men",
        -9.086179414036911
      ],
      [
        "rit",
        -9.08682735875096
      ],
      [
        "▁partikular",
        -9.087138945122938
      ],
      [
        "▁gamit",
        -9.088330797549359
      ],
      [
        "▁proyekto",
        -9.08924874672012
      ],
      [
        "▁biktima",
        -9.089424766692668
      ],
      [
        "tter",
        -9.089854552269111
      ],
      [
        "▁lakad",
        -9.091117463952106
      ],
      [
        ",",
        -9.091759796627995
      ],
      [
        "▁sabi",
        -9.09228913227702
      ],
      [
        "▁itaas",
        -9.093058068636886
      ],
      [
        "▁kapatid",
        -9.093395449121141
      ],
      [
        "▁100",
        -9.094206122795514
      ],
      [
        "▁network",
        -9.094381869817706
      ],
      [
        "▁ah",
        -9.09495442361639
      ],
      [
        "▁fo",
        -9.095214134238718
      ],
      [
        "▁dagdagan",
        -9.095351151856597
      ],
      [
        "▁tugon",
        -9.09567343116463
      ],
      [
        "▁kasalukuyan",
        -9.096307871402242
      ],
      [
        "▁che",
        -9.097376533020382
      ],
      [
        "out",
        -9.097524077474906
      ],
      [
        "▁order",
        -9.098596261680495
      ],
      [
        "",
        -9.098735899630901
      ],
      [
        "",
        -9.099121526747608
      ],
      [
        "▁industriya",
        -9.099687158762904
      ],
      [
        "as",
        -9.099860096455938
      ],
      [
        "q",
        -9.10308479954329
      ],
      [
        "▁nter",
        -9.103387964830107
      ],
      [
        "▁itlog",
        -9.103931062055103
      ],
      [
        "▁just",
        -9.1047112453482
      ],
      [
        "",
        -9.104876018828989
      ],
      [
        "yan",
        -9.106734993379112
      ],
      [
        "▁linaw",
        -9.109015289350976
      ],
      [
        "▁gayunpam,",
        -9.117640759154611
      ],
      [
        "",
        -9.118997141952105
      ],
      [
        "gawa",
        -9.119294943669116
      ],
      [
        "▁filipino",
        -9.11980979046607
      ],
      [
        "▁likha",
        -9.11984510273663
      ],
      [
        "▁teknolohiya",
        -9.12107834926092
      ],
      [
        "▁mobile",
        -9.121373463140971
      ],
      [
        "ta",
        -9.12141613472652
      ],
      [
        "▁pinsala",
        -9.121987275318322
      ],
      [
        "tibo",
        -9.122198765957497
      ],
      [
        "▁anyo",
        -9.123506105715911
      ],
      [
        "",
        -9.123693033146552
      ],
      [
        "em",
        -9.123878294119217
      ],
      [
        "ante",
        -9.123951613329755
      ],
      [
        "▁kuwento",
        -9.12446803320155
      ],
      [
        "▁kontrol",
        -9.125448612938136
      ],
      [
        "▁nuno",
        -9.126638303313594
      ],
      [
        "▁ob",
        -9.127287554045772
      ],
      [
        "lan",
        -9.128116656741234
      ],
      [
        "▁kain",
        -9.129904564832318
      ],
      [
        "ed",
        -9.130971908985757
      ],
      [
        "▁what",
        -9.131639503266596
      ],
      [
        "▁tungo",
        -9.133246052680288
      ],
      [
        "▁hina",
        -9.134381082091457
      ],
      [
        "▁pili",
        -9.135150703218871
      ],
      [
        "by",
        -9.135432278266848
      ],
      [
        "▁baga",
        -9.135962108919324
      ],
      [
        "▁recipe",
        -9.136090937131913
      ],
      [
        "",
        -9.138181731879365
      ],
      [
        "▁damdam",
        -9.138528159941725
      ],
      [
        "▁doktor",
        -9.13858455959605
      ],
      [
        "▁col",
        -9.138602490768843
      ],
      [
        "ito",
        -9.140439430556373
      ],
      [
        "▁uwi",
        -9.144467426904805
      ],
      [
        "▁kahulugan",
        -9.144826591199154
      ],
      [
        "▁ru",
        -9.146679643413787
      ],
      [
        "▁ver",
        -9.147804001323461
      ],
      [
        "▁tao,",
        -9.148829773257432
      ],
      [
        "▁bigyan",
        -9.149265040442465
      ],
      [
        "▁sanay",
        -9.150356528627086
      ],
      [
        "lar",
        -9.15050505583472
      ],
      [
        "▁hitsura",
        -9.151891180297522
      ],
      [
        "▁free",
        -9.152015331219046
      ],
      [
        "yal",
        -9.152148682177103
      ],
      [
        "ted",
        -9.152399973022163
      ],
      [
        "rr",
        -9.152754760436212
      ],
      [
        "▁tangi",
        -9.153485310715986
      ],
      [
        "▁him",
        -9.15447138013204
      ],
      [
        "iko",
        -9.154530489042337
      ],
      [
        "hindi",
        -9.15581284458963
      ],
      [
        "▁gol",
        -9.15799973774512
      ],
      [
        "▁payo",
        -9.15818545488426
      ],
      [
        "▁ibig",
        -9.160216764103783
      ],
      [
        "ine",
        -9.160254767856149
      ],
      [
        "▁espesyal",
        -9.16035904272845
      ],
      [
        "ding",
        -9.160393776175896
      ],
      [
        "▁halip",
        -9.16164496999208
      ],
      [
        "an",
        -9.162360636923717
      ],
      [
        "▁school",
        -9.162771527578155
      ],
      [
        "mm",
        -9.162792902220662
      ],
      [
        "",
        -9.163857612027543
      ],
      [
        "▁baba",
        -9.163896399258824
      ],
      [
        "gen",
        -9.164836796857818
      ],
      [
        "",
        -9.165664326283304
      ],
      [
        "kin",
        -9.166603587246367
      ],
      [
        "no",
        -9.16688336173218
      ],
      [
        "▁sala",
        -9.167110209408674
      ],
      [
        "▁tulog",
        -9.167166113838935
      ],
      [
        "▁dito,",
        -9.16736189290004
      ],
      [
        "▁hayop",
        -9.168157036032909
      ],
      [
        "ach",
        -9.17145759110844
      ],
      [
        "?",
        -9.171882869874043
      ],
      [
        "▁ch",
        -9.172116670182007
      ],
      [
        "▁kg",
        -9.172416514232202
      ],
      [
        "▁hawak",
        -9.173702666580212
      ],
      [
        "▁comp",
        -9.174230423348074
      ],
      [
        "▁miyembro",
        -9.174345930543586
      ],
      [
        "▁sabay",
        -9.175335709111986
      ],
      [
        "▁hanay",
        -9.176125095606015
      ],
      [
        "",
        -9.176744242863215
      ],
      [
        "▁gitna",
        -9.177065311865443
      ],
      [
        "▁tam",
        -9.177334327754517
      ],
      [
        "i",
        -9.17869812230504
      ],
      [
        "▁saya",
        -9.179797857343688
      ],
      [
        "▁sabi",
        -9.18096856898419
      ],
      [
        "re",
        -9.18143302244535
      ],
      [
        "▁tingnan",
        -9.181807291399725
      ],
      [
        "▁tagal",
        -9.183059559383326
      ],
      [
        "10",
        -9.18338598401094
      ],
      [
        "▁baba",
        -9.18357066753901
      ],
      [
        "▁tanda",
        -9.184026718282718
      ],
      [
        "",
        -9.186318836247011
      ],
      [
        "▁kahulugan",
        -9.186530054987301
      ],
      [
        "▁nina",
        -9.188715592310604
      ],
      [
        "▁merkado",
        -9.188920663039635
      ],
      [
        "▁gobyerno",
        -9.189114538355081
      ],
      [
        "ros",
        -9.1893481260669
      ],
      [
        "▁damit",
        -9.190247296093387
      ],
      [
        "",
        -9.190779560325094
      ],
      [
        "▁yo",
        -9.191680332046129
      ],
      [
        "one",
        -9.192000040388905
      ],
      [
        ".ito",
        -9.193341243901026
      ],
      [
        "sis",
        -9.193764215223203
      ],
      [
        "▁tupad",
        -9.194594915409153
      ],
      [
        "▁likod",
        -9.194842701051591
      ],
      [
        "▁af",
        -9.194964795951664
      ],
      [
        "yu",
        -9.195183707361002
      ],
      [
        "▁haba",
        -9.195520311113793
      ],
      [
        "▁lawak",
        -9.195553616426134
      ],
      [
        "▁base",
        -9.196102818955548
      ],
      [
        "▁hayag",
        -9.196714270038438
      ],
      [
        "ie",
        -9.197154291575112
      ],
      [
        "▁tuwa",
        -9.198783079932227
      ],
      [
        "▁dating",
        -9.198785542799685
      ],
      [
        "▁masyado",
        -9.199208439495385
      ],
      [
        "s",
        -9.199718879315938
      ],
      [
        "▁kuha",
        -9.199772953894687
      ],
      [
        "x",
        -9.199820753794189
      ],
      [
        "los",
        -9.200832134419604
      ],
      [
        "▁platform",
        -9.20104944915661
      ],
      [
        "",
        -9.201869177218594
      ],
      [
        "▁kailangan",
        -9.20323381777826
      ],
      [
        "▁pasok",
        -9.204359366314845
      ],
      [
        "ya",
        -9.205815795861952
      ],
      [
        "▁bata",
        -9.207216989415747
      ],
      [
        "stra",
        -9.207640029759695
      ],
      [
        "▁yari",
        -9.208298804557067
      ],
      [
        "▁day",
        -9.208353860487545
      ],
      [
        "▁tv",
        -9.20875022492474
      ],
      [
        "▁galit",
        -9.209590472988312
      ],
      [
        "▁50",
        -9.211120396885327
      ],
      [
        "▁like",
        -9.212229137785346
      ],
      [
        "▁rate",
        -9.212253669984506
      ],
      [
        "▁kapangyarihan",
        -9.21242441936566
      ],
      [
        "▁bonus",
        -9.212653881140623
      ],
      [
        "▁diskarte",
        -9.212729552941255
      ],
      [
        ".",
        -9.212986505282492
      ],
      [
        "ust",
        -9.213348428579168
      ],
      [
        "",
        -9.213447337696541
      ],
      [
        "ic",
        -9.216385438395317
      ],
      [
        "....",
        -9.216446904587714
      ],
      [
        "▁ge",
        -9.217087852832238
      ],
      [
        "▁gawa",
        -9.217282499805084
      ],
      [
        "hen",
        -9.217812564511366
      ],
      [
        "unt",
        -9.218530727596804
      ],
      [
        "▁gayon",
        -9.22005021769264
      ],
      [
        "▁alam",
        -9.220414722922845
      ],
      [
        "▁simple",
        -9.22092316367871
      ],
      [
        "▁bra",
        -9.220979527852949
      ],
      [
        "▁pangarap",
        -9.221329321212378
      ],
      [
        "▁sitwasyon",
        -9.221931978140237
      ],
      [
        "▁giardia",
        -9.222116559699309
      ],
      [
        "▁no",
        -9.222235876191165
      ],
      [
        "ite",
        -9.223688881227773
      ],
      [
        "te",
        -9.22410776557116
      ],
      [
        "",
        -9.225055708201749
      ],
      [
        "▁tool",
        -9.22639106058151
      ],
      [
        "▁gulang",
        -9.226842736283501
      ],
      [
        "▁nternet",
        -9.227575681014304
      ],
      [
        "tive",
        -9.22757938917426
      ],
      [
        "▁sunog",
        -9.22780643843408
      ],
      [
        "▁ehersisyo",
        -9.228080510585038
      ],
      [
        "ated",
        -9.228927522151757
      ],
      [
        "hal",
        -9.22899767978018
      ],
      [
        "▁home",
        -9.229022124372968
      ],
      [
        "▁game",
        -9.229258335828732
      ],
      [
        "▁aga",
        -9.230852680546343
      ],
      [
        "mula",
        -9.231032111561357
      ],
      [
        "▁blog",
        -9.231447263471948
      ],
      [
        "",
        -9.231989594782432
      ],
      [
        "▁trans",
        -9.23231612263133
      ],
      [
        "▁tablet",
        -9.232597357176653
      ],
      [
        "ple",
        -9.233780589161011
      ],
      [
        "ure",
        -9.234528897135709
      ],
      [
        "▁solusyon",
        -9.234573233106502
      ],
      [
        "▁ibabaw",
        -9.234787346315425
      ],
      [
        "▁turan",
        -9.234980591658461
      ],
      [
        "▁14",
        -9.23528392101502
      ],
      [
        "▁about",
        -9.237417467915899
      ],
      [
        "▁13",
        -9.237747655949716
      ],
      [
        "",
        -9.240492284227004
      ],
      [
        "son",
        -9.241026791490341
      ],
      [
        "the",
        -9.241102575446693
      ],
      [
        "▁numero",
        -9.241928190520495
      ],
      [
        "▁lokal",
        -9.243911449015382
      ],
      [
        "▁pili",
        -9.243941678303477
      ],
      [
        "▁dito.",
        -9.244227686402418
      ],
      [
        "▁saysay",
        -9.24450419045104
      ],
      [
        "▁keto",
        -9.24469281433823
      ],
      [
        "0",
        -9.247987147345045
      ],
      [
        "tik",
        -9.248363133495332
      ],
      [
        "▁if",
        -9.249567617225631
      ],
      [
        "▁ali",
        -9.250784654906218
      ],
      [
        "ation",
        -9.251156932613277
      ],
      [
        "▁sigurado",
        -9.251299607440952
      ],
      [
        "▁who",
        -9.251560158870204
      ],
      [
        "ly",
        -9.252000649117514
      ],
      [
        "50",
        -9.252449360921966
      ],
      [
        "▁puksa",
        -9.25285274837387
      ],
      [
        "▁roon",
        -9.253867907111262
      ],
      [
        "den",
        -9.254463962608634
      ],
      [
        "dya",
        -9.254674858237713
      ],
      [
        "▁philippines",
        -9.255254459140442
      ],
      [
        "cy",
        -9.255356862668984
      ],
      [
        "▁klase",
        -9.256191753174962
      ],
      [
        "▁star",
        -9.256546407451516
      ],
      [
        "if",
        -9.257300923176432
      ],
      [
        "ente",
        -9.257580917412243
      ],
      [
        "▁estado",
        -9.258086263065183
      ],
      [
        "han",
        -9.258753193197265
      ],
      [
        "nes",
        -9.259028974294566
      ],
      [
        "▁itim",
        -9.259201163590648
      ],
      [
        "",
        -9.259337145690475
      ],
      [
        "kaw",
        -9.259576905331643
      ],
      [
        "▁war",
        -9.26010112313753
      ],
      [
        "▁first",
        -9.261163242440077
      ],
      [
        "ina",
        -9.261423763211283
      ],
      [
        "para",
        -9.26191266955185
      ],
      [
        "▁health",
        -9.2620791392562
      ],
      [
        "m",
        -9.262771305533123
      ],
      [
        "▁bala",
        -9.263245590475334
      ],
      [
        "rs",
        -9.263468387137975
      ],
      [
        "kit",
        -9.26414846246244
      ],
      [
        "gra",
        -9.265119244452395
      ],
      [
        "mer",
        -9.265988919372893
      ],
      [
        "▁wala",
        -9.266389852771196
      ],
      [
        "▁gene",
        -9.267634764693748
      ],
      [
        "ear",
        -9.269246244915632
      ],
      [
        "isyon",
        -9.271372809898029
      ],
      [
        "▁super",
        -9.272758381794146
      ],
      [
        "▁tulong",
        -9.272818055697906
      ],
      [
        "▁operasyon",
        -9.273289912343389
      ],
      [
        "▁lista",
        -9.273507136801998
      ],
      [
        "▁gamit",
        -9.273595982807276
      ],
      [
        "cle",
        -9.273906659765222
      ],
      [
        "▁spot",
        -9.273957306355486
      ],
      [
        "rya",
        -9.2742158341097
      ],
      [
        "▁chi",
        -9.274954834108264
      ],
      [
        "▁lalo",
        -9.275145684391813
      ],
      [
        "y,",
        -9.27550662025057
      ],
      [
        "dr",
        -9.278143058163408
      ],
      [
        "",
        -9.278396249726473
      ],
      [
        "▁panaginip",
        -9.278785956256744
      ],
      [
        "▁pagkat",
        -9.279424426546479
      ],
      [
        "▁tayong",
        -9.279563921036795
      ],
      [
        "▁ayaw",
        -9.280837581968232
      ],
      [
        "cent",
        -9.281489694733686
      ],
      [
        "▁labi",
        -9.28184461830254
      ],
      [
        "▁pilit",
        -9.28289366691285
      ],
      [
        "▁25",
        -9.284923704385083
      ],
      [
        "▁ye",
        -9.28510370663114
      ],
      [
        "iba",
        -9.285663188632856
      ],
      [
        "",
        -9.285937993539765
      ],
      [
        "▁16",
        -9.285992972163468
      ],
      [
        "▁desisyon",
        -9.286870117492912
      ],
      [
        "▁gamit",
        -9.28704650150914
      ],
      [
        "▁minuto",
        -9.28776133489903
      ],
      [
        "late",
        -9.288373653968488
      ],
      [
        "less",
        -9.288464859001044
      ],
      [
        "▁bansa.",
        -9.288601422858617
      ],
      [
        "▁test",
        -9.288894974722385
      ],
      [
        "▁ari",
        -9.289902765881596
      ],
      [
        "▁nu",
        -9.290367541348273
      ],
      [
        "▁bags",
        -9.290882812098113
      ],
      [
        "▁salo",
        -9.292312896003873
      ],
      [
        ",\"",
        -9.293034542719038
      ],
      [
        "▁oo",
        -9.29335637063033
      ],
      [
        "▁fu",
        -9.293403383779427
      ],
      [
        "▁kuha",
        -9.294518578724896
      ],
      [
        "ele",
        -9.294634517379405
      ],
      [
        "a.",
        -9.295680416604483
      ],
      [
        "time",
        -9.295781288960683
      ],
      [
        "▁tapat",
        -9.296840199399295
      ],
      [
        "lak",
        -9.296873410636401
      ],
      [
        "ensya",
        -9.297776755026813
      ],
      [
        "▁ayos",
        -9.29797810197726
      ],
      [
        "▁lawak",
        -9.298309957672842
      ],
      [
        "▁aral",
        -9.298654311870852
      ],
      [
        "▁tagal",
        -9.299110405250973
      ],
      [
        "▁baba",
        -9.29972206904057
      ],
      [
        "▁wika",
        -9.299760555693032
      ],
      [
        "ler",
        -9.300169059106157
      ],
      [
        "▁es",
        -9.30063261565506
      ],
      [
        "le",
        -9.300689120717099
      ],
      [
        "▁uod",
        -9.301447554107906
      ],
      [
        "▁over",
        -9.302378403498544
      ],
      [
        "act",
        -9.302722273566976
      ],
      [
        "▁dati",
        -9.304066264068707
      ],
      [
        "git",
        -9.304390678299573
      ],
      [
        "▁liit",
        -9.306538110784569
      ],
      [
        "",
        -9.307104090644271
      ],
      [
        "pin",
        -9.307385549895479
      ],
      [
        "▁halo",
        -9.308365913436994
      ],
      [
        "son",
        -9.308571765593596
      ],
      [
        "▁sila",
        -9.309547127373554
      ],
      [
        "ev",
        -9.310157331598253
      ],
      [
        "▁saliksik",
        -9.310370422510363
      ],
      [
        "▁good",
        -9.31082434743676
      ],
      [
        "▁program",
        -9.31106827010039
      ],
      [
        "ris",
        -9.311202136283164
      ],
      [
        "▁puti",
        -9.312121175378486
      ],
      [
        "long",
        -9.312236290553653
      ],
      [
        "for",
        -9.314543620661787
      ],
      [
        "▁pondo",
        -9.315039032581641
      ],
      [
        "▁lubos",
        -9.315227056155233
      ],
      [
        "▁buhay.",
        -9.316156822812431
      ],
      [
        "",
        -9.317251517001058
      ],
      [
        "▁unlad",
        -9.319298273883524
      ],
      [
        "▁bal",
        -9.320091187792844
      ],
      [
        "▁tali",
        -9.323012856193113
      ],
      [
        "▁real",
        -9.323878215489602
      ],
      [
        "▁circles",
        -9.323931760086671
      ],
      [
        "nu",
        -9.324067661978795
      ],
      [
        "▁kasal",
        -9.32413089591504
      ],
      [
        "day",
        -9.324676639751155
      ],
      [
        "",
        -9.32467732230943
      ],
      [
        "",
        -9.325075972120759
      ],
      [
        "hin",
        -9.325450848581726
      ],
      [
        "▁linya",
        -9.326824463147748
      ],
      [
        "cul",
        -9.329146663563291
      ],
      [
        "▁tabi",
        -9.331193491081347
      ],
      [
        "us",
        -9.331705865299003
      ],
      [
        "nc",
        -9.333250613526747
      ],
      [
        "▁aral",
        -9.333680823501945
      ],
      [
        "▁titi",
        -9.335791225050531
      ],
      [
        "lon",
        -9.33580881368231
      ],
      [
        "▁lunas",
        -9.33598940739789
      ],
      [
        "ell",
        -9.336234038019239
      ],
      [
        "▁sex",
        -9.33699466395998
      ],
      [
        "",
        -9.337229181825915
      ],
      [
        "▁kondisyon",
        -9.33748961958834
      ],
      [
        "▁00",
        -9.33760028867051
      ],
      [
        "alam",
        -9.338786449093337
      ],
      [
        "▁saya",
        -9.339869153922848
      ],
      [
        "▁play",
        -9.339989411962643
      ],
      [
        "▁exp",
        -9.340626731669934
      ],
      [
        "▁mukha",
        -9.341256820741858
      ],
      [
        "▁bakuna",
        -9.341453011809248
      ],
      [
        "▁benta",
        -9.341895286548114
      ],
      [
        "▁laser",
        -9.342123115956628
      ],
      [
        "sya",
        -9.343196104420521
      ],
      [
        "▁labas",
        -9.343352415313802
      ],
      [
        "▁silicone",
        -9.34575662379924
      ],
      [
        "mga",
        -9.3468767889073
      ],
      [
        "▁inyo",
        -9.346985503188678
      ],
      [
        "▁edukasyon",
        -9.347691464588952
      ],
      [
        "▁tanda",
        -9.347763900987452
      ],
      [
        "▁nf",
        -9.350203582358825
      ],
      [
        "lya",
        -9.35041009689948
      ],
      [
        "▁file",
        -9.350753353501721
      ],
      [
        "ical",
        -9.351206727123298
      ],
      [
        "▁kama",
        -9.351409619479723
      ],
      [
        "rus",
        -9.351797173043172
      ],
      [
        "▁pla",
        -9.352483796555743
      ],
      [
        "nood",
        -9.353525644823687
      ],
      [
        "▁hila",
        -9.35421702323785
      ],
      [
        "▁organ",
        -9.354445141958506
      ],
      [
        "▁paligid",
        -9.354781672129127
      ],
      [
        "ee",
        -9.354926797468883
      ],
      [
        "▁philippine",
        -9.3550112152907
      ],
      [
        "▁web",
        -9.3561367183657
      ],
      [
        "▁araw",
        -9.35632452811469
      ],
      [
        "▁baby",
        -9.356829675554735
      ],
      [
        "▁iba",
        -9.358048394386651
      ],
      [
        "▁text",
        -9.358888040280629
      ],
      [
        "ue",
        -9.3592041307931
      ],
      [
        "▁24",
        -9.359688954593407
      ],
      [
        "▁iwas",
        -9.359892879191898
      ],
      [
        "",
        -9.360616073341085
      ],
      [
        "ug",
        -9.360726196187048
      ],
      [
        "▁mali",
        -9.360833106599571
      ],
      [
        "▁kuha",
        -9.36112467158008
      ],
      [
        "dor",
        -9.361131157279685
      ],
      [
        "",
        -9.361265370972731
      ],
      [
        "▁gr",
        -9.361558635680597
      ],
      [
        "ring",
        -9.363088435407123
      ],
      [
        "▁get",
        -9.363146574370283
      ],
      [
        "▁vo",
        -9.363226993054358
      ],
      [
        "▁limang",
        -9.363654817271199
      ],
      [
        "▁duterte",
        -9.364005341835563
      ],
      [
        "▁suri",
        -9.364399346396832
      ],
      [
        "par",
        -9.364545144769085
      ],
      [
        "▁1.",
        -9.364985111599763
      ],
      [
        "▁gatas",
        -9.367016162406369
      ],
      [
        "▁ikot",
        -9.369042006424042
      ],
      [
        "▁lagay",
        -9.369389380777099
      ],
      [
        "ja",
        -9.370390134699177
      ],
      [
        "▁bawal",
        -9.371200168410713
      ],
      [
        "play",
        -9.371656994200531
      ],
      [
        "ally",
        -9.371954097331336
      ],
      [
        "▁bur",
        -9.372589089090072
      ],
      [
        "▁val",
        -9.372927939583992
      ],
      [
        "",
        -9.373254944848924
      ],
      [
        "ma",
        -9.373925547009673
      ],
      [
        "▁kapwa",
        -9.37474430851867
      ],
      [
        "▁dark",
        -9.375150301651008
      ],
      [
        "▁lagi",
        -9.3754982397883
      ],
      [
        "▁deya",
        -9.377180894827232
      ],
      [
        "▁kultura",
        -9.37741662217554
      ],
      [
        "",
        -9.377933150816512
      ],
      [
        "",
        -9.378171658193892
      ],
      [
        "▁lipunan",
        -9.3787179927683
      ],
      [
        ".",
        -9.378736146649647
      ],
      [
        "jo",
        -9.379216078964566
      ],
      [
        "▁screen",
        -9.381063280173336
      ],
      [
        "▁hari",
        -9.381791798694257
      ],
      [
        "▁laro",
        -9.382281534560507
      ],
      [
        "▁sur",
        -9.382610468590213
      ],
      [
        "▁dagdag",
        -9.383989784553085
      ],
      [
        ".",
        -9.384045255107797
      ],
      [
        "▁book",
        -9.385002382910585
      ],
      [
        "sti",
        -9.385012304657728
      ],
      [
        "▁his",
        -9.38540471269051
      ],
      [
        "▁regular",
        -9.38551218113213
      ],
      [
        "io",
        -9.385538060450829
      ],
      [
        "▁ste",
        -9.385544901517903
      ],
      [
        "_",
        -9.385903052658062
      ],
      [
        "▁cons",
        -9.385934144507742
      ],
      [
        "▁tulong",
        -9.385952158533483
      ],
      [
        "▁va",
        -9.386131460027457
      ],
      [
        "▁gana",
        -9.386372873115146
      ],
      [
        "yong",
        -9.386511073926583
      ],
      [
        "▁dulot",
        -9.387300504545282
      ],
      [
        "▁service",
        -9.388394177913638
      ],
      [
        "▁ul",
        -9.388496918972026
      ],
      [
        "▁yari",
        -9.38882004573659
      ],
      [
        "▁wala",
        -9.389477656105457
      ],
      [
        "o.",
        -9.38955350446877
      ],
      [
        "▁lam",
        -9.389869757094853
      ],
      [
        "",
        -9.39012358107
      ],
      [
        "▁im",
        -9.391163725881064
      ],
      [
        "▁del",
        -9.39138094626785
      ],
      [
        "got",
        -9.391628759990889
      ],
      [
        "",
        -9.39173223252142
      ],
      [
        "▁house",
        -9.391761438114278
      ],
      [
        "▁gusto",
        -9.391784831328108
      ],
      [
        "st",
        -9.393138185923037
      ],
      [
        "ie",
        -9.393394337195428
      ],
      [
        "fic",
        -9.393551819277963
      ],
      [
        "▁tapos",
        -9.393683874178262
      ],
      [
        "▁bila",
        -9.394110361492515
      ],
      [
        "▁yaman",
        -9.394451004129355
      ],
      [
        "▁aga",
        -9.394755097165456
      ],
      [
        "ens",
        -9.395059786016194
      ],
      [
        "▁sun",
        -9.39509558190628
      ],
      [
        "tin",
        -9.396294706003044
      ],
      [
        "▁back",
        -9.396563843990464
      ],
      [
        "▁simple",
        -9.397000634185368
      ],
      [
        "▁tuwi",
        -9.39710028550509
      ],
      [
        "▁taon,",
        -9.397161562887174
      ],
      [
        "▁haba",
        -9.39762362042526
      ],
      [
        "▁kilala",
        -9.398791254011057
      ],
      [
        "▁utos",
        -9.398958773219158
      ],
      [
        "▁know",
        -9.401344768147647
      ],
      [
        "▁tional",
        -9.40190391548078
      ],
      [
        "ser",
        -9.402149343009
      ],
      [
        "▁aso",
        -9.402557501537837
      ],
      [
        "",
        -9.403205805051703
      ],
      [
        "kita",
        -9.40370152104189
      ],
      [
        "▁tanggal",
        -9.404197183088487
      ],
      [
        "▁sakay",
        -9.404941121534108
      ],
      [
        "▁wag",
        -9.405100925182463
      ],
      [
        "▁den",
        -9.406297871678321
      ],
      [
        "▁ngayon,",
        -9.406619816993384
      ],
      [
        "z",
        -9.407668191321585
      ],
      [
        "car",
        -9.407791562991283
      ],
      [
        "▁epektibong",
        -9.407929728538267
      ],
      [
        "▁ikli",
        -9.408049048633973
      ],
      [
        "▁har",
        -9.408417317642245
      ],
      [
        "use",
        -9.409170622969015
      ],
      [
        "pak",
        -9.409877855412157
      ],
      [
        "s",
        -9.411608496959142
      ],
      [
        "▁pili",
        -9.411961519546821
      ],
      [
        "▁ano",
        -9.413486686472828
      ],
      [
        "▁department",
        -9.415216221335749
      ],
      [
        "▁fr",
        -9.416600168213176
      ],
      [
        "▁tagalog",
        -9.416938598566858
      ],
      [
        "▁gilid",
        -9.416943861486065
      ],
      [
        "▁mensahe",
        -9.419370304532231
      ],
      [
        "▁cat",
        -9.419384174002683
      ],
      [
        "friend",
        -9.419775211948169
      ],
      [
        "rate",
        -9.419876383360016
      ],
      [
        "▁taon.",
        -9.4206731556063
      ],
      [
        "'s",
        -9.42116354927532
      ],
      [
        "▁normal",
        -9.42163715382483
      ],
      [
        "▁chat",
        -9.422184838869892
      ],
      [
        "▁ndibidwal",
        -9.422189579561156
      ],
      [
        "red",
        -9.422268072646022
      ],
      [
        "▁download",
        -9.422508380445308
      ],
      [
        "▁kanya.",
        -9.422547549065412
      ],
      [
        "▁log",
        -9.424244721032906
      ],
      [
        "▁honey",
        -9.424292024361458
      ],
      [
        "▁kailanman",
        -9.425386640210258
      ],
      [
        "gh",
        -9.425521114171627
      ],
      [
        "▁sakop",
        -9.425671392387258
      ],
      [
        "▁food",
        -9.425796056164222
      ],
      [
        "",
        -9.42595539756695
      ],
      [
        "▁hapon",
        -9.426131131000343
      ],
      [
        "ness",
        -9.42788450198749
      ],
      [
        "▁taka",
        -9.429000885206982
      ],
      [
        "▁mplants",
        -9.430077708334515
      ],
      [
        "▁au",
        -9.430573996974895
      ],
      [
        "",
        -9.430627062550428
      ],
      [
        "vo",
        -9.430680535033108
      ],
      [
        "▁application",
        -9.430820680532936
      ],
      [
        "tre",
        -9.430981806809577
      ],
      [
        "▁facebook",
        -9.431081110016835
      ],
      [
        "▁how",
        -9.431474905844938
      ],
      [
        "▁alok",
        -9.432427492204127
      ],
      [
        "▁enerhiya",
        -9.432679618432394
      ],
      [
        "book",
        -9.433043556753812
      ],
      [
        "▁ako.",
        -9.433576534541542
      ],
      [
        "put",
        -9.434424188881497
      ],
      [
        "▁roon",
        -9.435622656625355
      ],
      [
        "kinig",
        -9.435873759684764
      ],
      [
        "▁lamang",
        -9.437484962090396
      ],
      [
        "▁air",
        -9.437568063315267
      ],
      [
        "bet",
        -9.438299190265369
      ],
      [
        "▁set",
        -9.438331211603334
      ],
      [
        "▁anti",
        -9.438921741741037
      ],
      [
        "ful",
        -9.439027064290933
      ],
      [
        "▁tagpo",
        -9.441209450539704
      ],
      [
        "▁bawas",
        -9.441982224806354
      ],
      [
        "▁bigay",
        -9.442811181462343
      ],
      [
        "▁dra",
        -9.442890926437896
      ],
      [
        "▁laya",
        -9.442972637539366
      ],
      [
        "bel",
        -9.443213702932153
      ],
      [
        "sen",
        -9.443491838140641
      ],
      [
        "▁suri",
        -9.443705586396108
      ],
      [
        "▁best",
        -9.443767307043872
      ],
      [
        "▁kahit",
        -9.445132352396072
      ],
      [
        "hing",
        -9.447102559731958
      ],
      [
        "ban",
        -9.447336544711803
      ],
      [
        "▁takad",
        -9.448183391703147
      ],
      [
        "",
        -9.448813034184498
      ],
      [
        "ani",
        -9.449810794268634
      ],
      [
        "▁benepisyo",
        -9.450706019765704
      ],
      [
        "ah",
        -9.451268832788934
      ],
      [
        "tis",
        -9.45271526320423
      ],
      [
        "paki-pakinabang",
        -9.452729158436245
      ],
      [
        "▁san",
        -9.452739077940686
      ],
      [
        "aryo",
        -9.452759602053366
      ],
      [
        "ish",
        -9.453008654252535
      ],
      [
        "siya",
        -9.453449560773791
      ],
      [
        "kal",
        -9.455176387401293
      ],
      [
        "ard",
        -9.455609181447189
      ],
      [
        ".",
        -9.455929807262907
      ],
      [
        "hel",
        -9.456276505854316
      ],
      [
        "▁bigla",
        -9.4565818718913
      ],
      [
        "▁team",
        -9.457967457171874
      ],
      [
        "▁meron",
        -9.45803737847553
      ],
      [
        "▁fl",
        -9.458480089617908
      ],
      [
        "e,",
        -9.458665188610514
      ],
      [
        "▁they",
        -9.459306587290937
      ],
      [
        "kla",
        -9.460851362581986
      ],
      [
        "ition",
        -9.461121363396117
      ],
      [
        "▁hugas",
        -9.461416151006294
      ],
      [
        "▁punto",
        -9.461747668622936
      ],
      [
        "▁libre",
        -9.462816872123458
      ],
      [
        "▁tahan",
        -9.462960436031068
      ],
      [
        "th",
        -9.463250099440193
      ],
      [
        "bb",
        -9.46379194589212
      ],
      [
        "mor",
        -9.464839025310743
      ],
      [
        "▁kris",
        -9.465362231804898
      ],
      [
        "▁40",
        -9.466385592190447
      ],
      [
        "k",
        -9.46719893469006
      ],
      [
        "▁17",
        -9.46862220406754
      ],
      [
        "▁gawi",
        -9.46993052434494
      ],
      [
        "▁wakas",
        -9.470516530160976
      ],
      [
        "\"",
        -9.470722049981578
      ],
      [
        "▁ben",
        -9.472440390308288
      ],
      [
        "▁sign",
        -9.47388405788389
      ],
      [
        "▁est",
        -9.474376725400427
      ],
      [
        "▁update",
        -9.474408943735218
      ],
      [
        "▁gulong",
        -9.474602944289215
      ],
      [
        "▁metro",
        -9.47569483461313
      ],
      [
        "ksi",
        -9.475697528506178
      ],
      [
        "▁balik",
        -9.477648531626048
      ],
      [
        "bl",
        -9.478226841431868
      ],
      [
        "▁uni",
        -9.478480938134183
      ],
      [
        "▁litrato",
        -9.4788918616649
      ],
      [
        "▁ok",
        -9.479197626961435
      ],
      [
        "▁user",
        -9.479465698082908
      ],
      [
        "▁lungkot",
        -9.480319811020339
      ],
      [
        "▁bula",
        -9.482303776950701
      ],
      [
        "▁hangin",
        -9.483090010110418
      ],
      [
        "▁ev",
        -9.483521838748084
      ],
      [
        "▁gawa",
        -9.48378143450728
      ],
      [
        "",
        -9.483822341224931
      ],
      [
        "▁unlad",
        -9.48406526973135
      ],
      [
        "▁bigay",
        -9.484250783961329
      ],
      [
        "▁ko,",
        -9.484275721755607
      ],
      [
        "▁roon",
        -9.48435814638421
      ],
      [
        "▁pul",
        -9.484576156320026
      ],
      [
        "▁sports",
        -9.485075414157555
      ],
      [
        "▁detalye",
        -9.485538300697545
      ],
      [
        "▁hanap",
        -9.485666993177881
      ],
      [
        "▁bus",
        -9.486142084559992
      ],
      [
        "mar",
        -9.486798940155857
      ],
      [
        "▁bayad",
        -9.486900373705272
      ],
      [
        "▁gl",
        -9.487160017673817
      ],
      [
        "▁bro",
        -9.487427319381718
      ],
      [
        "▁likas",
        -9.48775798820896
      ],
      [
        "▁kita",
        -9.48796643548463
      ],
      [
        "▁laki",
        -9.488184818779933
      ],
      [
        "ries",
        -9.488525881349197
      ],
      [
        "lock",
        -9.488837656613486
      ],
      [
        "▁hiya",
        -9.488839896756307
      ],
      [
        "▁hala",
        -9.48885431004117
      ],
      [
        "▁kaya",
        -9.488854777977547
      ],
      [
        "▁aniya",
        -9.48908241992674
      ],
      [
        "hol",
        -9.489111410259838
      ],
      [
        "▁laki",
        -9.489865216098375
      ],
      [
        "▁form",
        -9.490246218373988
      ],
      [
        "▁dy",
        -9.49060301404766
      ],
      [
        "@",
        -9.490783537223214
      ],
      [
        "▁dapat",
        -9.490978126168391
      ],
      [
        "▁gabay",
        -9.491369998994532
      ],
      [
        "cha",
        -9.492515842868011
      ],
      [
        "ez",
        -9.492554597391893
      ],
      [
        "tes",
        -9.49275217982945
      ],
      [
        "▁lagi",
        -9.492776062439024
      ],
      [
        "▁ngiti",
        -9.493132783119405
      ],
      [
        "▁ligtas",
        -9.493251187162942
      ],
      [
        "▁likha",
        -9.493873244891615
      ],
      [
        "ative",
        -9.49435128492862
      ],
      [
        "ju",
        -9.49447733976502
      ],
      [
        "▁gala",
        -9.494695254811727
      ],
      [
        "lo",
        -9.495262498738212
      ],
      [
        "▁aktibidad",
        -9.49566031009726
      ],
      [
        "▁jesus",
        -9.496588865278836
      ],
      [
        "▁pra",
        -9.49680148611559
      ],
      [
        "bag",
        -9.497192701135143
      ],
      [
        "▁bit",
        -9.49765202235843
      ],
      [
        "?ang",
        -9.498538031535162
      ],
      [
        "▁hatid",
        -9.4987779497528
      ],
      [
        "ctor",
        -9.499082374295579
      ],
      [
        "lam",
        -9.499272429680117
      ],
      [
        "▁timbang,",
        -9.499895675876997
      ],
      [
        "▁bayo",
        -9.500030020108579
      ],
      [
        "▁tigil",
        -9.500577017355285
      ],
      [
        "▁sarap",
        -9.501110291343933
      ],
      [
        "sabi",
        -9.501232923023192
      ],
      [
        "pl",
        -9.501260748602647
      ],
      [
        "",
        -9.501915260414386
      ],
      [
        "▁simula",
        -9.501972146164057
      ],
      [
        "▁pareho",
        -9.502853291928389
      ],
      [
        "tanggi",
        -9.503141076425493
      ],
      [
        "▁pinto",
        -9.50378250737808
      ],
      [
        "▁bunga",
        -9.503861111521713
      ],
      [
        "▁asa",
        -9.504863430732575
      ],
      [
        "abang",
        -9.50528942679651
      ],
      [
        "▁modelo",
        -9.507285332618029
      ],
      [
        "mun",
        -9.507706449088618
      ],
      [
        "bra",
        -9.50834439358706
      ],
      [
        "ving",
        -9.508345154745212
      ],
      [
        "·",
        -9.508425591791047
      ],
      [
        "▁av",
        -9.510138863583256
      ],
      [
        "▁bel",
        -9.511612103141738
      ],
      [
        "nya",
        -9.512431284672328
      ],
      [
        "▁sama",
        -9.512436981374503
      ],
      [
        "bol",
        -9.513120984339825
      ],
      [
        "▁pwede",
        -9.514052263624826
      ],
      [
        "ndo",
        -9.514087418339196
      ],
      [
        "▁black",
        -9.514587925661804
      ],
      [
        "sabi",
        -9.515110315647442
      ],
      [
        "▁laman",
        -9.515775036771354
      ],
      [
        "▁ekonomiya",
        -9.516083230754003
      ],
      [
        "▁ber",
        -9.516287409141537
      ],
      [
        "wer",
        -9.516300265014118
      ],
      [
        "▁lito",
        -9.517032568243225
      ],
      [
        "▁limot",
        -9.519213735982268
      ],
      [
        "ا",
        -9.519324515591554
      ],
      [
        "▁people",
        -9.519599115017918
      ],
      [
        "▁bakit",
        -9.519756429369613
      ],
      [
        "ke",
        -9.521254596628635
      ],
      [
        "▁software",
        -9.521762716114159
      ],
      [
        "▁pulis",
        -9.523987419308934
      ],
      [
        "▁photo",
        -9.5254846666
      ],
      [
        "▁depende",
        -9.52571455382715
      ],
      [
        "▁ugnay",
        -9.525772561746027
      ],
      [
        "1.",
        -9.525971884671605
      ],
      [
        "▁tangi",
        -9.526028951207566
      ],
      [
        "▁sakay",
        -9.52652695644782
      ],
      [
        "",
        -9.526878249163989
      ],
      [
        "▁forum",
        -9.528126876941707
      ],
      [
        "▁buntis",
        -9.528199597934613
      ],
      [
        "bin",
        -9.529632979900923
      ],
      [
        "▁propesyonal",
        -9.529659823244094
      ],
      [
        "▁posible",
        -9.530189801507579
      ],
      [
        ".",
        -9.530834071074342
      ],
      [
        "▁tr",
        -9.531108446360527
      ],
      [
        "▁komunidad",
        -9.531438882644776
      ],
      [
        "",
        -9.53263321628187
      ],
      [
        "▁life",
        -9.532910369198731
      ],
      [
        "▁pasok",
        -9.533301382285025
      ],
      [
        "ina",
        -9.535202707890337
      ],
      [
        "▁kakayahan",
        -9.535692776230057
      ],
      [
        "▁computer",
        -9.53583259574943
      ],
      [
        "form",
        -9.536222004425293
      ],
      [
        "80",
        -9.536315326398629
      ],
      [
        "▁cal",
        -9.538022879523567
      ],
      [
        "▁artikulo",
        -9.538314451629608
      ],
      [
        "iv",
        -9.538818599468684
      ],
      [
        "▁shi",
        -9.539444522814081
      ],
      [
        "▁buti",
        -9.53995369948738
      ],
      [
        "▁ser",
        -9.540814884035385
      ],
      [
        "▁bet",
        -9.542018758366455
      ],
      [
        "'s",
        -9.542114669981286
      ],
      [
        "▁posisyon",
        -9.542336242239587
      ],
      [
        "▁bati",
        -9.542446437350625
      ],
      [
        "▁laro",
        -9.542554610586613
      ],
      [
        "▁off",
        -9.542761621126052
      ],
      [
        "▁rehiyon",
        -9.542871132979984
      ],
      [
        "▁petsa",
        -9.543329313826572
      ],
      [
        "▁huwag",
        -9.543366150483887
      ],
      [
        "own",
        -9.543960431730042
      ],
      [
        "yo",
        -9.544326663585817
      ],
      [
        "",
        -9.544580297963513
      ],
      [
        "nder",
        -9.545045272717156
      ],
      [
        "▁harap",
        -9.545169066394863
      ],
      [
        "▁last",
        -9.545930326911272
      ],
      [
        "▁kina",
        -9.546280131262566
      ],
      [
        "▁utang",
        -9.54809893163948
      ],
      [
        "▁lab",
        -9.548782495289645
      ],
      [
        "gon",
        -9.548795616092644
      ],
      [
        "▁subalit",
        -9.549406118421084
      ],
      [
        "▁=",
        -9.54990655055365
      ],
      [
        "▁gulo",
        -9.55001713462801
      ],
      [
        "sama",
        -9.550059892965558
      ],
      [
        "▁protina",
        -9.550218715261025
      ],
      [
        "▁silbi",
        -9.550259298452126
      ],
      [
        "ste",
        -9.550368358357392
      ],
      [
        "▁pasyente",
        -9.550377536782355
      ],
      [
        "▁group",
        -9.550518982029404
      ],
      [
        "▁simula",
        -9.550533869088556
      ],
      [
        "▁uli",
        -9.550733175284039
      ],
      [
        "▁aparato",
        -9.550935977111346
      ],
      [
        "▁girl",
        -9.550954048722561
      ],
      [
        "tam",
        -9.551023599237059
      ],
      [
        "",
        -9.551157428061531
      ],
      [
        "ل",
        -9.55275266241075
      ],
      [
        "bago",
        -9.55314703063604
      ],
      [
        "row",
        -9.553187141547632
      ],
      [
        "▁cho",
        -9.55338576592863
      ],
      [
        ",",
        -9.55350121083613
      ],
      [
        "▁banda",
        -9.554123981511776
      ],
      [
        "▁publiko",
        -9.554151751409588
      ],
      [
        "yun",
        -9.554617319143134
      ],
      [
        "",
        -9.554875770245928
      ],
      [
        "ever",
        -9.554911122825656
      ],
      [
        "▁after",
        -9.555418559292384
      ],
      [
        "▁q",
        -9.556441910847525
      ],
      [
        "▁palad",
        -9.556473672434022
      ],
      [
        "▁akala",
        -9.557376068531285
      ],
      [
        ".ano",
        -9.557518996255856
      ],
      [
        "por",
        -9.5588323729552
      ],
      [
        "▁under",
        -9.559014434588054
      ],
      [
        "▁salita",
        -9.559227710378156
      ],
      [
        "▁lusog",
        -9.55934934605299
      ],
      [
        "▁dila",
        -9.560385748016705
      ],
      [
        "kul",
        -9.560848347920068
      ],
      [
        "tim",
        -9.561992134618688
      ],
      [
        "lle",
        -9.56215683689372
      ],
      [
        "▁dama",
        -9.562457531414502
      ],
      [
        "▁komp",
        -9.566021183424969
      ],
      [
        "▁mo.",
        -9.567051747577569
      ],
      [
        "▁suspek",
        -9.567127269308635
      ],
      [
        "",
        -9.567173214836494
      ],
      [
        "▁cha",
        -9.567234296414362
      ],
      [
        "yag",
        -9.56966045064443
      ],
      [
        "e",
        -9.569901496277982
      ],
      [
        "cur",
        -9.569999003575834
      ],
      [
        "▁seguridad",
        -9.57082076834666
      ],
      [
        "▁gawa",
        -9.571047745525453
      ],
      [
        "▁story",
        -9.57269632249768
      ],
      [
        "▁baril",
        -9.572770398983728
      ],
      [
        "▁char",
        -9.573037728915931
      ],
      [
        "ar",
        -9.573526549369026
      ],
      [
        "▁some",
        -9.57412280506699
      ],
      [
        "",
        -9.574170141890557
      ],
      [
        "my",
        -9.57436895117459
      ],
      [
        "▁basa",
        -9.57594033756337
      ],
      [
        "▁init",
        -9.576789215327464
      ],
      [
        "",
        -9.57698969342268
      ],
      [
        "▁dalaga",
        -9.57721947229713
      ],
      [
        "mak",
        -9.577345800329455
      ],
      [
        "▁serye",
        -9.578710828564876
      ],
      [
        "▁other",
        -9.579063594452384
      ],
      [
        "▁power",
        -9.579934934316563
      ],
      [
        "hay",
        -9.580323135135211
      ],
      [
        "upa",
        -9.58040064748963
      ],
      [
        "zo",
        -9.580716791877638
      ],
      [
        "▁guro",
        -9.583591349621182
      ],
      [
        "▁laman",
        -9.584902984672969
      ],
      [
        "▁lasa",
        -9.584951190304587
      ],
      [
        "▁posibilidad",
        -9.58502269793761
      ],
      [
        "▁2020",
        -9.585338491518378
      ],
      [
        "bri",
        -9.585423356599454
      ],
      [
        "▁higa",
        -9.587133908559798
      ],
      [
        "▁tulong",
        -9.587191133810025
      ],
      [
        "▁filipino",
        -9.587369765917776
      ],
      [
        "ugh",
        -9.587641269931261
      ],
      [
        "▁port",
        -9.587836361111602
      ],
      [
        "yer",
        -9.587891053112598
      ],
      [
        "tar",
        -9.587911453547132
      ],
      [
        "ost",
        -9.58881220002768
      ],
      [
        "",
        -9.589085343427069
      ],
      [
        "▁babae",
        -9.589196081205884
      ],
      [
        "▁buto",
        -9.590005739537984
      ],
      [
        "sik",
        -9.590629274402987
      ],
      [
        "ium",
        -9.591082576329246
      ],
      [
        "90",
        -9.591476755144317
      ],
      [
        "▁lagi",
        -9.591937973767056
      ],
      [
        "▁sea",
        -9.591984301674737
      ],
      [
        "ton",
        -9.592157356014892
      ],
      [
        "▁state",
        -9.592248751943153
      ],
      [
        "▁ganap",
        -9.592516775009983
      ],
      [
        "▁nipis",
        -9.592573559317879
      ],
      [
        "dagdag",
        -9.592727102410958
      ],
      [
        "▁any",
        -9.593270141604894
      ],
      [
        "▁linis",
        -9.59355582972428
      ],
      [
        "▁dusa",
        -9.594534430102701
      ],
      [
        "▁care",
        -9.594842604157297
      ],
      [
        "▁materyal",
        -9.595041859969136
      ],
      [
        "▁timbang.",
        -9.595719625974718
      ],
      [
        "▁litaw",
        -9.596359362548144
      ],
      [
        "▁hala",
        -9.596543625317354
      ],
      [
        "▁taya",
        -9.596680467698858
      ],
      [
        "▁(p",
        -9.59785464284706
      ],
      [
        "▁roon",
        -9.598095335628996
      ],
      [
        "",
        -9.59825732942912
      ],
      [
        "▁lago",
        -9.60010560940917
      ],
      [
        "▁tiwala",
        -9.601023936136619
      ],
      [
        "-pa",
        -9.601028277709242
      ],
      [
        "▁tuyo",
        -9.601703549661273
      ],
      [
        "▁pagod",
        -9.601794533421376
      ],
      [
        "▁espiritu",
        -9.601924099650967
      ],
      [
        "▁iyon.",
        -9.602161366667055
      ],
      [
        "▁tuon",
        -9.602261396855805
      ],
      [
        "▁wala",
        -9.60255047215588
      ],
      [
        "▁dun",
        -9.602607299846923
      ],
      [
        "▁when",
        -9.60361624275575
      ],
      [
        "▁men",
        -9.60433034801676
      ],
      [
        "▁unawa",
        -9.604983461918673
      ],
      [
        "▁bilang",
        -9.605372408480717
      ],
      [
        "▁sanay",
        -9.607076579151492
      ],
      [
        "▁amo",
        -9.607585754541589
      ],
      [
        "▁tanaw",
        -9.607819471009094
      ],
      [
        "her",
        -9.608419136871122
      ],
      [
        "▁check",
        -9.608523700869096
      ],
      [
        "▁unawa",
        -9.609087410405404
      ],
      [
        "▁lk",
        -9.609841031394323
      ],
      [
        "▁handa",
        -9.610126387333295
      ],
      [
        "▁bersyon",
        -9.610237806939748
      ],
      [
        "▁kailangan",
        -9.610367881246203
      ],
      [
        "",
        -9.611429619799944
      ],
      [
        "▁takip",
        -9.611685612343289
      ],
      [
        ".ano",
        -9.612281796419069
      ],
      [
        "▁tro",
        -9.612527267643632
      ],
      [
        "▁tistis",
        -9.613748964335814
      ],
      [
        "▁patay",
        -9.613884803875056
      ],
      [
        "gas",
        -9.613935023217712
      ],
      [
        "▁kopon",
        -9.614046818749966
      ],
      [
        "yak",
        -9.614075066875198
      ],
      [
        "▁tago",
        -9.615847951415844
      ],
      [
        "co",
        -9.616004136412245
      ],
      [
        "ities",
        -9.617333810910822
      ],
      [
        "",
        -9.617771586049694
      ],
      [
        "les",
        -9.617892287054167
      ],
      [
        "▁awa",
        -9.61864920122873
      ],
      [
        "▁buo",
        -9.62087634072868
      ],
      [
        "▁wala",
        -9.621140168270143
      ],
      [
        "▁buo",
        -9.62124715432994
      ],
      [
        "▁oil",
        -9.621259686745919
      ],
      [
        "▁fan",
        -9.62174650634376
      ],
      [
        "▁cre",
        -9.622698564642148
      ],
      [
        "ro",
        -9.623305100828464
      ],
      [
        "▁daloy",
        -9.624861831882995
      ],
      [
        "▁ugnay",
        -9.625656654317504
      ],
      [
        "cc",
        -9.626861912481269
      ],
      [
        "▁simula",
        -9.627123332388427
      ],
      [
        "▁top",
        -9.628795753270188
      ],
      [
        "bis",
        -9.630446853233572
      ],
      [
        "▁telepono",
        -9.63069344286978
      ],
      [
        "ble",
        -9.630727852763968
      ],
      [
        "▁noon",
        -9.631299909383104
      ],
      [
        "▁kuha",
        -9.631449981197061
      ],
      [
        "▁likas",
        -9.631540959856675
      ],
      [
        "▁lakbay",
        -9.631755377705618
      ],
      [
        "▁iwas",
        -9.632184585234006
      ],
      [
        "▁want",
        -9.63319372617489
      ],
      [
        "ham",
        -9.635823150230427
      ],
      [
        "hangga",
        -9.63585265503521
      ],
      [
        "ksyon",
        -9.636182166860971
      ],
      [
        "-ta",
        -9.637883790075708
      ],
      [
        "▁lalim",
        -9.638449009246854
      ],
      [
        "▁21",
        -9.638552278710229
      ],
      [
        "▁tanim",
        -9.63865292885027
      ],
      [
        "▁mina",
        -9.638795638003403
      ],
      [
        "▁iyo",
        -9.638797940354662
      ],
      [
        "▁wala",
        -9.639084873628105
      ],
      [
        "▁bir",
        -9.639738495677548
      ],
      [
        "▁2019",
        -9.640139436181265
      ],
      [
        "▁bibig",
        -9.640214767611504
      ],
      [
        "▁ec",
        -9.640732739781745
      ],
      [
        "bak",
        -9.641186688562792
      ],
      [
        "▁halik",
        -9.64152439727879
      ],
      [
        "▁pet",
        -9.64242310299918
      ],
      [
        "▁now",
        -9.64244065821626
      ],
      [
        "▁lapat",
        -9.642589451233741
      ],
      [
        "▁report",
        -9.644672008113963
      ],
      [
        "▁dalhin",
        -9.645174727286143
      ],
      [
        "▁gas",
        -9.64522514858476
      ],
      [
        "▁water",
        -9.645582493655747
      ],
      [
        "mic",
        -9.645801496921022
      ],
      [
        "▁effect",
        -9.645931815091688
      ],
      [
        "▁bagsak",
        -9.646880818834033
      ],
      [
        "press",
        -9.647583804080723
      ],
      [
        "▁wala",
        -9.64819278467828
      ],
      [
        "▁read",
        -9.648472146439808
      ],
      [
        "uk",
        -9.648765376663142
      ],
      [
        "▁estudyante",
        -9.649777958339966
      ],
      [
        "ism",
        -9.651226418823198
      ],
      [
        "ulo",
        -9.652337180988292
      ],
      [
        "▁mundo.",
        -9.652509208490516
      ],
      [
        "▁red",
        -9.653064326136226
      ],
      [
        "ses",
        -9.65348604485025
      ],
      [
        "▁pantay",
        -9.653603243768766
      ],
      [
        "▁their",
        -9.653665970020333
      ],
      [
        "▁mode",
        -9.654410434048682
      ],
      [
        "",
        -9.655755672004116
      ],
      [
        "▁ngayon.",
        -9.656421657729929
      ],
      [
        "buhay",
        -9.65646359345421
      ],
      [
        "12",
        -9.65722621998986
      ],
      [
        "▁gulay",
        -9.657648690894556
      ],
      [
        "▁luto",
        -9.657761165631385
      ],
      [
        "▁mata,",
        -9.657959646402276
      ],
      [
        "gamit",
        -9.65959372910838
      ],
      [
        "kan",
        -9.660213135924215
      ],
      [
        "▁saklaw",
        -9.661378027349352
      ],
      [
        "lug",
        -9.661638824881756
      ],
      [
        "▁has",
        -9.661891569951743
      ],
      [
        "▁mana",
        -9.663227941577635
      ],
      [
        "▁public",
        -9.663280597201062
      ],
      [
        "▁hawak",
        -9.663850501902315
      ],
      [
        "▁bun",
        -9.66491022261728
      ],
      [
        "▁nyo",
        -9.665049961601575
      ],
      [
        "▁ganoon",
        -9.665156510122241
      ],
      [
        "ves",
        -9.66530151222541
      ],
      [
        "▁gar",
        -9.66550478443592
      ],
      [
        "▁abot",
        -9.665509185933976
      ],
      [
        "▁week",
        -9.665990747117212
      ],
      [
        "▁tono",
        -9.666565483340673
      ],
      [
        "wh",
        -9.666835035234929
      ],
      [
        "▁right",
        -9.667293225288846
      ],
      [
        "▁tinda",
        -9.668295885717328
      ],
      [
        "▁new",
        -9.670073228339824
      ],
      [
        "▁dating",
        -9.670262389466084
      ],
      [
        "ji",
        -9.670356688886805
      ],
      [
        "▁address",
        -9.671124155534713
      ],
      [
        "▁des",
        -9.671132896725016
      ],
      [
        "▁gamit",
        -9.672213023194187
      ],
      [
        "▁poker",
        -9.672799555292281
      ],
      [
        "▁orihinal",
        -9.67301306212436
      ],
      [
        "▁kasalukuyan",
        -9.674363695066036
      ],
      [
        "tika",
        -9.675238672634402
      ],
      [
        "▁help",
        -9.675574534152156
      ],
      [
        "",
        -9.67580790092731
      ],
      [
        "▁tahimik",
        -9.67617365378742
      ],
      [
        "hhh",
        -9.676232319421628
      ],
      [
        "▁end",
        -9.6765897988697
      ],
      [
        "▁silid",
        -9.677156540122834
      ],
      [
        "▁ilaw",
        -9.677241713806932
      ],
      [
        "gad",
        -9.677664927496796
      ],
      [
        "▁suka",
        -9.677669325036044
      ],
      [
        "▁tea",
        -9.67860938344028
      ],
      [
        "▁2.",
        -9.678615717656891
      ],
      [
        "▁bawi",
        -9.680561247379472
      ],
      [
        "▁araw.",
        -9.681662225603777
      ],
      [
        "▁qui",
        -9.682039431063988
      ],
      [
        "-up",
        -9.682665010966552
      ],
      [
        "▁sulong",
        -9.683070946048975
      ],
      [
        "▁ganito",
        -9.684284434497396
      ],
      [
        "cal",
        -9.68521564145217
      ],
      [
        "▁kalat",
        -9.685262774025514
      ],
      [
        "▁crusher",
        -9.686328739736496
      ],
      [
        "▁simulan",
        -9.686985870395622
      ],
      [
        "▁libro",
        -9.689085837164546
      ],
      [
        "▁dahil",
        -9.689203577714757
      ],
      [
        "▁legal",
        -9.689436150904553
      ],
      [
        "70",
        -9.689695998595282
      ],
      [
        "▁langit",
        -9.68994141693332
      ],
      [
        "▁bili",
        -9.690107827653051
      ],
      [
        "▁green",
        -9.69019146455156
      ],
      [
        "click",
        -9.690312688650607
      ],
      [
        "▁produkto",
        -9.69053478541982
      ],
      [
        "▁tugma",
        -9.690544953331605
      ],
      [
        "▁yari",
        -9.690680725584297
      ],
      [
        "▁bank",
        -9.69068864236369
      ],
      [
        "ker",
        -9.691032687695031
      ],
      [
        ".kaya",
        -9.691176021800473
      ],
      [
        "▁yugto",
        -9.691326667837588
      ],
      [
        "▁buntis",
        -9.69267188560326
      ],
      [
        "▁tindi",
        -9.69287585018792
      ],
      [
        "▁ganda",
        -9.69392460269549
      ],
      [
        "▁code",
        -9.694364428384592
      ],
      [
        "▁tagumpay",
        -9.694735543414286
      ],
      [
        "▁yo",
        -9.694773031215087
      ],
      [
        "▁spa",
        -9.695028057724556
      ],
      [
        "▁damdam",
        -9.695617884989478
      ],
      [
        "▁saka",
        -9.695674734767634
      ],
      [
        "▁sangkot",
        -9.695836358577704
      ],
      [
        "▁there",
        -9.696503281120915
      ],
      [
        "lap",
        -9.696742487838533
      ],
      [
        "▁iyo.",
        -9.698064419189844
      ],
      [
        "▁ilan",
        -9.698791810314505
      ],
      [
        "▁well",
        -9.698899539871286
      ],
      [
        "▁kuya",
        -9.698984611741132
      ],
      [
        "▁kuko",
        -9.69992057327616
      ],
      [
        "▁pisikal",
        -9.700691112543131
      ],
      [
        "▁temperatura",
        -9.701172667248715
      ],
      [
        "gis",
        -9.701381020296239
      ],
      [
        "",
        -9.70178023259718
      ],
      [
        "▁rehistro",
        -9.70214679067184
      ],
      [
        "ang",
        -9.702420753169694
      ],
      [
        "▁kilos",
        -9.702971340921112
      ],
      [
        "▁acid",
        -9.703426854748619
      ],
      [
        "▁pilipinas",
        -9.704512074523453
      ],
      [
        "▁hina",
        -9.704689505616273
      ],
      [
        "▁aklat",
        -9.704781226747437
      ],
      [
        "▁alaga",
        -9.704823627796035
      ],
      [
        "▁banal",
        -9.705113786109699
      ],
      [
        ".para",
        -9.706029878410593
      ],
      [
        "▁dagat",
        -9.70612506131551
      ],
      [
        "▁interes",
        -9.706332447273839
      ],
      [
        "▁tibay",
        -9.706380093394802
      ],
      [
        "▁galaw",
        -9.706453704694669
      ],
      [
        "▁basta",
        -9.70679571070752
      ],
      [
        "▁giardia",
        -9.707221532216566
      ],
      [
        "lok",
        -9.707413229867415
      ],
      [
        "ras",
        -9.708776815002583
      ],
      [
        "▁miss",
        -9.70884172843219
      ],
      [
        "spir",
        -9.709351492599094
      ],
      [
        "▁driver",
        -9.711294711493775
      ],
      [
        "▁alis",
        -9.712341613326469
      ],
      [
        "▁tubo",
        -9.71342643337025
      ],
      [
        "▁law",
        -9.713475396412175
      ],
      [
        "ward",
        -9.713896039827377
      ],
      [
        "▁pili",
        -9.714046704379543
      ],
      [
        "",
        -9.714730982151337
      ],
      [
        "▁utak",
        -9.716120430629974
      ],
      [
        "ign",
        -9.716249428462937
      ],
      [
        "▁mata.",
        -9.716377962092258
      ],
      [
        "▁imbak",
        -9.716807337687799
      ],
      [
        ".at",
        -9.717236456490772
      ],
      [
        "▁mula",
        -9.717574177345595
      ],
      [
        "▁laki",
        -9.718196517334672
      ],
      [
        "▁tubo",
        -9.718523511486922
      ],
      [
        "i",
        -9.719457450736
      ],
      [
        "▁dinig",
        -9.719627980871842
      ],
      [
        "▁bago",
        -9.71966251523299
      ],
      [
        "▁kotse",
        -9.719820910761907
      ],
      [
        "▁kalahati",
        -9.719850145495522
      ],
      [
        "tur",
        -9.720248155153557
      ],
      [
        "▁hanap",
        -9.720898574719467
      ],
      [
        "▁pigil",
        -9.721854867707163
      ],
      [
        "▁nstagram",
        -9.722618827316758
      ],
      [
        "▁higit",
        -9.722678629169108
      ],
      [
        "▁dan",
        -9.72334705591074
      ],
      [
        "til",
        -9.72385041808362
      ],
      [
        "the",
        -9.724489646314552
      ],
      [
        "ilya",
        -9.72545225735997
      ],
      [
        "▁luwa",
        -9.726222775473397
      ],
      [
        ".si",
        -9.726226185357676
      ],
      [
        "▁akit",
        -9.72627273373939
      ],
      [
        "▁dumi",
        -9.726555149796921
      ],
      [
        "▁kulang",
        -9.726775130536792
      ],
      [
        "▁baha",
        -9.72701403465992
      ],
      [
        "▁ospital",
        -9.727146025575287
      ],
      [
        "▁simbahan",
        -9.72719557810439
      ],
      [
        "▁nor",
        -9.728578628366048
      ],
      [
        "stru",
        -9.728967136294028
      ],
      [
        "▁body",
        -9.729113307478432
      ],
      [
        "▁kanta",
        -9.729460514793539
      ],
      [
        "▁bitamina",
        -9.729648263920804
      ],
      [
        "▁isip",
        -9.730688696089612
      ],
      [
        "▁kalahatan",
        -9.730983834312214
      ],
      [
        "▁hugis",
        -9.731137959299426
      ],
      [
        "uno",
        -9.731357637612986
      ],
      [
        "▁manatili",
        -9.731486434392599
      ],
      [
        "▁bituka",
        -9.731489340194887
      ],
      [
        "▁bilog",
        -9.73173753438036
      ],
      [
        "▁mil",
        -9.731925447213994
      ],
      [
        "pis",
        -9.732073773210125
      ],
      [
        "▁health",
        -9.732894379695788
      ],
      [
        "▁sama",
        -9.733083445140645
      ],
      [
        "▁plan",
        -9.733755349137633
      ],
      [
        "▁use",
        -9.734398239912625
      ],
      [
        "▁news",
        -9.734459478316424
      ],
      [
        "",
        -9.734836434990896
      ],
      [
        "▁husay",
        -9.735265762859504
      ],
      [
        "worm",
        -9.736767632488766
      ],
      [
        "▁inom",
        -9.736821963408634
      ],
      [
        "",
        -9.737605055897975
      ],
      [
        "ments",
        -9.737860792223538
      ],
      [
        "▁hamon",
        -9.737867656214751
      ],
      [
        "▁damdam",
        -9.73801938661952
      ],
      [
        "▁multi",
        -9.738410923753687
      ],
      [
        "▁pulong",
        -9.738500444405046
      ],
      [
        "▁sm",
        -9.738532212164072
      ],
      [
        "▁see",
        -9.738589082524747
      ],
      [
        "▁milyon",
        -9.738856111833698
      ],
      [
        "▁lihim",
        -9.738884038631006
      ],
      [
        "▁ten",
        -9.739024939150687
      ],
      [
        "▁cap",
        -9.739339232437803
      ],
      [
        "▁liban",
        -9.73955165952458
      ],
      [
        "▁gen",
        -9.739840707850854
      ],
      [
        "▁tauhan",
        -9.74017848799047
      ],
      [
        "▁gising",
        -9.7403317092809
      ],
      [
        "▁kuha",
        -9.740498490147514
      ],
      [
        "val",
        -9.740597466952812
      ],
      [
        "▁barangay",
        -9.740852910958903
      ],
      [
        "▁durog",
        -9.740903856493434
      ],
      [
        "▁years",
        -9.741227705225775
      ],
      [
        "▁film",
        -9.741591129147666
      ],
      [
        "▁buo",
        -9.741705591086985
      ],
      [
        "pot",
        -9.741822208851598
      ],
      [
        "▁bill",
        -9.742645580460184
      ],
      [
        ",",
        -9.743174489981898
      ],
      [
        "▁deposito",
        -9.743432715937665
      ],
      [
        "▁luwang",
        -9.74428037644807
      ],
      [
        "▁mahal",
        -9.744430375063606
      ],
      [
        "▁hand",
        -9.745215779669062
      ],
      [
        "▁isip",
        -9.745583852352434
      ],
      [
        "dal",
        -9.746103848679319
      ],
      [
        "▁year",
        -9.746168177376061
      ],
      [
        "",
        -9.747163507639929
      ],
      [
        "▁liit",
        -9.747574121497088
      ],
      [
        "▁lagay",
        -9.7477569772873
      ],
      [
        "ship",
        -9.74804668514407
      ],
      [
        "big",
        -9.749011505559379
      ],
      [
        "▁kabuuan",
        -9.75056748282652
      ],
      [
        "▁ginto",
        -9.75059029204091
      ],
      [
        "▁nga",
        -9.751764544801567
      ],
      [
        "▁also",
        -9.751800534971569
      ],
      [
        "▁agad",
        -9.75275902315774
      ],
      [
        "▁google",
        -9.753128165214914
      ],
      [
        "▁simbolo",
        -9.754031642320081
      ],
      [
        "▁bigay",
        -9.754311470845048
      ],
      [
        "▁land",
        -9.754402087088963
      ],
      [
        "▁head",
        -9.75548044534229
      ],
      [
        "▁pigil",
        -9.755733188509629
      ],
      [
        "▁banggit",
        -9.756470882490817
      ],
      [
        ".pero",
        -9.756955537839508
      ],
      [
        "▁asa",
        -9.75768786738026
      ],
      [
        "▁higpit",
        -9.7579255094576
      ],
      [
        "▁class",
        -9.758771394191578
      ],
      [
        "ed",
        -9.758932361234294
      ],
      [
        "▁share",
        -9.759047829769536
      ],
      [
        "▁puti",
        -9.75935033774248
      ],
      [
        "▁paksa",
        -9.759677057666485
      ],
      [
        "▁cell",
        -9.759980716240822
      ],
      [
        "▁materyales",
        -9.759988684770855
      ],
      [
        "▁sol",
        -9.76053999937662
      ],
      [
        "▁dali",
        -9.761253515287946
      ],
      [
        "king",
        -9.761582539302848
      ],
      [
        "led",
        -9.761608911704764
      ],
      [
        "▁baba",
        -9.761982094542732
      ],
      [
        "ration",
        -9.762095762682256
      ],
      [
        "▁unti",
        -9.76240106062596
      ],
      [
        "▁laman",
        -9.76300956598627
      ],
      [
        "des",
        -9.764159927118145
      ],
      [
        ".dahil",
        -9.764328388305003
      ],
      [
        "▁damdam",
        -9.764559738213126
      ],
      [
        "▁tungo",
        -9.765508825232182
      ],
      [
        "▁trabaho",
        -9.76591239051161
      ],
      [
        "▁sel",
        -9.76604779830012
      ],
      [
        "▁iyak",
        -9.767209206368694
      ],
      [
        "▁essay",
        -9.767263037936182
      ],
      [
        "haw",
        -9.769015506154311
      ],
      [
        "▁tanghal",
        -9.76985412698443
      ],
      [
        "▁fer",
        -9.771123920502408
      ],
      [
        "▁kita",
        -9.773121093378602
      ],
      [
        "▁diwa",
        -9.775057765364048
      ],
      [
        "▁22",
        -9.775254322487239
      ],
      [
        "▁gawa",
        -9.775623085741701
      ],
      [
        "tawa",
        -9.775649448536882
      ],
      [
        "tura",
        -9.775766488639379
      ],
      [
        "▁cla",
        -9.776166420095599
      ],
      [
        "▁rizal",
        -9.776672916086717
      ],
      [
        "▁usap",
        -9.77683512290328
      ],
      [
        "nch",
        -9.777185029015442
      ],
      [
        "ized",
        -9.777226988060583
      ],
      [
        "▁kuha",
        -9.777989911823765
      ],
      [
        "▁facials",
        -9.778070038895573
      ],
      [
        "▁new",
        -9.778104679799451
      ],
      [
        "ise",
        -9.778125707976209
      ],
      [
        "▁gawa",
        -9.778293122780337
      ],
      [
        "▁mayor",
        -9.77946639387878
      ],
      [
        "▁need",
        -9.77979326211213
      ],
      [
        "pirma",
        -9.779861777922578
      ],
      [
        "",
        -9.781737146204309
      ],
      [
        "99",
        -9.78186631722679
      ],
      [
        "▁drug",
        -9.782450436583094
      ],
      [
        "▁police",
        -9.783298023542393
      ],
      [
        "▁bawas",
        -9.783413865926727
      ],
      [
        "▁singil",
        -9.783947749903984
      ],
      [
        "▁tatag",
        -9.784036750501393
      ],
      [
        "▁epektibo",
        -9.784199059164068
      ],
      [
        "▁kulang",
        -9.785450587231141
      ],
      [
        "▁kalawang",
        -9.78596633294202
      ],
      [
        "",
        -9.786632552871753
      ],
      [
        ".ngunit",
        -9.787124429092811
      ],
      [
        "▁haya",
        -9.787237690746293
      ],
      [
        "▁suk",
        -9.788518413549548
      ],
      [
        "▁pilipino",
        -9.788686798554338
      ],
      [
        "",
        -9.790141275553088
      ],
      [
        "▁pangkat",
        -9.790392688503333
      ],
      [
        "▁pen",
        -9.790523140107018
      ],
      [
        "▁lingkod",
        -9.790569631120029
      ],
      [
        "ging",
        -9.79129950811392
      ],
      [
        "19",
        -9.791930606404984
      ],
      [
        "▁kaya",
        -9.793004989432925
      ],
      [
        "▁gel",
        -9.793581115991696
      ],
      [
        "▁bigay",
        -9.793700197406922
      ],
      [
        "▁lampas",
        -9.793826029830864
      ],
      [
        "",
        -9.794407923005496
      ],
      [
        "▁dr.",
        -9.794922458049689
      ],
      [
        "m",
        -9.795318767831136
      ],
      [
        "wat",
        -9.795442685600609
      ],
      [
        "▁business",
        -9.79555102544797
      ],
      [
        "▁limitasyon",
        -9.796067849946644
      ],
      [
        "▁mangayayat",
        -9.7962638038947
      ],
      [
        "▁sup",
        -9.797299619353382
      ],
      [
        "▁list",
        -9.797680797677934
      ],
      [
        "▁government",
        -9.798407620386014
      ],
      [
        "▁nternational",
        -9.798765368688898
      ],
      [
        "▁rami",
        -9.799038381507046
      ],
      [
        "▁produksyon",
        -9.799481377698152
      ],
      [
        "▁side",
        -9.799920479000408
      ],
      [
        "▁kita",
        -9.800942502031724
      ],
      [
        "▁ahon",
        -9.801273207524082
      ],
      [
        "ulat",
        -9.80142031193818
      ],
      [
        "isip",
        -9.801426246209283
      ],
      [
        "▁yari",
        -9.801687936031074
      ],
      [
        "▁count",
        -9.802422028648296
      ],
      [
        "▁feed",
        -9.802592917065486
      ],
      [
        "zz",
        -9.802818333137186
      ],
      [
        "▁una",
        -9.803698735757916
      ],
      [
        "▁buhay",
        -9.803794856971315
      ],
      [
        "▁sama",
        -9.803847426422701
      ],
      [
        "not",
        -9.804661692788294
      ],
      [
        "▁ganap",
        -9.804668170239653
      ],
      [
        "▁kontra",
        -9.804737175444904
      ],
      [
        "▁linis",
        -9.805078490259199
      ],
      [
        "",
        -9.805800180820063
      ],
      [
        "▁karaniwan",
        -9.806251249198057
      ],
      [
        "▁tiyak",
        -9.806475985347062
      ],
      [
        "ensiya",
        -9.806541939639814
      ],
      [
        "▁turing",
        -9.806726903986535
      ],
      [
        "▁putol",
        -9.806743972487356
      ],
      [
        "▁kons",
        -9.807830826639917
      ],
      [
        ".may",
        -9.807902646646182
      ],
      [
        "lor",
        -9.810068026665807
      ],
      [
        "▁bansa",
        -9.810517213983776
      ],
      [
        "▁ugnay",
        -9.811515054142989
      ],
      [
        "▁siyempre",
        -9.811911611463914
      ],
      [
        "▁arm",
        -9.812078293955398
      ],
      [
        "▁bigla",
        -9.813199890866718
      ],
      [
        "▁kun",
        -9.813367955912618
      ],
      [
        "▁gawa",
        -9.81356666927964
      ],
      [
        "tok",
        -9.813597866734465
      ],
      [
        "▁bansa",
        -9.8136218650095
      ],
      [
        "▁palit",
        -9.813677291920762
      ],
      [
        "ual",
        -9.813836055095377
      ],
      [
        "▁way",
        -9.813920979702877
      ],
      [
        "▁digital",
        -9.8142767501722
      ],
      [
        "▁sugat",
        -9.814317292254444
      ],
      [
        "▁ligo",
        -9.81438456275514
      ],
      [
        "lab",
        -9.814743760651504
      ],
      [
        "▁ukol",
        -9.816037789635812
      ],
      [
        "▁sunod",
        -9.816941033048309
      ],
      [
        "▁ganun",
        -9.81727035292358
      ],
      [
        "▁lokasyon",
        -9.817741364969956
      ],
      [
        "▁tindi",
        -9.819451964375885
      ],
      [
        "▁heart",
        -9.819680985391605
      ],
      [
        "▁tunog",
        -9.819920814450091
      ],
      [
        "▁sala",
        -9.820157247496265
      ],
      [
        "▁mungkahi",
        -9.82101665244868
      ],
      [
        "▁hotel",
        -9.821480183751754
      ],
      [
        "▁cash",
        -9.82169752149415
      ],
      [
        "▁sisi",
        -9.821739978749282
      ],
      [
        "▁binti",
        -9.823557595733579
      ],
      [
        "▁panig",
        -9.825030192509558
      ],
      [
        "▁ke",
        -9.82506928557844
      ],
      [
        "?\"",
        -9.825875644969408
      ],
      [
        "▁tren",
        -9.826702584771684
      ],
      [
        "▁2018",
        -9.827073611432724
      ],
      [
        "▁potensyal",
        -9.827808180290344
      ],
      [
        "▁lipas",
        -9.828010204716458
      ],
      [
        "▁60",
        -9.828216356683125
      ],
      [
        "▁rating",
        -9.828458835182301
      ],
      [
        "▁available",
        -9.828729478059033
      ],
      [
        "gue",
        -9.829085869148408
      ],
      [
        "▁control",
        -9.82966021806452
      ],
      [
        "▁hangad",
        -9.829821727286445
      ],
      [
        "▁rty",
        -9.8298376622626
      ],
      [
        "baba",
        -9.830437498585077
      ],
      [
        "▁tangi",
        -9.830503307978656
      ],
      [
        "lito",
        -9.831525674515026
      ],
      [
        "▁opsyon",
        -9.831985026665162
      ],
      [
        "go",
        -9.833235632805875
      ],
      [
        "▁kurso",
        -9.834090910176943
      ],
      [
        "▁project",
        -9.834290494443602
      ],
      [
        "▁ligaya",
        -9.834821211789244
      ],
      [
        "pol",
        -9.835882092176023
      ],
      [
        "gil",
        -9.836657053660941
      ],
      [
        "▁empleyado",
        -9.836873899801745
      ],
      [
        "▁kayo",
        -9.837915517411133
      ],
      [
        "▁hinto",
        -9.83823429967517
      ],
      [
        "▁buhay",
        -9.839377437761723
      ],
      [
        "bon",
        -9.84018940450279
      ],
      [
        "▁ugat",
        -9.84062731183111
      ],
      [
        "▁family",
        -9.841347525782643
      ],
      [
        "▁them",
        -9.842401961564843
      ],
      [
        "▁yaon",
        -9.84240889991526
      ],
      [
        "▁alak",
        -9.843562389606577
      ],
      [
        "cer",
        -9.84409139554278
      ],
      [
        "",
        -9.844219526160737
      ],
      [
        "▁niya",
        -9.845125412202012
      ],
      [
        "▁sarap",
        -9.846254380472663
      ],
      [
        "▁residente",
        -9.8465854579714
      ],
      [
        "▁unit",
        -9.846607847035784
      ],
      [
        "▁month",
        -9.847061613963968
      ],
      [
        "▁benta",
        -9.847728636295534
      ],
      [
        "▁lala",
        -9.848501096423817
      ],
      [
        "▁remedyo",
        -9.84865261617151
      ],
      [
        "ego",
        -9.849271110714877
      ],
      [
        "▁bigay",
        -9.849312892595124
      ],
      [
        "▁laro",
        -9.849501403151876
      ],
      [
        "ular",
        -9.8497039333811
      ],
      [
        "▁milyon",
        -9.85065910868299
      ],
      [
        "▁bahala",
        -9.852638523095395
      ],
      [
        "install",
        -9.8529553160911
      ],
      [
        "▁kamit",
        -9.853324651843916
      ],
      [
        "▁very",
        -9.853359244301533
      ],
      [
        "▁light",
        -9.853957134979531
      ],
      [
        "▁komento",
        -9.854038525121904
      ],
      [
        "▁isip",
        -9.854561927225395
      ],
      [
        "▁reklamo",
        -9.855824762703199
      ],
      [
        "▁fat",
        -9.856186571855723
      ],
      [
        "▁lawa",
        -9.856393340589886
      ],
      [
        "▁piraso",
        -9.856778158548293
      ],
      [
        "qui",
        -9.858946940967655
      ],
      [
        "",
        -9.85922473945154
      ],
      [
        "▁hati",
        -9.861135843270114
      ],
      [
        "▁23",
        -9.8615002796938
      ],
      [
        "mpu",
        -9.861793872907386
      ],
      [
        "▁mineral",
        -9.861906189432156
      ],
      [
        "zon",
        -9.861909439018431
      ],
      [
        "ations",
        -9.862028959374195
      ],
      [
        "▁franc",
        -9.862504808723946
      ],
      [
        "medi",
        -9.862571211256405
      ],
      [
        "hydr",
        -9.863544636267617
      ],
      [
        "▁sanay",
        -9.863692071217656
      ],
      [
        "▁2021",
        -9.863744636018815
      ],
      [
        "▁gre",
        -9.864278238768216
      ],
      [
        "▁bango",
        -9.865452733651027
      ],
      [
        "▁dagdag",
        -9.865674709088953
      ],
      [
        "▁anti-",
        -9.866186801530466
      ],
      [
        "▁metal",
        -9.866321386282252
      ],
      [
        "",
        -9.866324068338152
      ],
      [
        "▁bigayda",
        -9.86802025262157
      ],
      [
        "▁baba",
        -9.868263160762996
      ],
      [
        "▁halaga",
        -9.869632702980445
      ],
      [
        "▁taon",
        -9.870308098227307
      ],
      [
        "▁balak",
        -9.870771781137616
      ],
      [
        "▁taguyod",
        -9.871092748535771
      ],
      [
        "ency",
        -9.871149628585188
      ],
      [
        "sona",
        -9.871695148863289
      ],
      [
        "▁net",
        -9.871721377489727
      ],
      [
        "▁saalang-alang",
        -9.871862339859266
      ],
      [
        "▁cast",
        -9.872546318070686
      ],
      [
        "mil",
        -9.87288298398311
      ],
      [
        "30",
        -9.874541129593304
      ],
      [
        "▁look",
        -9.874796259018348
      ],
      [
        "▁point",
        -9.8749993673054
      ],
      [
        "▁kilos",
        -9.876530172890321
      ],
      [
        "▁movie",
        -9.876851676194812
      ],
      [
        "▁uk",
        -9.878123831095637
      ],
      [
        "ors",
        -9.878605717481811
      ],
      [
        "▁laki",
        -9.878674457322
      ],
      [
        "▁university",
        -9.878815530613435
      ],
      [
        "▁alaga",
        -9.880792941467071
      ],
      [
        "▁call",
        -9.881643724568484
      ],
      [
        "▁device",
        -9.881925308385588
      ],
      [
        "▁channel",
        -9.882115970784316
      ],
      [
        "▁ari",
        -9.88330538680129
      ],
      [
        "▁hanap",
        -9.88353215457395
      ],
      [
        "▁tuwid",
        -9.88368388367584
      ],
      [
        "▁asya",
        -9.883938025518066
      ],
      [
        "▁ugali",
        -9.88421316029991
      ],
      [
        "▁militar",
        -9.885249973228314
      ],
      [
        "▁popular",
        -9.885429890669666
      ],
      [
        "self",
        -9.8888808927098
      ],
      [
        "▁lang",
        -9.888903722866592
      ],
      [
        "▁tanda",
        -9.889048147156357
      ],
      [
        "▁ip",
        -9.8905401414892
      ],
      [
        "wel",
        -9.891076893785803
      ],
      [
        "▁ba?",
        -9.891562844108993
      ],
      [
        "▁ssage",
        -9.892082978761767
      ],
      [
        "pay",
        -9.892418941162827
      ],
      [
        "▁hanga",
        -9.892786422714835
      ],
      [
        "emb",
        -9.89291704210404
      ],
      [
        "▁mm",
        -9.894681951459626
      ],
      [
        "▁rket",
        -9.895039134407977
      ],
      [
        "''",
        -9.896041240449513
      ],
      [
        "wala",
        -9.896246661029714
      ],
      [
        "pili",
        -9.8971759163969
      ],
      [
        "laki",
        -9.89734695524933
      ],
      [
        "spect",
        -9.89765182539179
      ],
      [
        "▁rasite",
        -9.897794801293355
      ],
      [
        "▁karne",
        -9.898418005524823
      ],
      [
        "▁panatili",
        -9.898609755858963
      ],
      [
        "▁boto",
        -9.898774748851153
      ],
      [
        "meter",
        -9.899426443029173
      ],
      [
        "▁droga",
        -9.90017325611804
      ],
      [
        "▁piling",
        -9.901175298288171
      ],
      [
        "▁here",
        -9.901245306504716
      ],
      [
        "▁cancer",
        -9.90185357896674
      ],
      [
        "▁tanong",
        -9.903737792599575
      ],
      [
        "▁support",
        -9.904918848848133
      ],
      [
        "▁halaga",
        -9.905445680996097
      ],
      [
        "iwas",
        -9.905595186281715
      ],
      [
        "▁games",
        -9.905607282648138
      ],
      [
        "▁perpekto",
        -9.906173329388785
      ],
      [
        "ket",
        -9.906463859936306
      ],
      [
        "▁trade",
        -9.906627564904971
      ],
      [
        "▁tingi",
        -9.906723460041762
      ],
      [
        "▁isip",
        -9.907801591584409
      ],
      [
        "▁mahe",
        -9.907929135620586
      ],
      [
        "dahil",
        -9.90859700783581
      ],
      [
        "▁open",
        -9.908786545692532
      ],
      [
        "▁puhunan",
        -9.908917556913506
      ],
      [
        "▁full",
        -9.909449628839404
      ],
      [
        "gta",
        -9.909651984893673
      ],
      [
        "▁pribado",
        -9.909948386552516
      ],
      [
        "ana",
        -9.90997604954982
      ],
      [
        "stream",
        -9.910282529224979
      ],
      [
        "▁elemento",
        -9.910719402982174
      ],
      [
        "▁taga",
        -9.911117666421513
      ],
      [
        "▁biyahe",
        -9.911118236565553
      ],
      [
        "▁room",
        -9.91117628238995
      ],
      [
        "▁manok",
        -9.911676179670877
      ],
      [
        "▁ski",
        -9.911942864399744
      ],
      [
        "▁tipon",
        -9.911952259678676
      ],
      [
        "kum",
        -9.912254018807179
      ],
      [
        "▁dinig",
        -9.912712105026316
      ],
      [
        "▁asa",
        -9.914038766457484
      ],
      [
        "▁tanyag",
        -9.915574089877111
      ],
      [
        "rami",
        -9.916006193396562
      ],
      [
        "porma",
        -9.916352546732504
      ],
      [
        "▁dry",
        -9.916878059337614
      ],
      [
        "▁lipat",
        -9.916994660817984
      ],
      [
        "▁dagdag",
        -9.91721805449561
      ],
      [
        "▁salo",
        -9.917457237849987
      ],
      [
        "▁tulong",
        -9.917506809922799
      ],
      [
        "",
        -9.918623219229907
      ],
      [
        "▁pres",
        -9.918773927260009
      ],
      [
        "▁kahulugan",
        -9.919359138961898
      ],
      [
        "ass",
        -9.919562004307421
      ],
      [
        "list",
        -9.919923365681043
      ],
      [
        "▁ugnay",
        -9.920368981115994
      ],
      [
        "▁because",
        -9.920773126968164
      ],
      [
        "▁board",
        -9.921086379712698
      ],
      [
        "chi",
        -9.921289909936396
      ],
      [
        "▁gold",
        -9.921480977246231
      ],
      [
        "▁tira",
        -9.921511462886683
      ],
      [
        "▁tangka",
        -9.921694705719068
      ],
      [
        "hintay",
        -9.92178403367947
      ],
      [
        "▁target",
        -9.921786065394773
      ],
      [
        "▁500",
        -9.922227778872287
      ],
      [
        "▁acne",
        -9.922814466915549
      ],
      [
        "▁kina",
        -9.9242152006877
      ],
      [
        "▁virus",
        -9.926255459729457
      ],
      [
        "▁2016",
        -9.926617745215676
      ],
      [
        "ikal",
        -9.926714227049551
      ],
      [
        "▁lipat",
        -9.92830849320729
      ],
      [
        "tig",
        -9.928645322722355
      ],
      [
        "▁yari",
        -9.929094362817734
      ],
      [
        "▁quezon",
        -9.929094482298407
      ],
      [
        "▁menu",
        -9.929126014057003
      ],
      [
        "▁center",
        -9.92944847034558
      ],
      [
        "▁prutas",
        -9.929502510262942
      ],
      [
        "▁sikap",
        -9.929778533223894
      ],
      [
        "▁dulo",
        -9.930277503182204
      ],
      [
        "▁ari",
        -9.9304716768604
      ],
      [
        "▁pinoy",
        -9.930693724025476
      ],
      [
        "▁labas",
        -9.930794470571481
      ],
      [
        "▁tatak",
        -9.931471484732441
      ],
      [
        "▁za",
        -9.932410996741499
      ],
      [
        "▁gusali",
        -9.933393470963255
      ],
      [
        "▁iwas",
        -9.933657822203536
      ],
      [
        "▁eu",
        -9.934373702368047
      ],
      [
        "▁panganib",
        -9.93439795842804
      ],
      [
        "▁view",
        -9.934822373650382
      ],
      [
        "▁www.",
        -9.93543279793584
      ],
      [
        "▁proteksyon",
        -9.935843142834386
      ],
      [
        "▁gana",
        -9.936009002981441
      ],
      [
        "▁sigaw",
        -9.936177267463828
      ],
      [
        "▁siya",
        -9.936251938823133
      ],
      [
        "▁aga",
        -9.936566479797923
      ],
      [
        "▁okay",
        -9.937197152391878
      ],
      [
        "▁paka",
        -9.937633244059278
      ],
      [
        "▁halamang-singaw",
        -9.938102497006696
      ],
      [
        "kaya",
        -9.93855831025748
      ],
      [
        "▁comment",
        -9.938796908146745
      ],
      [
        "▁art",
        -9.938816396804231
      ],
      [
        "▁enjoy",
        -9.939339267922046
      ],
      [
        "▁beauty",
        -9.939543385184223
      ],
      [
        "▁kaliwa",
        -9.939572345134817
      ],
      [
        "▁dahilan",
        -9.941202312104409
      ],
      [
        "▁payag",
        -9.94185755989577
      ],
      [
        "á",
        -9.94243061586618
      ],
      [
        "▁awit",
        -9.942938156377407
      ],
      [
        "▁medikal",
        -9.944090366363532
      ],
      [
        "▁karera",
        -9.94414578454669
      ],
      [
        "christ",
        -9.94420589352617
      ],
      [
        "▁cle",
        -9.944232280629103
      ],
      [
        "▁talino",
        -9.944488954681225
      ],
      [
        "▁artista",
        -9.94458066945359
      ],
      [
        "▁pili",
        -9.94544691064067
      ],
      [
        "▁secretary",
        -9.945952246818486
      ],
      [
        "▁fish",
        -9.945978883603724
      ],
      [
        "cor",
        -9.94607877159553
      ],
      [
        "18",
        -9.946157133903608
      ],
      [
        "▁engine",
        -9.946578094500106
      ],
      [
        "▁lt",
        -9.947340296143695
      ],
      [
        "▁dec",
        -9.947449173908513
      ],
      [
        "▁larang",
        -9.948023251915926
      ],
      [
        "▁aksyon",
        -9.948566968479955
      ],
      [
        "▁panukala",
        -9.949062087324862
      ],
      [
        "▁tsa",
        -9.949081231584831
      ],
      [
        "ta",
        -9.949500812030104
      ],
      [
        "▁tira",
        -9.951777490724275
      ],
      [
        "▁tabletas",
        -9.95222602839843
      ],
      [
        "▁bagyo",
        -9.953819479224284
      ],
      [
        "▁local",
        -9.954533381044206
      ],
      [
        "▁2017",
        -9.95526285176259
      ],
      [
        "▁roll",
        -9.955500675837616
      ],
      [
        "rant",
        -9.956668120118493
      ],
      [
        "▁term",
        -9.956956239478973
      ],
      [
        "▁guhit",
        -9.957645248725294
      ],
      [
        "▁lala",
        -9.957729285742921
      ],
      [
        "▁radi",
        -9.958020814819772
      ],
      [
        "▁tagpo",
        -9.958216664754284
      ],
      [
        "▁bulaklak",
        -9.958463211943688
      ],
      [
        "▁tapon",
        -9.959761500081404
      ],
      [
        "▁gma",
        -9.960012048336823
      ],
      [
        "▁dali",
        -9.961195887028225
      ],
      [
        "ayon",
        -9.962320178189946
      ],
      [
        "▁hantong",
        -9.962445175431196
      ],
      [
        "dala",
        -9.962461463391005
      ],
      [
        "gar",
        -9.962995974024142
      ],
      [
        "▁tugon",
        -9.963898161291047
      ],
      [
        "bulati",
        -9.964109957749757
      ],
      [
        "mission",
        -9.964178298216646
      ],
      [
        "▁white",
        -9.96430002680097
      ],
      [
        "▁server",
        -9.964337382555856
      ],
      [
        "▁special",
        -9.964779137266836
      ],
      [
        "▁villa",
        -9.965493183094551
      ],
      [
        "▁basura",
        -9.966689264966627
      ],
      [
        "▁yo",
        -9.966927839961498
      ],
      [
        "▁sens",
        -9.967906579296475
      ],
      [
        "activ",
        -9.968043441297628
      ],
      [
        "▁sabi",
        -9.968086302354855
      ],
      [
        "▁john",
        -9.968288901868638
      ],
      [
        "▁bago",
        -9.968527581530452
      ],
      [
        "▁short",
        -9.968818197818235
      ],
      [
        "▁stress",
        -9.96987978946976
      ],
      [
        "▁ipon",
        -9.970822342020822
      ],
      [
        "▁aktres",
        -9.971355190901054
      ],
      [
        "▁sunod",
        -9.971445833069218
      ],
      [
        "▁pc",
        -9.971474308711722
      ],
      [
        "ica",
        -9.971671721231031
      ],
      [
        "▁puro",
        -9.97209538636121
      ],
      [
        "olohiya",
        -9.972367789145528
      ],
      [
        "",
        -9.972404173091386
      ],
      [
        "▁kpara",
        -9.972628370807247
      ],
      [
        "▁mula",
        -9.973140503711656
      ],
      [
        "▁start",
        -9.97380679051877
      ],
      [
        "pik",
        -9.974075238642842
      ],
      [
        "▁tema",
        -9.974750989299167
      ],
      [
        "▁lipad",
        -9.975231138690347
      ],
      [
        "▁ayos",
        -9.975320639223302
      ],
      [
        "15",
        -9.975928801104212
      ],
      [
        "▁ii",
        -9.976008910680106
      ],
      [
        "▁komunikasyon",
        -9.976250264365603
      ],
      [
        "▁kalakal",
        -9.976562702299265
      ],
      [
        "▁netizen",
        -9.976892012406747
      ],
      [
        "▁inis",
        -9.976935066024284
      ],
      [
        "pla",
        -9.977444475352433
      ],
      [
        "!!!",
        -9.979141835838595
      ],
      [
        "▁daigdig",
        -9.97924561720786
      ],
      [
        "▁poon",
        -9.979267250790109
      ],
      [
        "▁director",
        -9.979461761797875
      ],
      [
        "rami",
        -9.979485042698913
      ],
      [
        "▁tem",
        -9.980338893158597
      ],
      [
        "▁tulak",
        -9.98066441020269
      ],
      [
        "laman",
        -9.980918705317814
      ],
      [
        "11",
        -9.980921820832615
      ],
      [
        "▁halimbawa,",
        -9.981050258589224
      ],
      [
        "ology",
        -9.981632607258012
      ],
      [
        "▁kita",
        -9.981876230632194
      ],
      [
        "▁kulong",
        -9.98249212441135
      ],
      [
        "tanggap",
        -9.982849190976806
      ],
      [
        "usap",
        -9.983044773118463
      ],
      [
        "▁positibo",
        -9.983071481433589
      ],
      [
        "▁kahoy",
        -9.984493793893561
      ],
      [
        "▁eli",
        -9.984723114571457
      ],
      [
        "▁alis",
        -9.985274135317999
      ],
      [
        "▁hingi",
        -9.98632983443267
      ],
      [
        "▁tatag",
        -9.986565844151315
      ],
      [
        "▁laki",
        -9.987227700221975
      ],
      [
        "▁kalahati",
        -9.98764010239269
      ],
      [
        "▁taas",
        -9.988680778496638
      ],
      [
        "▁store",
        -9.989205736304575
      ],
      [
        "▁layo",
        -9.989708623584121
      ],
      [
        "hiwatig",
        -9.989770463039063
      ],
      [
        "▁kita",
        -9.989843602143965
      ],
      [
        "▁batay",
        -9.990676949426582
      ],
      [
        "▁ubo",
        -9.991642398764338
      ],
      [
        "▁sino",
        -9.992841101897593
      ],
      [
        "▁conf",
        -9.99365317507307
      ],
      [
        "▁hanap",
        -9.993981028002839
      ],
      [
        "▁thank",
        -9.994372933375839
      ],
      [
        "▁sobra",
        -9.994598353536226
      ],
      [
        "▁development",
        -9.994717821984475
      ],
      [
        "▁sikap",
        -9.994803523607404
      ],
      [
        "▁tawag",
        -9.99527373578169
      ],
      [
        "bakit",
        -9.996035405341576
      ],
      [
        "▁add",
        -9.996697237669913
      ],
      [
        "▁tulungan",
        -9.996974783895647
      ],
      [
        "▁demo",
        -9.997351468719671
      ],
      [
        "▁aktibong",
        -9.997629914688602
      ],
      [
        "▁artikulo",
        -9.997838418246763
      ],
      [
        "▁boy",
        -9.998224456979452
      ],
      [
        "var",
        -9.998288225032546
      ],
      [
        "▁sk",
        -9.99896847298716
      ],
      [
        "",
        -9.999567777754601
      ],
      [
        "▁tunton",
        -9.999813828615071
      ],
      [
        "kay",
        -10.00023377031895
      ],
      [
        "▁marka",
        -10.000427352691315
      ],
      [
        "▁dula",
        -10.000647469168344
      ],
      [
        "▁emosyon",
        -10.00113391870238
      ],
      [
        "▁lawa",
        -10.00134694471119
      ],
      [
        "ano",
        -10.001369608194677
      ],
      [
        "▁intindi",
        -10.001406910881215
      ],
      [
        "▁sanay",
        -10.001548324967809
      ],
      [
        "▁every",
        -10.002668167773631
      ],
      [
        "▁pwedeng",
        -10.002899424170414
      ],
      [
        "ksiyon",
        -10.003999627873986
      ],
      [
        "check",
        -10.00402255013629
      ],
      [
        "lum",
        -10.005261543870303
      ],
      [
        "n't",
        -10.00600863658052
      ],
      [
        "▁old",
        -10.007009058508334
      ],
      [
        "▁take",
        -10.00726172674306
      ],
      [
        "▁tuluyan",
        -10.007889067970849
      ],
      [
        "▁halaga",
        -10.008529875680052
      ],
      [
        "▁awtoridad",
        -10.009043652287232
      ],
      [
        "▁plus",
        -10.009100178544108
      ],
      [
        "▁case",
        -10.009198198791667
      ],
      [
        "▁unidos",
        -10.009930185676724
      ],
      [
        ".how",
        -10.00994779449805
      ],
      [
        "▁bangko",
        -10.01021985599664
      ],
      [
        "simula",
        -10.011734883112268
      ],
      [
        "▁doc",
        -10.012122834787142
      ],
      [
        "▁abs-cbn",
        -10.012803882009058
      ],
      [
        "▁youtube",
        -10.013469024282813
      ],
      [
        "▁tukoy",
        -10.013469268904156
      ],
      [
        "▁matay",
        -10.01452123428472
      ],
      [
        "▁mis",
        -10.014931679316653
      ],
      [
        "▁hingi",
        -10.015500530802287
      ],
      [
        "▁player",
        -10.015696808843872
      ],
      [
        "▁soda",
        -10.016730819368611
      ],
      [
        "▁puri",
        -10.017975706322764
      ],
      [
        "▁mura",
        -10.019278441237738
      ],
      [
        "▁alam",
        -10.019302193130127
      ],
      [
        "▁kuryente",
        -10.01969790273203
      ],
      [
        "▁loob",
        -10.019977031060542
      ],
      [
        "▁bigay",
        -10.02028022675851
      ],
      [
        "▁seryoso",
        -10.022155796962256
      ],
      [
        "▁jan",
        -10.022173497892268
      ],
      [
        "▁bantay",
        -10.022641031251954
      ],
      [
        "▁kliyente",
        -10.022826243606247
      ],
      [
        "▁type",
        -10.02440329817692
      ],
      [
        "▁koneksyon",
        -10.024620514879244
      ],
      [
        "▁sama",
        -10.025118462077101
      ],
      [
        "▁puno",
        -10.025629707723613
      ],
      [
        "▁community",
        -10.02574051309493
      ],
      [
        "kuha",
        -10.02584249200022
      ],
      [
        "▁sining",
        -10.026114736617684
      ],
      [
        "▁dokumento",
        -10.027088340909172
      ],
      [
        "ible",
        -10.02740623865092
      ],
      [
        "▁tumpak",
        -10.029114950827825
      ],
      [
        "▁tapos",
        -10.029246551117712
      ],
      [
        "▁weight",
        -10.029448785834822
      ],
      [
        "▁teksto",
        -10.029789528311394
      ],
      [
        "▁sulat",
        -10.030272714768566
      ],
      [
        "▁estados",
        -10.030312393790235
      ],
      [
        "▁pantay",
        -10.03159505093072
      ],
      [
        "▁sugal",
        -10.031598818801426
      ],
      [
        "▁daliri",
        -10.031646095065302
      ],
      [
        "▁balanse",
        -10.031828390338507
      ],
      [
        "▁oh",
        -10.032001228529245
      ],
      [
        "▁level",
        -10.032013430139463
      ],
      [
        "zh",
        -10.03242788795423
      ],
      [
        "▁alinman",
        -10.03250291193458
      ],
      [
        "▁lahi",
        -10.032605255460416
      ],
      [
        "▁rcos",
        -10.033176275608367
      ],
      [
        "saya",
        -10.033319385483171
      ],
      [
        "▁sama",
        -10.033654498194757
      ],
      [
        "▁direkta",
        -10.033812617635283
      ],
      [
        "tech",
        -10.035251011340302
      ],
      [
        "▁isip",
        -10.035466327939902
      ],
      [
        "▁tw",
        -10.035580756540778
      ],
      [
        "▁hikayat",
        -10.036123103699998
      ],
      [
        "▁kalsada",
        -10.036574599824384
      ],
      [
        "▁tipid",
        -10.036943285276745
      ],
      [
        "▁nber",
        -10.03795823250901
      ],
      [
        "▁gulat",
        -10.039119037648904
      ],
      [
        "but",
        -10.039455531557673
      ],
      [
        "▁organisasyon",
        -10.03959570208146
      ],
      [
        "▁ali",
        -10.039793498618224
      ],
      [
        "▁pahintulot",
        -10.03995549090469
      ],
      [
        "loob",
        -10.040349706616587
      ],
      [
        "▁chief",
        -10.04035540352423
      ],
      [
        "▁sabay",
        -10.040441416334827
      ],
      [
        "▁senador",
        -10.040441552201173
      ],
      [
        "▁record",
        -10.040461310523186
      ],
      [
        "▁pansin",
        -10.04148833108824
      ],
      [
        "▁motor",
        -10.042317791094836
      ],
      [
        "▁kanser",
        -10.042514889494518
      ],
      [
        "▁bigat",
        -10.042641916803412
      ],
      [
        "▁inom",
        -10.043138177026538
      ],
      [
        "▁rest",
        -10.043451386263031
      ],
      [
        "▁2022",
        -10.043870737923694
      ],
      [
        "▁dalasa",
        -10.045236094535845
      ],
      [
        "▁kuwarto",
        -10.045464778381882
      ],
      [
        "▁oc",
        -10.046927758979715
      ],
      [
        "▁bisa",
        -10.047034071671616
      ],
      [
        "▁libog",
        -10.047197230687013
      ],
      [
        "▁contact",
        -10.047302003702768
      ],
      [
        "▁timog",
        -10.047319089856504
      ],
      [
        "▁kuha",
        -10.047431104658104
      ],
      [
        "▁cut",
        -10.048807875989997
      ],
      [
        "▁st.",
        -10.04995675961297
      ],
      [
        "mate",
        -10.050138245780492
      ],
      [
        "▁micro",
        -10.050932655478736
      ],
      [
        "▁butas",
        -10.052175357758639
      ],
      [
        "▁lima",
        -10.052359494656061
      ],
      [
        "▁regalo",
        -10.052678602649285
      ],
      [
        "▁medical",
        -10.053061327306965
      ],
      [
        "▁layer",
        -10.053462551373693
      ],
      [
        "▁kabuluhan",
        -10.053510462888047
      ],
      [
        "",
        -10.054434143815621
      ],
      [
        "▁nila",
        -10.054522136893219
      ],
      [
        "igi",
        -10.054622258801034
      ],
      [
        "▁person",
        -10.05623835921674
      ],
      [
        "▁lamig",
        -10.05644865257424
      ],
      [
        "▁daan",
        -10.057464526547736
      ],
      [
        "▁panayam",
        -10.05767392179739
      ],
      [
        "▁puke",
        -10.05944056403838
      ],
      [
        "▁disc",
        -10.060094731602153
      ],
      [
        "▁opisina",
        -10.060226880906336
      ],
      [
        "▁yakap",
        -10.060697271734309
      ],
      [
        "▁agement",
        -10.061156503904506
      ],
      [
        "▁sektor",
        -10.061161993566289
      ],
      [
        "▁alaga",
        -10.06177671811723
      ],
      [
        "▁mali",
        -10.06303693416107
      ],
      [
        "▁ingat",
        -10.063254511980858
      ],
      [
        "read",
        -10.063269520992383
      ],
      [
        "▁diyan",
        -10.063731296599402
      ],
      [
        "isa",
        -10.063874588971466
      ],
      [
        "▁sumang",
        -10.064184775448773
      ],
      [
        "▁nina",
        -10.064214902342727
      ],
      [
        "",
        -10.065118254225144
      ],
      [
        "hati",
        -10.065405036259662
      ],
      [
        "bigay",
        -10.066008356157393
      ],
      [
        "▁lago",
        -10.06629852589495
      ],
      [
        "▁cri",
        -10.06642184466028
      ],
      [
        "osis",
        -10.067659648906757
      ],
      [
        "▁tanggap",
        -10.06767688818374
      ],
      [
        "▁tagubilin",
        -10.069095804667155
      ],
      [
        "▁carbon",
        -10.06965912660227
      ],
      [
        "▁musika",
        -10.071338071722296
      ],
      [
        "▁tiwala",
        -10.071916612585738
      ],
      [
        "!\"",
        -10.073466274548709
      ],
      [
        "▁alaga",
        -10.073481667258774
      ],
      [
        "▁buo",
        -10.073521388767668
      ],
      [
        "liwanag",
        -10.073857890037333
      ],
      [
        "▁aplikasyon",
        -10.074031355535993
      ],
      [
        "▁mister",
        -10.075774351314147
      ],
      [
        "▁iral",
        -10.075918294303348
      ],
      [
        "▁hanap",
        -10.076026982714898
      ],
      [
        "▁likha",
        -10.077000906437062
      ],
      [
        "▁tatay",
        -10.077616402672774
      ],
      [
        "▁makailan",
        -10.078461062605765
      ],
      [
        "▁abu",
        -10.078703723054867
      ],
      [
        "serv",
        -10.07907284123232
      ],
      [
        "▁lagay",
        -10.079481384754159
      ],
      [
        "▁inumin",
        -10.079715022333295
      ],
      [
        "▁anuman",
        -10.080624616686293
      ],
      [
        "▁eat",
        -10.08096597285344
      ],
      [
        "▁banta",
        -10.081371027980893
      ],
      [
        "é",
        -10.082073799875007
      ],
      [
        "▁tagpo",
        -10.083231807782044
      ],
      [
        "pag",
        -10.08370330965969
      ],
      [
        "▁award",
        -10.083723006885164
      ],
      [
        "▁buhangin",
        -10.08421374016969
      ],
      [
        "▁which",
        -10.084692261668392
      ],
      [
        "▁limitado",
        -10.084869287586836
      ],
      [
        "▁only",
        -10.085736538182845
      ],
      [
        "cel",
        -10.08657027774166
      ],
      [
        "▁nyang",
        -10.08692955338419
      ],
      [
        "▁away",
        -10.086959443191045
      ],
      [
        "▁ndia",
        -10.08731850166665
      ],
      [
        "fac",
        -10.087324055299936
      ],
      [
        "▁pangako",
        -10.088999207882825
      ],
      [
        "▁lahok",
        -10.089239258036576
      ],
      [
        "▁linis",
        -10.08977767226444
      ],
      [
        "24",
        -10.089898228090677
      ],
      [
        "mik",
        -10.089927627758291
      ],
      [
        "▁sayaw",
        -10.090280186634953
      ],
      [
        "▁ge",
        -10.090562393387442
      ],
      [
        "▁operation",
        -10.09118021629689
      ],
      [
        "▁season",
        -10.091477013114927
      ],
      [
        "▁buwis",
        -10.091917342382857
      ],
      [
        "▁most",
        -10.092300848914974
      ],
      [
        "",
        -10.092537653465897
      ],
      [
        "▁tigas",
        -10.094170902631605
      ],
      [
        "▁lemon",
        -10.09449268586884
      ],
      [
        "bul",
        -10.09562492181522
      ],
      [
        "▁rock",
        -10.095853196351815
      ],
      [
        "hhhhh",
        -10.095943096694292
      ],
      [
        "▁hawa",
        -10.096835847142506
      ],
      [
        "▁stock",
        -10.096949167850951
      ],
      [
        "▁yaman",
        -10.09701528049733
      ],
      [
        "▁sadya",
        -10.097021780920155
      ],
      [
        "▁fire",
        -10.097372323103668
      ],
      [
        "halaga",
        -10.09764997168056
      ],
      [
        "▁asawa",
        -10.097940154036248
      ],
      [
        "▁hatid",
        -10.098504275232967
      ],
      [
        "▁labas",
        -10.099136012563985
      ],
      [
        "▁ngipin",
        -10.100881179872818
      ],
      [
        "▁27",
        -10.101195600549966
      ],
      [
        "▁bundok",
        -10.101504144224856
      ],
      [
        "ganda",
        -10.101567766457519
      ],
      [
        "▁seksyon",
        -10.101943280574911
      ],
      [
        "▁aspeto",
        -10.102232386425491
      ],
      [
        "▁nutrisyon",
        -10.102468095006738
      ],
      [
        "▁even",
        -10.10339773599201
      ],
      [
        "▁bayani",
        -10.103498871312771
      ],
      [
        "▁opera",
        -10.103961388063963
      ],
      [
        "▁imp",
        -10.104145876940704
      ],
      [
        "▁asahan",
        -10.104651929982646
      ],
      [
        "▁bagaman",
        -10.104805566770407
      ],
      [
        "▁series",
        -10.105742366613443
      ],
      [
        "▁moderno",
        -10.105882850153566
      ],
      [
        "▁gulo",
        -10.10620496754795
      ],
      [
        "▁linis",
        -10.107865935317315
      ],
      [
        "▁blue",
        -10.107886536000494
      ],
      [
        "gayon",
        -10.107952398705164
      ],
      [
        "▁brand",
        -10.108760929590032
      ],
      [
        "▁lola",
        -10.10888926847968
      ],
      [
        "▁setting",
        -10.109207566165551
      ],
      [
        "▁saka",
        -10.109265736356123
      ],
      [
        "▁roman",
        -10.111052596810127
      ],
      [
        "▁feature",
        -10.111239262103021
      ],
      [
        "▁unti",
        -10.11319442730209
      ],
      [
        "▁sentro",
        -10.113218996528282
      ],
      [
        "▁aquino",
        -10.11343569958848
      ],
      [
        "ي",
        -10.113680773322836
      ],
      [
        "▁balot",
        -10.1142801883564
      ],
      [
        "▁pasok",
        -10.11486847804256
      ],
      [
        "▁tanggap",
        -10.115186515036548
      ],
      [
        "crea",
        -10.115465393125474
      ],
      [
        "▁world",
        -10.11586281390724
      ],
      [
        "board",
        -10.116132282800107
      ],
      [
        "▁porsyento",
        -10.116135063484643
      ],
      [
        "▁puwede",
        -10.116518847350699
      ],
      [
        "▁phone",
        -10.116635827327359
      ],
      [
        "▁lipat",
        -10.116962627333665
      ],
      [
        "▁pusa",
        -10.116998517860146
      ],
      [
        "▁publiko",
        -10.11736594933648
      ],
      [
        "▁club",
        -10.117870393305234
      ],
      [
        "kolekta",
        -10.118281583328724
      ],
      [
        "▁asukal",
        -10.119337086524226
      ],
      [
        "▁tatlo",
        -10.11992924925124
      ],
      [
        "▁camera",
        -10.121335506864343
      ],
      [
        "▁hospital",
        -10.121802942149237
      ],
      [
        "▁mapa",
        -10.1223522855272
      ],
      [
        "▁mangha",
        -10.122544561493847
      ],
      [
        ".bilang",
        -10.122563850992304
      ],
      [
        "vel",
        -10.122708721907145
      ],
      [
        "▁loko",
        -10.122708776331171
      ],
      [
        "▁ligaw",
        -10.122833678075924
      ],
      [
        "▁research",
        -10.123039325830675
      ],
      [
        "▁pnp",
        -10.123488478358654
      ],
      [
        "▁president",
        -10.123611101069963
      ],
      [
        "vision",
        -10.123815102186208
      ],
      [
        "▁laya",
        -10.123883893604882
      ],
      [
        "▁bayad",
        -10.12425169926137
      ],
      [
        "▁panatili",
        -10.124278644314925
      ],
      [
        "▁yari",
        -10.125192070583987
      ],
      [
        "▁pili",
        -10.125765443510874
      ],
      [
        "▁dayuhan",
        -10.125782235637288
      ],
      [
        "▁turing",
        -10.12591526028271
      ],
      [
        "▁putok",
        -10.126492597112037
      ],
      [
        "▁bakal",
        -10.127035129083803
      ],
      [
        "▁tili",
        -10.12725452616482
      ],
      [
        "▁labor",
        -10.127593873307482
      ],
      [
        "▁sama",
        -10.127893081587072
      ],
      [
        "▁follow",
        -10.12849883189657
      ],
      [
        "▁jose",
        -10.128963000844623
      ],
      [
        "tapos",
        -10.12911471247515
      ],
      [
        "▁sama",
        -10.129471194560553
      ],
      [
        "▁lawig",
        -10.129578729675137
      ],
      [
        "",
        -10.130240716669105
      ],
      [
        "▁profile",
        -10.13124092894795
      ],
      [
        "▁buhos",
        -10.131559534479901
      ],
      [
        "▁gaming",
        -10.13182085612949
      ],
      [
        ">",
        -10.132985914286028
      ],
      [
        "▁hirap",
        -10.133815528869556
      ],
      [
        "▁diyos",
        -10.133876009538136
      ],
      [
        "▁makatuwid",
        -10.134640544462927
      ],
      [
        "▁partido",
        -10.134737220285166
      ],
      [
        "16",
        -10.134750964622114
      ],
      [
        "▁pigment",
        -10.135504132397319
      ],
      [
        "▁fast",
        -10.136065274983723
      ],
      [
        "▁paborito",
        -10.136193927618438
      ],
      [
        "▁amoy",
        -10.13654729539077
      ],
      [
        "▁tulog",
        -10.136677343746241
      ],
      [
        "▁round",
        -10.136709968700163
      ],
      [
        "hindi",
        -10.1371713260608
      ],
      [
        "▁tanda",
        -10.137255695360006
      ],
      [
        "",
        -10.137398146631954
      ],
      [
        "▁klima",
        -10.137546165614507
      ],
      [
        "▁ugali",
        -10.139059908842688
      ],
      [
        "▁35",
        -10.13962810640746
      ],
      [
        "▁om",
        -10.140298857745847
      ],
      [
        "▁great",
        -10.140699513608538
      ],
      [
        "▁payapa",
        -10.140763178583205
      ],
      [
        "▁asin",
        -10.141054728599231
      ],
      [
        "▁hilig",
        -10.141094574823887
      ],
      [
        "▁alon",
        -10.14110721738636
      ],
      [
        "",
        -10.141267015518741
      ],
      [
        "▁lala",
        -10.141668180545096
      ],
      [
        "tuto",
        -10.14175920699921
      ],
      [
        "▁hubad",
        -10.142040955021956
      ],
      [
        "▁found",
        -10.142735325214453
      ],
      [
        "▁salamin",
        -10.142884038888065
      ],
      [
        "▁apple",
        -10.143654533636543
      ],
      [
        "lunsad",
        -10.144263779332933
      ],
      [
        "▁sigla",
        -10.144310156594305
      ],
      [
        "linaw",
        -10.145479321433934
      ],
      [
        "▁pulitika",
        -10.146584191563399
      ],
      [
        "88",
        -10.146784337690278
      ],
      [
        "▁treatment",
        -10.14714237109784
      ],
      [
        "▁opinyon",
        -10.148601897080658
      ],
      [
        "▁subok",
        -10.148607141701277
      ],
      [
        "▁ju",
        -10.14907444940916
      ],
      [
        "▁relihiyon",
        -10.149617269988902
      ],
      [
        "▁landas",
        -10.150702303763538
      ],
      [
        "▁dahon",
        -10.151429278903368
      ],
      [
        "▁tingi",
        -10.151906805403328
      ],
      [
        "▁inom",
        -10.152036542615807
      ],
      [
        "▁gutom",
        -10.152808130826779
      ],
      [
        "▁abala",
        -10.153439170662663
      ],
      [
        "▁pulisya",
        -10.153658065445056
      ],
      [
        "▁vol",
        -10.154230062437863
      ],
      [
        "▁russia",
        -10.154712401098998
      ],
      [
        "▁willie",
        -10.155631032386284
      ],
      [
        "▁chese",
        -10.155991749427818
      ],
      [
        "▁ingles",
        -10.156572503117568
      ],
      [
        "▁asa",
        -10.156639126751546
      ],
      [
        "▁hapon",
        -10.157403906561104
      ],
      [
        "▁kampanya",
        -10.157781639872741
      ],
      [
        "▁supply",
        -10.158297708530212
      ],
      [
        "▁sali",
        -10.158349295570899
      ],
      [
        "▁solo",
        -10.159653688448211
      ],
      [
        "▁siglo",
        -10.160775603542696
      ],
      [
        "▁disease",
[...]
