{
  "version": "1.0",
  "truncation": null,
  "padding": null,
  "added_tokens": [
    {
      "id": 0,
      "content": "<unk>",
      "single_word": false,
      "lstrip": false,
      "rstrip": false,
      "normalized": false,
      "special": true
    },
    {
      "id": 1,
      "content": "<s>",
      "single_word": false,
      "lstrip": false,
      "rstrip": false,
      "normalized": false,
      "special": true
    },
    {
      "id": 2,
      "content": "</s>",
      "single_word": false,
      "lstrip": false,
      "rstrip": false,
      "normalized": false,
      "special": true
    }
  ],
  "normalizer": {
    "type": "NFKC"
  },
  "pre_tokenizer": {
    "type": "Metaspace",
    "replacement": "▁",
    "prepend_scheme": "always",
    "split": true
  },
  "post_processor": null,
  "decoder": {
    "type": "Metaspace",
    "replacement": "▁",
    "prepend_scheme": "always",
    "split": true
  },
  "model": {
    "type": "BPE",
    "dropout": null,
    "unk_token": "<unk>",
    "continuing_subword_prefix": null,
    "end_of_word_suffix": null,
    "fuse_unk": false,
    "byte_fallback": false,
    "ignore_merges": false,
    "vocab": {
      "<unk>": 0,
      "<s>": 1,
      "</s>": 2,
      "'": 3,
      "-": 4,
      "0": 5,
      "1": 6,
      "2": 7,
      "3": 8,
      "4": 9,
      "5": 10,
      "6": 11,
      "7": 12,
      "8": 13,
      "9": 14,
      "A": 15,
      "B": 16,
      "C": 17,
      "D": 18,
      "E": 19,
      "F": 20,
      "G": 21,
      "H": 22,
      "I": 23,
      "J": 24,
      "K": 25,
      "L": 26,
      "M": 27,
      "N": 28,
      "O": 29,
      "P": 30,
      "Q": 31,
      "R": 32,
      "S": 33,
      "T": 34,
      "U": 35,
      "V": 36,
      "W": 37,
      "X": 38,
      "Y": 39,
      "Z": 40,
      "_": 41,
      "a": 42,
      "b": 43,
      "c": 44,
      "d": 45,
      "e": 46,
      "f": 47,
      "g": 48,
      "h": 49,
      "i": 50,
      "j": 51,
      "k": 52,
      "l": 53,
      "m": 54,
      "n": 55,
      "o": 56,
      "p": 57,
      "q": 58,
      "r": 59,
      "s": 60,
      "t": 61,
      "u": 62,
      "v": 63,
      "w": 64,
      "x": 65,
      "y": 66,
      "z": 67,
      "Á": 68,
      "Â": 69,
      "Ã": 70,
      "Ä": 71,
      "Å": 72,
      "Ç": 73,
      "É": 74,
      "Í": 75,
      "Ñ": 76,
      "Ò": 77,
      "Õ": 78,
      "Ö": 79,
      "Ü": 80,
      "ß": 81,
      "à": 82,
      "á": 83,
      "â": 84,
      "ã": 85,
      "ä": 86,
      "å": 87,
      "æ": 88,
      "ç": 89,
      "è": 90,
      "é": 91,
      "ê": 92,
      "ë": 93,
      "ì": 94,
      "í": 95,
      "î": 96,
      "ï": 97,
      "ð": 98,
      "ñ": 99,
      "ò": 100,
      "ó": 101,
      "ô": 102,
      "õ": 103,
      "ö": 104,
      "ø": 105,
      "ù": 106,
      "ú": 107,
      "ü": 108,
      "ý": 109,
      "Ā": 110,
      "ā": 111,
      "ă": 112,
      "ą": 113,
      "ć": 114,
      "č": 115,
      "đ": 116,
      "ē": 117,
      "ė": 118,
      "ę": 119,
      "ě": 120,
      "ğ": 121,
      "ī": 122,
      "İ": 123,
      "ı": 124,
      "ł": 125,
      "ń": 126,
      "ņ": 127,
      "ň": 128,
      "ō": 129,
      "œ": 130,
      "ř": 131,
      "ś": 132,
      "Ş": 133,
      "ş": 134,
      "Š": 135,
      "š": 136,
      "ū": 137,
      "ů": 138,
      "ų": 139,
      "ź": 140,
      "ż": 141,
      "ž": 142,
      "ư": 143,
      "ǎ": 144,
      "ș": 145,
      "ț": 146,
      "ɑ": 147,
      "ɔ": 148,
      "ə": 149,
      "ɪ": 150,
      "ʀ": 151,
      "ʹ": 152,
      "ʼ": 153,
      "ˈ": 154,
      "ː": 155,
      "Ε": 156,
      "Λ": 157,
      "Π": 158,
      "Φ": 159,
      "ά": 160,
      "έ": 161,
      "ή": 162,
      "ί": 163,
      "α": 164,
      "β": 165,
      "γ": 166,
      "δ": 167,
      "ε": 168,
      "ζ": 169,
      "η": 170,
      "θ": 171,
      "ι": 172,
      "κ": 173,
      "λ": 174,
      "μ": 175,
      "ν": 176,
      "ξ": 177,
      "ο": 178,
      "π": 179,
      "ρ": 180,
      "ς": 181,
      "σ": 182,
      "τ": 183,
      "υ": 184,
      "φ": 185,
      "χ": 186,
      "ψ": 187,
      "ω": 188,
      "ό": 189,
      "ύ": 190,
      "ώ": 191,
      "А": 192,
      "Б": 193,
      "В": 194,
      "Г": 195,
      "Д": 196,
      "Е": 197,
      "Ж": 198,
      "З": 199,
      "И": 200,
      "К": 201,
      "Л": 202,
      "М": 203,
      "Н": 204,
      "О": 205,
      "П": 206,
      "Р": 207,
      "С": 208,
      "Т": 209,
      "У": 210,
      "Ф": 211,
      "Х": 212,
      "Ц": 213,
      "Ч": 214,
      "Ш": 215,
      "Ы": 216,
      "Ь": 217,
      "Э": 218,
      "Я": 219,
      "а": 220,
      "б": 221,
      "в": 222,
      "г": 223,
      "д": 224,
      "е": 225,
      "ж": 226,
      "з": 227,
      "и": 228,
      "й": 229,
      "к": 230,
      "л": 231,
      "м": 232,
      "н": 233,
      "о": 234,
      "п": 235,
      "р": 236,
      "с": 237,
      "т": 238,
      "у": 239,
      "ф": 240,
      "х": 241,
      "ц": 242,
      "ч": 243,
      "ш": 244,
      "щ": 245,
      "ы": 246,
      "ь": 247,
      "э": 248,
      "ю": 249,
      "я": 250,
      "ё": 251,
      "є": 252,
      "і": 253,
      "ї": 254,
      "א": 255,
      "ב": 256,
      "ג": 257,
      "ד": 258,
      "ה": 259,
      "ו": 260,
      "ז": 261,
      "ח": 262,
      "ט": 263,
      "י": 264,
      "כ": 265,
      "ל": 266,
      "ם": 267,
      "מ": 268,
      "ן": 269,
      "נ": 270,
      "ס": 271,
      "ע": 272,
      "פ": 273,
      "צ": 274,
      "ק": 275,
      "ר": 276,
      "ש": 277,
      "ת": 278,
      "ء": 279,
      "آ": 280,
      "أ": 281,
      "ؤ": 282,
      "إ": 283,
      "ئ": 284,
      "ا": 285,
      "ب": 286,
      "ة": 287,
      "ت": 288,
      "ث": 289,
      "ج": 290,
      "ح": 291,
      "خ": 292,
      "د": 293,
      "ذ": 294,
      "ر": 295,
      "ز": 296,
      "س": 297,
      "ش": 298,
      "ص": 299,
      "ض": 300,
      "ط": 301,
      "ظ": 302,
      "ع": 303,
      "غ": 304,
      "ـ": 305,
      "ف": 306,
      "ق": 307,
      "ك": 308,
      "ل": 309,
      "م": 310,
      "ن": 311,
      "ه": 312,
      "و": 313,
      "ى": 314,
      "ي": 315,
      "ی": 316,
      "अ": 317,
      "आ": 318,
      "इ": 319,
      "उ": 320,
      "ए": 321,
      "क": 322,
      "ख": 323,
      "ग": 324,
      "घ": 325,
      "च": 326,
      "छ": 327,
      "ज": 328,
      "झ": 329,
      "ट": 330,
      "ड": 331,
      "त": 332,
      "द": 333,
      "न": 334,
      "प": 335,
      "फ": 336,
      "ब": 337,
      "म": 338,
      "य": 339,
      "र": 340,
      "ल": 341,
      "व": 342,
      "श": 343,
      "स": 344,
      "ह": 345,
      "অ": 346,
      "ই": 347,
      "এ": 348,
      "ও": 349,
      "ক": 350,
      "খ": 351,
      "গ": 352,
      "ছ": 353,
      "জ": 354,
      "ট": 355,
      "ণ": 356,
      "ত": 357,
      "থ": 358,
      "দ": 359,
      "ধ": 360,
      "ন": 361,
      "প": 362,
      "ব": 363,
      "ভ": 364,
      "ম": 365,
      "য": 366,
      "র": 367,
      "ল": 368,
      "শ": 369,
      "ষ": 370,
      "স": 371,
      "হ": 372,
      "ก": 373,
      "ข": 374,
      "ค": 375,
      "ง": 376,
      "จ": 377,
      "ช": 378,
      "ด": 379,
      "ต": 380,
      "ท": 381,
      "น": 382,
      "บ": 383,
      "ป": 384,
      "พ": 385,
      "ม": 386,
      "ย": 387,
      "ร": 388,
      "ล": 389,
      "ว": 390,
      "ส": 391,
      "ห": 392,
      "อ": 393,
      "ะ": 394,
      "า": 395,
      "เ": 396,
      "แ": 397,
      "โ": 398,
      "ใ": 399,
      "ไ": 400,
      "ሁ": 401,
      "ህ": 402,
      "ለ": 403,
      "ሉ": 404,
      "ላ": 405,
      "ል": 406,
      "መ": 407,
      "ማ": 408,
      "ም": 409,
      "ረ": 410,
      "ራ": 411,
      "ር": 412,
      "ሰ": 413,
      "ስ": 414,
      "ቀ": 415,
      "በ": 416,
      "ብ": 417,
      "ተ": 418,
      "ታ": 419,
      "ት": 420,
      "ቸ": 421,
      "ች": 422,
      "ነ": 423,
      "ና": 424,
      "ን": 425,
      "አ": 426,
      "እ": 427,
      "ከ": 428,
      "ወ": 429,
      "ው": 430,
      "ዚ": 431,
      "የ": 432,
      "ያ": 433,
      "ይ": 434,
      "ደ": 435,
      "ድ": 436,
      "ገ": 437,
      "ግ": 438,
      "Ḥ": 439,
      "ḥ": 440,
      "ạ": 441,
      "ả": 442,
      "ế": 443,
      "ệ": 444,
      "ố": 445,
      "ộ": 446,
      "▁": 447,
      "あ": 448,
      "い": 449,
      "う": 450,
      "え": 451,
      "お": 452,
      "か": 453,
      "が": 454,
      "き": 455,
      "く": 456,
      "け": 457,
      "こ": 458,
      "さ": 459,
      "し": 460,
      "す": 461,
      "ず": 462,
      "せ": 463,
      "そ": 464,
      "た": 465,
      "だ": 466,
      "ち": 467,
      "っ": 468,
      "つ": 469,
      "て": 470,
      "で": 471,
      "と": 472,
      "ど": 473,
      "な": 474,
      "に": 475,
      "の": 476,
      "は": 477,
      "ば": 478,
      "ま": 479,
      "み": 480,
      "め": 481,
      "も": 482,
      "や": 483,
      "よ": 484,
      "ら": 485,
      "り": 486,
      "る": 487,
      "れ": 488,
      "ろ": 489,
      "を": 490,
      "ん": 491,
      "ア": 492,
      "イ": 493,
      "エ": 494,
      "ク": 495,
      "グ": 496,
      "コ": 497,
      "ザ": 498,
      "ジ": 499,
      "ス": 500,
      "タ": 501,
      "ッ": 502,
      "テ": 503,
      "ト": 504,
      "ビ": 505,
      "フ": 506,
      "マ": 507,
      "メ": 508,
      "ラ": 509,
      "リ": 510,
      "ル": 511,
      "ロ": 512,
      "ン": 513,
      "ー": 514,
      "一": 515,
      "万": 516,
      "上": 517,
      "下": 518,
      "不": 519,
      "东": 520,
      "个": 521,
      "中": 522,
      "为": 523,
      "主": 524,
      "也": 525,
      "了": 526,
      "事": 527,
      "于": 528,
      "亚": 529,
      "人": 530,
      "他": 531,
      "代": 532,
      "以": 533,
      "们": 534,
      "件": 535,
      "伊": 536,
      "优": 537,
      "会": 538,
      "传": 539,
      "位": 540,
      "住": 541,
      "体": 542,
      "作": 543,
      "你": 544,
      "使": 545,
      "依": 546,
      "便": 547,
      "保": 548,
      "信": 549,
      "們": 550,
      "候": 551,
      "做": 552,
      "充": 553,
      "先": 554,
      "光": 555,
      "克": 556,
      "全": 557,
      "公": 558,
      "兰": 559,
      "具": 560,
      "内": 561,
      "円": 562,
      "再": 563,
      "凝": 564,
      "出": 565,
      "击": 566,
      "分": 567,
      "利": 568,
      "到": 569,
      "制": 570,
      "刷": 571,
      "剂": 572,
      "前": 573,
      "力": 574,
      "加": 575,
      "动": 576,
      "務": 577,
      "包": 578,
      "化": 579,
      "北": 580,
      "南": 581,
      "博": 582,
      "卡": 583,
      "卢": 584,
      "印": 585,
      "压": 586,
      "去": 587,
      "友": 588,
      "发": 589,
      "取": 590,
      "变": 591,
      "口": 592,
      "叫": 593,
      "可": 594,
      "台": 595,
      "号": 596,
      "司": 597,
      "合": 598,
      "吉": 599,
      "同": 600,
      "名": 601,
      "后": 602,
      "和": 603,
      "品": 604,
      "哈": 605,
      "啮": 606,
      "喜": 607,
      "営": 608,
      "器": 609,
      "因": 610,
      "国": 611,
      "图": 612,
      "在": 613,
      "地": 614,
      "型": 615,
      "基": 616,
      "場": 617,
      "塔": 618,
      "外": 619,
      "多": 620,
      "大": 621,
      "天": 622,
      "太": 623,
      "头": 624,
      "她": 625,
      "好": 626,
      "如": 627,
      "威": 628,
      "娜": 629,
      "子": 630,
      "字": 631,
      "孟": 632,
      "学": 633,
      "它": 634,
      "安": 635,
      "官": 636,
      "定": 637,
      "家": 638,
      "将": 639,
      "小": 640,
      "尔": 641,
      "就": 642,
      "尼": 643,
      "岗": 644,
      "工": 645,
      "巴": 646,
      "市": 647,
      "布": 648,
      "帕": 649,
      "常": 650,
      "干": 651,
      "平": 652,
      "年": 653,
      "度": 654,
      "座": 655,
      "开": 656,
      "式": 657,
      "当": 658,
      "彩": 659,
      "很": 660,
      "後": 661,
      "心": 662,
      "必": 663,
      "思": 664,
      "性": 665,
      "息": 666,
      "您": 667,
      "情": 668,
      "想": 669,
      "意": 670,
      "愛": 671,
      "感": 672,
      "成": 673,
      "我": 674,
      "户": 675,
      "所": 676,
      "手": 677,
      "打": 678,
      "托": 679,
      "拉": 680,
      "按": 681,
      "据": 682,
      "提": 683,
      "携": 684,
      "数": 685,
      "文": 686,
      "料": 687,
      "斯": 688,
      "新": 689,
      "方": 690,
      "无": 691,
      "日": 692,
      "时": 693,
      "旺": 694,
      "昂": 695,
      "明": 696,
      "是": 697,
      "時": 698,
      "普": 699,
      "景": 700,
      "書": 701,
      "曼": 702,
      "最": 703,
      "月": 704,
      "有": 705,
      "朋": 706,
      "朗": 707,
      "木": 708,
      "本": 709,
      "机": 710,
      "杀": 711,
      "来": 712,
      "杭": 713,
      "板": 714,
      "架": 715,
      "格": 716,
      "森": 717,
      "業": 718,
      "模": 719,
      "次": 720,
      "欢": 721,
      "毒": 722,
      "比": 723,
      "毛": 724,
      "氏": 725,
      "水": 726,
      "永": 727,
      "法": 728,
      "活": 729,
      "流": 730,
      "海": 731,
      "液": 732,
      "温": 733,
      "源": 734,
      "点": 735,
      "烟": 736,
      "烤": 737,
      "烧": 738,
      "然": 739,
      "片": 740,
      "物": 741,
      "特": 742,
      "玛": 743,
      "环": 744,
      "现": 745,
      "玻": 746,
      "理": 747,
      "琳": 748,
      "璃": 749,
      "瓦": 750,
      "瓷": 751,
      "生": 752,
      "用": 753,
      "由": 754,
      "申": 755,
      "电": 756,
      "画": 757,
      "疼": 758,
      "病": 759,
      "痛": 760,
      "登": 761,
      "的": 762,
      "盎": 763,
      "目": 764,
      "相": 765,
      "看": 766,
      "知": 767,
      "示": 768,
      "社": 769,
      "神": 770,
      "私": 771,
      "种": 772,
      "程": 773,
      "空": 774,
      "立": 775,
      "站": 776,
      "第": 777,
      "管": 778,
      "米": 779,
      "経": 780,
      "级": 781,
      "纳": 782,
      "编": 783,
      "网": 784,
      "置": 785,
      "美": 786,
      "者": 787,
      "肉": 788,
      "育": 789,
      "胶": 790,
      "能": 791,
      "自": 792,
      "色": 793,
      "艾": 794,
      "苦": 795,
      "萨": 796,
      "蓬": 797,
      "虫": 798,
      "螂": 799,
      "蟑": 800,
      "行": 801,
      "表": 802,
      "西": 803,
      "要": 804,
      "观": 805,
      "記": 806,
      "設": 807,
      "許": 808,
      "証": 809,
      "語": 810,
      "請": 811,
      "计": 812,
      "论": 813,
      "设": 814,
      "评": 815,
      "语": 816,
      "说": 817,
      "请": 818,
      "資": 819,
      "起": 820,
      "路": 821,
      "辑": 822,
      "达": 823,
      "这": 824,
      "通": 825,
      "道": 826,
      "那": 827,
      "邦": 828,
      "都": 829,
      "酸": 830,
      "里": 831,
      "重": 832,
      "金": 833,
      "間": 834,
      "问": 835,
      "间": 836,
      "阳": 837,
      "阿": 838,
      "非": 839,
      "面": 840,
      "题": 841,
      "饵": 842,
      "首": 843,
      "香": 844,
      "马": 845,
      "高": 846,
      "鼠": 847,
      "齿": 848,
      "가": 849,
      "같": 850,
      "개": 851,
      "거": 852,
      "것": 853,
      "게": 854,
      "겠": 855,
      "경": 856,
      "계": 857,
      "고": 858,
      "과": 859,
      "구": 860,
      "국": 861,
      "그": 862,
      "기": 863,
      "까": 864,
      "깨": 865,
      "께": 866,
      "나": 867,
      "날": 868,
      "내": 869,
      "너": 870,
      "는": 871,
      "니": 872,
      "님": 873,
      "다": 874,
      "대": 875,
      "던": 876,
      "데": 877,
      "도": 878,
      "돌": 879,
      "동": 880,
      "되": 881,
      "두": 882,
      "드": 883,
      "든": 884,
      "들": 885,
      "디": 886,
      "땅": 887,
      "때": 888,
      "또": 889,
      "라": 890,
      "람": 891,
      "랑": 892,
      "래": 893,
      "러": 894,
      "렇": 895,
      "려": 896,
      "로": 897,
      "루": 898,
      "르": 899,
      "를": 900,
      "리": 901,
      "마": 902,
      "만": 903,
      "말": 904,
      "먹": 905,
      "며": 906,
      "면": 907,
      "명": 908,
      "모": 909,
      "무": 910,
      "문": 911,
      "물": 912,
      "미": 913,
      "바": 914,
      "반": 915,
      "밥": 916,
      "버": 917,
      "보": 918,
      "부": 919,
      "분": 920,
      "불": 921,
      "비": 922,
      "빔": 923,
      "사": 924,
      "산": 925,
      "살": 926,
      "상": 927,
      "생": 928,
      "서": 929,
      "섯": 930,
      "성": 931,
      "세": 932,
      "셉": 933,
      "소": 934,
      "속": 935,
      "솥": 936,
      "수": 937,
      "스": 938,
      "습": 939,
      "시": 940,
      "신": 941,
      "실": 942,
      "심": 943,
      "십": 944,
      "아": 945,
      "안": 946,
      "않": 947,
      "았": 948,
      "야": 949,
      "양": 950,
      "어": 951,
      "없": 952,
      "었": 953,
      "에": 954,
      "엘": 955,
      "여": 956,
      "였": 957,
      "영": 958,
      "예": 959,
      "오": 960,
      "와": 961,
      "요": 962,
      "우": 963,
      "운": 964,
      "워": 965,
      "원": 966,
      "위": 967,
      "유": 968,
      "으": 969,
      "은": 970,
      "을": 971,
      "음": 972,
      "의": 973,
      "이": 974,
      "인": 975,
      "일": 976,
      "입": 977,
      "있": 978,
      "자": 979,
      "저": 980,
      "전": 981,
      "절": 982,
      "정": 983,
      "제": 984,
      "조": 985,
      "주": 986,
      "죽": 987,
      "지": 988,
      "체": 989,
      "치": 990,
      "크": 991,
      "탕": 992,
      "터": 993,
      "트": 994,
      "하": 995,
      "한": 996,
      "합": 997,
      "해": 998,
      "형": 999,
      "호": 1000,
      "후": 1001,
      "희": 1002,
      "ng": 1003,
      "▁a": 1004,
      "▁s": 1005,
      "▁sa": 1006,
      "▁m": 1007,
      "la": 1008,
      "na": 1009,
      "▁ng": 1010,
      "ga": 1011,
      "▁na": 1012,
      "▁t": 1013,
      "▁k": 1014,
      "▁ang": 1015,
      "▁b": 1016,
      "▁p": 1017,
      "it": 1018,
      "an": 1019,
      "in": 1020,
      "▁d": 1021,
      "▁mga": 1022,
      "on": 1023,
      "▁h": 1024,
      "li": 1025,
      "at": 1026,
      "ay": 1027,
      "▁la": 1028,
      "as": 1029,
      "er": 1030,
      "▁at": 1031,
      "▁ay": 1032,
      "ag": 1033,
      "ya": 1034,
      "ra": 1035,
      "▁da": 1036,
      "▁i": 1037,
      "▁n": 1038,
      "▁ta": 1039,
      "▁ba": 1040,
      "re": 1041,
      "wa": 1042,
      "lo": 1043,
      "▁ka": 1044,
      "ro": 1045,
      "▁pa": 1046,
      "▁ga": 1047,
      "▁ko": 1048,
      "ri": 1049,
      "ito": 1050,
      "▁u": 1051,
      "en": 1052,
      "▁si": 1053,
      "di": 1054,
      "to": 1055,
      "es": 1056,
      "yo": 1057,
      "is": 1058,
      "or": 1059,
      "▁tu": 1060,
      "▁ni": 1061,
      "ba": 1062,
      "us": 1063,
      "un": 1064,
      "▁ha": 1065,
      "ti": 1066,
      "pa": 1067,
      "▁c": 1068,
      "ko": 1069,
      "al": 1070,
      "▁an": 1071,
      "▁ito": 1072,
      "il": 1073,
      "▁ma": 1074,
      "os": 1075,
      "ula": 1076,
      "▁li": 1077,
      "ta": 1078,
      "▁bi": 1079,
      "da": 1080,
      "ma": 1081,
      "indi": 1082,
      "ka": 1083,
      "le": 1084,
      "▁hindi": 1085,
      "ing": 1086,
      "ha": 1087,
      "yon": 1088,
      "▁bu": 1089,
      "▁may": 1090,
      "ig": 1091,
      "▁S": 1092,
      "▁C": 1093,
      "sa": 1094,
      "▁g": 1095,
      "▁di": 1096,
      "▁f": 1097,
      "▁mo": 1098,
      "▁w": 1099,
      "te": 1100,
      "lu": 1101,
      "mp": 1102,
      "▁e": 1103,
      "mi": 1104,
      "▁ti": 1105,
      "▁o": 1106,
      "▁P": 1107,
      "▁A": 1108,
      "▁re": 1109,
      "man": 1110,
      "wala": 1111,
      "he": 1112,
      "▁in": 1113,
      "bo": 1114,
      "ki": 1115,
      "▁pag": 1116,
      "▁upa": 1117,
      "bi": 1118,
      "ata": 1119,
      "do": 1120,
      "▁su": 1121,
      "▁M": 1122,
      "ati": 1123,
      "▁ano": 1124,
      "si": 1125,
      "▁mas": 1126,
      "▁B": 1127,
      "▁gam": 1128,
      "ita": 1129,
      "▁iyo": 1130,
      "et": 1131,
      "ar": 1132,
      "hi": 1133,
      "ho": 1134,
      "▁kay": 1135,
      "▁ari": 1136,
      "▁ku": 1137,
      "de": 1138,
      "▁T": 1139,
      "▁pro": 1140,
      "anya": 1141,
      "▁r": 1142,
      "ce": 1143,
      "▁wala": 1144,
      "▁D": 1145,
      "▁niya": 1146,
      "uk": 1147,
      "hil": 1148,
      "hat": 1149,
      "ot": 1150,
      "el": 1151,
      "gay": 1152,
      "▁ako": 1153,
      "ent": 1154,
      "▁man": 1155,
      "▁dahil": 1156,
      "▁R": 1157,
      "▁mula": 1158,
      "▁kanya": 1159,
      "lan": 1160,
      "▁tao": 1161,
      "▁gamit": 1162,
      "▁siya": 1163,
      "▁1": 1164,
      "▁G": 1165,
      "ili": 1166,
      "lang": 1167,
      "od": 1168,
      "▁lu": 1169,
      "ter": 1170,
      "▁gawa": 1171,
      "▁bag": 1172,
      "▁N": 1173,
      "ek": 1174,
      "ed": 1175,
      "▁laki": 1176,
      "▁nila": 1177,
      "▁F": 1178,
      "laga": 1179,
      "mba": 1180,
      "▁ra": 1181,
      "pat": 1182,
      "▁ro": 1183,
      "▁2": 1184,
      "▁I": 1185,
      "gi": 1186,
      "▁L": 1187,
      "ur": 1188,
      "▁to": 1189,
      "pos": 1190,
      "om": 1191,
      "hay": 1192,
      "ol": 1193,
      "▁E": 1194,
      "lis": 1195,
      "▁mag": 1196,
      "vi": 1197,
      "▁the": 1198,
      "lin": 1199,
      "▁rin": 1200,
      "ok": 1201,
      "ck": 1202,
      "▁ak": 1203,
      "▁sabi": 1204,
      "ran": 1205,
      "yan": 1206,
      "▁H": 1207,
      "▁lo": 1208,
      "▁ara": 1209,
      "▁bila": 1210,
      "ina": 1211,
      "ut": 1212,
      "▁bago": 1213,
      "res": 1214,
      "han": 1215,
      "▁baba": 1216,
      "orm": 1217,
      "▁per": 1218,
      "ve": 1219,
      "wan": 1220,
      "ci": 1221,
      "▁tapos": 1222,
      "▁lahat": 1223,
      "▁W": 1224,
      "▁rami": 1225,
      "ob": 1226,
      "▁laman": 1227,
      "ul": 1228,
      "▁of": 1229,
      "▁roon": 1230,
      "▁J": 1231,
      "▁dala": 1232,
      "ngga": 1233,
      "▁una": 1234,
      "ino": 1235,
      "▁ala": 1236,
      "▁lab": 1237,
      "ir": 1238,
      "um": 1239,
      "▁kita": 1240,
      "▁hi": 1241,
      "▁tulo": 1242,
      "▁am": 1243,
      "▁po": 1244,
      "nay": 1245,
      "rap": 1246,
      "▁no": 1247,
      "▁par": 1248,
      "lad": 1249,
      "▁nito": 1250,
      "▁sila": 1251,
      "▁pu": 1252,
      "ad": 1253,
      "syon": 1254,
      "uso": 1255,
      "asyon": 1256,
      "ble": 1257,
      "ch": 1258,
      "st": 1259,
      "▁timba": 1260,
      "▁din": 1261,
      "lim": 1262,
      "am": 1263,
      "tu": 1264,
      "00": 1265,
      "▁nag": 1266,
      "ngko": 1267,
      "▁hu": 1268,
      "▁kaya": 1269,
      "▁or": 1270,
      "▁and": 1271,
      "▁sama": 1272,
      "pp": 1273,
      "ye": 1274,
      "nal": 1275,
      "ver": 1276,
      "▁dib": 1277,
      "▁pili": 1278,
      "▁bat": 1279,
      "dib": 1280,
      "ic": 1281,
      "▁dibdib": 1282,
      "ung": 1283,
      "lit": 1284,
      "▁de": 1285,
      "itan": 1286,
      "go": 1287,
      "unit": 1288,
      "▁gan": 1289,
      "nap": 1290,
      "▁O": 1291,
      "▁is": 1292,
      "▁pin": 1293,
      "lik": 1294,
      "▁K": 1295,
      "ayo": 1296,
      "▁bigay": 1297,
      "▁du": 1298,
      "lat": 1299,
      "▁tan": 1300,
      "dad": 1301,
      "asa": 1302,
      "ry": 1303,
      "ment": 1304,
      "ec": 1305,
      "▁buo": 1306,
      "▁akin": 1307,
      "▁laro": 1308,
      "ayon": 1309,
      "▁dapat": 1310,
      "so": 1311,
      "▁tulad": 1312,
      "▁ban": 1313,
      "ew": 1314,
      "big": 1315,
      "hon": 1316,
      "▁kuha": 1317,
      "ine": 1318,
      "iti": 1319,
      "ation": 1320,
      "kas": 1321,
      "usto": 1322,
      "mo": 1323,
      "▁taas": 1324,
      "mag": 1325,
      "▁mask": 1326,
      "gan": 1327,
      "ngkol": 1328,
      "▁sun": 1329,
      "▁ngayon": 1330,
      "▁V": 1331,
      "ts": 1332,
      "▁tungkol": 1333,
      "▁on": 1334,
      "▁para": 1335,
      "tion": 1336,
      "▁tag": 1337,
      "▁araw": 1338,
      "▁20": 1339,
      "▁kas": 1340,
      "ap": 1341,
      "▁pun": 1342,
      "▁baw": 1343,
      "agd": 1344,
      "her": 1345,
      "▁halaga": 1346,
      "up": 1347,
      "▁haba": 1348,
      "les": 1349,
      "▁kah": 1350,
      "agdag": 1351,
      "▁bata": 1352,
      "ly": 1353,
      "▁hus": 1354,
      "▁mata": 1355,
      "tin": 1356,
      "magitan": 1357,
      "▁yo": 1358,
      "▁mamagitan": 1359,
      "▁y": 1360,
      "se": 1361,
      "▁buhay": 1362,
      "▁alam": 1363,
      "aya": 1364,
      "ila": 1365,
      "der": 1366,
      "hin": 1367,
      "▁me": 1368,
      "ate": 1369,
      "▁hig": 1370,
      "▁co": 1371,
      "▁so": 1372,
      "no": 1373,
      "▁husay": 1374,
      "wag": 1375,
      "mb": 1376,
      "ite": 1377,
      "▁taon": 1378,
      "tas": 1379,
      "nan": 1380,
      "▁dagdag": 1381,
      "pe": 1382,
      "▁U": 1383,
      "▁ya": 1384,
      "kit": 1385,
      "▁pas": 1386,
      "id": 1387,
      "hag": 1388,
      "▁fa": 1389,
      "▁paras": 1390,
      "▁kai": 1391,
      "▁ilang": 1392,
      "co": 1393,
      "▁pos": 1394,
      "ento": 1395,
      "bay": 1396,
      "ke": 1397,
      "▁kon": 1398,
      "▁noo": 1399,
      "me": 1400,
      "ukha": 1401,
      "▁liit": 1402,
      "cial": 1403,
      "▁dito": 1404,
      "▁mukha": 1405,
      "log": 1406,
      "▁hangga": 1407,
      "▁natin": 1408,
      "▁es": 1409,
      "pek": 1410,
      "kal": 1411,
      "▁maging": 1412,
      "nga": 1413,
      "▁kami": 1414,
      "tor": 1415,
      "▁mu": 1416,
      "pit": 1417,
      "pon": 1418,
      "per": 1419,
      "▁tra": 1420,
      "▁bay": 1421,
      "langan": 1422,
      "▁dis": 1423,
      "ity": 1424,
      "▁ngunit": 1425,
      "▁loob": 1426,
      "▁imp": 1427,
      "▁bahag": 1428,
      "nas": 1429,
      "▁pero": 1430,
      "▁kata": 1431,
      "▁gaw": 1432,
      "▁te": 1433,
      "▁se": 1434,
      "▁suso": 1435,
      "kat": 1436,
      "▁tayo": 1437,
      "▁kahit": 1438,
      "▁pan": 1439,
      "nag": 1440,
      "▁asa": 1441,
      "▁isi": 1442,
      "▁gusto": 1443,
      "▁l": 1444,
      "▁as": 1445,
      "▁aral": 1446,
      "nak": 1447,
      "▁ganda": 1448,
      "▁igi": 1449,
      "▁In": 1450,
      "duk": 1451,
      "▁lalim": 1452,
      "▁pag-": 1453,
      "qu": 1454,
      "▁al": 1455,
      "gal": 1456,
      "▁dali": 1457,
      "▁nga": 1458,
      "lay": 1459,
      "▁ser": 1460,
      "▁tang": 1461,
      "▁oras": 1462,
      "▁do": 1463,
      "▁bansa": 1464,
      "▁dati": 1465,
      "ano": 1466,
      "▁bahagi": 1467,
      "wal": 1468,
      "▁labas": 1469,
      "▁gamot": 1470,
      "▁mil": 1471,
      "th": 1472,
      "▁bagay": 1473,
      "ong": 1474,
      "▁aga": 1475,
      "▁3": 1476,
      "▁worm": 1477,
      "▁kailangan": 1478,
      "▁con": 1479,
      "line": 1480,
      "▁talaga": 1481,
      "▁Y": 1482,
      "▁alis": 1483,
      "▁for": 1484,
      "ac": 1485,
      "▁higit": 1486,
      "ers": 1487,
      "▁ahon": 1488,
      "las": 1489,
      "view": 1490,
      "▁bawat": 1491,
      "gu": 1492,
      "▁katawan": 1493,
      "▁res": 1494,
      "por": 1495,
      "▁ne": 1496,
      "▁hala": 1497,
      "▁gawin": 1498,
      "ist": 1499,
      "ling": 1500,
      "ens": 1501,
      "pag": 1502,
      "im": 1503,
      "▁ayon": 1504,
      "▁sim": 1505,
      "rat": 1506,
      "bu": 1507,
      "▁isip": 1508,
      "▁sunod": 1509,
      "po": 1510,
      "▁kala": 1511,
      "▁bula": 1512,
      "rog": 1513,
      "▁we": 1514,
      "▁un": 1515,
      "▁ac": 1516,
      "ff": 1517,
      "▁pres": 1518,
      "yal": 1519,
      "▁j": 1520,
      "ess": 1521,
      "gar": 1522,
      "▁ibig": 1523,
      "▁min": 1524,
      "▁be": 1525,
      "los": 1526,
      "uman": 1527,
      "tic": 1528,
      "▁le": 1529,
      "▁tangga": 1530,
      "ika": 1531,
      "▁bahay": 1532,
      "▁lib": 1533,
      "▁produk": 1534,
      "▁anak": 1535,
      "▁pilip": 1536,
      "▁th": 1537,
      "▁kit": 1538,
      "isyo": 1539,
      "ente": 1540,
      "▁uri": 1541,
      "▁pang": 1542,
      "▁pat": 1543,
      "▁babae": 1544,
      "▁bili": 1545,
      "ys": 1546,
      "ilala": 1547,
      "▁tuloy": 1548,
      "▁gu": 1549,
      "ris": 1550,
      "▁kara": 1551,
      "▁v": 1552,
      "▁ar": 1553,
      "nati": 1554,
      "▁alo": 1555,
      "▁hanap": 1556,
      "lita": 1557,
      "▁Re": 1558,
      "▁yari": 1559,
      "▁iyon": 1560,
      "we": 1561,
      "mple": 1562,
      "one": 1563,
      "▁hali": 1564,
      "est": 1565,
      "▁bilis": 1566,
      "▁lin": 1567,
      "hal": 1568,
      "▁anuman": 1569,
      "▁ganap": 1570,
      "rin": 1571,
      "ust": 1572,
      "unt": 1573,
      "yos": 1574,
      "ting": 1575,
      "ani": 1576,
      "▁big": 1577,
      "▁vi": 1578,
      "ku": 1579,
      "lot": 1580,
      "tos": 1581,
      "raw": 1582,
      "▁201": 1583,
      "▁dam": 1584,
      "▁you": 1585,
      "▁simula": 1586,
      "▁san": 1587,
      "baho": 1588,
      "yak": 1589,
      "▁dili": 1590,
      "▁lugar": 1591,
      "▁yung": 1592,
      "ru": 1593,
      "▁it": 1594,
      "▁kilala": 1595,
      "wak": 1596,
      "▁durog": 1597,
      "▁sak": 1598,
      "▁han": 1599,
      "▁ika": 1600,
      "▁ex": 1601,
      "hh": 1602,
      "pi": 1603,
      "▁dalaw": 1604,
      "ast": 1605,
      "gnay": 1606,
      "▁Ma": 1607,
      "ral": 1608,
      "▁st": 1609,
      "undo": 1610,
      "▁bo": 1611,
      "▁produkto": 1612,
      "-a": 1613,
      "▁epek": 1614,
      "wi": 1615,
      "▁review": 1616,
      "▁ugnay": 1617,
      "mer": 1618,
      "▁he": 1619,
      "▁pare": 1620,
      "dia": 1621,
      "▁An": 1622,
      "ds": 1623,
      "bs": 1624,
      "▁Co": 1625,
      "▁tunay": 1626,
      "bot": 1627,
      "▁laban": 1628,
      "▁hirap": 1629,
      "ith": 1630,
      "walan": 1631,
      "ero": 1632,
      "ht": 1633,
      "▁naging": 1634,
      "ulat": 1635,
      "▁naka": 1636,
      "▁bakit": 1637,
      "ll": 1638,
      "▁diyos": 1639,
      "dam": 1640,
      "uan": 1641,
      "▁punta": 1642,
      "▁lalo": 1643,
      "lic": 1644,
      "rg": 1645,
      "▁pati": 1646,
      "▁tawag": 1647,
      "▁com": 1648,
      "ne": 1649,
      "▁ad": 1650,
      "▁balik": 1651,
      "▁tanggap": 1652,
      "▁buti": 1653,
      "▁ho": 1654,
      "▁tak": 1655,
      "▁nais": 1656,
      "▁tanda": 1657,
      "rt": 1658,
      "law": 1659,
      "▁lagay": 1660,
      "▁De": 1661,
      "▁bas": 1662,
      "ram": 1663,
      "ream": 1664,
      "ip": 1665,
      "▁online": 1666,
      "lugan": 1667,
      "pas": 1668,
      "isyon": 1669,
      "ks": 1670,
      "mpa": 1671,
      "ct": 1672,
      "ayag": 1673,
      "inas": 1674,
      "ng-": 1675,
      "▁en": 1676,
      "▁op": 1677,
      "ub": 1678,
      "▁inter": 1679,
      "▁parasito": 1680,
      "▁ben": 1681,
      "▁kar": 1682,
      "onal": 1683,
      "ses": 1684,
      "ura": 1685,
      "▁laraw": 1686,
      "▁10": 1687,
      "▁mat": 1688,
      "und": 1689,
      "▁ton": 1690,
      "tibo": 1691,
      "ites": 1692,
      "ngo": 1693,
      "▁kula": 1694,
      "▁trabaho": 1695,
      "kap": 1696,
      "▁5": 1697,
      "wn": 1698,
      "▁tama": 1699,
      "▁facial": 1700,
      "▁mawalan": 1701,
      "▁mahal": 1702,
      "▁kump": 1703,
      "▁presyo": 1704,
      "▁basa": 1705,
      "▁pe": 1706,
      "▁layo": 1707,
      "▁tat": 1708,
      "▁i-": 1709,
      "du": 1710,
      "▁lam": 1711,
      "▁4": 1712,
      "▁tiyak": 1713,
      "▁mundo": 1714,
      "ant": 1715,
      "ia": 1716,
      "▁nya": 1717,
      "▁dalas": 1718,
      "▁pareho": 1719,
      "naw": 1720,
      "▁lig": 1721,
      "▁bulate": 1722,
      "deo": 1723,
      "bok": 1724,
      "ile": 1725,
      "va": 1726,
      "▁pasok": 1727,
      "▁ayos": 1728,
      "ber": 1729,
      "ular": 1730,
      "▁ikaw": 1731,
      "gat": 1732,
      "ding": 1733,
      "▁plan": 1734,
      "▁ulo": 1735,
      "▁bis": 1736,
      "▁harap": 1737,
      "tay": 1738,
      "▁isa": 1739,
      "▁kat": 1740,
      "▁lik": 1741,
      "▁mis": 1742,
      "ork": 1743,
      "iwan": 1744,
      "▁huli": 1745,
      "ure": 1746,
      "age": 1747,
      "lak": 1748,
      "gas": 1749,
      "▁pilipinas": 1750,
      "gos": 1751,
      "▁balat": 1752,
      "▁sc": 1753,
      "▁sin": 1754,
      "▁ca": 1755,
      "ue": 1756,
      "▁cas": 1757,
      "ress": 1758,
      "was": 1759,
      "▁mag-": 1760,
      "kod": 1761,
      "▁sulat": 1762,
      "▁lagi": 1763,
      "lidad": 1764,
      "▁tubig": 1765,
      "▁bato": 1766,
      "ug": 1767,
      "▁damdam": 1768,
      "▁ling": 1769,
      "▁maka": 1770,
      "-1": 1771,
      "▁The": 1772,
      "▁sag": 1773,
      "rd": 1774,
      "▁suri": 1775,
      "ren": 1776,
      "▁wika": 1777,
      "▁that": 1778,
      "raniwan": 1779,
      "▁milya": 1780,
      "▁muli": 1781,
      "▁karaniwan": 1782,
      "▁salita": 1783,
      "▁'": 1784,
      "▁So": 1785,
      "mit": 1786,
      "▁epekto": 1787,
      "mon": 1788,
      "▁kasal": 1789,
      "natili": 1790,
      "▁unahin": 1791,
      "▁tanong": 1792,
      "kot": 1793,
      "ost": 1794,
      "▁car": 1795,
      "ring": 1796,
      "ort": 1797,
      "mbawa": 1798,
      "▁00": 1799,
      "▁app": 1800,
      "▁proble": 1801,
      "lam": 1802,
      "▁pera": 1803,
      "tom": 1804,
      "▁posi": 1805,
      "▁pre": 1806,
      "▁halimbawa": 1807,
      "▁saya": 1808,
      "▁with": 1809,
      "ill": 1810,
      "yer": 1811,
      "▁Mar": 1812,
      "▁kapa": 1813,
      "▁buwan": 1814,
      "▁19": 1815,
      "og": 1816,
      "▁mar": 1817,
      "▁parasites": 1818,
      "hiya": 1819,
      "▁tangi": 1820,
      "▁iba": 1821,
      "ulta": 1822,
      "▁tagal": 1823,
      "uni": 1824,
      "▁kaysa": 1825,
      "▁Ng": 1826,
      "uku": 1827,
      "ep": 1828,
      "▁kaso": 1829,
      "wento": 1830,
      "▁handa": 1831,
      "▁bayad": 1832,
      "rus": 1833,
      "▁huwag": 1834,
      "▁tin": 1835,
      "▁taba": 1836,
      "ser": 1837,
      "▁lang": 1838,
      "▁ilan": 1839,
      "▁likha": 1840,
      "yu": 1841,
      "▁gas": 1842,
      "▁Ngunit": 1843,
      "▁sari": 1844,
      "▁wa": 1845,
      "▁ulan": 1846,
      "ome": 1847,
      "end": 1848,
      "▁lapit": 1849,
      "sid": 1850,
      "ted": 1851,
      "ming": 1852,
      "wer": 1853,
      "rang": 1854,
      "▁iwas": 1855,
      "usap": 1856,
      "▁sanay": 1857,
      "ump": 1858,
      "▁kayo": 1859,
      "▁serb": 1860,
      "▁hing": 1861,
      "▁bayan": 1862,
      "▁libre": 1863,
      "▁are": 1864,
      "▁linggo": 1865,
      "▁ligtas": 1866,
      "▁video": 1867,
      "▁agad": 1868,
      "usog": 1869,
      "▁alok": 1870,
      "ak": 1871,
      "ge": 1872,
      "▁prog": 1873,
      "▁kom": 1874,
      "▁imporm": 1875,
      "▁serbisyo": 1876,
      "nasan": 1877,
      "▁rito": 1878,
      "▁pina": 1879,
      "all": 1880,
      "▁asawa": 1881,
      "▁aw": 1882,
      "pes": 1883,
      "▁sho": 1884,
      "▁mama": 1885,
      "kop": 1886,
      "rol": 1887,
      "ni": 1888,
      "▁impormasyon": 1889,
      "▁face": 1890,
      "▁subok": 1891,
      "ery": 1892,
      "▁Fa": 1893,
      "▁problema": 1894,
      "▁maga": 1895,
      "sik": 1896,
      "▁ki": 1897,
      "kta": 1898,
      "▁kan": 1899,
      "san": 1900,
      "▁kont": 1901,
      "ell": 1902,
      "pad": 1903,
      "igil": 1904,
      "ca": 1905,
      "▁sigu": 1906,
      "use": 1907,
      "seso": 1908,
      "▁202": 1909,
      "▁lusog": 1910,
      "▁negos": 1911,
      "▁ing": 1912,
      "yado": 1913,
      "cy": 1914,
      "sta": 1915,
      "▁sp": 1916,
      "▁Ca": 1917,
      "ood": 1918,
      "▁gol": 1919,
      "tura": 1920,
      "wanag": 1921,
      "▁ke": 1922,
      "▁daw": 1923,
      "aw": 1924,
      "isi": 1925,
      "▁tala": 1926,
      "ree": 1927,
      "kad": 1928,
      "▁puno": 1929,
      "bang": 1930,
      "▁lupa": 1931,
      "▁resulta": 1932,
      "▁up": 1933,
      "▁ani": 1934,
      "ft": 1935,
      "▁alaga": 1936,
      "▁was": 1937,
      "▁halos": 1938,
      "▁tug": 1939,
      "▁sagot": 1940,
      "▁kun": 1941,
      "sion": 1942,
      "▁tatlo": 1943,
      "ty": 1944,
      "▁He": 1945,
      "lung": 1946,
      "▁Al": 1947,
      "ton": 1948,
      "▁abot": 1949,
      "itu": 1950,
      "pan": 1951,
      "▁inyo": 1952,
      "hili": 1953,
      "▁hin": 1954,
      "ction": 1955,
      "op": 1956,
      "▁taya": 1957,
      "▁batay": 1958,
      "▁pana": 1959,
      "cal": 1960,
      "▁cream": 1961,
      "▁Ba": 1962,
      "▁ting": 1963,
      "too": 1964,
      "▁tiyan": 1965,
      "hok": 1966,
      "▁linis": 1967,
      "▁Q": 1968,
      "gid": 1969,
      "iz": 1970,
      "ron": 1971,
      "koy": 1972,
      "▁bang": 1973,
      "ere": 1974,
      "ril": 1975,
      "▁init": 1976,
      "usa": 1977,
      "▁lawak": 1978,
      "hen": 1979,
      "▁tran": 1980,
      "be": 1981,
      "ord": 1982,
      "▁bawas": 1983,
      "min": 1984,
      "▁benta": 1985,
      "gawa": 1986,
      "▁alan": 1987,
      "▁posible": 1988,
      "ilip": 1989,
      "-s": 1990,
      "rama": 1991,
      "▁St": 1992,
      "▁can": 1993,
      "▁gaano": 1994,
      "▁ek": 1995,
      "▁ganito": 1996,
      "yemb": 1997,
      "▁hayag": 1998,
      "▁hina": 1999,
      "▁lakas": 2000,
      "▁tukoy": 2001,
      "ps": 2002,
      "▁Jo": 2003,
      "hilipp": 2004,
      "cess": 2005,
      "▁puso": 2006,
      "▁kulay": 2007,
      "limming": 2008,
      "wede": 2009,
      "▁sang": 2010,
      "▁des": 2011,
      "its": 2012,
      "lus": 2013,
      "oto": 2014,
      "▁bukas": 2015,
      "▁ligid": 2016,
      "ekto": 2017,
      "▁doon": 2018,
      "▁Se": 2019,
      "▁Pro": 2020,
      "▁sarili": 2021,
      "▁ip": 2022,
      "▁Pa": 2023,
      "form": 2024,
      "▁ulat": 2025,
      "▁dire": 2026,
      "ksyon": 2027,
      "▁palit": 2028,
      "dar": 2029,
      "▁Ro": 2030,
      "tala": 2031,
      "▁bre": 2032,
      "ensya": 2033,
      "▁bigyan": 2034,
      "men": 2035,
      "▁negosyo": 2036,
      "bli": 2037,
      "edyo": 2038,
      "▁totoo": 2039,
      "▁your": 2040,
      "▁Yo": 2041,
      "▁casino": 2042,
      "bsite": 2043,
      "tar": 2044,
      "▁Philipp": 2045,
      "ud": 2046,
      "▁tek": 2047,
      "▁pri": 2048,
      "▁sya": 2049,
      "▁awa": 2050,
      "▁12": 2051,
      "lig": 2052,
      "▁fe": 2053,
      "▁gabi": 2054,
      "▁ele": 2055,
      "▁pak": 2056,
      "▁karanasan": 2057,
      "ore": 2058,
      "pro": 2059,
      "eral": 2060,
      "umpay": 2061,
      "▁pula": 2062,
      "▁gana": 2063,
      "ice": 2064,
      "▁CO": 2065,
      "sin": 2066,
      "tik": 2067,
      "▁gastos": 2068,
      "▁by": 2069,
      "▁mer": 2070,
      "son": 2071,
      "▁City": 2072,
      "ose": 2073,
      "▁bisita": 2074,
      "rom": 2075,
      "▁000": 2076,
      "lungan": 2077,
      "▁alala": 2078,
      "▁pagitan": 2079,
      "▁Di": 2080,
      "-c": 2081,
      "▁liwanag": 2082,
      "▁simple": 2083,
      "▁this": 2084,
      "▁6": 2085,
      "era": 2086,
      "▁ali": 2087,
      "▁baka": 2088,
      "paman": 2089,
      "▁Le": 2090,
      "ste": 2091,
      "▁dugo": 2092,
      "port": 2093,
      "▁oper": 2094,
      "yeta": 2095,
      "red": 2096,
      "▁sob": 2097,
      "▁kasaluku": 2098,
      "▁galing": 2099,
      "▁hili": 2100,
      "▁tagumpay": 2101,
      "uter": 2102,
      "▁kasalukuyan": 2103,
      "rink": 2104,
      "▁ri": 2105,
      "hy": 2106,
      "▁qu": 2107,
      "▁sus": 2108,
      "raan": 2109,
      "▁kumpanya": 2110,
      "▁data": 2111,
      "▁out": 2112,
      "unpaman": 2113,
      "▁comp": 2114,
      "▁lub": 2115,
      "▁site": 2116,
      "▁dalawa": 2117,
      "▁mi": 2118,
      "▁No": 2119,
      "ilipino": 2120,
      "count": 2121,
      "▁website": 2122,
      "kado": 2123,
      "rato": 2124,
      "gen": 2125,
      "▁inom": 2126,
      "mm": 2127,
      "tado": 2128,
      "▁Ho": 2129,
      "▁post": 2130,
      "▁mapa": 2131,
      "alth": 2132,
      "ase": 2133,
      "▁surg": 2134,
      "hanan": 2135,
      "yonal": 2136,
      "▁sira": 2137,
      "▁Na": 2138,
      "▁sino": 2139,
      "▁komp": 2140,
      "▁gi": 2141,
      "▁unti": 2142,
      "▁kin": 2143,
      "▁plano": 2144,
      "ard": 2145,
      "ID": 2146,
      "▁diyeta": 2147,
      "▁minsan": 2148,
      "loy": 2149,
      "▁patay": 2150,
      "ence": 2151,
      "kin": 2152,
      "▁15": 2153,
      "▁dok": 2154,
      "▁sobra": 2155,
      "▁men": 2156,
      "▁sabay": 2157,
      "fe": 2158,
      "▁slimming": 2159,
      "ance": 2160,
      "isa": 2161,
      "ven": 2162,
      "ulugan": 2163,
      "▁my": 2164,
      "▁batas": 2165,
      "▁200": 2166,
      "▁usa": 2167,
      "ayat": 2168,
      "enyo": 2169,
      "▁We": 2170,
      "▁table": 2171,
      "▁ind": 2172,
      "load": 2173,
      "▁cha": 2174,
      "▁30": 2175,
      "▁proseso": 2176,
      "▁Con": 2177,
      "▁che": 2178,
      "▁sanhi": 2179,
      "orta": 2180,
      "▁unawa": 2181,
      "kab": 2182,
      "▁tira": 2183,
      "▁pilipino": 2184,
      "▁hawak": 2185,
      "▁bukod": 2186,
      "▁opis": 2187,
      "anib": 2188,
      "▁mamaraan": 2189,
      "▁9": 2190,
      "▁takbo": 2191,
      "'s": 2192,
      "▁Z": 2193,
      "ustomer": 2194,
      "▁Po": 2195,
      "▁hati": 2196,
      "tem": 2197,
      "▁sub": 2198,
      "▁7": 2199,
      "ardia": 2200,
      "▁salik": 2201,
      "▁says": 2202,
      "ld": 2203,
      "▁perso": 2204,
      "▁rela": 2205,
      "▁tungo": 2206,
      "▁kahulugan": 2207,
      "▁ab": 2208,
      "-pa": 2209,
      "ect": 2210,
      "etal": 2211,
      "dy": 2212,
      "▁surgery": 2213,
      "▁tamp": 2214,
      "▁Bo": 2215,
      "▁mapag": 2216,
      "▁Lo": 2217,
      "▁us": 2218,
      "▁iwala": 2219,
      "tra": 2220,
      "▁programa": 2221,
      "▁gaya": 2222,
      "▁panatili": 2223,
      "otohanan": 2224,
      "▁trans": 2225,
      "▁antas": 2226,
      "ono": 2227,
      "▁reg": 2228,
      "tong": 2229,
      "way": 2230,
      "mina": 2231,
      "▁ama": 2232,
      "ric": 2233,
      "▁lit": 2234,
      "▁katotohanan": 2235,
      "sod": 2236,
      "▁Be": 2237,
      "▁go": 2238,
      "▁sangkap": 2239,
      "ight": 2240,
      "▁gayon": 2241,
      "▁bar": 2242,
      "ridad": 2243,
      "▁disenyo": 2244,
      "▁kundi": 2245,
      "▁panga": 2246,
      "▁mali": 2247,
      "▁saysay": 2248,
      "pen": 2249,
      "book": 2250,
      "wid": 2251,
      "wat": 2252,
      "▁ulit": 2253,
      "ces": 2254,
      "tural": 2255,
      "▁account": 2256,
      "▁lipat": 2257,
      "▁siste": 2258,
      "▁tulungan": 2259,
      "▁pali": 2260,
      "▁Gay": 2261,
      "▁sapat": 2262,
      "lohiya": 2263,
      "tok": 2264,
      "▁8": 2265,
      "git": 2266,
      "▁tampok": 2267,
      "rado": 2268,
      "kipag": 2269,
      "mis": 2270,
      "bog": 2271,
      "kano": 2272,
      "ngya": 2273,
      "▁sto": 2274,
      "▁hakab": 2275,
      "▁Go": 2276,
      "ins": 2277,
      "▁lala": 2278,
      "ras": 2279,
      "rinkles": 2280,
      "▁noon": 2281,
      "ystem": 2282,
      "▁dami": 2283,
      "▁lan": 2284,
      "unlad": 2285,
      "rk": 2286,
      "▁not": 2287,
      "▁Me": 2288,
      "▁panganib": 2289,
      "▁nin": 2290,
      "ther": 2291,
      "ans": 2292,
      "▁kal": 2293,
      "▁linaw": 2294,
      "▁galaw": 2295,
      "kina": 2296,
      "puan": 2297,
      "ze": 2298,
      "▁muna": 2299,
      "▁bai": 2300,
      "▁halaman": 2301,
      "▁solo": 2302,
      "▁pi": 2303,
      "tive": 2304,
      "ner": 2305,
      "▁angkop": 2306,
      "▁kabu": 2307,
      "▁balita": 2308,
      "hing": 2309,
      "▁lipas": 2310,
      "▁mater": 2311,
      "▁puk": 2312,
      "aa": 2313,
      "▁her": 2314,
      "▁kilos": 2315,
      "sidente": 2316,
      "ese": 2317,
      "kti": 2318,
      "▁edad": 2319,
      "▁Gayunpaman": 2320,
      "▁saliksik": 2321,
      "▁takot": 2322,
      "fi": 2323,
      "▁Li": 2324,
      "▁tagpuan": 2325,
      "▁Face": 2326,
      "pir": 2327,
      "reen": 2328,
      "▁tuk": 2329,
      "▁ninyo": 2330,
      "▁pansin": 2331,
      "ista": 2332,
      "▁sistema": 2333,
      "▁yun": 2334,
      "▁indi": 2335,
      "▁turo": 2336,
      "ach": 2337,
      "▁ag": 2338,
      "▁raw": 2339,
      "▁customer": 2340,
      "ten": 2341,
      "hina": 2342,
      "ER": 2343,
      "▁Ch": 2344,
      "▁nami": 2345,
      "▁langis": 2346,
      "▁sig": 2347,
      "▁num": 2348,
      "▁gili": 2349,
      "▁ik": 2350,
      "▁tingin": 2351,
      "▁And": 2352,
      "▁wrinkles": 2353,
      "▁ins": 2354,
      "▁from": 2355,
      "lid": 2356,
      "mas": 2357,
      "▁Do": 2358,
      "▁plas": 2359,
      "kala": 2360,
      "bas": 2361,
      "tibong": 2362,
      "by": 2363,
      "cer": 2364,
      "▁kap": 2365,
      "▁medyo": 2366,
      "uro": 2367,
      "rup": 2368,
      "▁bes": 2369,
      "▁bigla": 2370,
      "mail": 2371,
      "▁arti": 2372,
      "▁Ex": 2373,
      "▁tinag": 2374,
      "▁sarap": 2375,
      "ries": 2376,
      "▁Com": 2377,
      "sak": 2378,
      "▁kalakal": 2379,
      "pto": 2380,
      "▁buhok": 2381,
      "ating": 2382,
      "▁likas": 2383,
      "-19": 2384,
      "ines": 2385,
      "ngyari": 2386,
      "ves": 2387,
      "rte": 2388,
      "IN": 2389,
      "▁tugon": 2390,
      "▁11": 2391,
      "▁patid": 2392,
      "▁sek": 2393,
      "▁Vi": 2394,
      "▁Un": 2395,
      "▁personal": 2396,
      "yente": 2397,
      "unan": 2398,
      "▁pab": 2399,
      "fa": 2400,
      "ngkot": 2401,
      "▁tulog": 2402,
      "hala": 2403,
      "▁mang": 2404,
      "▁tawa": 2405,
      "low": 2406,
      "▁Sa": 2407,
      "▁antala": 2408,
      "uto": 2409,
      "▁sala": 2410,
      "▁bunt": 2411,
      "▁US": 2412,
      "▁media": 2413,
      "▁mismo": 2414,
      "▁liga": 2415,
      "▁Gi": 2416,
      "▁have": 2417,
      "▁yan": 2418,
      "let": 2419,
      "▁lung": 2420,
      "ket": 2421,
      "hang": 2422,
      "▁Ha": 2423,
      "▁payag": 2424,
      "▁gay": 2425,
      "▁breast": 2426,
      "part": 2427,
      "ator": 2428,
      "▁buntis": 2429,
      "likula": 2430,
      "▁100": 2431,
      "▁atay": 2432,
      "▁gin": 2433,
      "mento": 2434,
      "pel": 2435,
      "una": 2436,
      "and": 2437,
      "▁pelikula": 2438,
      "▁prote": 2439,
      "▁dulot": 2440,
      "oy": 2441,
      "▁lungsod": 2442,
      "▁ila": 2443,
      "▁salam": 2444,
      "▁supor": 2445,
      "▁nood": 2446,
      "▁beses": 2447,
      "▁eh": 2448,
      "VID": 2449,
      "▁pagka": 2450,
      "irc": 2451,
      "▁apat": 2452,
      "▁uta": 2453,
      "▁abo": 2454,
      "▁sikat": 2455,
      "▁indust": 2456,
      "▁all": 2457,
      "▁ber": 2458,
      "▁bin": 2459,
      "▁lista": 2460,
      "▁kina": 2461,
      "▁ye": 2462,
      "ition": 2463,
      "▁New": 2464,
      "bon": 2465,
      "▁time": 2466,
      "▁18": 2467,
      "▁tip": 2468,
      "int": 2469,
      "▁suot": 2470,
      "vel": 2471,
      "▁isyu": 2472,
      "▁lag": 2473,
      "▁puti": 2474,
      "hone": 2475,
      "▁Te": 2476,
      "▁Ar": 2477,
      "▁por": 2478,
      "▁alin": 2479,
      "▁COVID": 2480,
      "ign": 2481,
      "▁tila": 2482,
      "▁baga": 2483,
      "▁mode": 2484,
      "tions": 2485,
      "war": 2486,
      "▁labis": 2487,
      "ungan": 2488,
      "very": 2489,
      "▁Mag": 2490,
      "▁mus": 2491,
      "▁natural": 2492,
      "kulo": 2493,
      "za": 2494,
      "▁net": 2495,
      "ngyarihan": 2496,
      "utan": 2497,
      "-p": 2498,
      "zon": 2499,
      "▁nara": 2500,
      "▁tim": 2501,
      "▁laya": 2502,
      "walay": 2503,
      "▁lima": 2504,
      "usan": 2505,
      "▁don": 2506,
      "▁kla": 2507,
      "tomas": 2508,
      "agda": 2509,
      "▁tindi": 2510,
      "rip": 2511,
      "ryo": 2512,
      "reat": 2513,
      "▁bil": 2514,
      "work": 2515,
      "▁hintay": 2516,
      "land": 2517,
      "net": 2518,
      "▁0": 2519,
      "▁masyado": 2520,
      "▁turing": 2521,
      "itaw": 2522,
      "▁sintomas": 2523,
      "▁tupad": 2524,
      "-2": 2525,
      "enter": 2526,
      "▁hapon": 2527,
      "▁organ": 2528,
      "▁siguro": 2529,
      "▁but": 2530,
      "▁kaba": 2531,
      "irst": 2532,
      "▁You": 2533,
      "partment": 2534,
      "▁int": 2535,
      "▁relasyon": 2536,
      "▁lim": 2537,
      "▁To": 2538,
      "bid": 2539,
      "▁suporta": 2540,
      "agdagan": 2541,
      "▁tal": 2542,
      "AN": 2543,
      "ef": 2544,
      "▁will": 2545,
      "kan": 2546,
      "tina": 2547,
      "wnload": 2548,
      "igh": 2549,
      "his": 2550,
      "ulan": 2551,
      "▁tuto": 2552,
      "▁pul": 2553,
      "▁oo": 2554,
      "ria": 2555,
      "▁kalidad": 2556,
      "▁Filipino": 2557,
      "ilit": 2558,
      "▁kapangyarihan": 2559,
      "xt": 2560,
      "▁supp": 2561,
      "▁Inter": 2562,
      "▁artikulo": 2563,
      "vice": 2564,
      "riya": 2565,
      "esa": 2566,
      "▁system": 2567,
      "▁Ta": 2568,
      "hers": 2569,
      "uhan": 2570,
      "▁ter": 2571,
      "▁opisyal": 2572,
      "▁sukat": 2573,
      "rupo": 2574,
      "tan": 2575,
      "con": 2576,
      "ise": 2577,
      "▁grupo": 2578,
      "▁pigil": 2579,
      "▁ide": 2580,
      "yerno": 2581,
      "▁As": 2582,
      "▁kulang": 2583,
      "▁isda": 2584,
      "▁tele": 2585,
      "sala": 2586,
      "▁karagdagan": 2587,
      "enti": 2588,
      "▁our": 2589,
      "uth": 2590,
      "ire": 2591,
      "▁takda": 2592,
      "mat": 2593,
      "▁kuwento": 2594,
      "▁papel": 2595,
      "▁hiwalay": 2596,
      "▁gob": 2597,
      "▁Car": 2598,
      "▁Da": 2599,
      "oney": 2600,
      "▁tinig": 2601,
      "kipag-": 2602,
      "▁sundo": 2603,
      "▁Mo": 2604,
      "ukan": 2605,
      "▁partik": 2606,
      "▁tanggal": 2607,
      "▁tekno": 2608,
      "▁anti": 2609,
      "▁tubo": 2610,
      "dis": 2611,
      "▁partikular": 2612,
      "ormal": 2613,
      "▁Lu": 2614,
      "▁bon": 2615,
      "▁bro": 2616,
      "▁ikli": 2617,
      "tel": 2618,
      "▁kole": 2619,
      "▁off": 2620,
      "AR": 2621,
      "chine": 2622,
      "has": 2623,
      "▁proy": 2624,
      "▁publi": 2625,
      "▁payo": 2626,
      "▁Par": 2627,
      "▁hinga": 2628,
      "▁proyekto": 2629,
      "▁banggit": 2630,
      "hhhh": 2631,
      "ktima": 2632,
      "▁order": 2633,
      "pital": 2634,
      "▁komuni": 2635,
      "bag": 2636,
      "hool": 2637,
      "▁upo": 2638,
      "▁biktima": 2639,
      "▁industriya": 2640,
      "etro": 2641,
      "lick": 2642,
      "▁iwan": 2643,
      "▁social": 2644,
      "▁hatid": 2645,
      "▁dig": 2646,
      "▁itlog": 2647,
      "ms": 2648,
      "▁hari": 2649,
      "onomi": 2650,
      "ning": 2651,
      "▁25": 2652,
      "▁publiko": 2653,
      "▁pulis": 2654,
      "▁COVID-19": 2655,
      "▁day": 2656,
      "▁medi": 2657,
      "▁sit": 2658,
      "▁bala": 2659,
      "fri": 2660,
      "▁dinig": 2661,
      "-e": 2662,
      "▁ok": 2663,
      "▁lun": 2664,
      "▁Cha": 2665,
      "bong": 2666,
      "vers": 2667,
      "▁hulugan": 2668,
      "▁pop": 2669,
      "inst": 2670,
      "▁bus": 2671,
      "hatan": 2672,
      "▁fo": 2673,
      "rit": 2674,
      "hiyon": 2675,
      "▁pasa": 2676,
      "yante": 2677,
      "▁teknolohiya": 2678,
      "tat": 2679,
      "ational": 2680,
      "▁kalahatan": 2681,
      "eri": 2682,
      "▁she": 2683,
      "▁pinsala": 2684,
      "▁turan": 2685,
      "▁pet": 2686,
      "siya": 2687,
      "▁milyon": 2688,
      "▁matay": 2689,
      "▁damit": 2690,
      "▁14": 2691,
      "▁bawal": 2692,
      "ctor": 2693,
      "siyon": 2694,
      "▁check": 2695,
      "▁13": 2696,
      "__": 2697,
      "lack": 2698,
      "▁Sec": 2699,
      "▁lak": 2700,
      "▁work": 2701,
      "▁form": 2702,
      "▁On": 2703,
      "▁tuwi": 2704,
      "▁espes": 2705,
      "esti": 2706,
      "▁hits": 2707,
      "ally": 2708,
      "dor": 2709,
      "▁plastic": 2710,
      "uporta": 2711,
      "▁Giardia": 2712,
      "▁hanga": 2713,
      "inip": 2714,
      "▁sing": 2715,
      "yembro": 2716,
      "▁ingat": 2717,
      "▁higpit": 2718,
      "▁uwi": 2719,
      "▁lamat": 2720,
      "sy": 2721,
      "▁tula": 2722,
      "say": 2723,
      "▁anim": 2724,
      "▁git": 2725,
      "▁pagkat": 2726,
      "▁tigil": 2727,
      "▁card": 2728,
      "▁hitsura": 2729,
      "bado": 2730,
      "mpre": 2731,
      "wit": 2732,
      "▁ipina": 2733,
      "▁lakad": 2734,
      "▁gra": 2735,
      "▁detal": 2736,
      "ture": 2737,
      "naginip": 2738,
      "rangay": 2739,
      "▁show": 2740,
      "▁litaw": 2741,
      "▁gawi": 2742,
      "▁paa": 2743,
      "▁lamig": 2744,
      "▁doktor": 2745,
      "ded": 2746,
      "▁temp": 2747,
      "▁nakaka": 2748,
      "ray": 2749,
      "ments": 2750,
      "bilidad": 2751,
      "alang": 2752,
      "▁pilit": 2753,
      "ware": 2754,
      "dio": 2755,
      "▁En": 2756,
      "▁sec": 2757,
      "▁halip": 2758,
      "▁propes": 2759,
      "sasa": 2760,
      "▁miyembro": 2761,
      "▁hayo": 2762,
      "ations": 2763,
      "▁puksa": 2764,
      "▁16": 2765,
      "▁yaman": 2766,
      "▁hayop": 2767,
      "▁sakyan": 2768,
      "▁base": 2769,
      "esus": 2770,
      "▁opera": 2771,
      "▁hanay": 2772,
      "▁sha": 2773,
      "▁kali": 2774,
      "▁kontrol": 2775,
      "ous": 2776,
      "bile": 2777,
      "hersisyo": 2778,
      "here": 2779,
      "▁ayaw": 2780,
      "ondo": 2781,
      "atak": 2782,
      "▁pwede": 2783,
      "wasyon": 2784,
      "latform": 2785,
      "▁50": 2786,
      "▁gitna": 2787,
      "▁circ": 2788,
      "▁sigurado": 2789,
      "▁gobyerno": 2790,
      "ish": 2791,
      "▁merkado": 2792,
      "▁sakit": 2793,
      "▁ehersisyo": 2794,
      "▁reci": 2795,
      "pekto": 2796,
      "tud": 2797,
      "kla": 2798,
      "▁ap": 2799,
      "▁luwa": 2800,
      "▁likod": 2801,
      "karte": 2802,
      "▁lakbay": 2803,
      "'t": 2804,
      "▁La": 2805,
      "▁email": 2806,
      "▁more": 2807,
      "▁nag-": 2808,
      "date": 2809,
      "▁rep": 2810,
      "▁year": 2811,
      "▁bonus": 2812,
      "▁ener": 2813,
      "▁slot": 2814,
      "▁eye": 2815,
      "▁For": 2816,
      "-alang": 2817,
      "yas": 2818,
      "ugh": 2819,
      "▁numero": 2820,
      "▁24": 2821,
      "yembre": 2822,
      "ily": 2823,
      "▁usapan": 2824,
      "▁kwento": 2825,
      "rating": 2826,
      "ospital": 2827,
      "▁Inst": 2828,
      "▁sitwasyon": 2829,
      "ents": 2830,
      "▁Sc": 2831,
      "hit": 2832,
      "alang-alang": 2833,
      "giran": 2834,
      "▁him": 2835,
      "ilan": 2836,
      "yag": 2837,
      "▁hel": 2838,
      "▁sel": 2839,
      "hip": 2840,
      "▁Philippines": 2841,
      "ros": 2842,
      "▁mon": 2843,
      "▁isina": 2844,
      "▁Cas": 2845,
      "watig": 2846,
      "▁na-": 2847,
      "▁siga": 2848,
      "now": 2849,
      "gali": 2850,
      "eter": 2851,
      "tary": 2852,
      "▁high": 2853,
      "katu": 2854,
      "▁mobile": 2855,
      "▁inst": 2856,
      "▁tuon": 2857,
      "lie": 2858,
      "▁sikap": 2859,
      "▁wor": 2860,
      "▁Ra": 2861,
      "▁machine": 2862,
      "▁kris": 2863,
      "▁imb": 2864,
      "lar": 2865,
      "▁love": 2866,
      "▁talo": 2867,
      "mos": 2868,
      "▁It": 2869,
      "day": 2870,
      "yempre": 2871,
      "lock": 2872,
      "i-": 2873,
      "▁tuwa": 2874,
      "▁aniya": 2875,
      "▁klase": 2876,
      "▁daig": 2877,
      "▁magkano": 2878,
      "kaya": 2879,
      "▁law": 2880,
      "▁lokal": 2881,
      "ide": 2882,
      "▁Gu": 2883,
      "EN": 2884,
      "iso": 2885,
      "▁hingi": 2886,
      "lia": 2887,
      "kinabang": 2888,
      "▁tun": 2889,
      "▁estado": 2890,
      "▁Wil": 2891,
      "▁TV": 2892,
      "▁tapat": 2893,
      "▁Ad": 2894,
      "-C": 2895,
      "▁Philippine": 2896,
      "▁panaginip": 2897,
      "hel": 2898,
      "▁pla": 2899,
      "ON": 2900,
      "▁platform": 2901,
      "sia": 2902,
      "AT": 2903,
      "host": 2904,
      "ater": 2905,
      "▁kg": 2906,
      "mber": 2907,
      "▁lubos": 2908,
      "ated": 2909,
      "▁new": 2910,
      "▁desisyon": 2911,
      "▁ugali": 2912,
      "ante": 2913,
      "▁naka-": 2914,
      "▁kalam": 2915,
      "▁paligiran": 2916,
      "▁babaw": 2917,
      "atiko": 2918,
      "▁Ja": 2919,
      "ham": 2920,
      "ja": 2921,
      "▁minuto": 2922,
      "ports": 2923,
      "▁luto": 2924,
      "▁sunog": 2925,
      "dya": 2926,
      "for": 2927,
      "▁art": 2928,
      "▁Is": 2929,
      "ving": 2930,
      "orya": 2931,
      "kip": 2932,
      "lakay": 2933,
      "▁spe": 2934,
      "bil": 2935,
      "▁espesyal": 2936,
      "▁tri": 2937,
      "▁kul": 2938,
      "uld": 2939,
      "ES": 2940,
      "▁anyo": 2941,
      "▁uod": 2942,
      "▁dri": 2943,
      "▁tago": 2944,
      "bat": 2945,
      "▁eks": 2946,
      "▁X": 2947,
      "ene": 2948,
      "▁nung": 2949,
      "rac": 2950,
      "▁tuklas": 2951,
      "▁pala": 2952,
      "▁one": 2953,
      "▁pondo": 2954,
      "dig": 2955,
      "▁linya": 2956,
      "lice": 2957,
      "▁sil": 2958,
      "▁tool": 2959,
      "lish": 2960,
      "bal": 2961,
      "▁App": 2962,
      "▁pir": 2963,
      "▁tiwala": 2964,
      "▁diskarte": 2965,
      "▁lunas": 2966,
      "▁sulo": 2967,
      "kuna": 2968,
      "▁segu": 2969,
      "sing": 2970,
      "▁lago": 2971,
      "itibo": 2972,
      "kol": 2973,
      "▁about": 2974,
      "tt": 2975,
      "lub": 2976,
      "▁alog": 2977,
      "uterte": 2978,
      "ght": 2979,
      "ets": 2980,
      "yn": 2981,
      "▁suba": 2982,
      "▁recipe": 2983,
      "▁pag-unlad": 2984,
      "▁apa": 2985,
      "▁gro": 2986,
      "▁tibay": 2987,
      "▁gulo": 2988,
      "gg": 2989,
      "▁Sup": 2990,
      "▁his": 2991,
      "▁tap": 2992,
      "▁eduk": 2993,
      "▁Nag": 2994,
      "▁kapwa": 2995,
      "▁hango": 2996,
      "rabaho": 2997,
      "io": 2998,
      "lop": 2999,
      "▁liban": 3000,
      "▁cont": 3001,
      "ik": 3002,
      "▁perpekto": 3003,
      "▁edukasyon": 3004,
      "ulasyon": 3005,
      "▁bakuna": 3006,
      "bit": 3007,
      "▁Duterte": 3008,
      "▁ideya": 3009,
      "▁depen": 3010,
      "▁kalat": 3011,
      "pal": 3012,
      "▁Ang": 3013,
      "▁benep": 3014,
      "bol": 3015,
      "▁17": 3016,
      "▁live": 3017,
      "▁gatas": 3018,
      "▁pabor": 3019,
      "▁ori": 3020,
      "▁National": 3021,
      "▁kailan": 3022,
      "que": 3023,
      "mang": 3024,
      "lip": 3025,
      "▁ikot": 3026,
      "▁pangarap": 3027,
      "rate": 3028,
      "▁Dr": 3029,
      "▁network": 3030,
      "rist": 3031,
      "▁Ac": 3032,
      "ion": 3033,
      "▁back": 3034,
      "▁paki": 3035,
      "▁ekonomi": 3036,
      "su": 3037,
      "▁takad": 3038,
      "▁add": 3039,
      "lication": 3040,
      "vo": 3041,
      "▁tabi": 3042,
      "dot": 3043,
      "ee": 3044,
      "▁tunton": 3045,
      "fic": 3046,
      "erat": 3047,
      "hintu": 3048,
      "▁implan": 3049,
      "▁aso": 3050,
      "▁Facebook": 3051,
      "▁tahan": 3052,
      "▁spot": 3053,
      "▁keto": 3054,
      "▁kli": 3055,
      "oo": 3056,
      "bre": 3057,
      "kasyon": 3058,
      "▁tahi": 3059,
      "▁kapaki": 3060,
      "▁kawal": 3061,
      "▁akti": 3062,
      "download": 3063,
      "▁Qu": 3064,
      "install": 3065,
      "logy": 3066,
      "lina": 3067,
      "ful": 3068,
      "▁haya": 3069,
      "tatrabaho": 3070,
      "hn": 3071,
      "ale": 3072,
      "▁mura": 3073,
      "▁mensa": 3074,
      "▁ah": 3075,
      "▁halo": 3076,
      "tain": 3077,
      "fer": 3078,
      "ital": 3079,
      "▁sakop": 3080,
      "che": 3081,
      "wis": 3082,
      "▁Department": 3083,
      "ismo": 3084,
      "hist": 3085,
      "▁subalit": 3086,
      "nel": 3087,
      "▁kamp": 3088,
      "old": 3089,
      "hayag": 3090,
      "▁kailanman": 3091,
      "haha": 3092,
      "usyon": 3093,
      "bidwal": 3094,
      "▁pino": 3095,
      "▁regular": 3096,
      "▁bigat": 3097,
      "▁mensahe": 3098,
      "OR": 3099,
      "▁daigdig": 3100,
      "warto": 3101,
      "▁ma-": 3102,
      "arch": 3103,
      "▁pot": 3104,
      "▁gilid": 3105,
      "-pakinabang": 3106,
      "gy": 3107,
      "▁bags": 3108,
      "▁ata": 3109,
      "gis": 3110,
      "▁Air": 3111,
      "▁kapaki-pakinabang": 3112,
      "cos": 3113,
      "▁darating": 3114,
      "▁prin": 3115,
      "ness": 3116,
      "▁respon": 3117,
      "▁first": 3118,
      "▁nut": 3119,
      "▁Off": 3120,
      "AL": 3121,
      "val": 3122,
      "wang": 3123,
      "▁enerhiya": 3124,
      "▁wakas": 3125,
      "▁crus": 3126,
      "mik": 3127,
      "▁galit": 3128,
      "▁set": 3129,
      "▁normal": 3130,
      "ult": 3131,
      "▁hugas": 3132,
      "fter": 3133,
      "▁konde": 3134,
      "ason": 3135,
      "▁who": 3136,
      "▁health": 3137,
      "▁How": 3138,
      "▁Ka": 3139,
      "▁Min": 3140,
      "▁gula": 3141,
      "▁sex": 3142,
      "▁indibidwal": 3143,
      "tol": 3144,
      "▁sur": 3145,
      "umento": 3146,
      "▁bati": 3147,
      "▁circles": 3148,
      "▁benepisyo": 3149,
      "▁detalye": 3150,
      "pin": 3151,
      "▁pok": 3152,
      "▁fol": 3153,
      "▁sina": 3154,
      "▁taga": 3155,
      "eksyon": 3156,
      "▁like": 3157,
      "▁hang": 3158,
      "▁nob": 3159,
      "mpas": 3160,
      "▁jesus": 3161,
      "▁Wor": 3162,
      "▁puwede": 3163,
      "▁subukan": 3164,
      "▁positibo": 3165,
      "cle": 3166,
      "▁punto": 3167,
      "▁pindot": 3168,
      "▁limit": 3169,
      "bidad": 3170,
      "agram": 3171,
      "▁kultura": 3172,
      "▁lungkot": 3173,
      "▁sta": 3174,
      "▁over": 3175,
      "EC": 3176,
      "▁gabay": 3177,
      "duc": 3178,
      "▁40": 3179,
      "▁blog": 3180,
      "▁labi": 3181,
      "▁tinda": 3182,
      "▁Fran": 3183,
      "▁direkta": 3184,
      "sagawa": 3185,
      "▁z": 3186,
      "▁Pe": 3187,
      "▁litrato": 3188,
      "▁cell": 3189,
      "▁sena": 3190,
      "tiv": 3191,
      "lino": 3192,
      "▁laba": 3193,
      "▁Rus": 3194,
      "kuku": 3195,
      "yales": 3196,
      "ration": 3197,
      "▁team": 3198,
      "▁soft": 3199,
      "daman": 3200,
      "▁ist": 3201,
      "ranas": 3202,
      "▁akala": 3203,
      "bel": 3204,
      "▁Tra": 3205,
      "inoon": 3206,
      "▁dagat": 3207,
      "iness": 3208,
      "ret": 3209,
      "dro": 3210,
      "▁silic": 3211,
      "▁tigas": 3212,
      "▁lawa": 3213,
      "▁panginoon": 3214,
      "▁iyan": 3215,
      "▁Pag": 3216,
      "▁aba": 3217,
      "▁ung": 3218,
      "▁aktibidad": 3219,
      "▁2020": 3220,
      "▁paksa": 3221,
      "▁Su": 3222,
      "rak": 3223,
      "rypto": 3224,
      "▁pr": 3225,
      "vern": 3226,
      "▁rate": 3227,
      "my": 3228,
      "pasya": 3229,
      "▁Ne": 3230,
      "vin": 3231,
      "iko": 3232,
      "tory": 3233,
      "▁malay": 3234,
      "daan": 3235,
      "▁modelo": 3236,
      "mic": 3237,
      "▁Uni": 3238,
      "▁espir": 3239,
      "▁uhay": 3240,
      "urg": 3241,
      "▁diet": 3242,
      "mus": 3243,
      "▁salit": 3244,
      "▁ekonomiya": 3245,
      "▁tanggi": 3246,
      "▁pus": 3247,
      "▁China": 3248,
      "tis": 3249,
      "▁bet": 3250,
      "▁any": 3251,
      "▁metro": 3252,
      "▁sup": 3253,
      "▁makailan": 3254,
      "▁talakay": 3255,
      "katuwid": 3256,
      "hasa": 3257,
      "kayahan": 3258,
      "▁implants": 3259,
      "bet": 3260,
      "▁makatuwid": 3261,
      "sina": 3262,
      "▁fi": 3263,
      "▁eff": 3264,
      "lex": 3265,
      "▁depende": 3266,
      "▁lubha": 3267,
      "▁what": 3268,
      "▁bigo": 3269,
      "▁petsa": 3270,
      "▁bali": 3271,
      "▁rehist": 3272,
      "▁komunidad": 3273,
      "▁palad": 3274,
      "ones": 3275,
      "▁kakayahan": 3276,
      "mpu": 3277,
      "▁pol": 3278,
      "mbak": 3279,
      "▁propesyonal": 3280,
      "cid": 3281,
      "▁akt": 3282,
      "ople": 3283,
      "▁21": 3284,
      "▁kausap": 3285,
      "sum": 3286,
      "▁silbi": 3287,
      "cha": 3288,
      "▁Health": 3289,
      "hati": 3290,
      "▁seguridad": 3291,
      "▁niyo": 3292,
      "▁silid": 3293,
      "▁posisyon": 3294,
      "▁intindi": 3295,
      "▁Mic": 3296,
      "▁dun": 3297,
      "sk": 3298,
      "▁suma": 3299,
      "ramdaman": 3300,
      "▁salamat": 3301,
      "eratura": 3302,
      "ters": 3303,
      "irl": 3304,
      "▁utang": 3305,
      "▁pinto": 3306,
      "▁application": 3307,
      "▁pasyente": 3308,
      "▁aparato": 3309,
      "▁banda": 3310,
      "likasyon": 3311,
      "pono": 3312,
      "▁mayor": 3313,
      "papa": 3314,
      "tilo": 3315,
      "ST": 3316,
      "▁depos": 3317,
      "eni": 3318,
      "▁has": 3319,
      "▁kapit": 3320,
      "▁Online": 3321,
      "▁play": 3322,
      "▁talino": 3323,
      "time": 3324,
      "▁silicone": 3325,
      "led": 3326,
      "yong": 3327,
      "▁ipis": 3328,
      "ala": 3329,
      "itor": 3330,
      "ari": 3331,
      "▁Red": 3332,
      "▁mass": 3333,
      "▁star": 3334,
      "▁honey": 3335,
      "▁they": 3336,
      "fo": 3337,
      "itco": 3338,
      "▁pahintu": 3339,
      "▁apo": 3340,
      "▁lipon": 3341,
      "▁2021": 3342,
      "ary": 3343,
      "▁just": 3344,
      "kipag-usap": 3345,
      "sip": 3346,
      "▁protina": 3347,
      "uty": 3348,
      "▁guro": 3349,
      "▁suspek": 3350,
      "▁wal": 3351,
      "IL": 3352,
      "lon": 3353,
      "pres": 3354,
      "▁serye": 3355,
      "apekto": 3356,
      "ited": 3357,
      "▁mapagkuku": 3358,
      "▁asi": 3359,
      "MA": 3360,
      "akit": 3361,
      "▁rehiyon": 3362,
      "ual": 3363,
      "▁2019": 3364,
      "▁wasto": 3365,
      "▁know": 3366,
      "osis": 3367,
      "▁htt": 3368,
      "▁angat": 3369,
      "▁fil": 3370,
      "him": 3371,
      "access": 3372,
      "▁tist": 3373,
      "ET": 3374,
      "hawa": 3375,
      "▁away": 3376,
      "luhan": 3377,
      "oon": 3378,
      "▁posibilidad": 3379,
      "▁Bre": 3380,
      "▁kur": 3381,
      "▁Chi": 3382,
      "art": 3383,
      "▁materyal": 3384,
      "▁Instagram": 3385,
      "▁free": 3386,
      "▁DO": 3387,
      "▁loka": 3388,
      "▁pagod": 3389,
      "▁interes": 3390,
      "-up": 3391,
      "▁dilim": 3392,
      "mak": 3393,
      "get": 3394,
      "▁hard": 3395,
      "▁kinig": 3396,
      "▁Que": 3397,
      "▁pakita": 3398,
      "▁pinoy": 3399,
      "▁kopon": 3400,
      "itiko": 3401,
      "hu": 3402,
      "urt": 3403,
      "yoso": 3404,
      "ement": 3405,
      "pot": 3406,
      "▁espiritu": 3407,
      "▁Eng": 3408,
      "▁pribado": 3409,
      "▁pagsasa": 3410,
      "▁Gam": 3411,
      "▁dro": 3412,
      "▁lahok": 3413,
      "▁tistis": 3414,
      "▁nanaw": 3415,
      "▁bersyon": 3416,
      "▁reli": 3417,
      "▁screen": 3418,
      "less": 3419,
      "▁bun": 3420,
      "tri": 3421,
      "ball": 3422,
      "pak": 3423,
      "▁PN": 3424,
      "itik": 3425,
      "ban": 3426,
      "ato": 3427,
      "▁ligaya": 3428,
      "gol": 3429,
      "▁under": 3430,
      "▁siyempre": 3431,
      "▁dark": 3432,
      "kom": 3433,
      "▁school": 3434,
      "▁part": 3435,
      "▁telepono": 3436,
      "ical": 3437,
      "ond": 3438,
      "▁Ke": 3439,
      "▁Win": 3440,
      "▁bita": 3441,
      "▁bisa": 3442,
      "br": 3443,
      "▁Gen": 3444,
      "▁hy": 3445,
      "ny": 3446,
      "▁if": 3447,
      "▁tagu": 3448,
      "▁host": 3449,
      "undin": 3450,
      "tad": 3451,
      "▁hantong": 3452,
      "dow": 3453,
      "dan": 3454,
      "▁asahan": 3455,
      "▁buto": 3456,
      "▁cam": 3457,
      "▁Fe": 3458,
      "▁computer": 3459,
      "unod": 3460,
      "ogle": 3461,
      "tudyante": 3462,
      "▁saklaw": 3463,
      "friend": 3464,
      "▁bibig": 3465,
      "▁tahimik": 3466,
      "esto": 3467,
      "ody": 3468,
      "▁daloy": 3469,
      "▁hilig": 3470,
      "tiko": 3471,
      "▁software": 3472,
      "tics": 3473,
      "aso": 3474,
      "▁bagsak": 3475,
      "▁Ju": 3476,
      "itcoin": 3477,
      "▁pay": 3478,
      "ktahan": 3479,
      "row": 3480,
      "▁inc": 3481,
      "▁Super": 3482,
      "-3": 3483,
      "baybay": 3484,
      "ngal": 3485,
      "▁2018": 3486,
      "nog": 3487,
      "ang": 3488,
      "▁had": 3489,
      "boy": 3490,
      "EL": 3491,
      "▁gayundin": 3492,
      "IT": 3493,
      "▁22": 3494,
      "▁tam": 3495,
      "late": 3496,
      "hol": 3497,
      "AC": 3498,
      "▁sti": 3499,
      "▁This": 3500,
      "▁tuyo": 3501,
      "ppy": 3502,
      "▁subaybay": 3503,
      "▁panas": 3504,
      "IC": 3505,
      "hinal": 3506,
      "▁estudyante": 3507,
      "tional": 3508,
      "▁ginhawa": 3509,
      "▁good": 3510,
      "lataya": 3511,
      "▁baby": 3512,
      "▁John": 3513,
      "une": 3514,
      "▁pulo": 3515,
      "▁file": 3516,
      "▁bawi": 3517,
      "▁ass": 3518,
      "illa": 3519,
      "ka-": 3520,
      "▁link": 3521,
      "▁orihinal": 3522,
      "nganak": 3523,
      "▁Casino": 3524,
      "ini": 3525,
      "▁Cor": 3526,
      "▁sugal": 3527,
      "▁moder": 3528,
      "▁sadya": 3529,
      "yat": 3530,
      "▁akda": 3531,
      "▁mangha": 3532,
      "▁ganoon": 3533,
      "▁Pre": 3534,
      "ED": 3535,
      "▁bunga": 3536,
      "can": 3537,
      "minist": 3538,
      "▁fri": 3539,
      "▁hiwatig": 3540,
      "ensyal": 3541,
      "▁basta": 3542,
      "ugto": 3543,
      "▁other": 3544,
      "▁simbo": 3545,
      "▁pisi": 3546,
      "▁mapagkukunan": 3547,
      "▁col": 3548,
      "▁kuya": 3549,
      "▁poker": 3550,
      "BS": 3551,
      "▁ilaw": 3552,
      "▁ed": 3553,
      "eho": 3554,
      "tse": 3555,
      "▁rehistro": 3556,
      "▁kong": 3557,
      "▁langit": 3558,
      "▁gulay": 3559,
      "▁tugma": 3560,
      "▁dalaga": 3561,
      "▁lip": 3562,
      "▁eng": 3563,
      "▁muhon": 3564,
      "har": 3565,
      "▁Man": 3566,
      "sto": 3567,
      "▁Ele": 3568,
      "retary": 3569,
      "▁uni": 3570,
      "read": 3571,
      "inan": 3572,
      "▁prof": 3573,
      "vaila": 3574,
      "▁their": 3575,
      "▁kaiba": 3576,
      "▁uno": 3577,
      "▁yugto": 3578,
      "versity": 3579,
      "urren": 3580,
      "▁user": 3581,
      "▁libro": 3582,
      "ela": 3583,
      "▁real": 3584,
      "nes": 3585,
      "▁bigay-": 3586,
      "▁Ser": 3587,
      "▁gen": 3588,
      "50": 3589,
      "▁banal": 3590,
      "▁rec": 3591,
      "▁chan": 3592,
      "▁kanta": 3593,
      "▁ts": 3594,
      "▁pisikal": 3595,
      "▁pig": 3596,
      "rug": 3597,
      "ilya": 3598,
      "▁temperatura": 3599,
      "▁exc": 3600,
      "▁chi": 3601,
      "▁susi": 3602,
      "▁Mari": 3603,
      "vid": 3604,
      "▁sent": 3605,
      "▁manatili": 3606,
      "▁aklat": 3607,
      "▁bitamina": 3608,
      "▁Ri": 3609,
      "▁mul": 3610,
      "ube": 3611,
      "▁lawig": 3612,
      "▁hugis": 3613,
      "ities": 3614,
      "▁import": 3615,
      "▁bitu": 3616,
      "mission": 3617,
      "▁bigay-daan": 3618,
      "hod": 3619,
      "▁sos": 3620,
      "▁miss": 3621,
      "mbing": 3622,
      "▁sh": 3623,
      "nat": 3624,
      "▁bec": 3625,
      "▁payat": 3626,
      "▁pahintulot": 3627,
      "▁bulak": 3628,
      "▁kabuuan": 3629,
      "PN": 3630,
      "▁imbak": 3631,
      "▁deposito": 3632,
      "au": 3633,
      "apan": 3634,
      "acc": 3635,
      "▁antay": 3636,
      "▁nega": 3637,
      "▁utak": 3638,
      "▁I-": 3639,
      "light": 3640,
      "daragdag": 3641,
      "kahi": 3642,
      "mpalataya": 3643,
      "▁pata": 3644,
      "▁ginto": 3645,
      "▁tunog": 3646,
      "▁halik": 3647,
      "▁legal": 3648,
      "▁fun": 3649,
      "hoto": 3650,
      "▁baril": 3651,
      "▁kotse": 3652,
      "yar": 3653,
      "▁deal": 3654,
      "uran": 3655,
      "OS": 3656,
      "hos": 3657,
      "national": 3658,
      "mpak": 3659,
      "▁Google": 3660,
      "bin": 3661,
      "▁Can": 3662,
      "▁pis": 3663,
      "▁alak": 3664,
      "▁gat": 3665,
      "▁super": 3666,
      "ath": 3667,
      "▁kuko": 3668,
      "bp": 3669,
      "imum": 3670,
      "ie": 3671,
      "▁iral": 3672,
      "▁My": 3673,
      "▁bituka": 3674,
      "▁make": 3675,
      "▁rem": 3676,
      "▁presid": 3677,
      "gunan": 3678,
      "ww": 3679,
      "▁ve": 3680,
      "sad": 3681,
      "▁pub": 3682,
      "▁ospital": 3683,
      "▁Sho": 3684,
      "dong": 3685,
      "menda": 3686,
      "▁tugunan": 3687,
      "▁Bar": 3688,
      "▁tablet": 3689,
      "meric": 3690,
      "▁labag": 3691,
      "ging": 3692,
      "-k": 3693,
      "▁inf": 3694,
      "▁win": 3695,
      "komenda": 3696,
      "▁program": 3697,
      "dina": 3698,
      "▁salin": 3699,
      "▁Bu": 3700,
      "velop": 3701,
      "▁pande": 3702,
      "lusyon": 3703,
      "▁alit": 3704,
      "▁simbolo": 3705,
      "▁mung": 3706,
      "tern": 3707,
      "▁pantay": 3708,
      "▁paya": 3709,
      "enda": 3710,
      "▁internet": 3711,
      "▁tanungan": 3712,
      "lease": 3713,
      "▁epektibong": 3714,
      "▁iyak": 3715,
      "▁bilog": 3716,
      "mart": 3717,
      "yano": 3718,
      "▁Mas": 3719,
      "▁mana": 3720,
      "▁gisi": 3721,
      "▁lihim": 3722,
      "▁Police": 3723,
      "kila": 3724,
      "jec": 3725,
      "▁sulit": 3726,
      "▁web": 3727,
      "risto": 3728,
      "▁nararamdaman": 3729,
      "lab": 3730,
      "▁pangkat": 3731,
      "▁limita": 3732,
      "▁materyales": 3733,
      "-ta": 3734,
      "peto": 3735,
      "ler": 3736,
      "▁wo": 3737,
      "▁eksper": 3738,
      "phone": 3739,
      "ayayat": 3740,
      "▁emple": 3741,
      "-A": 3742,
      "pt": 3743,
      "▁black": 3744,
      "pang": 3745,
      "▁mungkahi": 3746,
      "▁than": 3747,
      "▁giardia": 3748,
      "▁lapat": 3749,
      "▁get": 3750,
      "bibi": 3751,
      "mog": 3752,
      "▁Jan": 3753,
      "yahe": 3754,
      "▁nyo": 3755,
      "▁Dis": 3756,
      "dom": 3757,
      "uel": 3758,
      "vernment": 3759,
      "ved": 3760,
      "cks": 3761,
      "ies": 3762,
      "esis": 3763,
      "uno": 3764,
      "vailable": 3765,
      "▁ngiti": 3766,
      "ject": 3767,
      "bad": 3768,
      "▁ili": 3769,
      "▁atbp": 3770,
      "ker": 3771,
      "▁sports": 3772,
      "▁years": 3773,
      "▁some": 3774,
      "play": 3775,
      "▁All": 3776,
      "▁tili": 3777,
      "piko": 3778,
      "▁land": 3779,
      "▁adv": 3780,
      "▁sinus": 3781,
      "mantala": 3782,
      "ative": 3783,
      "▁23": 3784,
      "▁Mon": 3785,
      "mpleto": 3786,
      "▁bos": 3787,
      "▁hamon": 3788,
      "yod": 3789,
      "▁dia": 3790,
      "ney": 3791,
      "dos": 3792,
      "▁forum": 3793,
      "tot": 3794,
      "lor": 3795,
      "▁mangayayat": 3796,
      "cia": 3797,
      "-w": 3798,
      "▁meron": 3799,
      "▁naki": 3800,
      "fy": 3801,
      "rand": 3802,
      "▁lasa": 3803,
      "▁produksyon": 3804,
      "▁tulugan": 3805,
      "▁facials": 3806,
      "▁pagdi": 3807,
      "▁limitasyon": 3808,
      "-in": 3809,
      "▁dila": 3810,
      "▁Cream": 3811,
      "▁tulu": 3812,
      "▁ther": 3813,
      "▁crypto": 3814,
      "▁News": 3815,
      "▁199": 3816,
      "unity": 3817,
      "▁lampas": 3818,
      "▁Res": 3819,
      "▁Rob": 3820,
      "ux": 3821,
      "hagi": 3822,
      "ley": 3823,
      "▁address": 3824,
      "rasyon": 3825,
      "▁sine": 3826,
      "▁ima": 3827,
      "▁when": 3828,
      "▁sugat": 3829,
      "▁hinto": 3830,
      "IS": 3831,
      "▁tanim": 3832,
      "▁jo": 3833,
      "aran": 3834,
      "▁panig": 3835,
      "bos": 3836,
      "▁hiya": 3837,
      "▁euro": 3838,
      "▁mineral": 3839,
      "▁ate": 3840,
      "▁laser": 3841,
      "▁Las": 3842,
      "round": 3843,
      "▁binti": 3844,
      "▁She": 3845,
      "▁hangad": 3846,
      "erc": 3847,
      "kada": 3848,
      "▁inir": 3849,
      "▁ugat": 3850,
      "▁isaalang-alang": 3851,
      "▁awto": 3852,
      "▁Sha": 3853,
      "▁cho": 3854,
      "likado": 3855,
      "ortable": 3856,
      "ym": 3857,
      "▁home": 3858,
      "unin": 3859,
      "tle": 3860,
      "als": 3861,
      "cky": 3862,
      "urse": 3863,
      "amily": 3864,
      "eta": 3865,
      "cket": 3866,
      "▁Doc": 3867,
      "▁look": 3868,
      "ngkod": 3869,
      "liz": 3870,
      "▁parti": 3871,
      "▁mala": 3872,
      "proseso": 3873,
      "▁kabuluhan": 3874,
      "▁pagm": 3875,
      "wo": 3876,
      "▁kurso": 3877,
      "▁sangkot": 3878,
      "▁samantala": 3879,
      "▁lapi": 3880,
      "mang-": 3881,
      "▁food": 3882,
      "▁Es": 3883,
      "▁hotel": 3884,
      "ull": 3885,
      "▁utos": 3886,
      "▁pahi": 3887,
      "hild": 3888,
      "▁Wi": 3889,
      "▁hik": 3890,
      "▁larang": 3891,
      "▁au": 3892,
      "▁barangay": 3893,
      "lion": 3894,
      "▁mara": 3895,
      "▁Japan": 3896,
      "nampalataya": 3897,
      "dyo": 3898,
      "hoy": 3899,
      "tiz": 3900,
      "▁now": 3901,
      "▁dat": 3902,
      "▁balan": 3903,
      "lum": 3904,
      "▁also": 3905,
      "-o": 3906,
      "joy": 3907,
      "▁residente": 3908,
      "▁cap": 3909,
      "▁people": 3910,
      "▁bul": 3911,
      "urce": 3912,
      "klamo": 3913,
      "rona": 3914,
      "▁kus": 3915,
      "▁bagaman": 3916,
      "▁nagtatrabaho": 3917,
      "▁chat": 3918,
      "▁makamit": 3919,
      "ger": 3920,
      "▁game": 3921,
      "kay": 3922,
      "▁ite": 3923,
      "▁after": 3924,
      "▁remedyo": 3925,
      "▁What": 3926,
      "▁hom": 3927,
      "rid": 3928,
      "▁taguyod": 3929,
      "▁Ram": 3930,
      "▁Bi": 3931,
      "▁alas": 3932,
      "bra": 3933,
      "osme": 3934,
      "▁San": 3935,
      "▁piraso": 3936,
      "▁empleyado": 3937,
      "▁life": 3938,
      "ruk": 3939,
      "▁Fo": 3940,
      "mok": 3941,
      "mpara": 3942,
      "▁dalo": 3943,
      "▁60": 3944,
      "▁karat": 3945,
      "▁atake": 3946,
      "▁potensyal": 3947,
      "▁University": 3948,
      "▁bulo": 3949,
      "▁nutri": 3950,
      "lass": 3951,
      "▁500": 3952,
      "▁lat": 3953,
      "ekta": 3954,
      "▁motor": 3955,
      "kump": 3956,
      "isasyon": 3957,
      "▁fat": 3958,
      "▁Val": 3959,
      "nge": 3960,
      "▁diwa": 3961,
      "▁simulan": 3962,
      "▁epektibo": 3963,
      "▁salamin": 3964,
      "AS": 3965,
      "▁saad": 3966,
      "▁tatak": 3967,
      "▁El": 3968,
      "rea": 3969,
      "pla": 3970,
      "▁kulo": 3971,
      "▁ingles": 3972,
      "verage": 3973,
      "▁OF": 3974,
      "▁www": 3975,
      "click": 3976,
      "▁last": 3977,
      "▁Net": 3978,
      "▁titi": 3979,
      "▁metal": 3980,
      "▁PC": 3981,
      "▁Bitcoin": 3982,
      "buti": 3983,
      "▁Si": 3984,
      "▁Her": 3985,
      "▁Sp": 3986,
      "▁higa": 3987,
      "mpan": 3988,
      "tomatiko": 3989,
      "ause": 3990,
      "▁Aqu": 3991,
      "▁opin": 3992,
      "jo": 3993,
      "auty": 3994,
      "▁2016": 3995,
      "▁sara": 3996,
      "▁karne": 3997,
      "▁awit": 3998,
      "gency": 3999,
      "▁president": 4000,
      "▁pad": 4001,
      "▁inis": 4002,
      "▁week": 4003,
      "burg": 4004,
      "▁ru": 4005,
      "▁lingkod": 4006,
      "prote": 4007,
      "▁Americ": 4008,
      "▁gala": 4009,
      "▁access": 4010,
      "▁popular": 4011,
      "▁panu": 4012,
      "▁tradis": 4013,
      "▁reklamo": 4014,
      "▁Ben": 4015,
      "▁takip": 4016,
      "ors": 4017,
      "▁manok": 4018,
      "gin": 4019,
      "▁term": 4020,
      "▁rese": 4021,
      "▁oil": 4022,
      "ules": 4023,
      "▁Center": 4024,
      "▁sens": 4025,
      "ision": 4026,
      "▁care": 4027,
      "▁pass": 4028,
      "▁2017": 4029,
      "tika": 4030,
      "▁Barangay": 4031,
      "▁Ed": 4032,
      "gasyon": 4033,
      "▁PH": 4034,
      "▁boto": 4035,
      "ked": 4036,
      "▁calo": 4037,
      "rget": 4038,
      "▁negatibo": 4039,
      "mya": 4040,
      "▁quar": 4041,
      "utas": 4042,
      "▁tit": 4043,
      "▁talu": 4044,
      "back": 4045,
      "rial": 4046,
      "▁limot": 4047,
      "▁blo": 4048,
      "▁awtomatiko": 4049,
      "natiling": 4050,
      "▁girl": 4051,
      "BN": 4052,
      "▁Ge": 4053,
      "▁tanyag": 4054,
      "▁Office": 4055,
      "▁World": 4056,
      "▁Video": 4057,
      "▁Mi": 4058,
      "▁tasa": 4059,
      "▁konse": 4060,
      "▁bayaran": 4061,
      "▁tsina": 4062,
      "▁lipunan": 4063,
      "▁Ga": 4064,
      "▁agos": 4065,
      "▁elemento": 4066,
      "yes": 4067,
      "ders": 4068,
      "▁saka": 4069,
      "▁thin": 4070,
      "▁bibli": 4071,
      "▁halamang-": 4072,
      "▁Quezon": 4073,
      "▁kaliwa": 4074,
      "▁tsa": 4075,
      "nasyon": 4076,
      "▁press": 4077,
      "▁opsyon": 4078,
      "ona": 4079,
      "▁mag-a": 4080,
      "▁bir": 4081,
      "luw": 4082,
      "usali": 4083,
      "cies": 4084,
      "▁prutas": 4085,
      "▁essay": 4086,
      "▁crusher": 4087,
      "▁air": 4088,
      "dala": 4089,
      "▁pama": 4090,
      "▁proteksyon": 4091,
      "atch": 4092,
      "▁very": 4093,
      "ryente": 4094,
      "▁reak": 4095,
      "▁guhit": 4096,
      "▁ukol": 4097,
      "▁menu": 4098,
      "▁sakay": 4099,
      "▁driver": 4100,
      "fac": 4101,
      "▁produ": 4102,
      "hero": 4103,
      "▁side": 4104,
      "▁them": 4105,
      "▁bak": 4106,
      "singaw": 4107,
      "▁book": 4108,
      "ental": 4109,
      "▁bit": 4110,
      "▁help": 4111,
      "▁halamang-singaw": 4112,
      "irma": 4113,
      "▁singil": 4114,
      "▁milita": 4115,
      "▁sum": 4116,
      "▁gusali": 4117,
      "▁karera": 4118,
      "▁panukala": 4119,
      "-m": 4120,
      "ute": 4121,
      "ings": 4122,
      "sakto": 4123,
      "▁tumpak": 4124,
      "▁Worm": 4125,
      "▁sigaw": 4126,
      "▁Secretary": 4127,
      "▁rating": 4128,
      "▁tabletas": 4129,
      "▁hulog": 4130,
      "itika": 4131,
      "▁sw": 4132,
      "▁putol": 4133,
      "▁news": 4134,
      "▁hiling": 4135,
      "lismo": 4136,
      "▁bra": 4137,
      "▁28": 4138,
      "▁digma": 4139,
      "▁imahe": 4140,
      "▁elect": 4141,
      "▁eksakto": 4142,
      "▁uli": 4143,
      "▁target": 4144,
      "▁bulati": 4145,
      "▁ABS": 4146,
      "dali": 4147,
      "▁pam": 4148,
      "▁ch": 4149,
      "▁PNP": 4150,
      "▁ste": 4151,
      "ING": 4152,
      "▁Col": 4153,
      "▁Ti": 4154,
      "▁Juan": 4155,
      "hira": 4156,
      "urs": 4157,
      "▁lambot": 4158,
      "▁bagyo": 4159,
      "sada": 4160,
      "gad": 4161,
      "▁basura": 4162,
      "▁bulaklak": 4163,
      "▁filipino": 4164,
      "win": 4165,
      "▁Per": 4166,
      "▁Th": 4167,
      "tiya": 4168,
      "▁biyahe": 4169,
      "▁droga": 4170,
      "▁26": 4171,
      "▁ligo": 4172,
      "▁best": 4173,
      "▁hikayat": 4174,
      "ico": 4175,
      "▁comm": 4176,
      "▁Day": 4177,
      "▁Black": 4178,
      "▁Gra": 4179,
      "uportahan": 4180,
      "▁asin": 4181,
      "▁cor": 4182,
      "▁Ag": 4183,
      "▁hen": 4184,
      "els": 4185,
      "erekomenda": 4186,
      "ls": 4187,
      "▁tik": 4188,
      "▁pito": 4189,
      "▁Fer": 4190,
      "lista": 4191,
      "▁available": 4192,
      "▁nana": 4193,
      "com": 4194,
      "ward": 4195,
      "roid": 4196,
      "▁Rod": 4197,
      "▁transport": 4198,
      "▁Star": 4199,
      "▁marka": 4200,
      "rilyo": 4201,
      "yam": 4202,
      "▁lipad": 4203,
      "rian": 4204,
      "▁bihira": 4205,
      "▁Esta": 4206,
      "hic": 4207,
      "▁spa": 4208,
      "▁bait": 4209,
      "lue": 4210,
      "▁tali": 4211,
      "20": 4212,
      "werte": 4213,
      "▁there": 4214,
      "idos": 4215,
      "▁aktres": 4216,
      "▁Set": 4217,
      "rik": 4218,
      "▁sayo": 4219,
      "▁need": 4220,
      "des": 4221,
      "▁Review": 4222,
      "▁emos": 4223,
      "▁month": 4224,
      "elf": 4225,
      "▁exper": 4226,
      "▁moderno": 4227,
      "▁puro": 4228,
      "▁narara": 4229,
      "▁tapon": 4230,
      "▁Pri": 4231,
      "▁pagkaka": 4232,
      "▁way": 4233,
      "▁aksyon": 4234,
      "tes": 4235,
      "cho": 4236,
      "▁taka": 4237,
      "▁tema": 4238,
      "▁kontra": 4239,
      "▁laga": 4240,
      "▁key": 4241,
      "erya": 4242,
      "▁saktan": 4243,
      "▁payapa": 4244,
      "▁Marcos": 4245,
      "▁Or": 4246,
      "▁virus": 4247,
      "word": 4248,
      "▁feed": 4249,
      "▁But": 4250,
      "PA": 4251,
      "▁tulak": 4252,
      "▁bahagya": 4253,
      "▁kri": 4254,
      "▁Mac": 4255,
      "▁garan": 4256,
      "ky": 4257,
      "▁Facial": 4258,
      "raktura": 4259,
      "vac": 4260,
      "vie": 4261,
      "-re": 4262,
      "gil": 4263,
      "▁At": 4264,
      "-i": 4265,
      "▁whi": 4266,
      "▁27": 4267,
      "▁amo": 4268,
      "▁Breast": 4269,
      "▁Ber": 4270,
      "▁massage": 4271,
      "galo": 4272,
      "EA": 4273,
      "▁pinak": 4274,
      "▁kilo": 4275,
      "▁tipid": 4276,
      "▁soda": 4277,
      "▁kumpara": 4278,
      "eg": 4279,
      "▁dula": 4280,
      "▁netiz": 4281,
      "atic": 4282,
      "▁awtoridad": 4283,
      "▁Ce": 4284,
      "▁tren": 4285,
      "▁amer": 4286,
      "velopment": 4287,
      "▁aya": 4288,
      "▁lis": 4289,
      "▁war": 4290,
      "▁balak": 4291,
      "▁kahoy": 4292,
      "▁Unidos": 4293,
      "▁sosyo": 4294,
      "redit": 4295,
      "hed": 4296,
      "▁alinman": 4297,
      "▁banta": 4298,
      "ilin": 4299,
      "▁ipon": 4300,
      "▁2022": 4301,
      "▁because": 4302,
      "▁provi": 4303,
      "▁wag": 4304,
      "▁Estados": 4305,
      "▁teksto": 4306,
      "mbi": 4307,
      "▁emp": 4308,
      "▁imbesti": 4309,
      "cri": 4310,
      "▁daliri": 4311,
      "▁kandi": 4312,
      "▁kuryente": 4313,
      "minal": 4314,
      "▁est": 4315,
      "UR": 4316,
      "▁dulo": 4317,
      "cc": 4318,
      "lap": 4319,
      "ids": 4320,
      "▁balanse": 4321,
      "▁party": 4322,
      "▁Word": 4323,
      "▁medikal": 4324,
      "▁Bro": 4325,
      "▁item": 4326,
      "bility": 4327,
      "▁kanser": 4328,
      "▁dokumento": 4329,
      "▁kliyente": 4330,
      "rista": 4331,
      "▁fee": 4332,
      "▁acid": 4333,
      "▁administ": 4334,
      "▁Chin": 4335,
      "▁lutas": 4336,
      "uns": 4337,
      "▁lahi": 4338,
      "vent": 4339,
      "▁market": 4340,
      "nada": 4341,
      "▁libog": 4342,
      "▁pampa": 4343,
      "▁device": 4344,
      "▁parasite": 4345,
      "yle": 4346,
      "▁puri": 4347,
      "eld": 4348,
      "▁sor": 4349,
      "▁timog": 4350,
      "ukas": 4351,
      "▁ina": 4352,
      "urn": 4353,
      "▁bawa": 4354,
      "▁want": 4355,
      "▁kalsada": 4356,
      "-CBN": 4357,
      "▁High": 4358,
      "▁yakap": 4359,
      "▁organisasyon": 4360,
      "▁body": 4361,
      "▁rea": 4362,
      "▁sigarilyo": 4363,
      "▁Dire": 4364,
      "▁bal": 4365,
      "hana": 4366,
      "hangin": 4367,
      "▁pack": 4368,
      "DA": 4369,
      "▁dry": 4370,
      "▁diyan": 4371,
      "▁Bel": 4372,
      "▁ABS-CBN": 4373,
      "▁hun": 4374,
      "tact": 4375,
      "god": 4376,
      "dies": 4377,
      "list": 4378,
      "▁pila": 4379,
      "▁himok": 4380,
      "▁cy": 4381,
      "▁dios": 4382,
      "-b": 4383,
      "pis": 4384,
      "riwang": 4385,
      "▁butas": 4386,
      "▁II": 4387,
      "▁Ste": 4388,
      "▁patu": 4389,
      "ential": 4390,
      "▁treat": 4391,
      "▁kuwarto": 4392,
      "ates": 4393,
      "▁hula": 4394,
      "▁libo": 4395,
      "rag": 4396,
      "-7": 4397,
      "▁kons": 4398,
      "▁ja": 4399,
      "▁Yung": 4400,
      "▁digital": 4401,
      "▁Cap": 4402,
      "▁pagmulan": 4403,
      "ons": 4404,
      "uusap": 4405,
      "▁vo": 4406,
      "▁cle": 4407,
      "▁Riz": 4408,
      "▁opisina": 4409,
      "-t": 4410,
      "ety": 4411,
      "ulet": 4412,
      "▁panayam": 4413,
      "IV": 4414,
      "▁Alex": 4415,
      "▁page": 4416,
      "▁multi": 4417,
      "nagement": 4418,
      "ature": 4419,
      "▁code": 4420,
      "▁report": 4421,
      "xy": 4422,
      "▁top": 4423,
      "▁bangko": 4424,
      "▁Jose": 4425,
      "▁ge": 4426,
      "BA": 4427,
      "▁kusina": 4428,
      "bes": 4429,
      "▁ent": 4430,
      "urity": 4431,
      "▁asya": 4432,
      "▁sektor": 4433,
      "▁Internet": 4434,
      "▁horm": 4435,
      "▁tatay": 4436,
      "▁limitado": 4437,
      "ngi": 4438,
      "▁bagal": 4439,
      "ash": 4440,
      "erikano": 4441,
      "kra": 4442,
      "dol": 4443,
      "▁aktibong": 4444,
      "▁tro": 4445,
      "▁buhangin": 4446,
      "▁aplikasyon": 4447,
      "ubilin": 4448,
      "▁room": 4449,
      "▁bot": 4450,
      "formation": 4451,
      "▁Euro": 4452,
      "▁bantay": 4453,
      "▁tagubilin": 4454,
      "▁ver": 4455,
      "ensiya": 4456,
      "▁puwa": 4457,
      "▁ig": 4458,
      "▁Apple": 4459,
      "▁amerika": 4460,
      "▁amerikano": 4461,
      "▁artista": 4462,
      "cent": 4463,
      "reto": 4464,
      "▁Nor": 4465,
      "▁head": 4466,
      "ungin": 4467,
      "▁its": 4468,
      "▁Cla": 4469,
      "▁then": 4470,
      "chi": 4471,
      "ways": 4472,
      "▁water": 4473,
      "eters": 4474,
      "▁puke": 4475,
      "zz": 4476,
      "▁clo": 4477,
      "▁mister": 4478,
      "lation": 4479,
      "▁bundo": 4480,
      "▁Mer": 4481,
      "▁koneksyon": 4482,
      "baw": 4483,
      "▁lagyan": 4484,
      "wersa": 4485,
      "▁sampu": 4486,
      "logi": 4487,
      "▁God": 4488,
      "-f": 4489,
      "▁ilo": 4490,
      "▁mayo": 4491,
      "▁regalo": 4492,
      "▁inilala": 4493,
      "dic": 4494,
      "iya": 4495,
      "mbas": 4496,
      "▁pasko": 4497,
      "▁cosme": 4498,
      "ukal": 4499,
      "____": 4500,
      "weet": 4501,
      "▁Eye": 4502,
      "ipin": 4503,
      "▁lola": 4504,
      "ffer": 4505,
      "-an": 4506,
      "ather": 4507,
      "disyon": 4508,
      "▁here": 4509,
      "▁tur": 4510,
      "▁29": 4511,
      "ksan": 4512,
      "cil": 4513,
      "▁pwedeng": 4514,
      "katlo": 4515,
      "▁server": 4516,
      "▁lemon": 4517,
      "▁transa": 4518,
      "▁Sta": 4519,
      "▁view": 4520,
      "ateg": 4521,
      "bn": 4522,
      "▁ubo": 4523,
      "▁hambing": 4524,
      "▁seksyon": 4525,
      "▁Du": 4526,
      "▁nutrisyon": 4527,
      "▁buwis": 4528,
      "▁sentro": 4529,
      "cus": 4530,
      "▁every": 4531,
      "▁huk": 4532,
      "▁35": 4533,
      "▁buksan": 4534,
      "▁Aquino": 4535,
      "rong": 4536,
      "▁which": 4537,
      "▁stu": 4538,
      "▁Anti": 4539,
      "▁taglay": 4540,
      "bisyon": 4541,
      "curren": 4542,
      "hhh": 4543,
      "▁family": 4544,
      "iza": 4545,
      "ror": 4546,
      "liko": 4547,
      "ublic": 4548,
      "▁sumali": 4549,
      "▁tuluyan": 4550,
      "▁ref": 4551,
      "▁nakaw": 4552,
      "witter": 4553,
      "▁read": 4554,
      "▁GMA": 4555,
      "▁house": 4556,
      "▁nyang": 4557,
      "▁ngipin": 4558,
      "▁bri": 4559,
      "▁asukal": 4560,
      "10": 4561,
      "tang": 4562,
      "rot": 4563,
      "ulang": 4564,
      "syento": 4565,
      "▁ce": 4566,
      "agu": 4567,
      "▁channel": 4568,
      "ctions": 4569,
      "▁kape": 4570,
      "ining": 4571,
      "▁amoy": 4572,
      "▁Rodri": 4573,
      "▁Chinese": 4574,
      "▁hiwa": 4575,
      "▁bundok": 4576,
      "▁opinyon": 4577,
      "▁ph": 4578,
      "▁pag-s": 4579,
      "den": 4580,
      "rata": 4581,
      "apy": 4582,
      "▁musika": 4583,
      "pping": 4584,
      "▁service": 4585,
      "hai": 4586,
      "▁see": 4587,
      "hiyo": 4588,
      "ory": 4589,
      "▁how": 4590,
      "▁bakal": 4591,
      "pala": 4592,
      "▁198": 4593,
      "▁Angel": 4594,
      "▁pek": 4595,
      "▁porsyento": 4596,
      "▁park": 4597,
      "▁Rizal": 4598,
      "zo": 4599,
      "tice": 4600,
      "ian": 4601,
      "▁komento": 4602,
      "▁relihiyon": 4603,
      "mal": 4604,
      "▁ligaw": 4605,
      "▁exa": 4606,
      "▁hum": 4607,
      "▁bahala": 4608,
      "▁paborito": 4609,
      "▁hat": 4610,
      "▁pagdiriwang": 4611,
      "▁seg": 4612,
      "▁stress": 4613,
      "▁boy": 4614,
      "▁pusa": 4615,
      "▁story": 4616,
      "uri": 4617,
      "▁buhos": 4618,
      "▁gulat": 4619,
      "▁Russia": 4620,
      "▁group": 4621,
      "▁kis": 4622,
      "▁kolekta": 4623,
      "▁down": 4624,
      "▁YouT": 4625,
      "AM": 4626,
      "▁sal": 4627,
      "▁If": 4628,
      "▁area": 4629,
      "ends": 4630,
      "genic": 4631,
      "guni": 4632,
      "▁drug": 4633,
      "TI": 4634,
      "uti": 4635,
      "▁partido": 4636,
      "▁Paras": 4637,
      "nata": 4638,
      "▁baha": 4639,
      "▁kop": 4640,
      "▁maya": 4641,
      "limutan": 4642,
      "kil": 4643,
      "▁ganun": 4644,
      "buhay": 4645,
      "keting": 4646,
      "▁gutom": 4647,
      "▁cash": 4648,
      "▁itik": 4649,
      "▁cat": 4650,
      "▁angkin": 4651,
      "nate": 4652,
      "▁er": 4653,
      "▁kampanya": 4654,
      "▁45": 4655,
      "▁labor": 4656,
      "AP": 4657,
      "▁abala": 4658,
      "▁South": 4659,
      "▁akyat": 4660,
      "▁Jos": 4661,
      "▁alter": 4662,
      "itis": 4663,
      "▁bayo": 4664,
      "▁Dar": 4665,
      "▁dahon": 4666,
      "▁tapusan": 4667,
      "▁senador": 4668,
      "cis": 4669,
      "▁Tur": 4670,
      "▁linga": 4671,
      "tual": 4672,
      "▁acne": 4673,
      "▁ilog": 4674,
      "save": 4675,
      "▁il": 4676,
      "erek": 4677,
      "-akit": 4678,
      "▁landas": 4679,
      "▁sayaw": 4680,
      "▁puntos": 4681,
      "▁ikatlo": 4682,
      "▁business": 4683,
      "▁Willie": 4684,
      "cep": 4685,
      "▁yon": 4686,
      "▁layer": 4687,
      "▁yaon": 4688,
      "xi": 4689,
      "osi": 4690,
      "gra": 4691,
      "▁Vic": 4692,
      "▁pulisya": 4693,
      "▁kalimutan": 4694,
      "▁komunikasyon": 4695,
      "cing": 4696,
      "▁dangal": 4697,
      "vest": 4698,
      "▁cal": 4699,
      "mar": 4700,
      "▁siglo": 4701,
      "eno": 4702,
      "▁Regi": 4703,
      "hyd": 4704,
      "▁sinta": 4705,
      "▁europa": 4706,
      "rawan": 4707,
      "▁Ap": 4708,
      "ross": 4709,
      "▁Pas": 4710,
      "▁ini": 4711,
      "▁power": 4712,
      "▁hul": 4713,
      "top": 4714,
      "-S": 4715,
      "▁boses": 4716,
      "▁cons": 4717,
      "▁klima": 4718,
      "rie": 4719,
      "▁populasyon": 4720,
      "rio": 4721,
      "▁bayani": 4722,
      "▁International": 4723,
      "▁sik": 4724,
      "▁vari": 4725,
      "-4": 4726,
      "▁tuwid": 4727,
      "▁loko": 4728,
      "protektahan": 4729,
      "▁agham": 4730,
      "▁English": 4731,
      "▁wi": 4732,
      "nao": 4733,
      "▁non": 4734,
      "pper": 4735,
      "▁aktor": 4736,
      "▁enero": 4737,
      "▁31": 4738,
      "ansya": 4739,
      "ktor": 4740,
      "▁test": 4741,
      "mize": 4742,
      "▁pananampalataya": 4743,
      "▁suka": 4744,
      "yang-": 4745,
      "▁Pi": 4746,
      "ars": 4747,
      "sidad": 4748,
      "▁putok": 4749,
      "essi": 4750,
      "mote": 4751,
      "▁Laser": 4752,
      "▁luha": 4753,
      "▁Sin": 4754,
      "▁YouTube": 4755,
      "uthor": 4756,
      "▁istilo": 4757,
      "▁suko": 4758,
      "wiran": 4759,
      "▁andar": 4760,
      "▁By": 4761,
      "▁ep": 4762,
      "▁vacc": 4763,
      "▁ekse": 4764,
      "▁presyon": 4765,
      "▁pic": 4766,
      "▁Rep": 4767,
      "▁mapabuti": 4768,
      "westo": 4769,
      "▁Ver": 4770,
      "▁kalahati": 4771,
      "▁mic": 4772,
      "▁Sal": 4773,
      "▁Ukra": 4774,
      "▁ty": 4775,
      "orn": 4776,
      "▁only": 4777,
      "▁fre": 4778,
      "▁Up": 4779,
      "tuhan": 4780,
      "▁photo": 4781,
      "▁dako": 4782,
      "sive": 4783,
      "▁Mr": 4784,
      "▁fla": 4785,
      "▁militar": 4786,
      "▁lay": 4787,
      "▁mak": 4788,
      "▁Play": 4789,
      "▁government": 4790,
      "▁hubad": 4791,
      "▁kompos": 4792,
      "▁90": 4793,
      "▁number": 4794,
      "▁control": 4795,
      "▁marso": 4796,
      "▁Bas": 4797,
      "cio": 4798,
      "biz": 4799,
      "sue": 4800,
      "oni": 4801,
      "had": 4802,
      "▁tanaw": 4803,
      "▁inde": 4804,
      "▁would": 4805,
      "▁aspeto": 4806,
      "lite": 4807,
      "▁konst": 4808,
      "py": 4809,
      "▁sangguni": 4810,
      "ilalim": 4811,
      "▁Spe": 4812,
      "▁sigla": 4813,
      "▁eksperto": 4814,
      "ced": 4815,
      "▁pandemya": 4816,
      "riz": 4817,
      "mand": 4818,
      "upit": 4819,
      "▁garantiya": 4820,
      "▁ju": 4821,
      "▁House": 4822,
      "▁unit": 4823,
      "▁dalub": 4824,
      "IP": 4825,
      "▁Mat": 4826,
      "▁2015": 4827,
      "▁public": 4828,
      "ulo": 4829,
      "rya": 4830,
      "-P": 4831,
      "▁batid": 4832,
      "pano": 4833,
      "▁nager": 4834,
      "▁lunsad": 4835,
      "rew": 4836,
      "hop": 4837,
      "▁maneho": 4838,
      "tana": 4839,
      "▁ganti": 4840,
      "▁inspir": 4841,
      "▁pares": 4842,
      "▁Lin": 4843,
      "ganda": 4844,
      "▁Jam": 4845,
      "▁paliwanag": 4846,
      "▁Live": 4847,
      "bis": 4848,
      "hid": 4849,
      "▁Sy": 4850,
      "▁said": 4851,
      "▁break": 4852,
      "▁School": 4853,
      "itusyon": 4854,
      "▁bilyon": 4855,
      "kaw": 4856,
      "▁hunyo": 4857,
      "▁sabog": 4858,
      "▁VPN": 4859,
      "esado": 4860,
      "▁habol": 4861,
      "▁round": 4862,
      "▁parasitiko": 4863,
      "dows": 4864,
      "sipyo": 4865,
      "ront": 4866,
      "▁Maria": 4867,
      "rael": 4868,
      "ert": 4869,
      "▁dist": 4870,
      "▁max": 4871,
      "▁interesado": 4872,
      "tab": 4873,
      "anced": 4874,
      "EP": 4875,
      "dog": 4876,
      "▁leeg": 4877,
      "▁been": 4878,
      "▁bito": 4879,
      "▁prinsipyo": 4880,
      "▁alternati": 4881,
      "dema": 4882,
      "▁dalubhasa": 4883,
      "▁Gro": 4884,
      "▁hay": 4885,
      "til": 4886,
      "▁saga": 4887,
      "bahay": 4888,
      "▁kopya": 4889,
      "enn": 4890,
      "hig": 4891,
      "IA": 4892,
      "▁Christ": 4893,
      "hite": 4894,
      "▁dama": 4895,
      "▁camera": 4896,
      "▁reaksyon": 4897,
      "▁ares": 4898,
      "ience": 4899,
      "CP": 4900,
      "▁OFW": 4901,
      "▁komposisyon": 4902,
      "▁Har": 4903,
      "▁salalay": 4904,
      "▁tuktok": 4905,
      "▁Ric": 4906,
      "▁ut": 4907,
      "▁tela": 4908,
      "▁tanghal": 4909,
      "kilan": 4910,
      "▁hinggil": 4911,
      "▁kumplikado": 4912,
      "roll": 4913,
      "press": 4914,
      "▁sakin": 4915,
      "▁80": 4916,
      "▁tingnan": 4917,
      "ategorya": 4918,
      "▁Act": 4919,
      "▁pinaka": 4920,
      "betes": 4921,
      "▁gampan": 4922,
      "▁Gar": 4923,
      "▁lunes": 4924,
      "col": 4925,
      "dur": 4926,
      "▁thi": 4927,
      "▁konk": 4928,
      "▁PR": 4929,
      "▁right": 4930,
      "▁https": 4931,
      "▁hawa": 4932,
      "yunal": 4933,
      "▁lamang": 4934,
      "kilanlan": 4935,
      "▁pra": 4936,
      "▁dikit": 4937,
      "baba": 4938,
      "Press": 4939,
      "ensyon": 4940,
      "▁sip": 4941,
      "▁kili": 4942,
      "leta": 4943,
      "▁Europe": 4944,
      "▁israel": 4945,
      "▁transaksyon": 4946,
      "bers": 4947,
      "inal": 4948,
      "▁tamis": 4949,
      "▁takas": 4950,
      "kon": 4951,
      "cker": 4952,
      "▁walo": 4953,
      "▁Android": 4954,
      "-host": 4955,
      "▁ale": 4956,
      "nam": 4957,
      "▁pagpapa": 4958,
      "ulette": 4959,
      "sian": 4960,
      "ال": 4961,
      "▁think": 4962,
      "▁charac": 4963,
      "▁sinauna": 4964,
      "▁contact": 4965,
      "▁sen": 4966,
      "▁Glo": 4967,
      "▁Ama": 4968,
      "vert": 4969,
      "tubre": 4970,
      "▁apoy": 4971,
      "▁berde": 4972,
      "▁center": 4973,
      "ayos": 4974,
      "▁flo": 4975,
      "mot": 4976,
      "rge": 4977,
      "luwensya": 4978,
      "AY": 4979,
      "erti": 4980,
      "▁phone": 4981,
      "▁Commission": 4982,
      "rans": 4983,
      "▁were": 4984,
      "▁nakakaapekto": 4985,
      "▁mal": 4986,
      "▁Liza": 4987,
      "▁pag-uusap": 4988,
      "rough": 4989,
      "▁fore": 4990,
      "▁games": 4991,
      "update": 4992,
      "▁profile": 4993,
      "▁well": 4994,
      "kula": 4995,
      "▁Ger": 4996,
      "▁kati": 4997,
      "AG": 4998,
      "main": 4999,
      "▁eksena": 5000,
      "idad": 5001,
      "▁laon": 5002,
      "▁setting": 5003,
      "▁Prin": 5004,
      "▁Ve": 5005,
      "rates": 5006,
      "jack": 5007,
      "▁seryoso": 5008,
      "▁smart": 5009,
      "▁into": 5010,
      "▁Well": 5011,
      "▁child": 5012,
      "▁oktubre": 5013,
      "▁tech": 5014,
      "▁P1": 5015,
      "▁lead": 5016,
      "▁70": 5017,
      "▁pasahero": 5018,
      "ua": 5019,
      "▁balot": 5020,
      "▁tutok": 5021,
      "▁damo": 5022,
      "▁own": 5023,
      "▁kategorya": 5024,
      "▁glab": 5025,
      "dget": 5026,
      "▁ilabas": 5027,
      "▁two": 5028,
      "bins": 5029,
      "crip": 5030,
      "▁hag": 5031,
      "▁klin": 5032,
      "▁matagal": 5033,
      "gado": 5034,
      "▁Superhost": 5035,
      "▁300": 5036,
      "▁problem": 5037,
      "▁pagkakakilanlan": 5038,
      "▁banyo": 5039,
      "▁vis": 5040,
      "▁talon": 5041,
      "bnb": 5042,
      "aaaa": 5043,
      "▁Bula": 5044,
      "▁balang": 5045,
      "EO": 5046,
      "▁pulitika": 5047,
      "▁baboy": 5048,
      "▁One": 5049,
      "▁count": 5050,
      "▁glo": 5051,
      "itness": 5052,
      "▁birth": 5053,
      "▁sundan": 5054,
      "▁halal": 5055,
      "▁supply": 5056,
      "rm": 5057,
      "rib": 5058,
      "dalo": 5059,
      "▁dekada": 5060,
      "▁disk": 5061,
      "wali": 5062,
      "▁insidente": 5063,
      "ills": 5064,
      "tila": 5065,
      "▁sang-": 5066,
      "ures": 5067,
      "pre": 5068,
      "▁fin": 5069,
      "-ang": 5070,
      "▁Airbnb": 5071,
      "▁tho": 5072,
      "▁Twitter": 5073,
      "▁long": 5074,
      "▁Je": 5075,
      "▁tea": 5076,
      "▁agosto": 5077,
      "▁old": 5078,
      "▁makipag-usap": 5079,
      "loob": 5080,
      "unter": 5081,
      "▁thesis": 5082,
      "▁istraktura": 5083,
      "lier": 5084,
      "asal": 5085,
      "▁luwag": 5086,
      "▁presidente": 5087,
      "mbu": 5088,
      "▁tunaw": 5089,
      "▁Ko": 5090,
      "tail": 5091,
      "board": 5092,
      "kido": 5093,
      "face": 5094,
      "▁abril": 5095,
      "ubok": 5096,
      "▁pahayag": 5097,
      "▁Pos": 5098,
      "▁film": 5099,
      "▁isla": 5100,
      "▁Best": 5101,
      "ecu": 5102,
      "▁cryptocurren": 5103,
      "apek": 5104,
      "▁lalake": 5105,
      "▁proto": 5106,
      "▁Home": 5107,
      "erba": 5108,
      "▁pigment": 5109,
      "raso": 5110,
      "▁rebo": 5111,
      "▁Bra": 5112,
      "▁gun": 5113,
      "▁okay": 5114,
      "kumpleto": 5115,
      "brero": 5116,
      "lala": 5117,
      "OL": 5118,
      "▁trap": 5119,
      "▁kwarto": 5120,
      "▁mag-s": 5121,
      "▁block": 5122,
      "▁http": 5123,
      "▁Sig": 5124,
      "▁Sea": 5125,
      "bukas": 5126,
      "fore": 5127,
      "▁um": 5128,
      "▁movie": 5129,
      "-B": 5130,
      "▁mun": 5131,
      "▁even": 5132,
      "▁General": 5133,
      "▁Gold": 5134,
      "ronic": 5135,
      "▁kolehiyo": 5136,
      "▁tis": 5137,
      "▁sinusubok": 5138,
      "▁pagpa": 5139,
      "▁hila": 5140,
      "▁say": 5141,
      "▁ahensya": 5142,
      "▁average": 5143,
      "▁iP": 5144,
      "▁kinis": 5145,
      "▁person": 5146,
      "▁diabetes": 5147,
      "-M": 5148,
      "▁uniber": 5149,
      "virus": 5150,
      "ercise": 5151,
      "▁et": 5152,
      "tim": 5153,
      "▁kumple": 5154,
      "▁kompanya": 5155,
      "▁Good": 5156,
      "▁brow": 5157,
      "▁most": 5158,
      "▁Jr": 5159,
      "lah": 5160,
      "▁giit": 5161,
      "▁hilaga": 5162,
      "ags": 5163,
      "antine": 5164,
      "▁kasa": 5165,
      "▁Sto": 5166,
      "rinig": 5167,
      "▁skin": 5168,
      "mikal": 5169,
      "▁sampa": 5170,
      "▁disyembre": 5171,
      "▁tay": 5172,
      "BET": 5173,
      "eces": 5174,
      "▁Ph": 5175,
      "▁Flo": 5176,
      "▁saksi": 5177,
      "-li": 5178,
      "▁Mos": 5179,
      "▁likido": 5180,
      "▁kahi": 5181,
      "▁carbo": 5182,
      "lusi": 5183,
      "▁seks": 5184,
      "▁shi": 5185,
      "▁open": 5186,
      "▁komisyon": 5187,
      "▁War": 5188,
      "▁world": 5189,
      "▁lot": 5190,
      "▁canada": 5191,
      "▁inspirasyon": 5192,
      "▁engine": 5193,
      "▁ump": 5194,
      "▁siy": 5195,
      "▁Isa": 5196,
      "mpati": 5197,
      "pektado": 5198,
      "▁2012": 5199,
      "-0": 5200,
      "nia": 5201,
      "ruba": 5202,
      "▁WordPress": 5203,
      "bukasan": 5204,
      "▁kongres": 5205,
      "▁mai-": 5206,
      "riti": 5207,
      "▁iwa": 5208,
      "▁sure": 5209,
      "▁mad": 5210,
      "▁pangung": 5211,
      "▁Ukraine": 5212,
      "▁sm": 5213,
      "▁lupon": 5214,
      "▁green": 5215,
      "▁husto": 5216,
      "▁IN": 5217,
      "ruz": 5218,
      "▁2013": 5219,
      "▁makaka": 5220,
      "▁meta": 5221,
      "▁syang": 5222,
      "▁kontrata": 5223,
      "▁kahon": 5224,
      "rogram": 5225,
      "▁padala": 5226,
      "▁kandid": 5227,
      "▁ly": 5228,
      "▁kaakit": 5229,
      "▁Medi": 5230,
      "▁national": 5231,
      "down": 5232,
      "luran": 5233,
      "ficial": 5234,
      "▁kinabukasan": 5235,
      "EM": 5236,
      "enta": 5237,
      "lution": 5238,
      "xide": 5239,
      "ns": 5240,
      "▁buil": 5241,
      "▁ketogenic": 5242,
      "tog": 5243,
      "▁really": 5244,
      "▁Ban": 5245,
      "▁planta": 5246,
      "room": 5247,
      "▁id": 5248,
      "▁paper": 5249,
      "ection": 5250,
      "ustra": 5251,
      "▁Che": 5252,
      "erasyon": 5253,
      "▁Francis": 5254,
      "▁TH": 5255,
      "▁estilo": 5256,
      "▁nagdaragdag": 5257,
      "name": 5258,
      "▁sabado": 5259,
      "88": 5260,
      "▁tru": 5261,
      "▁Ab": 5262,
      "▁asul": 5263,
      "umenda": 5264,
      "ngaw": 5265,
      "▁responsi": 5266,
      "▁kinabibi": 5267,
      "arat": 5268,
      "▁Tom": 5269,
      "utin": 5270,
      "-to": 5271,
      "▁36": 5272,
      "▁tangka": 5273,
      "▁Redux": 5274,
      "▁ingay": 5275,
      "▁baterya": 5276,
      "▁nobyembre": 5277,
      "▁Reduxine": 5278,
      "▁I'": 5279,
      "▁hulyo": 5280,
      "▁cristo": 5281,
      "ches": 5282,
      "▁bola": 5283,
      "▁negosyante": 5284,
      "▁resta": 5285,
      "▁gym": 5286,
      "ick": 5287,
      "▁Rodrigo": 5288,
      "▁port": 5289,
      "▁lantad": 5290,
      "▁rusa": 5291,
      "▁Rec": 5292,
      "apektuhan": 5293,
      "mark": 5294,
      "▁subs": 5295,
      "patan": 5296,
      "▁foot": 5297,
      "-6": 5298,
      "▁bio": 5299,
      "▁bigas": 5300,
      "▁LG": 5301,
      "IR": 5302,
      "▁tanungin": 5303,
      "▁ques": 5304,
      "▁salu": 5305,
      "▁dek": 5306,
      "nikal": 5307,
      "▁mam": 5308,
      "▁Your": 5309,
      "ah": 5310,
      "▁panini": 5311,
      "▁pes": 5312,
      "▁nu": 5313,
      "▁pader": 5314,
      "▁call": 5315,
      "▁Mark": 5316,
      "hile": 5317,
      "laim": 5318,
      "put": 5319,
      "sela": 5320,
      "-ka": 5321,
      "▁sahig": 5322,
      "▁kaakit-akit": 5323,
      "▁use": 5324,
      "▁Slimming": 5325,
      "rungan": 5326,
      "▁dosis": 5327,
      "▁process": 5328,
      "▁Comm": 5329,
      "liran": 5330,
      "''": 5331,
      "-click": 5332,
      "▁hand": 5333,
      "▁calories": 5334,
      "lio": 5335,
      "▁ul": 5336,
      "▁Ros": 5337,
      "ii": 5338,
      "ely": 5339,
      "▁kalkula": 5340,
      "▁Windows": 5341,
      "▁Than": 5342,
      "▁kinabibilangan": 5343,
      "▁direksyon": 5344,
      "cas": 5345,
      "▁American": 5346,
      "▁mesa": 5347,
      "▁much": 5348,
      "soci": 5349,
      "pply": 5350,
      "▁level": 5351,
      "▁Ye": 5352,
      "''t": 5353,
      "▁silang": 5354,
      "yona": 5355,
      "ririnig": 5356,
      "▁2023": 5357,
      "▁local": 5358,
      "sibo": 5359,
      "fied": 5360,
      "ph": 5361,
      "▁balangkas": 5362,
      "vil": 5363,
      "▁hadlang": 5364,
      "ji": 5365,
      "sable": 5366,
      "▁inirerekomenda": 5367,
      "rah": 5368,
      "▁apektado": 5369,
      "▁laganap": 5370,
      "ashi": 5371,
      "▁suliran": 5372,
      "▁ID": 5373,
      "▁kemikal": 5374,
      "▁kabanata": 5375,
      "▁titig": 5376,
      "kid": 5377,
      "▁follow": 5378,
      "▁Setyembre": 5379,
      "▁tab": 5380,
      "▁buod": 5381,
      "▁katauhan": 5382,
      "▁pebrero": 5383,
      "vor": 5384,
      "▁character": 5385,
      "▁iPhone": 5386,
      "wel": 5387,
      "mor": 5388,
      "▁sisi": 5389,
      "▁light": 5390,
      "▁sabik": 5391,
      "▁Hi": 5392,
      "▁mek": 5393,
      "▁isinagawa": 5394,
      "▁marketing": 5395,
      "-20": 5396,
      "▁Read": 5397,
      "mpo": 5398,
      "▁korte": 5399,
      "▁equ": 5400,
      "▁ambag": 5401,
      "▁patuloy": 5402,
      "▁tumbas": 5403,
      "▁Vice": 5404,
      "▁Group": 5405,
      "▁Free": 5406,
      "logical": 5407,
      "ony": 5408,
      "▁sariwa": 5409,
      "▁utusan": 5410,
      "hikal": 5411,
      "asak": 5412,
      "danao": 5413,
      "▁inte": 5414,
      "▁tanggol": 5415,
      "▁let": 5416,
      "vey": 5417,
      "▁alternatibo": 5418,
      "ugan": 5419,
      "▁effect": 5420,
      "ss": 5421,
      "ica": 5422,
      "TV": 5423,
      "lika": 5424,
      "par": 5425,
      "usin": 5426,
      "▁roman": 5427,
      "▁salad": 5428,
      "▁bilhin": 5429,
      "irm": 5430,
      "LE": 5431,
      "-5": 5432,
      "▁internas": 5433,
      "oper": 5434,
      "▁put": 5435,
      "▁did": 5436,
      "▁sang-ayon": 5437,
      "-ari": 5438,
      "▁stock": 5439,
      "▁kani": 5440,
      "▁Peters": 5441,
      "▁red": 5442,
      "mbal": 5443,
      "▁minimum": 5444,
      "cto": 5445,
      "▁biro": 5446,
      "▁pinag": 5447,
      "tors": 5448,
      "hanin": 5449,
      "▁tablets": 5450,
      "▁United": 5451,
      "vision": 5452,
      "▁Ku": 5453,
      "▁lito": 5454,
      "▁state": 5455,
      "▁x": 5456,
      "▁punda": 5457,
      "▁More": 5458,
      "PS": 5459,
      "▁dahas": 5460,
      "▁example": 5461,
      "▁konsepto": 5462,
      "▁edema": 5463,
      "▁iha": 5464,
      "vacy": 5465,
      "▁James": 5466,
      "oki": 5467,
      "▁seni": 5468,
      "▁Cal": 5469,
      "nd": 5470,
      "lano": 5471,
      "ages": 5472,
      "▁text": 5473,
      "▁contra": 5474,
      "ducation": 5475,
      "▁Cali": 5476,
      "▁kid": 5477,
      "ckles": 5478,
      "▁tipon": 5479,
      "▁roll": 5480,
      "laysay": 5481,
      "▁bana": 5482,
      "yernes": 5483,
      "▁point": 5484,
      "harma": 5485,
      "pect": 5486,
      "rika": 5487,
      "▁henerasyon": 5488,
      "▁katas": 5489,
      "▁del": 5490,
      "▁imm": 5491,
      "▁2014": 5492,
      "▁sinabi": 5493,
      "▁apartment": 5494,
      "▁balig": 5495,
      "omet": 5496,
      "▁misis": 5497,
      "▁aresto": 5498,
      "▁share": 5499,
      "ffee": 5500,
      "▁Jer": 5501,
      "▁pahiwatig": 5502,
      "lash": 5503,
      "-kum": 5504,
      "▁sand": 5505,
      "OO": 5506,
      "lian": 5507,
      "▁Cam": 5508,
      "▁writ": 5509,
      "ubos": 5510,
      "rop": 5511,
      "▁third": 5512,
      "▁austra": 5513,
      "sang": 5514,
      "igit": 5515,
      "▁dise": 5516,
      "▁Char": 5517,
      "▁ipinanganak": 5518,
      "rum": 5519,
      "▁mamahala": 5520,
      "▁konklusyon": 5521,
      "▁lea": 5522,
      "▁may-ari": 5523,
      "key": 5524,
      "▁Baga": 5525,
      "▁alalahanin": 5526,
      "▁bida": 5527,
      "▁Get": 5528,
      "▁India": 5529,
      "▁32": 5530,
      "▁York": 5531,
      "▁ses": 5532,
      "▁tou": 5533,
      "▁support": 5534,
      "▁days": 5535,
      "▁usapin": 5536,
      "▁dealer": 5537,
      "▁Cat": 5538,
      "▁wani": 5539,
      "▁krimen": 5540,
      "ago": 5541,
      "-kumulang": 5542,
      "▁ihayag": 5543,
      "▁biyernes": 5544,
      "▁requ": 5545,
      "▁parati": 5546,
      "frica": 5547,
      "▁heart": 5548,
      "ury": 5549,
      "▁low": 5550,
      "▁salaysay": 5551,
      "rame": 5552,
      "ips": 5553,
      "▁gayunpaman": 5554,
      "isode": 5555,
      "▁mai": 5556,
      "itive": 5557,
      "ex": 5558,
      "▁bigyang-": 5559,
      "▁Big": 5560,
      "▁senior": 5561,
      "▁still": 5562,
      "▁pattern": 5563,
      "▁karapatan": 5564,
      "▁conf": 5565,
      "lots": 5566,
      "▁Petersburg": 5567,
      "▁Part": 5568,
      "▁katwiran": 5569,
      "▁kumbi": 5570,
      "▁kristi": 5571,
      "▁grap": 5572,
      "▁nararapat": 5573,
      "▁AN": 5574,
      "▁tita": 5575,
      "ayan": 5576,
      "lec": 5577,
      "▁enter": 5578,
      "▁isinasagawa": 5579,
      "▁anti-": 5580,
      "▁AS": 5581,
      "igit-kumulang": 5582,
      "▁gugol": 5583,
      "ruan": 5584,
      "tainment": 5585,
      "▁impeksyon": 5586,
      "▁treatment": 5587,
      "endasyon": 5588,
      "▁talumpati": 5589,
      "▁showbiz": 5590,
      "▁humigit-kumulang": 5591,
      "▁Cent": 5592,
      "omes": 5593,
      "thing": 5594,
      "vis": 5595,
      "▁Inc": 5596,
      "ngas": 5597,
      "▁ihi": 5598,
      "▁kumbinasyon": 5599,
      "▁community": 5600,
      "▁carbohyd": 5601,
      "▁anal": 5602,
      "▁Au": 5603,
      "▁PM": 5604,
      "▁short": 5605,
      "▁provider": 5606,
      "▁plu": 5607,
      "OW": 5608,
      "mala": 5609,
      "arn": 5610,
      "▁lason": 5611,
      "panood": 5612,
      "▁carbon": 5613,
      "▁napa": 5614,
      "▁magsagawa": 5615,
      "▁bug": 5616,
      "bago": 5617,
      "▁responsable": 5618,
      "▁pag-install": 5619,
      "-sa": 5620,
      "lege": 5621,
      "▁proper": 5622,
      "▁parte": 5623,
      "▁dol": 5624,
      "▁2010": 5625,
      "▁Des": 5626,
      "▁stream": 5627,
      "▁pakikipag-": 5628,
      "▁folk": 5629,
      "▁masa": 5630,
      "▁advanced": 5631,
      "▁act": 5632,
      "mint": 5633,
      "▁gayun": 5634,
      "▁ran": 5635,
      "▁bank": 5636,
      "ane": 5637,
      "▁nun": 5638,
      "▁Story": 5639,
      "omen": 5640,
      "lok": 5641,
      "▁full": 5642,
      "▁Cruz": 5643,
      "▁isagawa": 5644,
      "▁termino": 5645,
      "cow": 5646,
      "▁clay": 5647,
      "▁yata": 5648,
      "-tu": 5649,
      "tsa": 5650,
      "lubot": 5651,
      "▁ika-1": 5652,
      "▁cancer": 5653,
      "▁sapi": 5654,
      "▁Sam": 5655,
      "▁rekom": 5656,
      "▁sunud": 5657,
      "▁credit": 5658,
      "▁series": 5659,
      "▁ans": 5660,
      "ground": 5661,
      "side": 5662,
      "▁importante": 5663,
      "▁fung": 5664,
      "▁deg": 5665,
      "▁burat": 5666,
      "▁lock": 5667,
      "reho": 5668,
      "▁rekomendasyon": 5669,
      "ense": 5670,
      "box": 5671,
      "aling": 5672,
      "aging": 5673,
      "▁balikat": 5674,
      "▁bibliya": 5675,
      "▁these": 5676,
      "▁Development": 5677,
      "lla": 5678,
      "▁swim": 5679,
      "▁walang-": 5680,
      "▁Gre": 5681,
      "yansa": 5682,
      "-8": 5683,
      "▁umpisa": 5684,
      "tal": 5685,
      "erekumenda": 5686,
      "US": 5687,
      "▁tradisyonal": 5688,
      "▁katarungan": 5689,
      "▁teorya": 5690,
      "▁unibersidad": 5691,
      "dition": 5692,
      "▁hot": 5693,
      "▁va": 5694,
      "▁gubat": 5695,
      "▁sagi": 5696,
      "▁mart": 5697,
      "▁CH": 5698,
      "▁beauty": 5699,
      "▁Love": 5700,
      "▁bed": 5701,
      "▁komportable": 5702,
      "▁Sing": 5703,
      "liam": 5704,
      "bak": 5705,
      "▁box": 5706,
      "fication": 5707,
      "OT": 5708,
      "▁Cebu": 5709,
      "▁mid": 5710,
      "agn": 5711,
      "▁artist": 5712,
      "▁Fil": 5713,
      "mig": 5714,
      "▁friends": 5715,
      "plo": 5716,
      "ference": 5717,
      "▁sunud-s": 5718,
      "MM": 5719,
      "uble": 5720,
      "▁bara": 5721,
      "rush": 5722,
      "▁nawa": 5723,
      "-de": 5724,
      "edit": 5725,
      "▁nobela": 5726,
      "ency": 5727,
      "▁sundalo": 5728,
      "▁aller": 5729,
      "▁sipsip": 5730,
      "isip": 5731,
      "▁partner": 5732,
      "stan": 5733,
      "▁samba": 5734,
      "▁imposi": 5735,
      "▁imbestigasyon": 5736,
      "▁activ": 5737,
      "eng": 5738,
      "▁First": 5739,
      "▁lider": 5740,
      "▁Program": 5741,
      "▁abuso": 5742,
      "▁isinasa": 5743,
      "▁197": 5744,
      "▁feature": 5745,
      "▁kandidato": 5746,
      "hali": 5747,
      "resent": 5748,
      "▁klasi": 5749,
      "▁tapa": 5750,
      "▁ST": 5751,
      "oble": 5752,
      "rgy": 5753,
      "▁gang": 5754,
      "bili": 5755,
      "▁Law": 5756,
      "▁before": 5757,
      "▁org": 5758,
      "▁kuting": 5759,
      "vices": 5760,
      "▁je": 5761,
      "▁lisensya": 5762,
      "-anyos": 5763,
      "▁Green": 5764,
      "▁regulasyon": 5765,
      "▁self": 5766,
      "▁friend": 5767,
      "▁muslim": 5768,
      "▁kumpletong": 5769,
      "▁fan": 5770,
      "▁Hol": 5771,
      "▁pamilya": 5772,
      "▁wit": 5773,
      "▁Tru": 5774,
      "▁cele": 5775,
      "▁Kim": 5776,
      "any": 5777,
      "▁million": 5778,
      "▁bangon": 5779,
      "▁panahon": 5780,
      "▁internasyonal": 5781,
      "hysi": 5782,
      "taryo": 5783,
      "hange": 5784,
      "▁aliw": 5785,
      "▁stan": 5786,
      "nu": 5787,
      "uma": 5788,
      "unds": 5789,
      "IG": 5790,
      "yento": 5791,
      "eso": 5792,
      "▁nawalan": 5793,
      "▁experience": 5794,
      "▁DOH": 5795,
      "ilyo": 5796,
      "▁SS": 5797,
      "▁oat": 5798,
      "ilidad": 5799,
      "▁aleman": 5800,
      "▁desk": 5801,
      "▁kanluran": 5802,
      "oth": 5803,
      "▁alaala": 5804,
      "▁nino": 5805,
      "rent": 5806,
      "▁koleksyon": 5807,
      "▁Moscow": 5808,
      "sunod": 5809,
      "▁patrol": 5810,
      "▁maximum": 5811,
      "▁With": 5812,
      "ronavirus": 5813,
      "▁pen": 5814,
      "▁Boto": 5815,
      "▁should": 5816,
      "▁editor": 5817,
      "▁feeling": 5818,
      "▁dakil": 5819,
      "kong": 5820,
      "cry": 5821,
      "▁persona": 5822,
      "kaka": 5823,
      "bik": 5824,
      "▁That": 5825,
      "▁browser": 5826,
      "▁season": 5827,
      "▁netizens": 5828,
      "uc": 5829,
      "▁mess": 5830,
      "▁take": 5831,
      "▁Men": 5832,
      "▁imposible": 5833,
      "▁board": 5834,
      "▁tindig": 5835,
      "▁hardin": 5836,
      "ong-": 5837,
      "▁datos": 5838,
      "▁ungol": 5839,
      "▁dal": 5840,
      "▁wasak": 5841,
      "▁Dani": 5842,
      "▁Hel": 5843,
      "▁disip": 5844,
      "▁luya": 5845,
      "AD": 5846,
      "▁Chief": 5847,
      "king": 5848,
      "▁dag": 5849,
      "▁alinlangan": 5850,
      "▁Chris": 5851,
      "30": 5852,
      "untunin": 5853,
      "▁ren": 5854,
      "blo": 5855,
      "▁obs": 5856,
      "▁aksidente": 5857,
      "rs": 5858,
      "order": 5859,
      "ties": 5860,
      "▁mais": 5861,
      "▁detalyado": 5862,
      "▁dayo": 5863,
      "▁Sir": 5864,
      "yaya": 5865,
      "ograp": 5866,
      "sumo": 5867,
      "-angat": 5868,
      "lutan": 5869,
      "▁Diet": 5870,
      "▁special": 5871,
      "▁Botox": 5872,
      "tical": 5873,
      "osting": 5874,
      "▁sunud-sunod": 5875,
      "stru": 5876,
      "pektibong": 5877,
      "mergency": 5878,
      "▁mag-anak": 5879,
      "uly": 5880,
      "▁Santos": 5881,
      "▁bilang": 5882,
      "▁PD": 5883,
      "▁paka": 5884,
      "ngarap": 5885,
      "▁micro": 5886,
      "▁asiwa": 5887,
      "▁night": 5888,
      "rint": 5889,
      "▁kapitbahay": 5890,
      "▁search": 5891,
      "▁Pu": 5892,
      "▁alituntunin": 5893,
      "▁bur": 5894,
      "▁konstruk": 5895,
      "istri": 5896,
      "fornia": 5897,
      "▁Russian": 5898,
      "▁juice": 5899,
      "▁Book": 5900,
      "▁sekswal": 5901,
      "kata": 5902,
      "verse": 5903,
      "▁hita": 5904,
      "ksiyon": 5905,
      "▁pool": 5906,
      "▁salung": 5907,
      "▁King": 5908,
      "kilik": 5909,
      "▁Bus": 5910,
      "▁2011": 5911,
      "uts": 5912,
      "▁parada": 5913,
      "wood": 5914,
      "▁kastila": 5915,
      "▁rosa": 5916,
      "-con": 5917,
      "SA": 5918,
      "▁UP": 5919,
      "ame": 5920,
      "▁maprotektahan": 5921,
      "▁Plus": 5922,
      "▁cre": 5923,
      "▁tangkilik": 5924,
      "▁direktor": 5925,
      "▁ال": 5926,
      "▁tapay": 5927,
      "▁administrasyon": 5928,
      "logist": 5929,
      "▁indones": 5930,
      "▁signal": 5931,
      "▁trapiko": 5932,
      "▁concer": 5933,
      "enjoy": 5934,
      "▁alarm": 5935,
      "bayan": 5936,
      "▁segundo": 5937,
      "ib": 5938,
      "▁baso": 5939,
      "▁tiya": 5940,
      "▁Mus": 5941,
      "▁kongk": 5942,
      "fting": 5943,
      "mdam": 5944,
      "ule": 5945,
      "▁senado": 5946,
      "▁val": 5947,
      "FP": 5948,
      "▁baya": 5949,
      "▁Bure": 5950,
      "kumpit": 5951,
      "FA": 5952,
      "ial": 5953,
      "▁run": 5954,
      "▁Social": 5955,
      "-ex": 5956,
      "▁bady": 5957,
      "▁always": 5958,
      "musta": 5959,
      "▁freckles": 5960,
      "▁planeta": 5961,
      "-ibang": 5962,
      "lag": 5963,
      "tero": 5964,
      "velo": 5965,
      "▁hal": 5966,
      "▁bilyar": 5967,
      "ening": 5968,
      "▁malaki": 5969,
      "▁vir": 5970,
      "▁Parasites": 5971,
      "▁cm": 5972,
      "▁ilagay": 5973,
      "▁pangungusap": 5974,
      "pec": 5975,
      "▁Game": 5976,
      "wili": 5977,
      "▁Mu": 5978,
      "▁balisa": 5979,
      "▁UK": 5980,
      "▁sulok": 5981,
      "▁paris": 5982,
      "▁pasidad": 5983,
      "HH": 5984,
      "yang": 5985,
      "meal": 5986,
      "oso": 5987,
      "▁ahente": 5988,
      "▁stud": 5989,
      "▁doble": 5990,
      "▁wel": 5991,
      "qua": 5992,
      "▁duda": 5993,
      "sasagawa": 5994,
      "▁player": 5995,
      "▁siko": 5996,
      "▁David": 5997,
      "kter": 5998,
      "arth": 5999,
      "▁Reg": 6000,
      "jor": 6001,
      "▁espas": 6002,
      "▁SM": 6003,
      "▁Bureau": 6004,
      "bic": 6005,
      "▁Of": 6006,
      "-kan": 6007,
      "▁teknikal": 6008,
      "▁sawi": 6009,
      "▁kaun": 6010,
      "▁Rom": 6011,
      "▁tatas": 6012,
      "▁password": 6013,
      "▁institusyon": 6014,
      "▁class": 6015,
      "▁karakter": 6016,
      "▁many": 6017,
      "▁medical": 6018,
      "mara": 6019,
      "▁line": 6020,
      "siyento": 6021,
      "UL": 6022,
      "▁kontro": 6023,
      "▁kabit": 6024,
      "▁TO": 6025,
      "▁Los": 6026,
      "atory": 6027,
      "▁Eli": 6028,
      "oke": 6029,
      "▁cryptocurrency": 6030,
      "IM": 6031,
      "asy": 6032,
      "-D": 6033,
      "▁konsumo": 6034,
      "▁Micha": 6035,
      "▁gayunman": 6036,
      "▁pag-access": 6037,
      "peta": 6038,
      "mance": 6039,
      "▁official": 6040,
      "▁suportahan": 6041,
      "▁blood": 6042,
      "▁99": 6043,
      "▁puna": 6044,
      "kumpitensya": 6045,
      "▁basket": 6046,
      "▁helmint": 6047,
      "▁disease": 6048,
      "itiz": 6049,
      "▁Tri": 6050,
      "▁ero": 6051,
      "hanayan": 6052,
      "▁California": 6053,
      "head": 6054,
      "▁Ana": 6055,
      "▁Pala": 6056,
      "mples": 6057,
      "▁hatol": 6058,
      "▁Amazon": 6059,
      "iao": 6060,
      "▁research": 6061,
      "▁cellphone": 6062,
      "Ang": 6063,
      "▁nipp": 6064,
      "▁aktwal": 6065,
      "▁met": 6066,
      "▁content": 6067,
      "▁cur": 6068,
      "▁mor": 6069,
      "mpala": 6070,
      "myo": 6071,
      "▁Power": 6072,
      "▁porsiyento": 6073,
      "ken": 6074,
      "▁Mig": 6075,
      "cel": 6076,
      "kati": 6077,
      "reet": 6078,
      "draw": 6079,
      "▁pagal": 6080,
      "▁gupit": 6081,
      "▁Pat": 6082,
      "ics": 6083,
      "▁Tech": 6084,
      "wet": 6085,
      "cience": 6086,
      "▁prakti": 6087,
      "▁pisngi": 6088,
      "▁salungat": 6089,
      "▁korea": 6090,
      "iting": 6091,
      "▁bigkas": 6092,
      "▁office": 6093,
      "zal": 6094,
      "▁gel": 6095,
      "yun": 6096,
      "▁trip": 6097,
      "▁bust": 6098,
      "▁kalus": 6099,
      "▁propeta": 6100,
      "▁porn": 6101,
      "▁aka": 6102,
      "▁carbohydrates": 6103,
      "▁Mom": 6104,
      "zar": 6105,
      "▁Bet": 6106,
      "▁comple": 6107,
      "▁trading": 6108,
      "▁mamahagi": 6109,
      "▁braso": 6110,
      "mmy": 6111,
      "dra": 6112,
      "▁cel": 6113,
      "▁kongkreto": 6114,
      "ultura": 6115,
      "ffa": 6116,
      "merce": 6117,
      "ape": 6118,
      "▁karbon": 6119,
      "mium": 6120,
      "▁Blue": 6121,
      "▁kalawa": 6122,
      "▁Cong": 6123,
      "▁hapo": 6124,
      "ffic": 6125,
      "12": 6126,
      "▁kalye": 6127,
      "ights": 6128,
      "▁hain": 6129,
      "tee": 6130,
      "▁gantimpala": 6131,
      "▁patak": 6132,
      "▁happy": 6133,
      "lakas": 6134,
      "▁bote": 6135,
      "▁bagama": 6136,
      "vy": 6137,
      "nagot": 6138,
      "len": 6139,
      "▁Fi": 6140,
      "taran": 6141,
      "▁ever": 6142,
      "igure": 6143,
      "▁pal": 6144,
      "▁sabo": 6145,
      "▁pur": 6146,
      "bilis": 6147,
      "▁bol": 6148,
      "ask": 6149,
      "▁effec": 6150,
      "▁tel": 6151,
      "▁Director": 6152,
      "ecutive": 6153,
      "bia": 6154,
      "aniwala": 6155,
      "▁spots": 6156,
      "▁sy": 6157,
      "sider": 6158,
      "▁EU": 6159,
      "base": 6160,
      "HA": 6161,
      "▁lahad": 6162,
      "inga": 6163,
      "▁salubong": 6164,
      "'y": 6165,
      "nabik": 6166,
      "▁project": 6167,
      "▁UN": 6168,
      "▁quarantine": 6169,
      "nology": 6170,
      "erto": 6171,
      "▁repor": 6172,
      "▁injec": 6173,
      "▁telebisyon": 6174,
      "mental": 6175,
      "▁store": 6176,
      "▁Brgy": 6177,
      "▁kapani": 6178,
      "okes": 6179,
      "▁oli": 6180,
      "▁Author": 6181,
      "▁espasyo": 6182,
      "▁tayuan": 6183,
      "▁Ig": 6184,
      "▁Associ": 6185,
      "▁European": 6186,
      "▁far": 6187,
      "CR": 6188,
      "▁emosyonal": 6189,
      "▁Top": 6190,
      "udi": 6191,
      "▁next": 6192,
      "▁Imp": 6193,
      "▁perman": 6194,
      "▁parmas": 6195,
      "▁case": 6196,
      "sible": 6197,
      "▁nananatiling": 6198,
      "▁Food": 6199,
      "▁siyam": 6200,
      "▁33": 6201,
      "▁pabaya": 6202,
      "▁tiket": 6203,
      "resh": 6204,
      "▁sir": 6205,
      "▁manu": 6206,
      "▁yong": 6207,
      "palaran": 6208,
      "▁Dan": 6209,
      "▁company": 6210,
      "▁Sh": 6211,
      "▁puwersa": 6212,
      "▁Thai": 6213,
      "▁beach": 6214,
      "▁end": 6215,
      "▁Tips": 6216,
      "rest": 6217,
      "▁klasiko": 6218,
      "▁Mc": 6219,
      "rogen": 6220,
      "▁fitness": 6221,
      "▁pags": 6222,
      "▁badyet": 6223,
      "▁tanso": 6224,
      "▁therapy": 6225,
      "UE": 6226,
      "▁System": 6227,
      "▁IP": 6228,
      "▁alamat": 6229,
      "▁Sep": 6230,
      "▁Web": 6231,
      "-9": 6232,
      "▁SEC": 6233,
      "house": 6234,
      "▁ordina": 6235,
      "gada": 6236,
      "▁protektahan": 6237,
      "-T": 6238,
      "▁krisis": 6239,
      "▁pintura": 6240,
      "▁pasilidad": 6241,
      "▁Vil": 6242,
      "mes": 6243,
      "itamin": 6244,
      "▁Phil": 6245,
      "▁nurse": 6246,
      "▁37": 6247,
      "▁responsibilidad": 6248,
      "worm": 6249,
      "▁Pina": 6250,
      "▁sahod": 6251,
      "▁ngum": 6252,
      "atiba": 6253,
      "cycle": 6254,
      "▁function": 6255,
      "lohikal": 6256,
      "▁cra": 6257,
      "▁ibon": 6258,
      "▁australia": 6259,
      "▁alay": 6260,
      "▁talahanayan": 6261,
      "▁North": 6262,
      "▁metabo": 6263,
      "▁piso": 6264,
      "fin": 6265,
      "▁sche": 6266,
      "▁drive": 6267,
      "-O": 6268,
      "come": 6269,
      "▁does": 6270,
      "nar": 6271,
      "▁pagproseso": 6272,
      "▁semento": 6273,
      "ENT": 6274,
      "▁Mindanao": 6275,
      "▁Cle": 6276,
      "▁Vir": 6277,
      "▁tax": 6278,
      "yad": 6279,
      "▁bango": 6280,
      "ulture": 6281,
      "▁sumus": 6282,
      "▁through": 6283,
      "▁ati": 6284,
      "▁roulette": 6285,
      "pepres": 6286,
      "▁sapalaran": 6287,
      "lix": 6288,
      "▁Mal": 6289,
      "▁ding": 6290,
      "dle": 6291,
      "-pro": 6292,
      "omestic": 6293,
      "▁paano": 6294,
      "▁yunit": 6295,
      "▁madla": 6296,
      "▁tes": 6297,
      "▁patos": 6298,
      "▁hukay": 6299,
      "▁virtual": 6300,
      "hus": 6301,
      "bar": 6302,
      "vao": 6303,
      "TC": 6304,
      "hensiya": 6305,
      "▁reseta": 6306,
      "▁kalusugan": 6307,
      "zed": 6308,
      "ckpot": 6309,
      "▁hehe": 6310,
      "gaw": 6311,
      "nganakan": 6312,
      "▁anu": 6313,
      "▁makapal": 6314,
      "▁asia": 6315,
      "ints": 6316,
      "▁makapag": 6317,
      "▁martes": 6318,
      "lity": 6319,
      "▁serti": 6320,
      "tension": 6321,
      "▁format": 6322,
      "▁Aug": 6323,
      "▁lus": 6324,
      "para": 6325,
      "▁bintana": 6326,
      "metro": 6327,
      "urant": 6328,
      "▁hesus": 6329,
      "▁uso": 6330,
      "▁protocol": 6331,
      "▁Jus": 6332,
      "▁Jen": 6333,
      "▁being": 6334,
      "▁Vo": 6335,
      "▁kapanganakan": 6336,
      "▁kongreso": 6337,
      "ild": 6338,
      "hout": 6339,
      "▁Show": 6340,
      "▁naku": 6341,
      "-paniwala": 6342,
      "▁transportasyon": 6343,
      "▁nor": 6344,
      "▁gaming": 6345,
      "▁never": 6346,
      "ught": 6347,
      "pepresyo": 6348,
      "durusa": 6349,
      "▁months": 6350,
      "▁kapani-paniwala": 6351,
      "▁differ": 6352,
      "▁Micro": 6353,
      "▁kono": 6354,
      "▁Africa": 6355,
      "aker": 6356,
      "▁represent": 6357,
      "tery": 6358,
      "▁tone": 6359,
      "▁dunong": 6360,
      "handa": 6361,
      "▁type": 6362,
      "▁pormal": 6363,
      "▁38": 6364,
      "orasyon": 6365,
      "bala": 6366,
      "▁premyo": 6367,
      "▁nagpasya": 6368,
      "▁Dep": 6369,
      "▁ilalim": 6370,
      "▁Cont": 6371,
      "urance": 6372,
      "▁Pla": 6373,
      "ticle": 6374,
      "▁pharma": 6375,
      "▁Nat": 6376,
      "▁marte": 6377,
      "▁pawis": 6378,
      "▁State": 6379,
      "entipiko": 6380,
      "-time": 6381,
      "▁galak": 6382,
      "OM": 6383,
      "▁fans": 6384,
      "▁feel": 6385,
      "▁Network": 6386,
      "▁sab": 6387,
      "ey": 6388,
      "atis": 6389,
      "▁tanto": 6390,
      "▁disiplina": 6391,
      "▁ped": 6392,
      "ashion": 6393,
      "▁pake": 6394,
      "▁Kat": 6395,
      "▁privacy": 6396,
      "PP": 6397,
      "▁ob": 6398,
      "▁budget": 6399,
      "▁Distri": 6400,
      "dez": 6401,
      "star": 6402,
      "nggo": 6403,
      "▁madali": 6404,
      "yasat": 6405,
      "aster": 6406,
      "▁Sili": 6407,
      "-ma": 6408,
      "▁hino": 6409,
      "cast": 6410,
      "▁event": 6411,
      "▁yang": 6412,
      "▁coronavirus": 6413,
      "hunan": 6414,
      "kt": 6415,
      "▁pagma": 6416,
      "▁cake": 6417,
      "▁isinasaalang-alang": 6418,
      "vate": 6419,
      "▁management": 6420,
      "▁tad": 6421,
      "lastic": 6422,
      "▁list": 6423,
      "▁suwerte": 6424,
      "core": 6425,
      "▁handog": 6426,
      "▁reading": 6427,
      "▁suk": 6428,
      "▁psy": 6429,
      "lyn": 6430,
      "rismo": 6431,
      "▁exercise": 6432,
      "▁After": 6433,
      "▁34": 6434,
      "mado": 6435,
      "▁t-ibang": 6436,
      "ering": 6437,
      "tian": 6438,
      "kara": 6439,
      "▁kristiyano": 6440,
      "▁praktikal": 6441,
      "hts": 6442,
      "▁extra": 6443,
      "rina": 6444,
      "hotos": 6445,
      "lant": 6446,
      "▁kulubot": 6447,
      "▁baybay": 6448,
      "▁place": 6449,
      "right": 6450,
      "▁tagpo": 6451,
      "lize": 6452,
      "▁bihis": 6453,
      "▁pagtatrabaho": 6454,
      "▁William": 6455,
      "▁kil": 6456,
      "ality": 6457,
      "▁front": 6458,
      "▁Kore": 6459,
      "▁400": 6460,
      "▁talata": 6461,
      "veloper": 6462,
      "▁siyasat": 6463,
      "▁halili": 6464,
      "cription": 6465,
      "TM": 6466,
      "gate": 6467,
      "▁Pay": 6468,
      "▁Text": 6469,
      "▁security": 6470,
      "▁boyfriend": 6471,
      "▁dilaw": 6472,
      "▁Source": 6473,
      "▁cost": 6474,
      "▁konsulta": 6475,
      "▁biyaya": 6476,
      "▁Bong": 6477,
      "▁wallet": 6478,
      "rumento": 6479,
      "▁weight": 6480,
      "▁agrik": 6481,
      "▁download": 6482,
      "▁tuwiran": 6483,
      "▁emplo": 6484,
      "▁kunan": 6485,
      "▁Sinus": 6486,
      "▁Filip": 6487,
      "▁window": 6488,
      "of": 6489,
      "▁Lucky": 6490,
      "▁great": 6491,
      "▁dulas": 6492,
      "▁tanghali": 6493,
      "▁III": 6494,
      "▁siyentipiko": 6495,
      "ism": 6496,
      "▁single": 6497,
      "▁happ": 6498,
      "▁birthday": 6499,
      "▁butil": 6500,
      "▁oatmeal": 6501,
      "▁Ilo": 6502,
      "▁i-download": 6503,
      "hinat": 6504,
      "pina": 6505,
      "bai": 6506,
      "▁operator": 6507,
      "aring": 6508,
      "hard": 6509,
      "▁Dom": 6510,
      "imento": 6511,
      "wela": 6512,
      "▁inclu": 6513,
      "▁kag": 6514,
      "▁where": 6515,
      "▁sk": 6516,
      "▁Daniel": 6517,
      "▁sikip": 6518,
      "onomic": 6519,
      "▁lolo": 6520,
      "▁punla": 6521,
      "rubahan": 6522,
      "▁Site": 6523,
      "60": 6524,
      "▁finan": 6525,
      "▁yog": 6526,
      "▁Out": 6527,
      "▁libing": 6528,
      "▁Ange": 6529,
      "▁cosmetic": 6530,
      "mad": 6531,
      "▁Spa": 6532,
      "▁lubog": 6533,
      "▁tradisyunal": 6534,
      "▁kani-kan": 6535,
      "▁CR": 6536,
      "kilala": 6537,
      "▁uto": 6538,
      "▁Public": 6539,
      "▁information": 6540,
      "resibo": 6541,
      "▁demok": 6542,
      "▁Boy": 6543,
      "lift": 6544,
      "▁West": 6545,
      "hinatnan": 6546,
      "▁syn": 6547,
      "ruit": 6548,
      "▁instrumento": 6549,
      "cribe": 6550,
      "wad": 6551,
      "▁club": 6552,
      "bb": 6553,
      "▁stay": 6554,
      "▁kapana": 6555,
      "▁klinika": 6556,
      "Date": 6557,
      "ez": 6558,
      "eting": 6559,
      "▁auto": 6560,
      "mittee": 6561,
      "▁barko": 6562,
      "▁kaha": 6563,
      "▁Pwede": 6564,
      "▁pare-pa": 6565,
      "▁Davao": 6566,
      "lement": 6567,
      "▁tutol": 6568,
      "▁since": 6569,
      "dule": 6570,
      "▁Beauty": 6571,
      "▁counter": 6572,
      "▁condition": 6573,
      "gation": 6574,
      "ño": 6575,
      "▁contin": 6576,
      "▁brand": 6577,
      "▁lugod": 6578,
      "irs": 6579,
      "unic": 6580,
      "▁Cho": 6581,
      "▁Sarah": 6582,
      "lized": 6583,
      "77": 6584,
      "table": 6585,
      "lines": 6586,
      "▁Wa": 6587,
      "▁yelo": 6588,
      "bibigay": 6589,
      "rito": 6590,
      "link": 6591,
      "▁radi": 6592,
      "stra": 6593,
      "▁kawili": 6594,
      "inger": 6595,
      "lulite": 6596,
      "▁sumusuporta": 6597,
      "▁lapto": 6598,
      "▁Ter": 6599,
      "▁baon": 6600,
      "▁cent": 6601,
      "▁tuta": 6602,
      "▁deli": 6603,
      "UT": 6604,
      "yul": 6605,
      "▁too": 6606,
      "-d": 6607,
      "long": 6608,
      "▁Oh": 6609,
      "▁dekorasyon": 6610,
      "rant": 6611,
      "▁tradisyon": 6612,
      "▁while": 6613,
      "lada": 6614,
      "▁cooki": 6615,
      "▁plastik": 6616,
      "IO": 6617,
      "▁money": 6618,
      "▁makina": 6619,
      "▁huwe": 6620,
      "ritikal": 6621,
      "lemento": 6622,
      "▁promos": 6623,
      "▁inin": 6624,
      "vite": 6625,
      "▁major": 6626,
      "yna": 6627,
      "▁pare-pareho": 6628,
      "▁domain": 6629,
      "▁med": 6630,
      "▁works": 6631,
      "▁domestic": 6632,
      "▁tawad": 6633,
      "▁emosyon": 6634,
      "▁indonesia": 6635,
      "paran": 6636,
      "▁Jay": 6637,
      "▁patas": 6638,
      "▁anghel": 6639,
      "▁doc": 6640,
      "▁blackjack": 6641,
      "▁log": 6642,
      "▁Anton": 6643,
      "ship": 6644,
      "▁2009": 6645,
      "▁Kath": 6646,
      "▁survey": 6647,
      "▁German": 6648,
      "▁huwebes": 6649,
      "mage": 6650,
      "▁those": 6651,
      "▁Comp": 6652,
      "▁used": 6653,
      "rez": 6654,
      "▁sige": 6655,
      "▁pagdaragdag": 6656,
      "▁Hy": 6657,
      "cion": 6658,
      "▁suplemento": 6659,
      "elt": 6660,
      "pri": 6661,
      "car": 6662,
      "▁Ass": 6663,
      "▁I'm": 6664,
      "▁mg": 6665,
      "▁pulu": 6666,
      "konekta": 6667,
      "upad": 6668,
      "reas": 6669,
      "▁buhat": 6670,
      "▁Cy": 6671,
      "▁makinarya": 6672,
      "hie": 6673,
      "rics": 6674,
      "▁workers": 6675,
      "▁nipples": 6676,
      "▁sagana": 6677,
      "rust": 6678,
      "▁hiram": 6679,
      "▁pirma": 6680,
      "▁mommy": 6681,
      "▁Coun": 6682,
      "unsyo": 6683,
      "orts": 6684,
      "▁pulbos": 6685,
      "▁find": 6686,
      "▁Br": 6687,
      "▁Enter": 6688,
      "▁paniniwala": 6689,
      "omething": 6690,
      "▁IG": 6691,
      "▁hukom": 6692,
      "icer": 6693,
      "-10": 6694,
      "urna": 6695,
      "vertis": 6696,
      "▁pakikipag-usap": 6697,
      "▁permanente": 6698,
      "NT": 6699,
      "▁paul": 6700,
      "▁come": 6701,
      "▁Bata": 6702,
      "▁gawad": 6703,
      "▁second": 6704,
      "pend": 6705,
      "▁source": 6706,
      "pok": 6707,
      "wang-": 6708,
      "ette": 6709,
      "▁kato": 6710,
      "▁wall": 6711,
      "got": 6712,
      "▁PO": 6713,
      "ented": 6714,
      "▁santo": 6715,
      "▁DI": 6716,
      "▁ngalan": 6717,
      "▁magpa": 6718,
      "ween": 6719,
      "▁laptop": 6720,
      "▁bad": 6721,
      "▁uho": 6722,
      "istance": 6723,
      "cken": 6724,
      "ira": 6725,
      "▁present": 6726,
      "isado": 6727,
      "▁episode": 6728,
      "vas": 6729,
      "▁icon": 6730,
      "▁puwesto": 6731,
      "▁ner": 6732,
      "▁pagsasaayos": 6733,
      "▁Vis": 6734,
      "xas": 6735,
      "▁abang": 6736,
      "▁inten": 6737,
      "▁mekan": 6738,
      "ises": 6739,
      "▁kutsa": 6740,
      "▁aktibo": 6741,
      "▁que": 6742,
      "▁yogurt": 6743,
      "ulation": 6744,
      "rante": 6745,
      "-on": 6746,
      "redo": 6747,
      "▁custo": 6748,
      "▁Allah": 6749,
      "▁pakete": 6750,
      "klusi": 6751,
      "▁libu": 6752,
      "▁Wag": 6753,
      "▁lathala": 6754,
      "loso": 6755,
      "▁Baby": 6756,
      "▁bukol": 6757,
      "▁Pol": 6758,
      "▁course": 6759,
      "▁March": 6760,
      "▁bakin": 6761,
      "▁grabe": 6762,
      "▁ulam": 6763,
      "▁could": 6764,
      "Fi": 6765,
      "binsya": 6766,
      "-L": 6767,
      "▁Photo": 6768,
      "▁Sinusuportahan": 6769,
      "▁Ind": 6770,
      "TP": 6771,
      "taman": 6772,
      "▁Dia": 6773,
      "▁gawaran": 6774,
      "urces": 6775,
      "demi": 6776,
      "▁things": 6777,
      "siklo": 6778,
      "▁paha": 6779,
      "tually": 6780,
      "bio": 6781,
      "▁Villa": 6782,
      "itute": 6783,
      "▁gri": 6784,
      "▁pagba": 6785,
      "▁monitor": 6786,
      "tures": 6787,
      "▁please": 6788,
      "▁pagsa": 6789,
      "irman": 6790,
      "▁inirerekumenda": 6791,
      "▁Fri": 6792,
      "▁el": 6793,
      "▁police": 6794,
      "-bas": 6795,
      "went": 6796,
      "▁layon": 6797,
      "ults": 6798,
      "▁AC": 6799,
      "▁tsaa": 6800,
      "▁Thank": 6801,
      "▁vs": 6802,
      "▁likor": 6803,
      "▁turista": 6804,
      "▁pagsasagawa": 6805,
      "-wili": 6806,
      "ges": 6807,
      "▁coffee": 6808,
      "▁Sige": 6809,
      "cone": 6810,
      "zer": 6811,
      "▁hospital": 6812,
      "▁Pac": 6813,
      "▁River": 6814,
      "▁kawili-wili": 6815,
      "ned": 6816,
      "▁sol": 6817,
      "istu": 6818,
      "▁hair": 6819,
      "▁labasa": 6820,
      "▁background": 6821,
      "ners": 6822,
      "▁staff": 6823,
      "▁kani-kanila": 6824,
      "▁tawid": 6825,
      "▁produc": 6826,
      "solina": 6827,
      "▁TR": 6828,
      "▁ma-access": 6829,
      "-libo": 6830,
      "▁tits": 6831,
      "leng": 6832,
      "▁MM": 6833,
      "▁Ty": 6834,
      "▁smartphone": 6835,
      "▁ordinaryo": 6836,
      "coun": 6837,
      "▁balu": 6838,
      "▁55": 6839,
      "vincial": 6840,
      "▁tot": 6841,
      "ants": 6842,
      "tao": 6843,
      "▁ana": 6844,
      "pter": 6845,
      "▁konek": 6846,
      "▁alinsunod": 6847,
      "dinan": 6848,
      "▁June": 6849,
      "▁gasolina": 6850,
      "etnam": 6851,
      "▁July": 6852,
      "▁thread": 6853,
      "▁formula": 6854,
      "▁agrikultura": 6855,
      "▁Shi": 6856,
      "▁mem": 6857,
      "bie": 6858,
      "▁pinaka-": 6859,
      "mbers": 6860,
      "▁libu-libo": 6861,
      "PR": 6862,
      "atlo": 6863,
      "▁P2": 6864,
      "▁young": 6865,
      "▁promosyon": 6866,
      "▁palam": 6867,
      "▁actress": 6868,
      "▁Bat": 6869,
      "▁deb": 6870,
      "▁karun": 6871,
      "▁ticket": 6872,
      "▁update": 6873,
      "▁pawi": 6874,
      "▁ret": 6875,
      "▁shop": 6876,
      "klusibo": 6877,
      "▁mm": 6878,
      "▁pabrika": 6879,
      "road": 6880,
      "▁actor": 6881,
      "▁Prof": 6882,
      "▁Christmas": 6883,
      "▁labo": 6884,
      "-N": 6885,
      "kedyul": 6886,
      "bla": 6887,
      "rast": 6888,
      "cific": 6889,
      "ithdraw": 6890,
      "▁Gon": 6891,
      "terol": 6892,
      "ilay": 6893,
      "▁Bal": 6894,
      "▁api": 6895,
      "▁give": 6896,
      "▁himas": 6897,
      "plano": 6898,
      "▁esp": 6899,
      "minasyon": 6900,
      "viron": 6901,
      "▁dec": 6902,
      "person": 6903,
      "nubay": 6904,
      "▁fire": 6905,
      "▁diagn": 6906,
      "ace": 6907,
      "▁baligtaran": 6908,
      "WD": 6909,
      "▁sample": 6910,
      "▁Silicone": 6911,
      "▁lamb": 6912,
      "hern": 6913,
      "▁probinsya": 6914,
      "▁sweet": 6915,
      "▁city": 6916,
      "▁travel": 6917,
      "▁Ped": 6918,
      "nation": 6919,
      "▁Michael": 6920,
      "med": 6921,
      "▁75": 6922,
      "▁biblia": 6923,
      "katiwala": 6924,
      "▁radyo": 6925,
      "▁integ": 6926,
      "▁alu": 6927,
      "▁harang": 6928,
      "▁price": 6929,
      "▁karunungan": 6930,
      "OC": 6931,
      "wor": 6932,
      "redi": 6933,
      "▁pinaka-e": 6934,
      "▁mall": 6935,
      "▁sul": 6936,
      "▁gener": 6937,
      "▁pag-download": 6938,
      "rehen": 6939,
      "tanas": 6940,
      "▁why": 6941,
      "▁Market": 6942,
      "mbuhay": 6943,
      "▁trato": 6944,
      "▁pukaw": 6945,
      "▁masahe": 6946,
      "sidential": 6947,
      "▁Station": 6948,
      "▁motorsiklo": 6949,
      "BC": 6950,
      "▁made": 6951,
      "▁Girl": 6952,
      "▁eksperimento": 6953,
      "▁atas": 6954,
      "▁Sen": 6955,
      "▁eksklusibo": 6956,
      "mata": 6957,
      "▁sumpa": 6958,
      "▁pow": 6959,
      "▁teach": 6960,
      "▁mono": 6961,
      "kout": 6962,
      "▁liham": 6963,
      "▁tero": 6964,
      "inggan": 6965,
      "▁Sur": 6966,
      "-di": 6967,
      "lids": 6968,
      "▁bihasa": 6969,
      "▁basag": 6970,
      "▁drama": 6971,
      "▁jeep": 6972,
      "mum": 6973,
      "larg": 6974,
      "▁nas": 6975,
      "▁They": 6976,
      "▁Ah": 6977,
      "other": 6978,
      "onia": 6979,
      "▁Wo": 6980,
      "kaso": 6981,
      "▁lugi": 6982,
      "▁kritikal": 6983,
      "lesia": 6984,
      "estival": 6985,
      "▁Ara": 6986,
      "▁director": 6987,
      "▁2008": 6988,
      "▁Make": 6989,
      "▁dasal": 6990,
      "▁bilanggo": 6991,
      "▁buy": 6992,
      "▁Stu": 6993,
      "▁Richard": 6994,
      "▁satanas": 6995,
      "▁career": 6996,
      "▁Sum": 6997,
      "▁comments": 6998,
      "grade": 6999,
      "zy": 7000,
      "em": 7001,
      "▁palamuti": 7002,
      "▁naririnig": 7003,
      "▁diya": 7004,
      "▁something": 7005,
      "▁plant": 7006,
      "▁Francisco": 7007,
      "▁kusa": 7008,
      "▁Tan": 7009,
      "▁Port": 7010,
      "▁respeto": 7011,
      "itoryo": 7012,
      "▁patnubay": 7013,
      "▁developer": 7014,
      "chain": 7015,
      "▁pressure": 7016,
      "-to-": 7017,
      "▁frame": 7018,
      "▁cool": 7019,
      "▁Management": 7020,
      "nie": 7021,
      "▁species": 7022,
      "▁halu": 7023,
      "▁iba''t": 7024,
      "▁District": 7025,
      "cter": 7026,
      "▁tae": 7027,
      "▁Joy": 7028,
      "▁ulap": 7029,
      "80": 7030,
      "ium": 7031,
      "▁Okay": 7032,
      "40": 7033,
      "▁His": 7034,
      "▁talim": 7035,
      "▁tipo": 7036,
      "▁pakinggan": 7037,
      "katuparan": 7038,
      "cember": 7039,
      "▁pananagot": 7040,
      "▁Nov": 7041,
      "▁lagda": 7042,
      "▁Geor": 7043,
      "zing": 7044,
      "▁buka": 7045,
      "pedia": 7046,
      "▁tamtaman": 7047,
      "▁nasa": 7048,
      "▁bran": 7049,
      "eser": 7050,
      "▁Region": 7051,
      "▁eroplano": 7052,
      "-una": 7053,
      "▁iulat": 7054,
      "▁cut": 7055,
      "▁Op": 7056,
      "▁sea": 7057,
      "tosis": 7058,
      "undation": 7059,
      "▁April": 7060,
      "▁tamad": 7061,
      "▁ibago": 7062,
      "▁Water": 7063,
      "ennis": 7064,
      "▁pakikipag-Date": 7065,
      "mpion": 7066,
      "▁Fore": 7067,
      "▁demon": 7068,
      "▁pinapa": 7069,
      "▁Er": 7070,
      "▁Education": 7071,
      "iler": 7072,
      "▁OK": 7073,
      "-ga": 7074,
      "▁three": 7075,
      "▁broker": 7076,
      "▁anyaya": 7077,
      "ju": 7078,
      "▁Vol": 7079,
      "tata": 7080,
      "▁physi": 7081,
      "▁Roque": 7082,
      "▁tsino": 7083,
      "▁lagu": 7084,
      "arning": 7085,
      "▁impluwensya": 7086,
      "▁leon": 7087,
      "ready": 7088,
      "AA": 7089,
      "▁tus": 7090,
      "▁tainga": 7091,
      "▁Please": 7092,
      "vention": 7093,
      "yol": 7094,
      "text": 7095,
      "▁Was": 7096,
      "lado": 7097,
      "cking": 7098,
      "▁ista": 7099,
      "▁Kom": 7100,
      "▁karga": 7101,
      "▁clas": 7102,
      "gger": 7103,
      "kis": 7104,
      "utes": 7105,
      "ats": 7106,
      "▁kilig": 7107,
      "▁Chan": 7108,
      "▁kontrib": 7109,
      "▁hahaha": 7110,
      "kim": 7111,
      "umite": 7112,
      "▁Luzon": 7113,
      "▁inilalagay": 7114,
      "erald": 7115,
      "▁jackpot": 7116,
      "▁answer": 7117,
      "▁ranggo": 7118,
      "▁der": 7119,
      "▁uk": 7120,
      "▁pagkakatiwala": 7121,
      "▁layunin": 7122,
      "▁Kras": 7123,
      "ysis": 7124,
      "▁cellulite": 7125,
      "vol": 7126,
      "▁anay": 7127,
      "▁pangatlo": 7128,
      "▁pagta": 7129,
      "paper": 7130,
      "▁bomba": 7131,
      "▁daan": 7132,
      "▁whe": 7133,
      "ott": 7134,
      "▁syempre": 7135,
      "▁interface": 7136,
      "▁reso": 7137,
      "▁dose": 7138,
      "▁Sim": 7139,
      "▁bukid": 7140,
      "▁Skin": 7141,
      "▁Bay": 7142,
      "▁job": 7143,
      "▁ahas": 7144,
      "▁LT": 7145,
      "sty": 7146,
      "▁nags": 7147,
      "▁drag": 7148,
      "16": 7149,
      "karan": 7150,
      "cement": 7151,
      "care": 7152,
      "lisa": 7153,
      "▁glu": 7154,
      "▁Service": 7155,
      "▁kumplikadong": 7156,
      "▁taunan": 7157,
      "ho-host": 7158,
      "mbay": 7159,
      "unsad": 7160,
      "▁konte": 7161,
      "▁dayuhan": 7162,
      "▁ris": 7163,
      "▁hubog": 7164,
      "▁international": 7165,
      "essional": 7166,
      "▁las": 7167,
      "▁Eh": 7168,
      "nang": 7169,
      "ripisyo": 7170,
      "▁pagpepresyo": 7171,
      "unyag": 7172,
      "▁operation": 7173,
      "▁nakakaranas": 7174,
      "ush": 7175,
      "ingo": 7176,
      "▁Vin": 7177,
      "▁kahihinatnan": 7178,
      "▁Association": 7179,
      "▁hips": 7180,
      "edy": 7181,
      "▁ED": 7182,
      "ize": 7183,
      "▁150": 7184,
      "▁barya": 7185,
      "imp": 7186,
      "▁Fire": 7187,
      "belya": 7188,
      "uda": 7189,
      "▁Wal": 7190,
      "▁halata": 7191,
      "▁balag": 7192,
      "gs": 7193,
      "zine": 7194,
      "dard": 7195,
      "▁bubelya": 7196,
      "▁gambala": 7197,
      "▁during": 7198,
      "▁akma": 7199,
      "▁Work": 7200,
      "▁Time": 7201,
      "leep": 7202,
      "▁Jes": 7203,
      "pay": 7204,
      "▁nanga": 7205,
      "▁amba": 7206,
      "▁banat": 7207,
      "▁ci": 7208,
      "largement": 7209,
      "▁silip": 7210,
      "▁gran": 7211,
      "▁Bri": 7212,
      "▁sakripisyo": 7213,
      "-based": 7214,
      "▁tulay": 7215,
      "ordina": 7216,
      "▁Circ": 7217,
      "liday": 7218,
      "grap": 7219,
      "buyas": 7220,
      "▁abogado": 7221,
      "▁worker": 7222,
      "▁Julia": 7223,
      "presa": 7224,
      "▁such": 7225,
      "▁Weight": 7226,
      "formance": 7227,
      "yonaryo": 7228,
      "▁emergency": 7229,
      "▁reti": 7230,
      "▁RO": 7231,
      "▁injections": 7232,
      "▁Ni": 7233,
      "ctober": 7234,
      "▁Ins": 7235,
      "▁alipin": 7236,
      "▁Ul": 7237,
      "vesti": 7238,
      "▁football": 7239,
      "▁Inir": 7240,
      "▁ngumiti": 7241,
      "▁lasi": 7242,
      "veri": 7243,
      "▁Bulacan": 7244,
      "▁advertis": 7245,
      "berry": 7246,
      "RT": 7247,
      "▁seryosong": 7248,
      "▁degree": 7249,
      "van": 7250,
      "▁atensyon": 7251,
      "▁nananatili": 7252,
      "▁Organ": 7253,
      "-12": 7254,
      "facing": 7255,
      "▁restaurant": 7256,
      "▁gunita": 7257,
      "▁kontribusyon": 7258,
      "▁sibuyas": 7259,
      "▁Yun": 7260,
      "cipal": 7261,
      "panyol": 7262,
      "▁39": 7263,
      "▁suspen": 7264,
      "▁error": 7265,
      "▁dingding": 7266,
      "▁nayon": 7267,
      "▁landi": 7268,
      "▁Krasno": 7269,
      "▁usbong": 7270,
      "rated": 7271,
      "▁libang": 7272,
      "▁Em": 7273,
      "▁When": 7274,
      "▁alkal": 7275,
      "ague": 7276,
      "▁flu": 7277,
      "urfacing": 7278,
      "11": 7279,
      "AK": 7280,
      "▁tor": 7281,
      "▁kor": 7282,
      "▁Jac": 7283,
      "▁action": 7284,
      "▁electric": 7285,
      "UN": 7286,
      "▁consum": 7287,
      "▁People": 7288,
      "▁pekeng": 7289,
      "▁dad": 7290,
      "▁Mala": 7291,
      "▁role": 7292,
      "ume": 7293,
      "▁Reyes": 7294,
      "▁ec": 7295,
      "▁tiwali": 7296,
      "▁December": 7297,
      "▁Vietnam": 7298,
      "▁random": 7299,
      "▁bulag": 7300,
      "▁sheet": 7301,
      "▁Hon": 7302,
      "fect": 7303,
      "▁Ms": 7304,
      "▁Dri": 7305,
      "▁Heart": 7306,
      "▁radio": 7307,
      "▁training": 7308,
      "cade": 7309,
      "▁Wiki": 7310,
      "VPN": 7311,
      "nger": 7312,
      "▁saw": 7313,
      "▁kauna": 7314,
      "ists": 7315,
      "▁Crypto": 7316,
      "▁EC": 7317,
      "▁ire": 7318,
      "ister": 7319,
      "▁maskara": 7320,
      "▁alon": 7321,
      "▁AD": 7322,
      "▁kristo": 7323,
      "▁Hospital": 7324,
      "gante": 7325,
      "▁espanyol": 7326,
      "▁Yes": 7327,
      "▁bangka": 7328,
      "etisyon": 7329,
      "▁Pag-": 7330,
      "▁better": 7331,
      "ising": 7332,
      "▁rice": 7333,
      "▁won": 7334,
      "ublish": 7335,
      "▁95": 7336,
      "crypt": 7337,
      "urnal": 7338,
      "▁baliw": 7339,
      "ratehiya": 7340,
      "▁Ly": 7341,
      "▁Pan": 7342,
      "▁mekanismo": 7343,
      "obile": 7344,
      "ization": 7345,
      "isturiz": 7346,
      "met": 7347,
      "▁pandemic": 7348,
      "▁Atty": 7349,
      "▁e-": 7350,
      "eline": 7351,
      "venue": 7352,
      "▁netizen": 7353,
      "▁Medical": 7354,
      "ktot": 7355,
      "tuhin": 7356,
      "▁yu": 7357,
      "▁pangal": 7358,
      "▁adult": 7359,
      "▁message": 7360,
      "vit": 7361,
      "var": 7362,
      "dilla": 7363,
      "▁Tu": 7364,
      "urch": 7365,
      "▁pinaka-epektibong": 7366,
      "▁fast": 7367,
      "▁Tor": 7368,
      "▁sele": 7369,
      "▁model": 7370,
      "▁krus": 7371,
      "ots": 7372,
      "▁already": 7373,
      "▁sexy": 7374,
      "istry": 7375,
      "▁Korean": 7376,
      "▁rehi": 7377,
      "▁Pedro": 7378,
      "ccess": 7379,
      "▁Party": 7380,
      "▁plugin": 7381,
      "oint": 7382,
      "▁puppy": 7383,
      "▁ruta": 7384,
      "▁luwal": 7385,
      "▁pani": 7386,
      "range": 7387,
      "▁cookies": 7388,
      "opti": 7389,
      "▁samb": 7390,
      "▁keep": 7391,
      "▁alb": 7392,
      "▁09": 7393,
      "▁LGU": 7394,
      "▁banayad": 7395,
      "▁feces": 7396,
      "▁eat": 7397,
      "cu": 7398,
      "under": 7399,
      "▁obli": 7400,
      "▁tray": 7401,
      "▁magpasya": 7402,
      "▁Dark": 7403,
      "rism": 7404,
      "▁pinta": 7405,
      "▁picture": 7406,
      "▁mut": 7407,
      "chen": 7408,
      "▁parmasya": 7409,
      "husay": 7410,
      "tak": 7411,
      "▁fashion": 7412,
      "vant": 7413,
      "ching": 7414,
      "▁mag-click": 7415,
      "▁Sena": 7416,
      "minado": 7417,
      "legal": 7418,
      "tember": 7419,
      "ginal": 7420,
      "ression": 7421,
      "▁42": 7422,
      "ster": 7423,
      "▁tonelada": 7424,
      "▁Max": 7425,
      "▁bentahe": 7426,
      "▁250": 7427,
      "pression": 7428,
      "▁flight": 7429,
      "▁rest": 7430,
      "▁Hu": 7431,
      "▁solar": 7432,
      "▁48": 7433,
      "lide": 7434,
      "▁polo": 7435,
      "▁enjoy": 7436,
      "▁translation": 7437,
      "▁Garcia": 7438,
      "▁ikina": 7439,
      "apore": 7440,
      "▁song": 7441,
      "▁Jeho": 7442,
      "torya": 7443,
      "▁result": 7444,
      "▁Administ": 7445,
      "lands": 7446,
      "▁Bank": 7447,
      "▁Dig": 7448,
      "▁teritoryo": 7449,
      "▁Forum": 7450,
      "mine": 7451,
      "▁close": 7452,
      "mptom": 7453,
      "▁masdan": 7454,
      "din": 7455,
      "ulator": 7456,
      "act": 7457,
      "▁sipag": 7458,
      "▁master": 7459,
      "▁Great": 7460,
      "lesterol": 7461,
      "▁ago": 7462,
      "▁Yan": 7463,
      "dok": 7464,
      "▁October": 7465,
      "▁galu": 7466,
      "▁aki": 7467,
      "▁alkalde": 7468,
      "▁Cup": 7469,
      "▁pating": 7470,
      "hroom": 7471,
      "▁sawa": 7472,
      "▁ping": 7473,
      "lies": 7474,
      "▁liko": 7475,
      "▁ahensiya": 7476,
      "ña": 7477,
      "▁Gil": 7478,
      "▁Force": 7479,
      "▁Audio": 7480,
      "raft": 7481,
      "▁uma": 7482,
      "▁ilihan": 7483,
      "ea": 7484,
      "▁timp": 7485,
      "▁kauna-una": 7486,
      "gon": 7487,
      "▁resurfacing": 7488,
      "kansela": 7489,
      "MP": 7490,
      "▁must": 7491,
      "umen": 7492,
      "▁hilo": 7493,
      "▁palagay": 7494,
      "gor": 7495,
      "igmig": 7496,
      "▁esk": 7497,
      "-panabik": 7498,
      "▁Keto": 7499,
      "▁paganda": 7500,
      "uary": 7501,
      "▁pataw": 7502,
      "cian": 7503,
      "▁Miguel": 7504,
      "ION": 7505,
      "siyal": 7506,
      "-na": 7507,
      "ior": 7508,
      "uu": 7509,
      "▁Central": 7510,
      "lili": 7511,
      "▁traffic": 7512,
      "gasig": 7513,
      "▁obserba": 7514,
      "▁galugad": 7515,
      "▁lapad": 7516,
      "▁halum": 7517,
      "▁Gan": 7518,
      "posisyon": 7519,
      "▁paren": 7520,
      "ccarat": 7521,
      "▁halumigmig": 7522,
      "▁gar": 7523,
      "▁pasensya": 7524,
      "▁panawag": 7525,
      "▁Cancer": 7526,
      "▁variant": 7527,
      "▁kauna-unahan": 7528,
      "ondon": 7529,
      "▁graphic": 7530,
      "tso": 7531,
      "gic": 7532,
      "wards": 7533,
      "▁Council": 7534,
      "▁eto": 7535,
      "▁panguna": 7536,
      "▁aff": 7537,
      "▁Ori": 7538,
      "▁i-c": 7539,
      "▁tul": 7540,
      "▁Ray": 7541,
      "▁distri": 7542,
      "▁interview": 7543,
      "cted": 7544,
      "▁atu": 7545,
      "olyo": 7546,
      "zi": 7547,
      "▁dyan": 7548,
      "▁ebid": 7549,
      "▁Let": 7550,
      "▁comment": 7551,
      "▁THE": 7552,
      "▁Ipina": 7553,
      "eph": 7554,
      "type": 7555,
      "▁daya": 7556,
      "loud": 7557,
      "▁Government": 7558,
      "▁ilunsad": 7559,
      "▁tiyaga": 7560,
      "▁Batangas": 7561,
      "▁ipa": 7562,
      "▁nuno": 7563,
      "▁Cavite": 7564,
      "▁impek": 7565,
      "▁chain": 7566,
      "▁bitaw": 7567,
      "▁baccarat": 7568,
      "▁wire": 7569,
      "▁pros": 7570,
      "▁Lord": 7571,
      "▁Jud": 7572,
      "▁Para": 7573,
      "▁Brit": 7574,
      "▁iligal": 7575,
      "▁audio": 7576,
      "▁Press": 7577,
      "▁White": 7578,
      "▁tono": 7579,
      "▁record": 7580,
      "▁pagpapaunlad": 7581,
      "▁isasa": 7582,
      "▁Posted": 7583,
      "asi": 7584,
      "▁try": 7585,
      "▁Our": 7586,
      "▁makapa": 7587,
      "oday": 7588,
      "lisasyon": 7589,
      "▁Bible": 7590,
      "▁nakiki": 7591,
      "▁secure": 7592,
      "▁sigasig": 7593,
      "▁SP": 7594,
      "▁laguna": 7595,
      "optimize": 7596,
      "▁plus": 7597,
      "▁tagas": 7598,
      "▁relations": 7599,
      "pher": 7600,
      "▁Email": 7601,
      "comp": 7602,
      "▁payuhan": 7603,
      "▁country": 7604,
      "yone": 7605,
      "▁agaran": 7606,
      "TION": 7607,
      "▁atubili": 7608,
      "▁eyelids": 7609,
      "▁different": 7610,
      "▁Gel": 7611,
      "▁Feb": 7612,
      "▁America": 7613,
      "▁Sports": 7614,
      "▁rati": 7615,
      "000": 7616,
      "▁Anne": 7617,
      "bert": 7618,
      "▁01": 7619,
      "▁Gab": 7620,
      "tur": 7621,
      "▁Pal": 7622,
      "▁global": 7623,
      "mga": 7624,
      "▁CC": 7625,
      "▁dan": 7626,
      "hot": 7627,
      "▁panatilihin": 7628,
      "umpara": 7629,
      "▁kumpetisyon": 7630,
      "▁ilarawan": 7631,
      "xic": 7632,
      "▁Trans": 7633,
      "▁memo": 7634,
      "ligro": 7635,
      "▁Games": 7636,
      "testa": 7637,
      "mate": 7638,
      "▁sar": 7639,
      "▁bahid": 7640,
      "▁Bio": 7641,
      "licy": 7642,
      "▁i-click": 7643,
      "▁dolyar": 7644,
      "▁Jehova": 7645,
      "uage": 7646,
      "▁enlargement": 7647,
      "inance": 7648,
      "withdraw": 7649,
      "▁rebolusyon": 7650,
      "kita": 7651,
      "ple": 7652,
      "mia": 7653,
      "sibong": 7654,
      "▁peligro": 7655,
      "▁espirituwal": 7656,
      "▁nakaranas": 7657,
      "▁start": 7658,
      "▁ll": 7659,
      "▁bill": 7660,
      "▁pangga": 7661,
      "▁SU": 7662,
      "▁ewan": 7663,
      "▁kabuti": 7664,
      "verify": 7665,
      "▁Oli": 7666,
      "mati": 7667,
      "uha": 7668,
      "▁Emp": 7669,
      "rey": 7670,
      "▁Wel": 7671,
      "▁button": 7672,
      "cher": 7673,
      "hes": 7674,
      "▁Sor": 7675,
      "▁keso": 7676,
      "wagi": 7677,
      "▁hyd": 7678,
      "ridge": 7679,
      "▁hit": 7680,
      "die": 7681,
      "▁turuan": 7682,
      "pikasyon": 7683,
      "▁brown": 7684,
      "▁field": 7685,
      "▁question": 7686,
      "naan": 7687,
      "▁healthy": 7688,
      "▁lamunan": 7689,
      "▁tagapa": 7690,
      "▁Palawan": 7691,
      "▁Authority": 7692,
      "▁Child": 7693,
      "▁subo": 7694,
      "hilan": 7695,
      "umano": 7696,
      "▁vaccine": 7697,
      "-F": 7698,
      "hhhhh": 7699,
      "▁Cu": 7700,
      "▁regi": 7701,
      "▁There": 7702,
      "rasya": 7703,
      "▁singer": 7704,
      "ador": 7705,
      "▁issue": 7706,
      "wire": 7707,
      "matay": 7708,
      "▁kuna": 7709,
      "▁2000": 7710,
      "pu": 7711,
      "▁bakas": 7712,
      "▁paga": 7713,
      "▁takpan": 7714,
      "▁konektado": 7715,
      "▁tuhod": 7716,
      "yshe": 7717,
      "rty": 7718,
      "iyansa": 7719,
      "▁Mil": 7720,
      "▁Saudi": 7721,
      "▁Club": 7722,
      "▁arte": 7723,
      "▁Business": 7724,
      "▁alumin": 7725,
      "von": 7726,
      "encrypt": 7727,
      "▁Ki": 7728,
      "▁bangkay": 7729,
      "▁mom": 7730,
      "▁pag-a": 7731,
      "▁late": 7732,
      "▁gast": 7733,
      "▁Sm": 7734,
      "▁Ru": 7735,
      "▁track": 7736,
      "▁komprehen": 7737,
      "▁pangako": 7738,
      "▁im": 7739,
      "▁ice": 7740,
      "▁baluktot": 7741,
      "▁total": 7742,
      "▁each": 7743,
      "oder": 7744,
      "▁cable": 7745,
      "-R": 7746,
      "band": 7747,
      "vember": 7748,
      "▁lagpas": 7749,
      "▁kwentong": 7750,
      "▁mental": 7751,
      "▁Board": 7752,
      "▁vol": 7753,
      "fest": 7754,
      "▁Smart": 7755,
      "▁Watch": 7756,
      "▁mother": 7757,
      "▁PS": 7758,
      "FT": 7759,
      "midad": 7760,
      "▁todo": 7761,
      "linic": 7762,
      "▁41": 7763,
      "▁nai": 7764,
      "▁pump": 7765,
      "▁i-s": 7766,
      "▁Kwento": 7767,
      "▁Code": 7768,
      "▁herbs": 7769,
      "▁giliw": 7770,
      "▁Bagama": 7771,
      "▁HD": 7772,
      "▁pison": 7773,
      "ellow": 7774,
      "▁seguro": 7775,
      "▁cast": 7776,
      "▁terminal": 7777,
      "▁chief": 7778,
      "▁citiz": 7779,
      "▁Tags": 7780,
      "▁gaspang": 7781,
      "▁talento": 7782,
      "▁January": 7783,
      "▁without": 7784,
      "▁IS": 7785,
      "▁Ya": 7786,
      "▁kapana-panabik": 7787,
      "ences": 7788,
      "toster": 7789,
      "▁43": 7790,
      "ikal": 7791,
      "▁Peter": 7792,
      "▁Agu": 7793,
      "hood": 7794,
      "▁pansan": 7795,
      "▁Republic": 7796,
      "logo": 7797,
      "▁sign": 7798,
      "▁imbestiga": 7799,
      "▁bike": 7800,
      "otto": 7801,
      "▁hilaw": 7802,
      "▁Machine": 7803,
      "duction": 7804,
      "▁Life": 7805,
      "ass": 7806,
      "▁Ryan": 7807,
      "▁coach": 7808,
      "▁dalhin": 7809,
      "▁mail": 7810,
      "▁Prote": 7811,
      "▁Presidential": 7812,
      "sag": 7813,
      "▁white": 7814,
      "▁lindol": 7815,
      "▁premium": 7816,
      "▁database": 7817,
      "lated": 7818,
      "ument": 7819,
      "▁Kin": 7820,
      "move": 7821,
      "▁talamak": 7822,
      "itwal": 7823,
      "soft": 7824,
      "▁Lt": 7825,
      "▁bakla": 7826,
      "▁luad": 7827,
      "▁saglit": 7828,
      "▁transfer": 7829,
      "▁September": 7830,
      "yalista": 7831,
      "▁nagpa": 7832,
      "▁members": 7833,
      "mihan": 7834,
      "▁44": 7835,
      "99": 7836,
      "▁senti": 7837,
      "▁DS": 7838,
      "rary": 7839,
      "▁ear": 7840,
      "▁yoga": 7841,
      "▁pagmaman": 7842,
      "ngan": 7843,
      "dian": 7844,
      "▁dalag": 7845,
      "atego": 7846,
      "istant": 7847,
      "▁music": 7848,
      "droliko": 7849,
      "▁Por": 7850,
      "gie": 7851,
      "▁asal": 7852,
      "hua": 7853,
      "▁pamahagi": 7854,
      "▁autom": 7855,
      "▁hukbo": 7856,
      "▁Plastic": 7857,
      "▁development": 7858,
      "▁Rock": 7859,
      "hab": 7860,
      "▁nakapag": 7861,
      "ulin": 7862,
      "▁rub": 7863,
      "▁output": 7864,
      "▁double": 7865,
      "▁kalamidad": 7866,
      "▁Bea": 7867,
      "▁basketball": 7868,
      "flix": 7869,
      "▁tapi": 7870,
      "pose": 7871,
      "▁Covid": 7872,
      "▁Meron": 7873,
      "▁ore": 7874,
      "▁Bill": 7875,
      "▁FA": 7876,
      "▁Jun": 7877,
      "bscribe": 7878,
      "▁Mag-": 7879,
      "mato": 7880,
      "▁August": 7881,
      "erve": 7882,
      "▁libutan": 7883,
      "▁Court": 7884,
      "▁kumpiyansa": 7885,
      "lax": 7886,
      "▁Robin": 7887,
      "▁allergy": 7888,
      "lagen": 7889,
      "▁bulok": 7890,
      "tility": 7891,
      "▁Don": 7892,
      "▁santa": 7893,
      "▁Count": 7894,
      "▁hol": 7895,
      "via": 7896,
      "▁Mary": 7897,
      "▁naranasan": 7898,
      "▁sorpresa": 7899,
      "▁char": 7900,
      "▁Pablo": 7901,
      "▁crush": 7902,
      "▁Senator": 7903,
      "fety": 7904,
      "▁Cris": 7905,
      "▁kumusta": 7906,
      "▁curren": 7907,
      "▁Mul": 7908,
      "kules": 7909,
      "▁got": 7910,
      "▁Tito": 7911,
      "▁Lit": 7912,
      "lisay": 7913,
      "wear": 7914,
      "mmm": 7915,
      "sil": 7916,
      "▁ball": 7917,
      "▁dead": 7918,
      "walat": 7919,
      "▁ika-2": 7920,
      "▁siksik": 7921,
      "▁vlog": 7922,
      "▁Anna": 7923,
      "▁dos": 7924,
      "▁Jim": 7925,
      "▁AFP": 7926,
      "duhing": 7927,
      "eries": 7928,
      "▁calorie": 7929,
      "▁espanya": 7930,
      "▁sambit": 7931,
      "▁akibat": 7932,
      "▁dress": 7933,
      "▁IC": 7934,
      "yerkules": 7935,
      "EE": 7936,
      "▁parents": 7937,
      "▁clean": 7938,
      "▁children": 7939,
      "▁Singapore": 7940,
      "▁kain": 7941,
      "haw": 7942,
      "▁change": 7943,
      "▁testo": 7944,
      "▁pawa": 7945,
      "sipe": 7946,
      "▁Blog": 7947,
      "ipment": 7948,
      "▁repub": 7949,
      "▁haydroliko": 7950,
      "▁immune": 7951,
      "▁sust": 7952,
      "▁Are": 7953,
      "▁supplier": 7954,
      "▁abs": 7955,
      "▁tukso": 7956,
      "▁mananatili": 7957,
      "WS": 7958,
      "▁takbu": 7959,
      "▁going": 7960,
      "▁payout": 7961,
      "▁Justice": 7962,
      "eserye": 7963,
      "▁miyerkules": 7964,
      "▁komplikasyon": 7965,
      "▁thank": 7966,
      "rove": 7967,
      "sary": 7968,
      "▁impeksiyon": 7969,
      "-si": 7970,
      "▁watch": 7971,
      "▁Gerald": 7972,
      "▁pareha": 7973,
      "monya": 7974,
      "OD": 7975,
      "iller": 7976,
      "▁gramo": 7977,
      "▁dum": 7978,
      "BI": 7979,
      "▁DIY": 7980,
      "hak": 7981,
      "hihi": 7982,
      "▁performance": 7983,
      "▁union": 7984,
      "loyment": 7985,
      "wapo": 7986,
      "cover": 7987,
      "-eye": 7988,
      "nggan": 7989,
      "▁Quar": 7990,
      "dium": 7991,
      "▁kaharap": 7992,
      "▁sibil": 7993,
      "▁Gat": 7994,
      "▁bulsa": 7995,
      "▁ubra": 7996,
      "▁tung": 7997,
      "terya": 7998,
      "▁East": 7999,
      "▁filter": 8000,
      "gnan": 8001,
      "▁196": 8002,
      "▁pikit": 8003,
      "▁Elect": 8004,
      "▁bagama't": 8005,
      "▁tig": 8006,
      "▁slots": 8007,
      "▁em": 8008,
      "▁tissue": 8009,
      "osa": 8010,
      "gayan": 8011,
      "▁November": 8012,
      "▁iOS": 8013,
      "▁fish": 8014,
      "rden": 8015,
      "▁celebr": 8016,
      "CH": 8017,
      "▁armas": 8018,
      "vestment": 8019,
      "▁pwersa": 8020,
      "▁ilat": 8021,
      "▁siwalat": 8022,
      "▁lingon": 8023,
      "▁views": 8024,
      "▁resol": 8025,
      "FF": 8026,
      "▁pray": 8027,
      "▁kooper": 8028,
      "▁Am": 8029,
      "▁Blo": 8030,
      "▁template": 8031,
      "▁Netflix": 8032,
      "uit": 8033,
      "lect": 8034,
      "▁Af": 8035,
      "sic": 8036,
      "▁nagsasagawa": 8037,
      "▁husga": 8038,
      "▁award": 8039,
      "▁riyan": 8040,
      "▁insurance": 8041,
      "▁Download": 8042,
      "pha": 8043,
      "▁hon": 8044,
      "▁viral": 8045,
      "▁energy": 8046,
      "▁draw": 8047,
      "▁lupit": 8048,
      "▁Institute": 8049,
      "vation": 8050,
      "▁kumb": 8051,
      "deos": 8052,
      "lica": 8053,
      "▁nakamit": 8054,
      "▁Nung": 8055,
      "▁reput": 8056,
      "▁boss": 8057,
      "umpirma": 8058,
      "▁Road": 8059,
      "▁rock": 8060,
      "▁mini": 8061,
      "▁choco": 8062,
      "▁ihanda": 8063,
      "▁hap": 8064,
      "▁pag-click": 8065,
      "tig": 8066,
      "▁Sky": 8067,
      "cious": 8068,
      "▁organismo": 8069,
      "▁mate": 8070,
      "▁65": 8071,
      "▁literal": 8072,
      "-kaya": 8073,
      "▁hosting": 8074,
      "▁diumano": 8075,
      "▁tamod": 8076,
      "▁Islam": 8077,
      "▁pharmacy": 8078,
      "▁gus": 8079,
      "▁stop": 8080,
      "vity": 8081,
      "iner": 8082,
      "-araw": 8083,
      "eo": 8084,
      "kos": 8085,
      "▁private": 8086,
      "erna": 8087,
      "edding": 8088,
      "▁display": 8089,
      "▁destina": 8090,
      "▁mike": 8091,
      "▁feedback": 8092,
      "▁album": 8093,
      "▁Kar": 8094,
      "▁lng": 8095,
      "lipika": 8096,
      "▁asset": 8097,
      "▁brick": 8098,
      "gulo": 8099,
      "uture": 8100,
      "▁amp": 8101,
      "▁safe": 8102,
      "walipika": 8103,
      "▁holiday": 8104,
      "helle": 8105,
      "▁SH": 8106,
      "▁Tho": 8107,
      "lization": 8108,
      "struction": 8109,
      "▁bung": 8110,
      "gitnaan": 8111,
      "▁suplay": 8112,
      "cture": 8113,
      "▁palibot": 8114,
      "▁though": 8115,
      "kus": 8116,
      "inig": 8117,
      "▁CD": 8118,
      "▁AP": 8119,
      "▁Inf": 8120,
      "istro": 8121,
      "▁hormone": 8122,
      "▁Joseph": 8123,
      "▁Under": 8124,
      "▁Master": 8125,
      "▁luwalhati": 8126,
      "▁Us": 8127,
      "▁pag-update": 8128,
      "▁maranasan": 8129,
      "▁sorry": 8130,
      "▁demand": 8131,
      "▁Community": 8132,
      "▁kred": 8133,
      "▁Bir": 8134,
      "▁peri": 8135,
      "▁Job": 8136,
      "unidad": 8137,
      "▁lakip": 8138,
      "▁Gaming": 8139,
      "19": 8140,
      "▁silin": 8141,
      "▁tina": 8142,
      "▁Art": 8143,
      "▁kalagitnaan": 8144,
      "▁pran": 8145,
      "▁gate": 8146,
      "▁girlfriend": 8147,
      "▁salakay": 8148,
      "life": 8149,
      "▁atleta": 8150,
      "▁cases": 8151,
      "▁personalidad": 8152,
      "kov": 8153,
      "▁timpla": 8154,
      "mbalik": 8155,
      "▁tropa": 8156,
      "ertific": 8157,
      "tut": 8158,
      "▁singaw": 8159,
      "▁ketosis": 8160,
      "▁kampo": 8161,
      "▁pingga": 8162,
      "mers": 8163,
      "▁titik": 8164,
      "▁ayo": 8165,
      "▁pista": 8166,
      "▁impa": 8167,
      "▁Sun": 8168,
      "▁palabas": 8169,
      "▁sung": 8170,
      "▁sugo": 8171,
      "▁Mel": 8172,
      "▁court": 8173,
      "▁transpa": 8174,
      "▁Fernan": 8175,
      "▁Fol": 8176,
      "▁advertising": 8177,
      "TS": 8178,
      "▁around": 8179,
      "▁main": 8180,
      "bela": 8181,
      "▁property": 8182,
      "▁Muni": 8183,
      "▁asian": 8184,
      "▁streaming": 8185,
      "14": 8186,
      "▁banya": 8187,
      "into": 8188,
      "▁lango": 8189,
      "▁accoun": 8190,
      "Ed": 8191,
      "▁masid": 8192,
      "▁least": 8193,
      "▁les": 8194,
      "▁hugot": 8195,
      "▁ON": 8196,
      "itional": 8197,
      "▁cook": 8198,
      "▁limitahan": 8199,
      "▁Foundation": 8200,
      "▁bayaw": 8201,
      "▁entry": 8202,
      "atus": 8203,
      "▁ayun": 8204,
      "▁MP": 8205,
      "dena": 8206,
      "▁butter": 8207,
      "ANG": 8208,
      "▁laway": 8209,
      "▁Antonio": 8210,
      "▁Card": 8211,
      "tho": 8212,
      "▁salig": 8213,
      "▁tips": 8214,
      "▁tining": 8215,
      "▁rizal": 8216,
      "▁usok": 8217,
      "▁financial": 8218,
      "▁pulutong": 8219,
      "tamo": 8220,
      "▁kulit": 8221,
      "▁kumon": 8222,
      "cei": 8223,
      "▁Ham": 8224,
      "▁'y": 8225,
      "ruktura": 8226,
      "▁Drug": 8227,
      "▁puwit": 8228,
      "pport": 8229,
      "▁band": 8230,
      "quare": 8231,
      "▁Cons": 8232,
      "▁okasyon": 8233,
      "-mil": 8234,
      "▁banyaga": 8235,
      "yl": 8236,
      "ened": 8237,
      "▁Cre": 8238,
      "▁bisik": 8239,
      "▁ub": 8240,
      "▁Padilla": 8241,
      "▁Angeles": 8242,
      "▁bisikleta": 8243,
      "▁sipi": 8244,
      "▁Science": 8245,
      "▁komers": 8246,
      "▁spin": 8247,
      "auti": 8248,
      "▁moisturiz": 8249,
      "▁stories": 8250,
      "▁ado": 8251,
      "▁Last": 8252,
      "▁india": 8253,
      "▁space": 8254,
      "▁brush": 8255,
      "▁few": 8256,
      "▁parke": 8257,
      "▁teleserye": 8258,
      "▁dragon": 8259,
      "▁Senate": 8260,
      "▁flat": 8261,
      "▁Ken": 8262,
      "▁mill": 8263,
      "apo": 8264,
      "▁saksak": 8265,
      "▁producer": 8266,
      "cor": 8267,
      "▁might": 8268,
      "▁WH": 8269,
      "▁pari": 8270,
      "▁projec": 8271,
      "imula": 8272,
      "▁2007": 8273,
      "▁binhi": 8274,
      "▁dahilan": 8275,
      "▁success": 8276,
      "▁3D": 8277,
      "▁harina": 8278,
      "▁nang": 8279,
      "▁Earth": 8280,
      "▁kaunti": 8281,
      "▁period": 8282,
      "nance": 8283,
      "▁vac": 8284,
      "▁tattoo": 8285,
      "vely": 8286,
      "▁Sus": 8287,
      "▁Crus": 8288,
      "▁employer": 8289,
      "-pag": 8290,
      "▁wan": 8291,
      "▁bale": 8292,
      "▁Die": 8293,
      "▁truck": 8294,
      "eryo": 8295,
      "▁map": 8296,
      "▁bingo": 8297,
      "▁Regional": 8298,
      "-G": 8299,
      "▁pinans": 8300,
      "▁zone": 8301,
      "▁kilometro": 8302,
      "▁hope": 8303,
      "▁katoliko": 8304,
      "diya": 8305,
      "endar": 8306,
      "▁Why": 8307,
      "▁London": 8308,
      "▁hira": 8309,
      "▁Za": 8310,
      "25": 8311,
      "ishing": 8312,
      "▁luk": 8313,
      "▁Open": 8314,
      "▁paniwala": 8315,
      "▁buwa": 8316,
      "▁BR": 8317,
      "activ": 8318,
      "▁kumpirma": 8319,
      "▁products": 8320,
      "▁koton": 8321,
      "▁Fed": 8322,
      "▁Corpor": 8323,
      "▁flax": 8324,
      "wers": 8325,
      "▁YO": 8326,
      "rinkle": 8327,
      "tya": 8328,
      "▁don't": 8329,
      "AB": 8330,
      "▁Dec": 8331,
      "▁Committee": 8332,
      "▁latag": 8333,
      "kes": 8334,
      "the": 8335,
      "▁sugar": 8336,
      "▁ros": 8337,
      "▁reputasyon": 8338,
      "nn": 8339,
      "uck": 8340,
      "▁abu": 8341,
      "▁click": 8342,
      "hare": 8343,
      "▁Lim": 8344,
      "ommerce": 8345,
      "▁gulaman": 8346,
      "▁py": 8347,
      "▁operating": 8348,
      "▁ebang": 8349,
      "▁Mis": 8350,
      "ardo": 8351,
      "del": 8352,
      "▁puta": 8353,
      "▁cri": 8354,
      "▁Mobile": 8355,
      "▁guys": 8356,
      "GO": 8357,
      "▁swerte": 8358,
      "▁hibla": 8359,
      "▁doctor": 8360,
      "▁turn": 8361,
      "▁meeting": 8362,
      "▁Provincial": 8363,
      "xid": 8364,
      "▁talambuhay": 8365,
      "▁distansya": 8366,
      "▁gum": 8367,
      "▁pusta": 8368,
      "▁niyan": 8369,
      "▁Lou": 8370,
      "▁igting": 8371,
      "▁AI": 8372,
      "▁pit": 8373,
      "mano": 8374,
      "▁pasig": 8375,
      "▁vaccina": 8376,
      "▁ukulan": 8377,
      "ategories": 8378,
      "-la": 8379,
      "BM": 8380,
      "▁makumpleto": 8381,
      "▁SCP": 8382,
      "▁van": 8383,
      "loyd": 8384,
      "▁tiago": 8385,
      "▁Tok": 8386,
      "ultural": 8387,
      "musal": 8388,
      "rier": 8389,
      "▁kumpleto": 8390,
      "▁Oper": 8391,
      "▁tambal": 8392,
      "▁anyos": 8393,
      "▁kuts": 8394,
      "utube": 8395,
      "-K": 8396,
      "▁promo": 8397,
      "sesong": 8398,
      "▁konteks": 8399,
      "▁bubo": 8400,
      "▁France": 8401,
      "▁subscription": 8402,
      "▁Indust": 8403,
      "zan": 8404,
      "▁ket": 8405,
      "▁hyper": 8406,
      "▁silindro": 8407,
      "▁date": 8408,
      "paign": 8409,
      "▁Security": 8410,
      "▁college": 8411,
      "demiko": 8412,
      "OP": 8413,
      "▁emo": 8414,
      "▁Just": 8415,
      "▁piloso": 8416,
      "▁session": 8417,
      "roke": 8418,
      "▁komprehensibong": 8419,
      "▁ita": 8420,
      "▁PL": 8421,
      "▁reason": 8422,
      "▁Jessi": 8423,
      "▁scam": 8424,
      "▁gradu": 8425,
      "▁tauhan": 8426,
      "▁Kon": 8427,
      "ueva": 8428,
      "witch": 8429,
      "▁HIV": 8430,
      "▁Local": 8431,
      "▁repolyo": 8432,
      "▁estra": 8433,
      "▁working": 8434,
      "▁Hay": 8435,
      "umber": 8436,
      "gent": 8437,
      "▁depar": 8438,
      "▁disorder": 8439,
      "▁nararanasan": 8440,
      "▁naapektuhan": 8441,
      "kantot": 8442,
      "▁puki": 8443,
      "▁cover": 8444,
      "pikal": 8445,
      "▁ratio": 8446,
      "▁makipag": 8447,
      "▁magic": 8448,
      "▁mix": 8449,
      "▁Website": 8450,
      "ITY": 8451,
      "▁chal": 8452,
      "▁Luis": 8453,
      "▁Sil": 8454,
      "tilyo": 8455,
      "▁Trump": 8456,
      "▁maa": 8457,
      "▁fran": 8458,
      "bato": 8459,
      "▁Mad": 8460,
      "rect": 8461,
      "resses": 8462,
      "▁almusal": 8463,
      "▁busy": 8464,
      "▁tupa": 8465,
      "▁Dad": 8466,
      "▁demo": 8467,
      "▁Engine": 8468,
      "yudad": 8469,
      "ech": 8470,
      "▁lagnat": 8471,
      "▁Tal": 8472,
      "▁percent": 8473,
      "▁alko": 8474,
      "▁manufac": 8475,
      "ernador": 8476,
      "▁nai-": 8477,
      "▁mik": 8478,
      "▁pag-re": 8479,
      "▁Island": 8480,
      "▁zero": 8481,
      "inter": 8482,
      "▁malas": 8483,
      "rench": 8484,
      "▁oport": 8485,
      "▁lutang": 8486,
      "wang-tao": 8487,
      "cre": 8488,
      "▁ayuda": 8489,
      "▁AL": 8490,
      "▁puma": 8491,
      "▁conn": 8492,
      "▁Cagayan": 8493,
      "prise": 8494,
      "▁kulot": 8495,
      "▁illegal": 8496,
      "ana": 8497,
      "hiti": 8498,
      "ulate": 8499,
      "▁poly": 8500,
      "▁Microsoft": 8501,
      "▁Chat": 8502,
      "▁Fin": 8503,
      "▁yaya": 8504,
      "nergy": 8505,
      "▁gene": 8506,
      "▁Mor": 8507,
      "hog": 8508,
      "▁station": 8509,
      "lene": 8510,
      "▁Form": 8511,
      "▁high-": 8512,
      "▁Ky": 8513,
      "▁Common": 8514,
      "▁psycho": 8515,
      "47": 8516,
      "wari": 8517,
      "▁Hahaha": 8518,
      "ffairs": 8519,
      "▁palas": 8520,
      "▁Eva": 8521,
      "psy": 8522,
      "▁Ci": 8523,
      "▁See": 8524,
      "eon": 8525,
      "▁word": 8526,
      "▁Express": 8527,
      "▁hiwaga": 8528,
      "▁sabaw": 8529,
      "▁Hal": 8530,
      "▁protekta": 8531,
      "▁niyon": 8532,
      "▁Kids": 8533,
      "latin": 8534,
      "tellig": 8535,
      "rr": 8536,
      "▁kabi": 8537,
      "▁palo": 8538,
      "rical": 8539,
      "▁turismo": 8540,
      "▁Fac": 8541,
      "▁1000": 8542,
      "OV": 8543,
      "▁fer": 8544,
      "cide": 8545,
      "unduan": 8546,
      "15": 8547,
      "▁Den": 8548,
      "▁grow": 8549,
      "▁pesos": 8550,
      "tamento": 8551,
      "▁GR": 8552,
      "eks": 8553,
      "▁korpor": 8554,
      "▁49": 8555,
      "▁offer": 8556,
      "urgery": 8557,
      "▁exchange": 8558,
      "xygen": 8559,
      "▁powder": 8560,
      "▁daga": 8561,
      "bula": 8562,
      "▁kumonekta": 8563,
      "▁CB": 8564,
      "ices": 8565,
      "▁Year": 8566,
      "▁Jake": 8567,
      "suit": 8568,
      "▁Dubai": 8569,
      "▁questions": 8570,
      "▁chocolate": 8571,
      "▁tape": 8572,
      "leas": 8573,
      "▁medium": 8574,
      "▁akademiko": 8575,
      "▁Entertainment": 8576,
      "mptoms": 8577,
      "▁firm": 8578,
      "▁Street": 8579,
      "ural": 8580,
      "▁haha": 8581,
      "▁small": 8582,
      "▁wallpaper": 8583,
      "yy": 8584,
      "▁Rate": 8585,
      "▁ministro": 8586,
      "▁ibabaw": 8587,
      "▁production": 8588,
      "vertise": 8589,
      "ml": 8590,
      "likod": 8591,
      "atibo": 8592,
      "▁i-play": 8593,
      "▁aci": 8594,
      "ews": 8595,
      "▁reme": 8596,
      "▁guide": 8597,
      "▁Any": 8598,
      "▁another": 8599,
      "▁Rose": 8600,
      "▁seed": 8601,
      "▁Happy": 8602,
      "▁itsura": 8603,
      "▁korporasyon": 8604,
      "riga": 8605,
      "dero": 8606,
      "gorith": 8607,
      "▁mes": 8608,
      "▁hustis": 8609,
      "▁facil": 8610,
      "onald": 8611,
      "▁medic": 8612,
      "▁kutsara": 8613,
      "▁Sub": 8614,
      "▁Del": 8615,
      "▁Global": 8616,
      "▁hustisya": 8617,
      "▁cli": 8618,
      "▁reac": 8619,
      "ensity": 8620,
      "▁Rev": 8621,
      "▁extension": 8622,
      "▁appro": 8623,
      "▁kapal": 8624,
      "▁Care": 8625,
      "nganga": 8626,
      "▁tex": 8627,
      "ruary": 8628,
      "▁regla": 8629,
      "▁entertainment": 8630,
      "▁pinansyal": 8631,
      "▁dalisay": 8632,
      "▁sibol": 8633,
      "▁RE": 8634,
      "▁Sar": 8635,
      "bing": 8636,
      "▁Custo": 8637,
      "▁litro": 8638,
      "matis": 8639,
      "mu": 8640,
      "▁Pot": 8641,
      "▁AND": 8642,
      "▁sau": 8643,
      "asis": 8644,
      "▁diba": 8645,
      "▁May": 8646,
      "▁vib": 8647,
      "▁Sw": 8648,
      "-H": 8649,
      "▁____": 8650,
      "▁Body": 8651,
      "kasya": 8652,
      "▁Exc": 8653,
      "▁anggulo": 8654,
      "darama": 8655,
      "▁lehiti": 8656,
      "▁Japanese": 8657,
      "▁langoy": 8658,
      "pac": 8659,
      "▁cu": 8660,
      "▁GC": 8661,
      "▁mig": 8662,
      "▁tanga": 8663,
      "▁marri": 8664,
      "not": 8665,
      "▁bloke": 8666,
      "▁Not": 8667,
      "ciety": 8668,
      "▁packaging": 8669,
      "▁desktop": 8670,
      "17": 8671,
      "▁hamak": 8672,
      "▁gobernador": 8673,
      "▁Manny": 8674,
      "ote": 8675,
      "▁moral": 8676,
      "▁easy": 8677,
      "▁against": 8678,
      "▁Account": 8679,
      "TA": 8680,
      "df": 8681,
      "▁atta": 8682,
      "rees": 8683,
      "▁Back": 8684,
      "▁Bela": 8685,
      "▁hardware": 8686,
      "▁sinusuportahan": 8687,
      "bus": 8688,
      "▁nguni": 8689,
      "eplay": 8690,
      "▁Now": 8691,
      "▁Naka": 8692,
      "ched": 8693,
      "▁cere": 8694,
      "▁Festival": 8695,
      "▁padre": 8696,
      "mel": 8697,
      "▁Malay": 8698,
      "▁intsik": 8699,
      "boslim": 8700,
      "▁lamblia": 8701,
      "-ba": 8702,
      "bunyag": 8703,
      "ena": 8704,
      "▁ligsa": 8705,
      "▁taguri": 8706,
      "pol": 8707,
      "zh": 8708,
      "leen": 8709,
      "▁dalawampu": 8710,
      "ulto": 8711,
      "▁pulgada": 8712,
      "▁tuldok": 8713,
      "▁dream": 8714,
      "kar": 8715,
      "▁rebel": 8716,
      "▁Mate": 8717,
      "▁Log": 8718,
      "II": 8719,
      "riel": 8720,
      "paktura": 8721,
      "▁chance": 8722,
      "▁MD": 8723,
      "▁impluw": 8724,
      "▁monoxide": 8725,
      "jan": 8726,
      "▁solid": 8727,
      "lings": 8728,
      "▁bitcoin": 8729,
      "royo": 8730,
      "▁Wes": 8731,
      "▁istorya": 8732,
      "quiao": 8733,
      "▁memorya": 8734,
      "▁kapital": 8735,
      "plasty": 8736,
      "▁bom": 8737,
      "▁bangga": 8738,
      "▁mushroom": 8739,
      "uch": 8740,
      "▁pwet": 8741,
      "▁deter": 8742,
      "▁haw": 8743,
      "▁Come": 8744,
      "iling": 8745,
      "▁pores": 8746,
      "inos": 8747,
      "hiyoso": 8748,
      "▁benef": 8749,
      "▁republika": 8750,
      "vsk": 8751,
      "▁dina": 8752,
      "▁kasunduan": 8753,
      "▁shot": 8754,
      "▁600": 8755,
      "▁require": 8756,
      "▁Mag-click": 8757,
      "▁demonyo": 8758,
      "▁kamatis": 8759,
      "pped": 8760,
      "▁bath": 8761,
      "lymp": 8762,
      "▁panty": 8763,
      "▁pilak": 8764,
      "▁pahid": 8765,
      "▁booking": 8766,
      "sules": 8767,
      "▁Task": 8768,
      "▁Sout": 8769,
      "-Ong": 8770,
      "ctive": 8771,
      "▁bura": 8772,
      "▁lehitimo": 8773,
      "▁bacter": 8774,
      "▁belie": 8775,
      "▁facebook": 8776,
      "45": 8777,
      "edyer": 8778,
      "EST": 8779,
      "▁Turboslim": 8780,
      "▁resolusyon": 8781,
      "▁mari": 8782,
      "▁CS": 8783,
      "▁Cur": 8784,
      "raps": 8785,
      "▁conver": 8786,
      "▁USD": 8787,
      "▁Ramoso": 8788,
      "▁Ramoso-Ong": 8789,
      "rek": 8790,
      "sanas": 8791,
      "▁propesor": 8792,
      "▁bunsod": 8793,
      "▁morning": 8794,
      "▁ast": 8795,
      "ulad": 8796,
      "▁prepa": 8797,
      "▁polit": 8798,
      "upload": 8799,
      "▁carbs": 8800,
      "▁plate": 8801,
      "▁sumailalim": 8802,
      "▁visual": 8803,
      "upaktura": 8804,
      "▁ubas": 8805,
      "▁tango": 8806,
      "▁Anti-A": 8807,
      "▁British": 8808,
      "tag": 8809,
      "▁Bacc": 8810,
      "▁bastos": 8811,
      "gether": 8812,
      "weldo": 8813,
      "▁clos": 8814,
      "mahala": 8815,
      "▁possible": 8816,
      "mpany": 8817,
      "▁figure": 8818,
      "▁egg": 8819,
      "trade": 8820,
      "▁mag-apply": 8821,
      "▁norte": 8822,
      "▁pagbabag": 8823,
      "ils": 8824,
      "▁opo": 8825,
      "doro": 8826,
      "▁mansanas": 8827,
      "▁laglag": 8828,
      "▁wife": 8829,
      "lee": 8830,
      "▁alahas": 8831,
      "▁mananatiling": 8832,
      "▁package": 8833,
      "pisyal": 8834,
      "▁student": 8835,
      "-g": 8836,
      "▁Phen": 8837,
      "▁Mid": 8838,
      "▁NE": 8839,
      "▁services": 8840,
      "▁naa": 8841,
      "▁Bob": 8842,
      "▁i-save": 8843,
      "▁inggit": 8844,
      "may": 8845,
      "organ": 8846,
      "pela": 8847,
      "mond": 8848,
      "▁spray": 8849,
      "▁abiso": 8850,
      "▁sabwat": 8851,
      "▁Bud": 8852,
      "▁thing": 8853,
      "▁hea": 8854,
      "▁Lee": 8855,
      "▁palapit": 8856,
      "▁tustos": 8857,
      "▁Tony": 8858,
      "▁using": 8859,
      "▁Slot": 8860,
      "▁road": 8861,
      "▁senyales": 8862,
      "▁continue": 8863,
      "ards": 8864,
      "▁Ec": 8865,
      "insk": 8866,
      "▁inspek": 8867,
      "▁CEO": 8868,
      "▁version": 8869,
      "▁palasyo": 8870,
      "bor": 8871,
      "▁46": 8872,
      "friendly": 8873,
      "▁transportation": 8874,
      "▁fungi": 8875,
      "ido": 8876,
      "▁mys": 8877,
      "▁Taiwan": 8878,
      "▁bunso": 8879,
      "▁garden": 8880,
      "▁Categories": 8881,
      "▁stri": 8882,
      "▁Zam": 8883,
      "▁roller": 8884,
      "ertificate": 8885,
      "lod": 8886,
      "▁carb": 8887,
      "hhhhhhhh": 8888,
      "▁shabu": 8889,
      "▁Washing": 8890,
      "▁stor": 8891,
      "▁die": 8892,
      "▁inda": 8893,
      "▁robot": 8894,
      "▁Hair": 8895,
      "▁Spokes": 8896,
      "▁Bulate": 8897,
      "▁move": 8898,
      "▁Bur": 8899,
      "▁brief": 8900,
      "▁lusot": 8901,
      "▁Pacquiao": 8902,
      "▁impluwensiya": 8903,
      "cape": 8904,
      "▁AR": 8905,
      "▁bagkus": 8906,
      "helyo": 8907,
      "▁takbuhin": 8908,
      "vigate": 8909,
      "esearch": 8910,
      "presyon": 8911,
      "▁PHP": 8912,
      "IE": 8913,
      "▁har": 8914,
      "aplay": 8915,
      "▁College": 8916,
      "▁February": 8917,
      "TT": 8918,
      "eum": 8919,
      "masa": 8920,
      "▁Sat": 8921,
      "▁Dream": 8922,
      "▁Ann": 8923,
      "rgin": 8924,
      "▁Camp": 8925,
      "▁both": 8926,
      "▁umunlad": 8927,
      "▁Van": 8928,
      "cular": 8929,
      "▁Ans": 8930,
      "▁sensiti": 8931,
      "▁oportunidad": 8932,
      "-star": 8933,
      "mahal": 8934,
      "▁Gal": 8935,
      "▁coup": 8936,
      "▁algorith": 8937,
      "▁diskwento": 8938,
      "▁alkohol": 8939,
      "▁nag-a": 8940,
      "uum": 8941,
      "▁protesta": 8942,
      "▁Ven": 8943,
      "▁Cola": 8944,
      "-publish": 8945,
      "-out": 8946,
      "▁eskwela": 8947,
      "ually": 8948,
      "diin": 8949,
      "▁PEP": 8950,
      "▁Non": 8951,
      "▁pataas": 8952,
      "18": 8953,
      "▁atras": 8954,
      "▁taxi": 8955,
      "▁hours": 8956,
      "kumpirma": 8957,
      "▁Anti-Aging": 8958,
      "▁loss": 8959,
      "nage": 8960,
      "▁porma": 8961,
      "▁Audiobook": 8962,
      "▁konteksto": 8963,
      "▁sandal": 8964,
      "eration": 8965,
      "▁Tim": 8966,
      "▁tuluy": 8967,
      "▁bakwit": 8968,
      "▁study": 8969,
      "▁cross": 8970,
      "▁Os": 8971,
      "▁mapahusay": 8972,
      "▁espesyalista": 8973,
      "▁pagmamanupaktura": 8974,
      "IK": 8975,
      "▁oh": 8976,
      "dex": 8977,
      "▁creams": 8978,
      "▁tingi": 8979,
      "▁artipisyal": 8980,
      "wes": 8981,
      "▁cabin": 8982,
      "fare": 8983,
      "▁DepEd": 8984,
      "▁ebanghelyo": 8985,
      "▁final": 8986,
      "▁Lac": 8987,
      "▁nag-s": 8988,
      "▁alm": 8989,
      "▁Rey": 8990,
      "▁relationship": 8991,
      "olo": 8992,
      "▁flash": 8993,
      "mical": 8994,
      "meter": 8995,
      "▁maki": 8996,
      "▁sanib": 8997,
      "▁building": 8998,
      "-tuloy": 8999,
      "oting": 9000,
      "▁Ep": 9001,
      "▁Women": 9002,
      "▁Mommy": 9003,
      "▁ext": 9004,
      "-party": 9005,
      "▁Step": 9006,
      "ctional": 9007,
      "high": 9008,
      "▁kamara": 9009,
      "▁trade": 9010,
      "▁USEC": 9011,
      "▁Baccarat": 9012,
      "▁sabon": 9013,
      "▁IT": 9014,
      "eworm": 9015,
      "▁Season": 9016,
      "▁Grade": 9017,
      "▁risk": 9018,
      "▁'yung": 9019,
      "▁ayuno": 9020,
      "▁mahayag": 9021,
      "▁amin": 9022,
      "▁everything": 9023,
      "70": 9024,
      "▁reel": 9025,
      "▁hor": 9026,
      "patupad": 9027,
      "▁sofa": 9028,
      "▁Princess": 9029,
      "▁konstruksyon": 9030,
      "▁blockchain": 9031,
      "▁minutes": 9032,
      "▁Add": 9033,
      "▁Sign": 9034,
      "▁Night": 9035,
      "▁ramdam": 9036,
      "▁magka": 9037,
      "▁George": 9038,
      "tology": 9039,
      "▁cone": 9040,
      "▁katha": 9041,
      "▁clear": 9042,
      "▁tuluy-tuloy": 9043,
      "▁kesa": 9044,
      "▁dakila": 9045,
      "▁china": 9046,
      "▁Def": 9047,
      "▁Reso": 9048,
      "▁complex": 9049,
      "▁Energy": 9050,
      "▁Washington": 9051,
      "▁pwesto": 9052,
      "▁Tar": 9053,
      "▁himala": 9054,
      "▁intro": 9055,
      "▁Carbon": 9056,
      "▁pokus": 9057,
      "ully": 9058,
      "▁paramdam": 9059,
      "▁Executive": 9060,
      "▁Harry": 9061,
      "▁etc": 9062,
      "fast": 9063,
      "▁Avenue": 9064,
      "doza": 9065,
      "▁tangkad": 9066,
      "▁stra": 9067,
      "▁pigmentation": 9068,
      "▁Iglesia": 9069,
      "▁photos": 9070,
      "▁hak": 9071,
      "▁Ran": 9072,
      "break": 9073,
      "▁konstruksiyon": 9074,
      "▁makaranas": 9075,
      "▁Mag-s": 9076,
      "▁plato": 9077,
      "▁kabutihan": 9078,
      "-friendly": 9079,
      "▁mit": 9080,
      "▁2nd": 9081,
      "▁milk": 9082,
      "▁instant": 9083,
      "▁general": 9084,
      "▁estratehiya": 9085,
      "▁imbestigahan": 9086,
      "phy": 9087,
      "▁aut": 9088,
      "▁kaila": 9089,
      "▁From": 9090,
      "▁tiklop": 9091,
      "ime": 9092,
      "utista": 9093,
      "uhin": 9094,
      "xico": 9095,
      "lenge": 9096,
      "▁facelift": 9097,
      "trigger": 9098,
      "▁Research": 9099,
      "istration": 9100,
      "▁talk": 9101,
      "▁chicken": 9102,
      "▁Store": 9103,
      "pm": 9104,
      "▁kos": 9105,
      "▁Son": 9106,
      "▁rek": 9107,
      "yap": 9108,
      "▁herbal": 9109,
      "moke": 9110,
      "▁Special": 9111,
      "zen": 9112,
      "ella": 9113,
      "▁diretso": 9114,
      "hinga": 9115,
      "▁tungga": 9116,
      "ently": 9117,
      "panu": 9118,
      "▁welcome": 9119,
      "rome": 9120,
      "print": 9121,
      "tech": 9122,
      "▁def": 9123,
      "▁bigyang-diin": 9124,
      "SI": 9125,
      "▁article": 9126,
      "mination": 9127,
      "▁85": 9128,
      "▁rosas": 9129,
      "rition": 9130,
      "bigay": 9131,
      "▁together": 9132,
      "useum": 9133,
      "▁P3": 9134,
      "▁fac": 9135,
      "▁professional": 9136,
      "dinand": 9137,
      "run": 9138,
      "dik": 9139,
      "▁claim": 9140,
      "▁product": 9141,
      "▁testi": 9142,
      "▁Cone": 9143,
      "▁Credit": 9144,
      "▁wild": 9145,
      "▁prost": 9146,
      "▁videos": 9147,
      "▁120": 9148,
      "▁sertipiko": 9149,
      "ngue": 9150,
      "▁isk": 9151,
      "▁design": 9152,
      "hintulutan": 9153,
      "vestigation": 9154,
      "▁moment": 9155,
      "▁Bagu": 9156,
      "▁iso": 9157,
      "▁munti": 9158,
      "▁Malaca": 9159,
      "ritis": 9160,
      "▁I-download": 9161,
      "▁departamento": 9162,
      "▁spi": 9163,
      "▁udyo": 9164,
      "▁abot-kaya": 9165,
      "▁oliba": 9166,
      "▁pranses": 9167,
      "▁udyok": 9168,
      "▁label": 9169,
      "▁pulot": 9170,
      "▁status": 9171,
      "▁Lea": 9172,
      "▁words": 9173,
      "▁note": 9174,
      "▁proteksiyon": 9175,
      "▁floor": 9176,
      "▁Thailand": 9177,
      "-st": 9178,
      "rator": 9179,
      "▁kriminal": 9180,
      "cs": 9181,
      "claim": 9182,
      "▁Cast": 9183,
      "▁palayo": 9184,
      "▁aks": 9185,
      "▁Ok": 9186,
      "▁talya": 9187,
      "▁Trade": 9188,
      "mol": 9189,
      "▁aud": 9190,
      "▁ski": 9191,
      "▁sap": 9192,
      "▁kolon": 9193,
      "▁gameplay": 9194,
      "▁02": 9195,
      "▁half": 9196,
      "▁pagtalik": 9197,
      "▁consumer": 9198,
      "NA": 9199,
      "▁load": 9200,
      "▁giling": 9201,
      "bly": 9202,
      "▁cute": 9203,
      "▁IV": 9204,
      "▁86": 9205,
      "▁Direk": 9206,
      "▁Christian": 9207,
      "▁Corporation": 9208,
      "ali": 9209,
      "▁layas": 9210,
      "▁pato": 9211,
      "▁Stan": 9212,
      "▁essays": 9213,
      "▁Agric": 9214,
      "▁Land": 9215,
      "▁Cala": 9216,
      "▁ground": 9217,
      "▁Victo": 9218,
      "▁distrito": 9219,
      "▁dy": 9220,
      "maka": 9221,
      "▁Ether": 9222,
      "ady": 9223,
      "▁favor": 9224,
      "▁swe": 9225,
      "▁ten": 9226,
      "▁Film": 9227,
      "▁prosesong": 9228,
      "▁army": 9229,
      "▁alagad": 9230,
      "▁hormones": 9231,
      "▁Mateo": 9232,
      "▁palay": 9233,
      "urin": 9234,
      "▁Jessica": 9235,
      "▁tell": 9236,
      "ing-": 9237,
      "igner": 9238,
      "▁tas": 9239,
      "▁Company": 9240,
      "▁misteryo": 9241,
      "kabok": 9242,
      "▁oxygen": 9243,
      "▁lockdown": 9244,
      "cord": 9245,
      "re-re": 9246,
      "▁Olymp": 9247,
      "▁sopas": 9248,
      "▁hanapbuhay": 9249,
      "▁alikabok": 9250,
      "▁Robredo": 9251,
      "▁Treat": 9252,
      "▁resort": 9253,
      "▁Rol": 9254,
      "obs": 9255,
      "▁focus": 9256,
      "▁whole": 9257,
      "-E": 9258,
      "MS": 9259,
      "timate": 9260,
      "▁algorithm": 9261,
      "tov": 9262,
      "▁Music": 9263,
      "▁talang": 9264,
      "▁until": 9265,
      "racay": 9266,
      "▁Queen": 9267,
      "▁tiktok": 9268,
      "teroid": 9269,
      "▁queen": 9270,
      "▁pagho-host": 9271,
      "▁Iran": 9272,
      "asahin": 9273,
      "pons": 9274,
      "▁Technology": 9275,
      "▁DSWD": 9276,
      "▁ada": 9277,
      "▁fair": 9278,
      "▁tugtog": 9279,
      "▁Roma": 9280,
      "▁pait": 9281,
      "▁Far": 9282,
      "▁lift": 9283,
      "▁putik": 9284,
      "▁eleksyon": 9285,
      "▁dado": 9286,
      "tier": 9287,
      "▁grado": 9288,
      "▁Han": 9289,
      "itiis": 9290,
      "atistika": 9291,
      "▁presensya": 9292,
      "▁peace": 9293,
      "▁times": 9294,
      "comm": 9295,
      "▁matemati": 9296,
      "▁NBA": 9297,
      "▁tinedyer": 9298,
      "▁kredito": 9299,
      "▁apos": 9300,
      "▁Dam": 9301,
      "▁iling": 9302,
      "ratiko": 9303,
      "▁age": 9304,
      "▁author": 9305,
      "rena": 9306,
      "▁shower": 9307,
      "rowse": 9308,
      "▁sirk": 9309,
      "▁cock": 9310,
      "▁makaapekto": 9311,
      "▁switch": 9312,
      "ilera": 9313,
      "hika": 9314,
      "▁52": 9315,
      "▁indian": 9316,
      "▁Airport": 9317,
      "ulfo": 9318,
      "▁unan": 9319,
      "▁past": 9320,
      "-free": 9321,
      "▁beer": 9322,
      "▁campaign": 9323,
      "▁cyst": 9324,
      "vironment": 9325,
      "onary": 9326,
      "▁true": 9327,
      "▁sesyon": 9328,
      "▁sulyap": 9329,
      "autiful": 9330,
      "▁km": 9331,
      "▁Et": 9332,
      "▁Hen": 9333,
      "ungaling": 9334,
      "▁Project": 9335,
      "-cha": 9336,
      "▁salon": 9337,
      "▁Elena": 9338,
      "ang-": 9339,
      "▁blue": 9340,
      "inburg": 9341,
      "▁lagas": 9342,
      "▁Minsk": 9343,
      "mmmm": 9344,
      "nary": 9345,
      "▁P5": 9346,
      "▁Hall": 9347,
      "▁punas": 9348,
      "quid": 9349,
      "tosterone": 9350,
      "cot": 9351,
      "laran": 9352,
      "▁Dennis": 9353,
      "ilian": 9354,
      "▁FR": 9355,
      "▁compa": 9356,
      "▁ipinakilala": 9357,
      "▁cycle": 9358,
      "▁hakbang": 9359,
      "ão": 9360,
      "▁snow": 9361,
      "▁hur": 9362,
      "▁Ayo": 9363,
      "uke": 9364,
      "▁via": 9365,
      "▁stand": 9366,
      "igla": 9367,
      "atar": 9368,
      "▁trial": 9369,
      "▁value": 9370,
      "activate": 9371,
      "ilangan": 9372,
      "▁SC": 9373,
      "how": 9374,
      "▁NCR": 9375,
      "▁yours": 9376,
      "-chat": 9377,
      "umang": 9378,
      "aly": 9379,
      "▁Bags": 9380,
      "▁NPA": 9381,
      "onekta": 9382,
      "sakit": 9383,
      "▁linta": 9384,
      "lusyonaryo": 9385,
      "oooo": 9386,
      "▁excited": 9387,
      "▁stage": 9388,
      "▁shows": 9389,
      "▁selula": 9390,
      "active": 9391,
      "itulo": 9392,
      "▁Tang": 9393,
      "▁Affairs": 9394,
      "▁Coco": 9395,
      "▁pregnan": 9396,
      "▁compo": 9397,
      "▁concert": 9398,
      "pret": 9399,
      "ania": 9400,
      "▁kind": 9401,
      "IVE": 9402,
      "▁male": 9403,
      "▁2006": 9404,
      "▁keyword": 9405,
      "rine": 9406,
      "▁Sotto": 9407,
      "hia": 9408,
      "▁mukha-angat": 9409,
      "▁kunwari": 9410,
      "▁broad": 9411,
      "▁heneral": 9412,
      "▁Mendoza": 9413,
      "▁biti": 9414,
      "▁magda": 9415,
      "▁guard": 9416,
      "▁endor": 9417,
      "▁bunot": 9418,
      "▁metabolismo": 9419,
      "bies": 9420,
      "basan": 9421,
      "ilo": 9422,
      "▁mind": 9423,
      "▁title": 9424,
      "creen": 9425,
      "▁Series": 9426,
      "▁FAC": 9427,
      "▁kase": 9428,
      "▁shopping": 9429,
      "▁quarter": 9430,
      "▁foreign": 9431,
      "ghts": 9432,
      "▁kab": 9433,
      "lements": 9434,
      "▁tamasahin": 9435,
      "▁makapangyari": 9436,
      "▁Baguio": 9437,
      "▁mood": 9438,
      "▁sungal": 9439,
      "▁cheese": 9440,
      "aaa": 9441,
      "▁kalap": 9442,
      "▁wiki": 9443,
      "▁stars": 9444,
      "▁Braz": 9445,
      "ointment": 9446,
      "PC": 9447,
      "▁less": 9448,
      "▁titulo": 9449,
      "rick": 9450,
      "▁ligal": 9451,
      "▁guy": 9452,
      "▁apps": 9453,
      "itude": 9454,
      "▁little": 9455,
      "▁imbento": 9456,
      "▁oven": 9457,
      "▁pagdurusa": 9458,
      "elly": 9459,
      "▁permit": 9460,
      "▁wait": 9461,
      "▁lansang": 9462,
      "▁Customer": 9463,
      "eke": 9464,
      "▁Alden": 9465,
      "▁statement": 9466,
      "RR": 9467,
      "▁imprast": 9468,
      "▁templo": 9469,
      "▁Worms": 9470,
      "▁sustansya": 9471,
      "MC": 9472,
      "▁pm": 9473,
      "kie": 9474,
      "lywood": 9475,
      "▁i-install": 9476,
      "▁original": 9477,
      "▁Hello": 9478,
      "▁tunggali": 9479,
      "▁bitiw": 9480,
      "pecial": 9481,
      "▁based": 9482,
      "▁feat": 9483,
      "FR": 9484,
      "TH": 9485,
      "dal": 9486,
      "pansin": 9487,
      "▁sagutan": 9488,
      "▁spins": 9489,
      "▁ilapat": 9490,
      "▁maramihan": 9491,
      "▁Sund": 9492,
      "▁proud": 9493,
      "▁Bautista": 9494,
      "▁weeks": 9495,
      "▁kapita": 9496,
      "▁datu": 9497,
      "▁analy": 9498,
      "tro": 9499,
      "▁lilim": 9500,
      "▁Shang": 9501,
      "▁suweldo": 9502,
      "▁camp": 9503,
      "vings": 9504,
      "▁gold": 9505,
      "ping": 9506,
      "▁Family": 9507,
      "gia": 9508,
      "ffec": 9509,
      "rite": 9510,
      "▁antibo": 9511,
      "ngkok": 9512,
      "▁fact": 9513,
      "heads": 9514,
      "▁protektado": 9515,
      "onom": 9516,
      "▁panimula": 9517,
      "▁mapagmahal": 9518,
      "▁lagkit": 9519,
      "lyo": 9520,
      "uunlad": 9521,
      "▁prac": 9522,
      "boa": 9523,
      "▁Bac": 9524,
      "netic": 9525,
      "paste": 9526,
      "ILI": 9527,
      "▁alemanya": 9528,
      "▁Ther": 9529,
      "▁League": 9530,
      "▁multip": 9531,
      "▁gall": 9532,
      "▁Leo": 9533,
      "▁lunok": 9534,
      "take": 9535,
      "lection": 9536,
      "▁release": 9537,
      "▁47": 9538,
      "▁supre": 9539,
      "▁tadhana": 9540,
      "ander": 9541,
      "▁Cel": 9542,
      "▁trak": 9543,
      "walya": 9544,
      "cado": 9545,
      "▁menor": 9546,
      "▁lyrics": 9547,
      "ganyak": 9548,
      "lac": 9549,
      "▁ipag": 9550,
      "▁Then": 9551,
      "cept": 9552,
      "▁token": 9553,
      "vernor": 9554,
      "▁mananampalataya": 9555,
      "GB": 9556,
      "▁lobo": 9557,
      "-15": 9558,
      "reement": 9559,
      "▁operations": 9560,
      "▁usap": 9561,
      "-kalidad": 9562,
      "▁pagkansela": 9563,
      "▁Nico": 9564,
      "pez": 9565,
      "▁ingredi": 9566,
      "▁Boracay": 9567,
      "▁depensa": 9568,
      "▁Prime": 9569,
      "āh": 9570,
      "insi": 9571,
      "▁arkit": 9572,
      "INE": 9573,
      "klara": 9574,
      "▁third-party": 9575,
      "▁including": 9576,
      "▁physical": 9577,
      "just": 9578,
      "▁future": 9579,
      "▁panahunan": 9580,
      "▁agent": 9581,
      "▁Lucas": 9582,
      "yt": 9583,
      "▁Full": 9584,
      "▁sinungaling": 9585,
      "▁Mega": 9586,
      "▁Capital": 9587,
      "21": 9588,
      "loo": 9589,
      "yor": 9590,
      "▁duma": 9591,
      "▁Belarus": 9592,
      "limu": 9593,
      "upgrade": 9594,
      "▁talent": 9595,
      "maya": 9596,
      "n't": 9597,
      "▁today": 9598,
      "▁sugod": 9599,
      "▁Maine": 9600,
      "▁idea": 9601,
      "▁able": 9602,
      "▁progresibo": 9603,
[...]
