{
  "version": "1.0",
  "truncation": null,
  "padding": null,
  "added_tokens": [
    {
      "id": 0,
      "content": "<unk>",
      "single_word": false,
      "lstrip": false,
      "rstrip": false,
      "normalized": false,
      "special": true
    },
    {
      "id": 1,
      "content": "<s>",
      "single_word": false,
      "lstrip": false,
      "rstrip": false,
      "normalized": false,
      "special": true
    },
    {
      "id": 2,
      "content": "</s>",
      "single_word": false,
      "lstrip": false,
      "rstrip": false,
      "normalized": false,
      "special": true
    }
  ],
  "normalizer": {
    "type": "NFKC"
  },
  "pre_tokenizer": {
    "type": "Metaspace",
    "replacement": "▁",
    "prepend_scheme": "always",
    "split": true
  },
  "post_processor": null,
  "decoder": {
    "type": "Metaspace",
    "replacement": "▁",
    "prepend_scheme": "always",
    "split": true
  },
  "model": {
    "type": "BPE",
    "dropout": null,
    "unk_token": "<unk>",
    "continuing_subword_prefix": null,
    "end_of_word_suffix": null,
    "fuse_unk": false,
    "byte_fallback": false,
    "ignore_merges": false,
    "vocab": {
      "<unk>": 0,
      "<s>": 1,
      "</s>": 2,
      "\n": 3,
      "!": 4,
      "\"": 5,
      "#": 6,
      "$": 7,
      "%": 8,
      "&": 9,
      "'": 10,
      "(": 11,
      ")": 12,
      "*": 13,
      "+": 14,
      ",": 15,
      "-": 16,
      ".": 17,
      "/": 18,
      "0": 19,
      "1": 20,
      "2": 21,
      "3": 22,
      "4": 23,
      "5": 24,
      "6": 25,
      "7": 26,
      "8": 27,
      "9": 28,
      ":": 29,
      ";": 30,
      "<": 31,
      "=": 32,
      ">": 33,
      "?": 34,
      "@": 35,
      "A": 36,
      "B": 37,
      "C": 38,
      "D": 39,
      "E": 40,
      "F": 41,
      "G": 42,
      "H": 43,
      "I": 44,
      "J": 45,
      "K": 46,
      "L": 47,
      "M": 48,
      "N": 49,
      "O": 50,
      "P": 51,
      "Q": 52,
      "R": 53,
      "S": 54,
      "T": 55,
      "U": 56,
      "V": 57,
      "W": 58,
      "X": 59,
      "Y": 60,
      "Z": 61,
      "[": 62,
      "\\": 63,
      "]": 64,
      "^": 65,
      "_": 66,
      "`": 67,
      "a": 68,
      "b": 69,
      "c": 70,
      "d": 71,
      "e": 72,
      "f": 73,
      "g": 74,
      "h": 75,
      "i": 76,
      "j": 77,
      "k": 78,
      "l": 79,
      "m": 80,
      "n": 81,
      "o": 82,
      "p": 83,
      "q": 84,
      "r": 85,
      "s": 86,
      "t": 87,
      "u": 88,
      "v": 89,
      "w": 90,
      "x": 91,
      "y": 92,
      "z": 93,
      "{": 94,
      "|": 95,
      "}": 96,
      "~": 97,
      "¡": 98,
      "£": 99,
      "¥": 100,
      "§": 101,
      "©": 102,
      "«": 103,
      "¬": 104,
      "®": 105,
      "°": 106,
      "±": 107,
      "¶": 108,
      "·": 109,
      "»": 110,
      "¿": 111,
      "Á": 112,
      "Â": 113,
      "Ä": 114,
      "Å": 115,
      "Ç": 116,
      "É": 117,
      "Í": 118,
      "Ñ": 119,
      "Ö": 120,
      "×": 121,
      "Ø": 122,
      "Ü": 123,
      "ß": 124,
      "à": 125,
      "á": 126,
      "â": 127,
      "ã": 128,
      "ä": 129,
      "å": 130,
      "æ": 131,
      "ç": 132,
      "è": 133,
      "é": 134,
      "ê": 135,
      "ë": 136,
      "ì": 137,
      "í": 138,
      "î": 139,
      "ï": 140,
      "ð": 141,
      "ñ": 142,
      "ò": 143,
      "ó": 144,
      "ô": 145,
      "õ": 146,
      "ö": 147,
      "÷": 148,
      "ø": 149,
      "ù": 150,
      "ú": 151,
      "ü": 152,
      "ý": 153,
      "ā": 154,
      "ă": 155,
      "ą": 156,
      "ć": 157,
      "č": 158,
      "đ": 159,
      "ė": 160,
      "ę": 161,
      "ě": 162,
      "ğ": 163,
      "ī": 164,
      "į": 165,
      "İ": 166,
      "ı": 167,
      "ł": 168,
      "ń": 169,
      "ň": 170,
      "ō": 171,
      "œ": 172,
      "ř": 173,
      "ś": 174,
      "Ş": 175,
      "ş": 176,
      "Š": 177,
      "š": 178,
      "ū": 179,
      "ų": 180,
      "ż": 181,
      "ž": 182,
      "ư": 183,
      "ț": 184,
      "ɑ": 185,
      "ɔ": 186,
      "ə": 187,
      "ɪ": 188,
      "ʼ": 189,
      "ˈ": 190,
      "ː": 191,
      "́": 192,
      "̃": 193,
      "̈": 194,
      "̳": 195,
      "Ε": 196,
      "ά": 197,
      "έ": 198,
      "ή": 199,
      "ί": 200,
      "α": 201,
      "β": 202,
      "γ": 203,
      "δ": 204,
      "ε": 205,
      "η": 206,
      "θ": 207,
      "ι": 208,
      "κ": 209,
      "λ": 210,
      "μ": 211,
      "ν": 212,
      "ξ": 213,
      "ο": 214,
      "π": 215,
      "ρ": 216,
      "ς": 217,
      "σ": 218,
      "τ": 219,
      "υ": 220,
      "φ": 221,
      "χ": 222,
      "ω": 223,
      "ό": 224,
      "ύ": 225,
      "ώ": 226,
      "А": 227,
      "Б": 228,
      "В": 229,
      "Г": 230,
      "Д": 231,
      "Е": 232,
      "Ж": 233,
      "З": 234,
      "И": 235,
      "К": 236,
      "Л": 237,
      "М": 238,
      "Н": 239,
      "О": 240,
      "П": 241,
      "Р": 242,
      "С": 243,
      "Т": 244,
      "У": 245,
      "Э": 246,
      "Я": 247,
      "а": 248,
      "б": 249,
      "в": 250,
      "г": 251,
      "д": 252,
      "е": 253,
      "ж": 254,
      "з": 255,
      "и": 256,
      "й": 257,
      "к": 258,
      "л": 259,
      "м": 260,
      "н": 261,
      "о": 262,
      "п": 263,
      "р": 264,
      "с": 265,
      "т": 266,
      "у": 267,
      "ф": 268,
      "х": 269,
      "ц": 270,
      "ч": 271,
      "ш": 272,
      "щ": 273,
      "ы": 274,
      "ь": 275,
      "э": 276,
      "ю": 277,
      "я": 278,
      "є": 279,
      "і": 280,
      "ї": 281,
      "א": 282,
      "ב": 283,
      "ג": 284,
      "ד": 285,
      "ה": 286,
      "ו": 287,
      "ח": 288,
      "י": 289,
      "כ": 290,
      "ל": 291,
      "ם": 292,
      "מ": 293,
      "ן": 294,
      "נ": 295,
      "ס": 296,
      "ע": 297,
      "פ": 298,
      "צ": 299,
      "ק": 300,
      "ר": 301,
      "ש": 302,
      "ת": 303,
      "،": 304,
      "ء": 305,
      "آ": 306,
      "أ": 307,
      "ؤ": 308,
      "إ": 309,
      "ئ": 310,
      "ا": 311,
      "ب": 312,
      "ة": 313,
      "ت": 314,
      "ث": 315,
      "ج": 316,
      "ح": 317,
      "خ": 318,
      "د": 319,
      "ذ": 320,
      "ر": 321,
      "ز": 322,
      "س": 323,
      "ش": 324,
      "ص": 325,
      "ض": 326,
      "ط": 327,
      "ظ": 328,
      "ع": 329,
      "غ": 330,
      "ـ": 331,
      "ف": 332,
      "ق": 333,
      "ك": 334,
      "ل": 335,
      "م": 336,
      "ن": 337,
      "ه": 338,
      "و": 339,
      "ى": 340,
      "ي": 341,
      "ً": 342,
      "ٌ": 343,
      "ٍ": 344,
      "َ": 345,
      "ُ": 346,
      "ِ": 347,
      "ّ": 348,
      "ْ": 349,
      "ٰ": 350,
      "ی": 351,
      "ۖ": 352,
      "ۚ": 353,
      "ं": 354,
      "आ": 355,
      "ए": 356,
      "क": 357,
      "ख": 358,
      "ग": 359,
      "घ": 360,
      "च": 361,
      "ज": 362,
      "ट": 363,
      "त": 364,
      "द": 365,
      "न": 366,
      "प": 367,
      "ब": 368,
      "म": 369,
      "य": 370,
      "र": 371,
      "ल": 372,
      "व": 373,
      "स": 374,
      "ह": 375,
      "़": 376,
      "ा": 377,
      "ि": 378,
      "ी": 379,
      "ु": 380,
      "े": 381,
      "ै": 382,
      "ो": 383,
      "्": 384,
      "।": 385,
      "ং": 386,
      "ই": 387,
      "এ": 388,
      "ক": 389,
      "গ": 390,
      "ছ": 391,
      "জ": 392,
      "ট": 393,
      "ত": 394,
      "দ": 395,
      "ধ": 396,
      "ন": 397,
      "প": 398,
      "ব": 399,
      "ম": 400,
      "য": 401,
      "র": 402,
      "ল": 403,
      "শ": 404,
      "ষ": 405,
      "স": 406,
      "হ": 407,
      "়": 408,
      "া": 409,
      "ি": 410,
      "ী": 411,
      "ু": 412,
      "ে": 413,
      "ো": 414,
      "্": 415,
      "ก": 416,
      "ข": 417,
      "ค": 418,
      "ง": 419,
      "จ": 420,
      "ด": 421,
      "ต": 422,
      "ท": 423,
      "น": 424,
      "บ": 425,
      "ป": 426,
      "พ": 427,
      "ม": 428,
      "ย": 429,
      "ร": 430,
      "ล": 431,
      "ว": 432,
      "ส": 433,
      "ห": 434,
      "อ": 435,
      "ะ": 436,
      "ั": 437,
      "า": 438,
      "ิ": 439,
      "ี": 440,
      "ุ": 441,
      "เ": 442,
      "แ": 443,
      "ไ": 444,
      "่": 445,
      "้": 446,
      "ሁ": 447,
      "ህ": 448,
      "ለ": 449,
      "ላ": 450,
      "ል": 451,
      "መ": 452,
      "ም": 453,
      "ረ": 454,
      "ር": 455,
      "ሰ": 456,
      "ስ": 457,
      "በ": 458,
      "ብ": 459,
      "ተ": 460,
      "ት": 461,
      "ች": 462,
      "ነ": 463,
      "ና": 464,
      "ን": 465,
      "አ": 466,
      "እ": 467,
      "ው": 468,
      "የ": 469,
      "ያ": 470,
      "ይ": 471,
      "ደ": 472,
      "ድ": 473,
      "ገ": 474,
      "ግ": 475,
      "።": 476,
      "፣": 477,
      "፤": 478,
      "Ḥ": 479,
      "ḥ": 480,
      "ế": 481,
      "ệ": 482,
      "‐": 483,
      "–": 484,
      "—": 485,
      "―": 486,
      "‖": 487,
      "‘": 488,
      "’": 489,
      "‚": 490,
      "“": 491,
      "”": 492,
      "„": 493,
      "‟": 494,
      "†": 495,
      "•": 496,
      "′": 497,
      "›": 498,
      "※": 499,
      "⁄": 500,
      "€": 501,
      "₱": 502,
      "₹": 503,
      "₽": 504,
      "⃣": 505,
      "↑": 506,
      "→": 507,
      "↓": 508,
      "⇒": 509,
      "−": 510,
      "√": 511,
      "≤": 512,
      "≥": 513,
      "│": 514,
      "▁": 515,
      "▂": 516,
      "▞": 517,
      "■": 518,
      "▢": 519,
      "▪": 520,
      "▲": 521,
      "▶": 522,
      "►": 523,
      "◀": 524,
      "◆": 525,
      "◉": 526,
      "○": 527,
      "●": 528,
      "☀": 529,
      "★": 530,
      "☆": 531,
      "☺": 532,
      "♀": 533,
      "♠": 534,
      "♡": 535,
      "♣": 536,
      "♥": 537,
      "♦": 538,
      "♪": 539,
      "♫": 540,
      "♯": 541,
      "⚠": 542,
      "✅": 543,
      "✌": 544,
      "✓": 545,
      "✔": 546,
      "✘": 547,
      "✨": 548,
      "✩": 549,
      "❌": 550,
      "❏": 551,
      "❤": 552,
      "➡": 553,
      "⠀": 554,
      "⦠": 555,
      "⭐": 556,
      "、": 557,
      "。": 558,
      "「": 559,
      "」": 560,
      "【": 561,
      "】": 562,
      "あ": 563,
      "い": 564,
      "う": 565,
      "え": 566,
      "お": 567,
      "か": 568,
      "が": 569,
      "き": 570,
      "く": 571,
      "け": 572,
      "こ": 573,
      "さ": 574,
      "し": 575,
      "す": 576,
      "せ": 577,
      "そ": 578,
      "た": 579,
      "だ": 580,
      "ち": 581,
      "っ": 582,
      "つ": 583,
      "て": 584,
      "で": 585,
      "と": 586,
      "ど": 587,
      "な": 588,
      "に": 589,
      "の": 590,
      "は": 591,
      "ま": 592,
      "め": 593,
      "も": 594,
      "よ": 595,
      "ら": 596,
      "り": 597,
      "る": 598,
      "れ": 599,
      "を": 600,
      "ん": 601,
      "イ": 602,
      "ザ": 603,
      "ジ": 604,
      "ス": 605,
      "ッ": 606,
      "ト": 607,
      "ビ": 608,
      "リ": 609,
      "ロ": 610,
      "ン": 611,
      "・": 612,
      "ー": 613,
      "一": 614,
      "万": 615,
      "上": 616,
      "下": 617,
      "不": 618,
      "东": 619,
      "个": 620,
      "中": 621,
      "为": 622,
      "主": 623,
      "了": 624,
      "事": 625,
      "亚": 626,
      "人": 627,
      "他": 628,
      "以": 629,
      "们": 630,
      "件": 631,
      "伊": 632,
      "会": 633,
      "住": 634,
      "体": 635,
      "作": 636,
      "你": 637,
      "便": 638,
      "信": 639,
      "候": 640,
      "做": 641,
      "充": 642,
      "先": 643,
      "克": 644,
      "公": 645,
      "兰": 646,
      "具": 647,
      "内": 648,
      "円": 649,
      "再": 650,
      "出": 651,
      "击": 652,
      "分": 653,
      "利": 654,
      "到": 655,
      "制": 656,
      "刷": 657,
      "前": 658,
      "力": 659,
      "加": 660,
      "动": 661,
      "包": 662,
      "化": 663,
      "北": 664,
      "南": 665,
      "博": 666,
      "卡": 667,
      "印": 668,
      "去": 669,
      "友": 670,
      "发": 671,
      "口": 672,
      "叫": 673,
      "可": 674,
      "司": 675,
      "合": 676,
      "名": 677,
      "后": 678,
      "和": 679,
      "品": 680,
      "哈": 681,
      "喜": 682,
      "営": 683,
      "器": 684,
      "国": 685,
      "图": 686,
      "在": 687,
      "地": 688,
      "基": 689,
      "塔": 690,
      "外": 691,
      "多": 692,
      "大": 693,
      "天": 694,
      "她": 695,
      "好": 696,
      "威": 697,
      "子": 698,
      "字": 699,
      "孟": 700,
      "学": 701,
      "安": 702,
      "官": 703,
      "家": 704,
      "将": 705,
      "尔": 706,
      "就": 707,
      "尼": 708,
      "工": 709,
      "巴": 710,
      "布": 711,
      "帕": 712,
      "常": 713,
      "平": 714,
      "年": 715,
      "度": 716,
      "式": 717,
      "很": 718,
      "心": 719,
      "必": 720,
      "性": 721,
      "息": 722,
      "情": 723,
      "想": 724,
      "意": 725,
      "我": 726,
      "所": 727,
      "手": 728,
      "打": 729,
      "拉": 730,
      "按": 731,
      "提": 732,
      "携": 733,
      "文": 734,
      "料": 735,
      "斯": 736,
      "新": 737,
      "方": 738,
      "无": 739,
      "日": 740,
      "时": 741,
      "昂": 742,
      "明": 743,
      "是": 744,
      "時": 745,
      "普": 746,
      "景": 747,
      "最": 748,
      "月": 749,
      "有": 750,
      "朗": 751,
      "本": 752,
      "机": 753,
      "来": 754,
      "板": 755,
      "架": 756,
      "格": 757,
      "業": 758,
      "模": 759,
      "次": 760,
      "欢": 761,
      "比": 762,
      "水": 763,
      "法": 764,
      "海": 765,
      "温": 766,
      "点": 767,
      "烟": 768,
      "烤": 769,
      "烧": 770,
      "然": 771,
      "物": 772,
      "特": 773,
      "玛": 774,
      "理": 775,
      "瓦": 776,
      "生": 777,
      "用": 778,
      "由": 779,
      "电": 780,
      "病": 781,
      "痛": 782,
      "的": 783,
      "目": 784,
      "看": 785,
      "社": 786,
      "神": 787,
      "私": 788,
      "种": 789,
      "空": 790,
      "立": 791,
      "第": 792,
      "管": 793,
      "米": 794,
      "级": 795,
      "纳": 796,
      "编": 797,
      "网": 798,
      "置": 799,
      "美": 800,
      "者": 801,
      "肉": 802,
      "育": 803,
      "能": 804,
      "自": 805,
      "色": 806,
      "萨": 807,
      "蓬": 808,
      "行": 809,
      "要": 810,
      "观": 811,
      "設": 812,
      "語": 813,
      "论": 814,
      "评": 815,
      "语": 816,
      "说": 817,
      "请": 818,
      "起": 819,
      "路": 820,
      "辑": 821,
      "达": 822,
      "这": 823,
      "那": 824,
      "里": 825,
      "金": 826,
      "键": 827,
      "问": 828,
      "阿": 829,
      "面": 830,
      "首": 831,
      "香": 832,
      "马": 833,
      "高": 834,
      "鼠": 835,
      "가": 836,
      "거": 837,
      "것": 838,
      "게": 839,
      "고": 840,
      "과": 841,
      "구": 842,
      "국": 843,
      "그": 844,
      "기": 845,
      "깨": 846,
      "께": 847,
      "나": 848,
      "날": 849,
      "내": 850,
      "너": 851,
      "네": 852,
      "는": 853,
      "니": 854,
      "님": 855,
      "다": 856,
      "대": 857,
      "데": 858,
      "도": 859,
      "돌": 860,
      "동": 861,
      "되": 862,
      "두": 863,
      "드": 864,
      "든": 865,
      "들": 866,
      "때": 867,
      "또": 868,
      "라": 869,
      "람": 870,
      "러": 871,
      "려": 872,
      "로": 873,
      "를": 874,
      "리": 875,
      "마": 876,
      "만": 877,
      "말": 878,
      "며": 879,
      "면": 880,
      "모": 881,
      "무": 882,
      "문": 883,
      "물": 884,
      "바": 885,
      "밥": 886,
      "버": 887,
      "보": 888,
      "부": 889,
      "분": 890,
      "불": 891,
      "비": 892,
      "빔": 893,
      "사": 894,
      "살": 895,
      "생": 896,
      "서": 897,
      "섯": 898,
      "성": 899,
      "세": 900,
      "소": 901,
      "수": 902,
      "스": 903,
      "습": 904,
      "시": 905,
      "신": 906,
      "아": 907,
      "안": 908,
      "않": 909,
      "야": 910,
      "어": 911,
      "었": 912,
      "에": 913,
      "엘": 914,
      "여": 915,
      "였": 916,
      "예": 917,
      "오": 918,
      "와": 919,
      "요": 920,
      "우": 921,
      "원": 922,
      "위": 923,
      "유": 924,
      "으": 925,
      "은": 926,
      "을": 927,
      "의": 928,
      "이": 929,
      "인": 930,
      "일": 931,
      "입": 932,
      "있": 933,
      "자": 934,
      "전": 935,
      "정": 936,
      "제": 937,
      "주": 938,
      "지": 939,
      "치": 940,
      "탕": 941,
      "트": 942,
      "하": 943,
      "한": 944,
      "해": 945,
      "형": 946,
      "호": 947,
      "﴾": 948,
      "﴿": 949,
      "︎": 950,
      "️": 951,
      "�": 952,
      "🃏": 953,
      "🇨": 954,
      "🇴": 955,
      "🇵": 956,
      "🌟": 957,
      "🎀": 958,
      "🎉": 959,
      "🎰": 960,
      "🏆": 961,
      "🏻": 962,
      "🐛": 963,
      "👇": 964,
      "👉": 965,
      "👌": 966,
      "👍": 967,
      "👎": 968,
      "👏": 969,
      "👣": 970,
      "👨": 971,
      "💅": 972,
      "💕": 973,
      "💙": 974,
      "💜": 975,
      "💡": 976,
      "💰": 977,
      "📌": 978,
      "📰": 979,
      "🔥": 980,
      "🔴": 981,
      "🔶": 982,
      "😀": 983,
      "😁": 984,
      "😂": 985,
      "😄": 986,
      "😅": 987,
      "😆": 988,
      "😇": 989,
      "😉": 990,
      "😊": 991,
      "😍": 992,
      "😘": 993,
      "😛": 994,
      "😢": 995,
      "😭": 996,
      "😱": 997,
      "🙁": 998,
      "🙂": 999,
      "🙏": 1000,
      "🤣": 1001,
      "🥰": 1002,
      "ng": 1003,
      "ang": 1004,
      "na": 1005,
      "▁m": 1006,
      "▁s": 1007,
      "an": 1008,
      "▁p": 1009,
      "▁na": 1010,
      "▁sa": 1011,
      "at": 1012,
      "ag": 1013,
      "▁ng": 1014,
      "al": 1015,
      "ay": 1016,
      "▁k": 1017,
      "in": 1018,
      "ar": 1019,
      "it": 1020,
      "ga": 1021,
      "▁ang": 1022,
      "as": 1023,
      "il": 1024,
      "▁t": 1025,
      "am": 1026,
      "is": 1027,
      "ak": 1028,
      "▁mga": 1029,
      "▁b": 1030,
      "on": 1031,
      "ing": 1032,
      "er": 1033,
      "ah": 1034,
      "ong": 1035,
      "ap": 1036,
      "▁at": 1037,
      "▁l": 1038,
      "▁pag": 1039,
      "▁d": 1040,
      "ul": 1041,
      "▁ay": 1042,
      "ab": 1043,
      "▁n": 1044,
      "▁h": 1045,
      ".\n": 1046,
      "um": 1047,
      "ina": 1048,
      "iy": 1049,
      "aw": 1050,
      "es": 1051,
      "ib": 1052,
      "or": 1053,
      "en": 1054,
      "▁is": 1055,
      "ad": 1056,
      "ig": 1057,
      "un": 1058,
      "us": 1059,
      "ung": 1060,
      "▁A": 1061,
      "ito": 1062,
      "ik": 1063,
      "im": 1064,
      "os": 1065,
      "▁par": 1066,
      "▁M": 1067,
      "▁P": 1068,
      "ro": 1069,
      "▁isang": 1070,
      "re": 1071,
      "▁S": 1072,
      "to": 1073,
      "▁g": 1074,
      "ana": 1075,
      "ip": 1076,
      "di": 1077,
      "▁mag": 1078,
      "▁c": 1079,
      "ilang": 1080,
      "up": 1081,
      "▁o": 1082,
      "▁para": 1083,
      "▁w": 1084,
      "▁nag": 1085,
      "ur": 1086,
      "ut": 1087,
      "▁ito": 1088,
      "indi": 1089,
      "ol": 1090,
      "id": 1091,
      "and": 1092,
      "el": 1093,
      "uk": 1094,
      "▁kan": 1095,
      "et": 1096,
      "ot": 1097,
      "ic": 1098,
      "yon": 1099,
      "▁B": 1100,
      "iya": 1101,
      "▁K": 1102,
      "ala": 1103,
      "▁kung": 1104,
      "▁may": 1105,
      "yo": 1106,
      "▁ma": 1107,
      "▁f": 1108,
      "▁C": 1109,
      "▁I": 1110,
      "▁N": 1111,
      "▁hindi": 1112,
      "▁pa": 1113,
      "ac": 1114,
      "▁T": 1115,
      "uh": 1116,
      "ir": 1117,
      "ed": 1118,
      "▁D": 1119,
      "ent": 1120,
      "ano": 1121,
      "▁r": 1122,
      "▁ak": 1123,
      "▁ko": 1124,
      "▁nak": 1125,
      "▁mas": 1126,
      "▁ka": 1127,
      "▁in": 1128,
      "ug": 1129,
      "ub": 1130,
      "ya": 1131,
      "▁up": 1132,
      "em": 1133,
      "▁iy": 1134,
      "▁pang": 1135,
      "▁Ang": 1136,
      "▁mal": 1137,
      "ula": 1138,
      "▁mat": 1139,
      "od": 1140,
      "▁mak": 1141,
      "▁upang": 1142,
      "▁ib": 1143,
      "▁ni": 1144,
      "ok": 1145,
      "aar": 1146,
      "ek": 1147,
      "om": 1148,
      "▁H": 1149,
      "▁th": 1150,
      "▁pagk": 1151,
      "ila": 1152,
      "ih": 1153,
      "▁ta": 1154,
      "le": 1155,
      "▁ga": 1156,
      "ion": 1157,
      "▁nam": 1158,
      "▁pam": 1159,
      "▁L": 1160,
      "una": 1161,
      "a,": 1162,
      "▁G": 1163,
      "ant": 1164,
      "alag": 1165,
      "▁mo": 1166,
      "ita": 1167,
      "yang": 1168,
      "▁re": 1169,
      "▁nang": 1170,
      "▁pina": 1171,
      "▁kas": 1172,
      "sa": 1173,
      "..": 1174,
      "ahil": 1175,
      "pap": 1176,
      "▁iyong": 1177,
      "▁R": 1178,
      "Ang": 1179,
      "ili": 1180,
      "an,": 1181,
      "alang": 1182,
      "uw": 1183,
      "▁pro": 1184,
      "▁1": 1185,
      "aya": 1186,
      "aba": 1187,
      "iw": 1188,
      "▁e": 1189,
      "▁pag-": 1190,
      "ta": 1191,
      "▁si": 1192,
      "alak": 1193,
      "o,": 1194,
      "imb": 1195,
      "▁maaar": 1196,
      "▁(": 1197,
      "og": 1198,
      "▁2": 1199,
      "▁bag": 1200,
      "▁mula": 1201,
      "▁E": 1202,
      "awa": 1203,
      "amang": 1204,
      "ahat": 1205,
      "▁al": 1206,
      "▁kat": 1207,
      "ec": 1208,
      "ata": 1209,
      "aming": 1210,
      "ter": 1211,
      "tr": 1212,
      "▁F": 1213,
      "apat": 1214,
      "ama": 1215,
      "ob": 1216,
      "▁dahil": 1217,
      "▁pagb": 1218,
      "asyon": 1219,
      "apag": 1220,
      "orm": 1221,
      "▁nat": 1222,
      "ahan": 1223,
      "▁ar": 1224,
      "▁the": 1225,
      "▁it": 1226,
      "▁niya": 1227,
      "▁lang": 1228,
      "▁kanyang": 1229,
      "▁to": 1230,
      "oy": 1231,
      "o.": 1232,
      "itan": 1233,
      "ine": 1234,
      "▁mah": 1235,
      "ers": 1236,
      "▁W": 1237,
      "apos": 1238,
      "op": 1239,
      "aro": 1240,
      "wa": 1241,
      "▁of": 1242,
      "▁ako": 1243,
      "ch": 1244,
      "▁mar": 1245,
      "▁J": 1246,
      "\n-": 1247,
      "▁kar": 1248,
      "res": 1249,
      "▁kanilang": 1250,
      "▁siya": 1251,
      "▁lahat": 1252,
      "iv": 1253,
      "mit": 1254,
      "▁kal": 1255,
      "▁pamam": 1256,
      "angg": 1257,
      "▁kay": 1258,
      "▁pana": 1259,
      "aman": 1260,
      "ow": 1261,
      "▁rin": 1262,
      "ate": 1263,
      "▁a": 1264,
      "▁an": 1265,
      "▁nito": 1266,
      "und": 1267,
      "ist": 1268,
      "aka": 1269,
      "▁naman": 1270,
      "ha": 1271,
      "▁iba": 1272,
      "ans": 1273,
      "▁pagpap": 1274,
      "ep": 1275,
      "st": 1276,
      "dib": 1277,
      "imbang": 1278,
      "00": 1279,
      "yan": 1280,
      "▁Sa": 1281,
      "▁O": 1282,
      "ibig": 1283,
      "▁maaaring": 1284,
      "▁mab": 1285,
      "▁pags": 1286,
      "▁and": 1287,
      "▁or": 1288,
      "nal": 1289,
      ".\nS": 1290,
      "e,": 1291,
      "▁timbang": 1292,
      "▁v": 1293,
      "dag": 1294,
      "▁din": 1295,
      "est": 1296,
      "▁paano": 1297,
      "ilangan": 1298,
      "ie": 1299,
      "▁kum": 1300,
      "▁tul": 1301,
      "unit": 1302,
      "alan": 1303,
      "▁tr": 1304,
      "ibdib": 1305,
      "ilip": 1306,
      "ino": 1307,
      "ara": 1308,
      "▁kam": 1309,
      "▁U": 1310,
      "ungk": 1311,
      "iyang": 1312,
      "▁kah": 1313,
      "▁il": 1314,
      ".\nAng": 1315,
      "ation": 1316,
      "alaga": 1317,
      "ayan": 1318,
      "▁kab": 1319,
      "unt": 1320,
      "▁pinak": 1321,
      "awan": 1322,
      "i-": 1323,
      "▁dibdib": 1324,
      "▁tao": 1325,
      "▁pat": 1326,
      "uro": 1327,
      "imp": 1328,
      "ial": 1329,
      "▁gum": 1330,
      "lo": 1331,
      "▁y": 1332,
      "▁pamamag": 1333,
      "▁lamang": 1334,
      "ero": 1335,
      "a.": 1336,
      "▁pagt": 1337,
      "abang": 1338,
      "eg": 1339,
      "ort": 1340,
      "ayon": 1341,
      "▁bat": 1342,
      "ali": 1343,
      "▁-": 1344,
      "▁gina": 1345,
      "ast": 1346,
      "ain": 1347,
      ".\nM": 1348,
      "▁ip": 1349,
      "ens": 1350,
      "▁um": 1351,
      "▁walang": 1352,
      "▁sus": 1353,
      "ari": 1354,
      "▁bilang": 1355,
      "eb": 1356,
      "uhay": 1357,
      "▁bah": 1358,
      "ating": 1359,
      "uha": 1360,
      "bi": 1361,
      "▁kap": 1362,
      "amit": 1363,
      "▁tum": 1364,
      "▁mata": 1365,
      "atapos": 1366,
      "anda": 1367,
      "int": 1368,
      "▁pagl": 1369,
      "uri": 1370,
      "▁on": 1371,
      "▁sila": 1372,
      "ess": 1373,
      "a-": 1374,
      "▁mong": 1375,
      "▁nap": 1376,
      "an.": 1377,
      "▁hal": 1378,
      "alaw": 1379,
      "▁no": 1380,
      "abas": 1381,
      "▁as": 1382,
      "▁isa": 1383,
      "▁mad": 1384,
      "▁V": 1385,
      "ulong": 1386,
      "ungkol": 1387,
      "e.": 1388,
      "inas": 1389,
      "▁lum": 1390,
      "ayo": 1391,
      "▁pamamagitan": 1392,
      "▁magk": 1393,
      "▁man": 1394,
      "idad": 1395,
      "▁mag-": 1396,
      "\nAng": 1397,
      "agdag": 1398,
      "▁“": 1399,
      "▁map": 1400,
      "▁nila": 1401,
      "▁Pag": 1402,
      "he": 1403,
      "▁po": 1404,
      "end": 1405,
      "▁lo": 1406,
      "yong": 1407,
      "tor": 1408,
      "alim": 1409,
      "aling": 1410,
      "ly": 1411,
      "usay": 1412,
      "alaki": 1413,
      ".\nP": 1414,
      "anan": 1415,
      "art": 1416,
      "▁sar": 1417,
      "▁pl": 1418,
      "▁20": 1419,
      "usto": 1420,
      "▁di": 1421,
      "▁tungkol": 1422,
      "ud": 1423,
      "▁ilang": 1424,
      "agi": 1425,
      "▁tag": 1426,
      "hon": 1427,
      "▁paras": 1428,
      "▁mask": 1429,
      "▁pagga": 1430,
      "eh": 1431,
      "▁araw": 1432,
      ".\nN": 1433,
      "ill": 1434,
      "▁yo": 1435,
      "ind": 1436,
      "▁3": 1437,
      "anap": 1438,
      "▁ibang": 1439,
      "asan": 1440,
      "ce": 1441,
      "▁dapat": 1442,
      "▁pal": 1443,
      "▁saan": 1444,
      "ery": 1445,
      "▁kaya": 1446,
      "ide": 1447,
      "ment": 1448,
      "▁sum": 1449,
      "▁In": 1450,
      "ins": 1451,
      "ity": 1452,
      "▁maaari": 1453,
      "▁ano": 1454,
      "akit": 1455,
      "ard": 1456,
      "unan": 1457,
      ".\nK": 1458,
      "▁pan": 1459,
      "▁\"": 1460,
      "th": 1461,
      "ado": 1462,
      "oc": 1463,
      "angk": 1464,
      "ost": 1465,
      "asa": 1466,
      "▁pr": 1467,
      "▁ngunit": 1468,
      "igit": 1469,
      "▁fac": 1470,
      "syon": 1471,
      "▁ik": 1472,
      "akas": 1473,
      "▁ba": 1474,
      "\nM": 1475,
      "pl": 1476,
      "io": 1477,
      "ulat": 1478,
      "ento": 1479,
      "▁maging": 1480,
      "igh": 1481,
      "▁maraming": 1482,
      "▁tulad": 1483,
      "▁baw": 1484,
      ".\nA": 1485,
      "▁An": 1486,
      "inak": 1487,
      "ve": 1488,
      "▁res": 1489,
      "▁Kung": 1490,
      "ihan": 1491,
      "▁bal": 1492,
      "ite": 1493,
      "▁sak": 1494,
      "pek": 1495,
      "▁pak": 1496,
      "▁muk": 1497,
      "▁dito": 1498,
      "▁sin": 1499,
      "▁bu": 1500,
      "▁lab": 1501,
      "ulang": 1502,
      "ver": 1503,
      "ag-": 1504,
      "qu": 1505,
      "unang": 1506,
      "▁ngayon": 1507,
      "iging": 1508,
      "unod": 1509,
      "▁imp": 1510,
      "aroon": 1511,
      "...": 1512,
      "▁buhay": 1513,
      "anggang": 1514,
      "▁ap": 1515,
      "alo": 1516,
      "amp": 1517,
      "iling": 1518,
      "amah": 1519,
      "s,": 1520,
      "▁st": 1521,
      "▁namin": 1522,
      "\nP": 1523,
      "▁for": 1524,
      "▁pagkak": 1525,
      ".\n-": 1526,
      "if": 1527,
      "▁kon": 1528,
      "▁bum": 1529,
      "inat": 1530,
      "eng": 1531,
      "\nS": 1532,
      "▁ch": 1533,
      "▁ac": 1534,
      "la": 1535,
      "anak": 1536,
      "▁noong": 1537,
      "iit": 1538,
      "per": 1539,
      "isyon": 1540,
      "▁nagb": 1541,
      "▁worm": 1542,
      "iew": 1543,
      "agawa": 1544,
      "arap": 1545,
      "▁maw": 1546,
      ".\nI": 1547,
      "▁nags": 1548,
      "ump": 1549,
      "akat": 1550,
      "▁oras": 1551,
      "▁aking": 1552,
      "ibigay": 1553,
      "▁pagkatapos": 1554,
      "▁con": 1555,
      "ia": 1556,
      "▁prod": 1557,
      "▁taon": 1558,
      "▁Mga": 1559,
      "▁hanggang": 1560,
      "abah": 1561,
      "mot": 1562,
      "▁per": 1563,
      "ema": 1564,
      "▁sina": 1565,
      "ami": 1566,
      "alawang": 1567,
      "uan": 1568,
      "▁bagay": 1569,
      "ust": 1570,
      "les": 1571,
      "ago": 1572,
      "▁pagp": 1573,
      "▁kapag": 1574,
      "▁Ch": 1575,
      "▁bawat": 1576,
      "▁aming": 1577,
      "▁Al": 1578,
      "▁nag-": 1579,
      "▁pagh": 1580,
      "amb": 1581,
      "line": 1582,
      ".\nSa": 1583,
      "ive": 1584,
      "ailangan": 1585,
      "▁maliit": 1586,
      "▁ginaga": 1587,
      "▁ilalim": 1588,
      "in,": 1589,
      "▁pres": 1590,
      "▁panahon": 1591,
      "alik": 1592,
      "uto": 1593,
      "▁ina": 1594,
      "angga": 1595,
      "nan": 1596,
      "▁Hindi": 1597,
      "abi": 1598,
      "▁nasa": 1599,
      "alagang": 1600,
      "ilis": 1601,
      "▁kang": 1602,
      "view": 1603,
      "▁bul": 1604,
      "▁sal": 1605,
      "▁ban": 1606,
      "lal": 1607,
      "ack": 1608,
      "▁mukha": 1609,
      "▁sh": 1610,
      "▁Mar": 1611,
      "▁Y": 1612,
      "▁pum": 1613,
      "uc": 1614,
      "ff": 1615,
      "▁kag": 1616,
      "iz": 1617,
      "'t": 1618,
      "▁5": 1619,
      "pan": 1620,
      "tion": 1621,
      "da": 1622,
      "▁dis": 1623,
      "umang": 1624,
      "▁gamit": 1625,
      "▁natin": 1626,
      "ice": 1627,
      "ry": 1628,
      "▁mayro": 1629,
      "▁ating": 1630,
      "AN": 1631,
      "▁Ito": 1632,
      "isyo": 1633,
      "ure": 1634,
      "▁kahit": 1635,
      "▁sp": 1636,
      "ura": 1637,
      "▁loob": 1638,
      "▁baba": 1639,
      "▁May": 1640,
      "▁kami": 1641,
      "itong": 1642,
      "▁habang": 1643,
      "ugar": 1644,
      "atag": 1645,
      "▁lar": 1646,
      "▁produk": 1647,
      "▁suso": 1648,
      "\nK": 1649,
      "▁bata": 1650,
      "inig": 1651,
      "ey": 1652,
      "▁At": 1653,
      "’t": 1654,
      "▁pos": 1655,
      "▁itong": 1656,
      "all": 1657,
      "ma": 1658,
      "ies": 1659,
      "co": 1660,
      "▁taong": 1661,
      "▁kailangan": 1662,
      "inis": 1663,
      "ith": 1664,
      "andang": 1665,
      "yal": 1666,
      "ex": 1667,
      "ihin": 1668,
      "inal": 1669,
      "▁gaw": 1670,
      "▁kong": 1671,
      "ayag": 1672,
      "▁pagbaba": 1673,
      "uloy": 1674,
      "▁com": 1675,
      "hing": 1676,
      "ika": 1677,
      "▁pinag": 1678,
      "▁nagpap": 1679,
      "▁ser": 1680,
      "▁nga": 1681,
      "▁Ng": 1682,
      "ilala": 1683,
      "▁wala": 1684,
      "▁you": 1685,
      "▁4": 1686,
      "ian": 1687,
      "aal": 1688,
      "▁paraan": 1689,
      "▁pand": 1690,
      "urog": 1691,
      "agamit": 1692,
      "▁bahay": 1693,
      "▁malak": 1694,
      "s.": 1695,
      "▁nas": 1696,
      "mer": 1697,
      "amd": 1698,
      "▁Ma": 1699,
      "▁kasama": 1700,
      ".\nH": 1701,
      "▁be": 1702,
      "▁lugar": 1703,
      "▁mags": 1704,
      "▁pas": 1705,
      "imula": 1706,
      "▁bagong": 1707,
      "ight": 1708,
      "▁sarili": 1709,
      "ugan": 1710,
      "akita": 1711,
      "▁de": 1712,
      "▁nab": 1713,
      ".\nB": 1714,
      "▁buong": 1715,
      "aran": 1716,
      "ayun": 1717,
      "ugna": 1718,
      "ra": 1719,
      "inab": 1720,
      "ell": 1721,
      "oh": 1722,
      "▁uri": 1723,
      "▁j": 1724,
      "iyos": 1725,
      "▁higit": 1726,
      "her": 1727,
      "▁review": 1728,
      "▁pin": 1729,
      "pat": 1730,
      "iyak": 1731,
      "irap": 1732,
      "▁tat": 1733,
      "▁iyon": 1734,
      "anong": 1735,
      "usap": 1736,
      "▁katawan": 1737,
      "▁ito,": 1738,
      "tib": 1739,
      ".\n“": 1740,
      "akb": 1741,
      "ult": 1742,
      "-s": 1743,
      "isip": 1744,
      "▁ag": 1745,
      "ulo": 1746,
      "▁kanya": 1747,
      "▁me": 1748,
      "▁lib": 1749,
      "mp": 1750,
      "▁pap": 1751,
      "alas": 1752,
      "uo": 1753,
      "ism": 1754,
      "▁mang": 1755,
      "▁bago": 1756,
      "▁ex": 1757,
      "▁pero": 1758,
      "▁ad": 1759,
      "▁anumang": 1760,
      "anay": 1761,
      "▁201": 1762,
      "▁Pilip": 1763,
      "agk": 1764,
      "adong": 1765,
      "▁anak": 1766,
      "▁epek": 1767,
      "uhan": 1768,
      "bl": 1769,
      "ord": 1770,
      "▁pagbab": 1771,
      "te": 1772,
      "amin": 1773,
      "amat": 1774,
      "▁iyo": 1775,
      "ingg": 1776,
      "▁bahagi": 1777,
      "▁bansa": 1778,
      "iga": 1779,
      "ork": 1780,
      "uti": 1781,
      "▁dalawang": 1782,
      "oto": 1783,
      "▁sab": 1784,
      "ink": 1785,
      "▁sl": 1786,
      "anas": 1787,
      "▁sup": 1788,
      "ick": 1789,
      "ew": 1790,
      "▁nakak": 1791,
      "▁magb": 1792,
      "▁yung": 1793,
      "eks": 1794,
      "▁–": 1795,
      "emb": 1796,
      "ear": 1797,
      "anggap": 1798,
      "uli": 1799,
      "▁op": 1800,
      "▁niyang": 1801,
      "▁mahusay": 1802,
      "no": 1803,
      "\nN": 1804,
      "▁Mas": 1805,
      "▁online": 1806,
      "▁Is": 1807,
      "▁nagt": 1808,
      "agdagan": 1809,
      "▁‘": 1810,
      "▁pagpapalaki": 1811,
      "ilan": 1812,
      "anag": 1813,
      "▁i-": 1814,
      "▁makak": 1815,
      "lang": 1816,
      "iko": 1817,
      "gr": 1818,
      "▁unang": 1819,
      ".\nT": 1820,
      "hang": 1821,
      "hh": 1822,
      "igay": 1823,
      "ri": 1824,
      "▁co": 1825,
      "ayong": 1826,
      "es,": 1827,
      "▁Diyos": 1828,
      "▁siyang": 1829,
      "▁Pang": 1830,
      "iwang": 1831,
      "▁parasito": 1832,
      "ikip": 1833,
      "ilya": 1834,
      "aaral": 1835,
      "ream": 1836,
      "abaho": 1837,
      "▁naging": 1838,
      "▁gusto": 1839,
      "man": 1840,
      "▁dum": 1841,
      "in.": 1842,
      "ue": 1843,
      "▁nagk": 1844,
      "las": 1845,
      "ikal": 1846,
      "▁facial": 1847,
      "▁alam": 1848,
      "unta": 1849,
      "rol": 1850,
      "inag": 1851,
      "ect": 1852,
      "on,": 1853,
      "▁do": 1854,
      "▁inter": 1855,
      "▁hum": 1856,
      "-p": 1857,
      "▁wh": 1858,
      "\nI": 1859,
      "▁kinak": 1860,
      "▁bas": 1861,
      "apit": 1862,
      "han": 1863,
      "▁gr": 1864,
      "▁dal": 1865,
      "▁Mag": 1866,
      "▁lik": 1867,
      "ular": 1868,
      "▁parasit": 1869,
      "▁produkto": 1870,
      "▁nakat": 1871,
      "▁bulate": 1872,
      "▁buw": 1873,
      "▁tub": 1874,
      "▁he": 1875,
      "▁pagkain": 1876,
      "ikita": 1877,
      "ente": 1878,
      "ahin": 1879,
      "▁nil": 1880,
      "ore": 1881,
      "▁kasi": 1882,
      "are": 1883,
      "▁i": 1884,
      "awak": 1885,
      "▁akong": 1886,
      "▁gawin": 1887,
      "▁nar": 1888,
      "ck": 1889,
      "▁ed": 1890,
      "iwala": 1891,
      "ional": 1892,
      "IN": 1893,
      "ungan": 1894,
      "igt": 1895,
      "aari": 1896,
      "ulit": 1897,
      "alit": 1898,
      "dia": 1899,
      "uwag": 1900,
      "\nA": 1901,
      "awag": 1902,
      "able": 1903,
      "▁kak": 1904,
      "ile": 1905,
      "▁Ph": 1906,
      "eta": 1907,
      "▁mund": 1908,
      "nap": 1909,
      "▁Nag": 1910,
      "▁pagd": 1911,
      "age": 1912,
      "unay": 1913,
      "ood": 1914,
      "▁babae": 1915,
      "ible": 1916,
      "▁with": 1917,
      "oses": 1918,
      "▁pangang": 1919,
      "ond": 1920,
      "uling": 1921,
      "▁ant": 1922,
      "ays": 1923,
      "isin": 1924,
      "ay,": 1925,
      "▁malaking": 1926,
      "▁gan": 1927,
      "asal": 1928,
      "aano": 1929,
      "ming": 1930,
      "▁presyo": 1931,
      "▁ab": 1932,
      "ons": 1933,
      "▁tin": 1934,
      "▁St": 1935,
      "▁sakit": 1936,
      "▁mayroon": 1937,
      "▁pandurog": 1938,
      "log": 1939,
      "er,": 1940,
      "▁ro": 1941,
      "▁that": 1942,
      "▁ito.": 1943,
      "unahing": 1944,
      "▁matapos": 1945,
      "▁cas": 1946,
      "▁Ar": 1947,
      "▁tayo": 1948,
      "urg": 1949,
      "▁so": 1950,
      "aan": 1951,
      "▁mataas": 1952,
      "▁bin": 1953,
      "▁part": 1954,
      "ahang": 1955,
      "20": 1956,
      "ulad": 1957,
      "ire": 1958,
      "▁mam": 1959,
      "▁mawalan": 1960,
      "▁pareh": 1961,
      "iyan": 1962,
      "ook": 1963,
      "▁nya": 1964,
      "▁talaga": 1965,
      "▁balat": 1966,
      "▁kom": 1967,
      "ubuk": 1968,
      "▁kanila": 1969,
      "alaman": 1970,
      "\nB": 1971,
      "▁pinakamah": 1972,
      "▁sig": 1973,
      "ubl": 1974,
      "▁nangang": 1975,
      "▁big": 1976,
      "▁es": 1977,
      "▁laro": 1978,
      "inah": 1979,
      "▁tubig": 1980,
      "▁10": 1981,
      "▁pinakam": 1982,
      "▁min": 1983,
      "▁mabilis": 1984,
      "av": 1985,
      "▁neg": 1986,
      "▁pah": 1987,
      "▁nais": 1988,
      "yar": 1989,
      "▁probl": 1990,
      "agal": 1991,
      "ilangang": 1992,
      "▁napak": 1993,
      "asok": 1994,
      "ulan": 1995,
      "▁kasal": 1996,
      "▁6": 1997,
      "▁laban": 1998,
      "isa": 1999,
      "▁vide": 2000,
      "▁Un": 2001,
      "one": 2002,
      "▁gawa": 2003,
      "▁'": 2004,
      "▁paggamit": 2005,
      "▁gumawa": 2006,
      "uso": 2007,
      "▁silang": 2008,
      "port": 2009,
      "com": 2010,
      "ark": 2011,
      "ary": 2012,
      "▁pangunahing": 2013,
      "ayos": 2014,
      "▁Pro": 2015,
      "▁epekto": 2016,
      "out": 2017,
      "-1": 2018,
      "iba": 2019,
      "alaking": 2020,
      "▁parasites": 2021,
      "▁ikaw": 2022,
      "▁kaysa": 2023,
      "panya": 2024,
      "ov": 2025,
      "osyo": 2026,
      "long": 2027,
      "inaw": 2028,
      "i,": 2029,
      "enc": 2030,
      "ement": 2031,
      "agaw": 2032,
      "anat": 2033,
      "nat": 2034,
      "▁magp": 2035,
      "▁pangk": 2036,
      "▁pagm": 2037,
      "||": 2038,
      "aga": 2039,
      "ahanap": 2040,
      "▁nagbibigay": 2041,
      "-b": 2042,
      "ulay": 2043,
      "hi": 2044,
      "ress": 2045,
      "000": 2046,
      "▁kad": 2047,
      "mas": 2048,
      "▁pamilya": 2049,
      ".\nD": 2050,
      "▁web": 2051,
      "▁pagsas": 2052,
      "pang": 2053,
      "▁pagsus": 2054,
      "▁Pilipinas": 2055,
      "ugnay": 2056,
      "▁7": 2057,
      "ime": 2058,
      "ato": 2059,
      "▁lup": 2060,
      "sik": 2061,
      "▁alisin": 2062,
      "arang": 2063,
      "uno": 2064,
      "▁ring": 2065,
      "ish": 2066,
      "▁sinabi": 2067,
      "ansin": 2068,
      "▁bab": 2069,
      "ener": 2070,
      "\nT": 2071,
      "tong": 2072,
      "alis": 2073,
      "ev": 2074,
      "▁lalo": 2075,
      "▁nagp": 2076,
      "ulugan": 2077,
      "▁bakit": 2078,
      "▁imporm": 2079,
      "▁art": 2080,
      "▁are": 2081,
      "▁19": 2082,
      "utan": 2083,
      "ilit": 2084,
      "ulta": 2085,
      "ikha": 2086,
      "▁sabi": 2087,
      "y,": 2088,
      "so": 2089,
      "▁we": 2090,
      "own": 2091,
      "-ar": 2092,
      "use": 2093,
      "▁lalaki": 2094,
      "ahe": 2095,
      "▁serb": 2096,
      "yay": 2097,
      "usyon": 2098,
      "pes": 2099,
      "▁lim": 2100,
      "ati": 2101,
      "▁mapag": 2102,
      "aman,": 2103,
      "agay": 2104,
      "anc": 2105,
      "\nH": 2106,
      "ena": 2107,
      "ayad": 2108,
      "ataas": 2109,
      "▁gamot": 2110,
      "▁el": 2111,
      "),": 2112,
      ".\n\"": 2113,
      "emp": 2114,
      "▁pagkakata": 2115,
      "act": 2116,
      "▁daw": 2117,
      "form": 2118,
      "abing": 2119,
      "rom": 2120,
      "▁dr": 2121,
      "ingin": 2122,
      "▁magiging": 2123,
      "-k": 2124,
      "▁pinakamahusay": 2125,
      "▁palig": 2126,
      "cess": 2127,
      "ags": 2128,
      "aki": 2129,
      "▁pab": 2130,
      "ira": 2131,
      "▁sc": 2132,
      "ayang": 2133,
      "our": 2134,
      "▁parehong": 2135,
      "let": 2136,
      "▁lingg": 2137,
      "▁am": 2138,
      "ye": 2139,
      "ulot": 2140,
      "▁magkaroon": 2141,
      "▁est": 2142,
      "▁tal": 2143,
      "imming": 2144,
      "▁madaling": 2145,
      "▁Na": 2146,
      "iwanag": 2147,
      "▁pagiging": 2148,
      "▁akin": 2149,
      "▁hin": 2150,
      ".”": 2151,
      "ko": 2152,
      "▁nagh": 2153,
      "▁mawala": 2154,
      "▁cream": 2155,
      "oseso": 2156,
      "wal": 2157,
      "eksyon": 2158,
      "ont": 2159,
      "ris": 2160,
      "ikong": 2161,
      "▁tinat": 2162,
      "▁progr": 2163,
      "ical": 2164,
      "▁gumagamit": 2165,
      "▁nilang": 2166,
      "▁ginawa": 2167,
      "ne": 2168,
      "▁video": 2169,
      "▁8": 2170,
      "ach": 2171,
      "▁ins": 2172,
      "AL": 2173,
      "atay": 2174,
      "▁nitong": 2175,
      "atang": 2176,
      "’y": 2177,
      "▁reg": 2178,
      "ahala": 2179,
      "▁nan": 2180,
      "▁ginagamit": 2181,
      "awala": 2182,
      "-t": 2183,
      "▁buwan": 2184,
      "pe": 2185,
      "▁ha": 2186,
      "pit": 2187,
      "onal": 2188,
      "▁As": 2189,
      "▁rel": 2190,
      "▁Tr": 2191,
      "’s": 2192,
      "ose": 2193,
      "▁kaniyang": 2194,
      "araan": 2195,
      "do": 2196,
      "▁gamitin": 2197,
      "▁wr": 2198,
      "▁face": 2199,
      "\n|": 2200,
      "iss": 2201,
      "▁eh": 2202,
      "anasan": 2203,
      "ilipp": 2204,
      "▁impormasyon": 2205,
      "bay": 2206,
      "▁natur": 2207,
      "▁san": 2208,
      "▁makat": 2209,
      "ekt": 2210,
      "on.": 2211,
      "▁naw": 2212,
      "▁bit": 2213,
      "-m": 2214,
      "uku": 2215,
      "agong": 2216,
      "▁The": 2217,
      "▁mod": 2218,
      "po": 2219,
      "\nSa": 2220,
      "alay": 2221,
      "▁sam": 2222,
      "lam": 2223,
      "▁prot": 2224,
      "ines": 2225,
      "ismo": 2226,
      "lalaro": 2227,
      "ake": 2228,
      "▁kamay": 2229,
      "y.": 2230,
      "▁iba't": 2231,
      "▁larawan": 2232,
      "alat": 2233,
      "▁pati": 2234,
      "▁bato": 2235,
      "ustr": 2236,
      "▁Q": 2237,
      "▁sy": 2238,
      "ace": 2239,
      "al,": 2240,
      "lad": 2241,
      "▁buk": 2242,
      "▁paggamot": 2243,
      "▁us": 2244,
      "▁sol": 2245,
      "enta": 2246,
      "▁bre": 2247,
      "▁dahilan": 2248,
      "ing,": 2249,
      ".\nG": 2250,
      "ON": 2251,
      "count": 2252,
      "ekto": 2253,
      "ors": 2254,
      "▁pera": 2255,
      "▁kabilang": 2256,
      "as,": 2257,
      "▁batang": 2258,
      "▁kil": 2259,
      "▁/": 2260,
      "▁serbisyo": 2261,
      "▁Pagk": 2262,
      "ipili": 2263,
      "adala": 2264,
      "abot": 2265,
      "▁marami": 2266,
      "▁pers": 2267,
      "▁ayon": 2268,
      "erm": 2269,
      "▁br": 2270,
      "▁pag-aaral": 2271,
      "hin": 2272,
      "▁mundo": 2273,
      "-araw": 2274,
      "▁mana": 2275,
      "its": 2276,
      "inan": 2277,
      "▁med": 2278,
      "AT": 2279,
      "▁magandang": 2280,
      "▁sas": 2281,
      "▁your": 2282,
      "▁pul": 2283,
      "inap": 2284,
      "▁kin": 2285,
      "er.": 2286,
      "▁bak": 2287,
      "▁but": 2288,
      "-d": 2289,
      "▁problema": 2290,
      "abaw": 2291,
      "▁karan": 2292,
      "ukoy": 2293,
      "▁Ngunit": 2294,
      "▁Maaari": 2295,
      "▁.": 2296,
      "asama": 2297,
      "▁tunay": 2298,
      "▁paligid": 2299,
      "yayari": 2300,
      "▁kun": 2301,
      "▁Com": 2302,
      "imple": 2303,
      "amdam": 2304,
      ").": 2305,
      "▁magt": 2306,
      "ert": 2307,
      "umb": 2308,
      "▁libre": 2309,
      "▁Para": 2310,
      "▁tab": 2311,
      "uhin": 2312,
      "▁diy": 2313,
      "▁..": 2314,
      "ibong": 2315,
      "▁magl": 2316,
      "▁posible": 2317,
      "▁buh": 2318,
      "▁City": 2319,
      "▁kaibig": 2320,
      "▁halaga": 2321,
      "▁aw": 2322,
      "▁9": 2323,
      "▁halos": 2324,
      "lay": 2325,
      "▁my": 2326,
      "ante": 2327,
      "▁webs": 2328,
      "▁taba": 2329,
      "▁this": 2330,
      "▁patuloy": 2331,
      "▁Philipp": 2332,
      "▁sinas": 2333,
      "ere": 2334,
      "ID": 2335,
      "▁pakikip": 2336,
      "▁dating": 2337,
      "ilipino": 2338,
      "▁malaman": 2339,
      "▁sub": 2340,
      "amihan": 2341,
      "▁Kaya": 2342,
      "▁makita": 2343,
      "▁sil": 2344,
      "AG": 2345,
      "▁kumpanya": 2346,
      "load": 2347,
      "iyon": 2348,
      "▁not": 2349,
      "▁out": 2350,
      "iar": 2351,
      "alth": 2352,
      "igtas": 2353,
      "▁ginagawa": 2354,
      "urgery": 2355,
      "▁te": 2356,
      "▁by": 2357,
      "▁dire": 2358,
      "▁pagitan": 2359,
      "▁trabaho": 2360,
      "old": 2361,
      "▁tulong": 2362,
      "anib": 2363,
      "uring": 2364,
      "itang": 2365,
      "imbawa": 2366,
      "▁nah": 2367,
      "pir": 2368,
      "▁talagang": 2369,
      "▁Ano": 2370,
      "ayunp": 2371,
      "ulog": 2372,
      "uting": 2373,
      "▁parang": 2374,
      "▁qu": 2375,
      "\nKung": 2376,
      "▁rec": 2377,
      "ual": 2378,
      "▁tiyan": 2379,
      "▁pagtat": 2380,
      "▁Nat": 2381,
      "ingnan": 2382,
      "▁eks": 2383,
      "tim": 2384,
      "▁app": 2385,
      "▁dep": 2386,
      "▁Man": 2387,
      ".\nAyon": 2388,
      "era": 2389,
      "▁mer": 2390,
      ".\nMga": 2391,
      ",000": 2392,
      "▁panana": 2393,
      "me": 2394,
      "wang": 2395,
      "ista": 2396,
      "gan": 2397,
      "ling": 2398,
      "▁sabihin": 2399,
      "▁pre": 2400,
      "▁nin": 2401,
      "▁trans": 2402,
      "AR": 2403,
      "▁car": 2404,
      "iwan": 2405,
      "umpay": 2406,
      "▁slimming": 2407,
      "init": 2408,
      "▁ko.": 2409,
      "ugo": 2410,
      "insan": 2411,
      "oloh": 2412,
      "▁mayroong": 2413,
      "▁inil": 2414,
      "▁ind": 2415,
      "▁Sh": 2416,
      "▁account": 2417,
      "ensya": 2418,
      "ou": 2419,
      "ulungan": 2420,
      "▁oper": 2421,
      "ome": 2422,
      "usin": 2423,
      "▁sag": 2424,
      "▁nagd": 2425,
      "ee": 2426,
      "uns": 2427,
      "--": 2428,
      "▁cr": 2429,
      "aging": 2430,
      "ayat": 2431,
      "▁le": 2432,
      "ft": 2433,
      "eed": 2434,
      "▁im": 2435,
      "akbang": 2436,
      "▁tatlong": 2437,
      "▁dagdagan": 2438,
      "alagay": 2439,
      "▁ut": 2440,
      "AS": 2441,
      "▁sapat": 2442,
      "▁sumus": 2443,
      "▁sariling": 2444,
      "▁nating": 2445,
      "▁kayo": 2446,
      "▁sit": 2447,
      "ayunpaman,": 2448,
      "ustomer": 2449,
      "▁bumili": 2450,
      "▁isip": 2451,
      "▁He": 2452,
      "andaan": 2453,
      "▁bang": 2454,
      "▁tak": 2455,
      "upo": 2456,
      "ern": 2457,
      "▁surgery": 2458,
      "▁pangalan": 2459,
      "cl": 2460,
      "▁kasaluku": 2461,
      "anatili": 2462,
      "▁madalas": 2463,
      "enyo": 2464,
      "unawa": 2465,
      "▁negosyo": 2466,
      "'s": 2467,
      "ail": 2468,
      "▁sangk": 2469,
      "angyar": 2470,
      "▁dok": 2471,
      "▁can": 2472,
      "▁resulta": 2473,
      "inabang": 2474,
      "ikat": 2475,
      "▁pinap": 2476,
      "\nD": 2477,
      "▁kinakailangan": 2478,
      "▁karaniwang": 2479,
      "▁kuw": 2480,
      "inang": 2481,
      "along": 2482,
      "yari": 2483,
      "ree": 2484,
      "▁Z": 2485,
      "▁nito,": 2486,
      "atas": 2487,
      "▁sana": 2488,
      "▁des": 2489,
      "ER": 2490,
      "iran": 2491,
      "ance": 2492,
      "▁naka-": 2493,
      "tibong": 2494,
      "▁Mask": 2495,
      "i.": 2496,
      "ada": 2497,
      "ubukan": 2498,
      "ich": 2499,
      "▁CO": 2500,
      "ge": 2501,
      "▁tel": 2502,
      "▁makakuha": 2503,
      "igil": 2504,
      ".\nKung": 2505,
      "▁bar": 2506,
      "lat": 2507,
      "ct": 2508,
      "▁agad": 2509,
      "▁sanhi": 2510,
      "uter": 2511,
      "▁sya": 2512,
      "akbo": 2513,
      "▁gagaw": 2514,
      "▁tiyak": 2515,
      "▁kailangang": 2516,
      "etal": 2517,
      "ign": 2518,
      "erb": 2519,
      "▁kw": 2520,
      "▁layun": 2521,
      "▁toto": 2522,
      "es.": 2523,
      "▁bayan": 2524,
      "arawan": 2525,
      "alin": 2526,
      "▁It": 2527,
      "stem": 2528,
      "ahit": 2529,
      "▁was": 2530,
      "▁all": 2531,
      "agt": 2532,
      "▁manlalaro": 2533,
      "▁Br": 2534,
      "unlad": 2535,
      "eck": 2536,
      "▁kaso": 2537,
      ":\n-": 2538,
      "▁puw": 2539,
      "awalan": 2540,
      "ugnayan": 2541,
      "ator": 2542,
      "inkles": 2543,
      "▁proseso": 2544,
      "pak": 2545,
      "ence": 2546,
      "'y": 2547,
      "▁Pr": 2548,
      "▁huwag": 2549,
      "▁pel": 2550,
      "▁paggawa": 2551,
      "▁bl": 2552,
      "ekn": 2553,
      "arating": 2554,
      "akt": 2555,
      "rang": 2556,
      "net": 2557,
      "▁karagdag": 2558,
      "▁...": 2559,
      "▁cl": 2560,
      "ampok": 2561,
      "▁id": 2562,
      "ase": 2563,
      "ubok": 2564,
      "unog": 2565,
      "▁net": 2566,
      "▁opis": 2567,
      "▁casino": 2568,
      "ket": 2569,
      "iisip": 2570,
      "▁sob": 2571,
      "▁Nak": 2572,
      "▁linggo": 2573,
      "▁En": 2574,
      "amdaman": 2575,
      "▁iba’t": 2576,
      "▁mil": 2577,
      "|\n|": 2578,
      "▁karanasan": 2579,
      "ting": 2580,
      "▁post": 2581,
      "▁Isang": 2582,
      "ibang": 2583,
      "▁kababa": 2584,
      "▁pw": 2585,
      "▁Di": 2586,
      "iniwala": 2587,
      "▁amin": 2588,
      "orta": 2589,
      "▁Pero": 2590,
      "ibil": 2591,
      "se": 2592,
      "-h": 2593,
      "row": 2594,
      "!!": 2595,
      "▁lok": 2596,
      "▁Dahil": 2597,
      "▁kulay": 2598,
      "▁pamamaga": 2599,
      "ret": 2600,
      "ication": 2601,
      "ikasyon": 2602,
      "ys": 2603,
      "▁personal": 2604,
      "agp": 2605,
      "▁kita": 2606,
      "▁nagl": 2607,
      "▁sist": 2608,
      "reen": 2609,
      "▁nagm": 2610,
      "ANG": 2611,
      "▁ph": 2612,
      "uot": 2613,
      "▁gabi": 2614,
      "▁pagkakataon": 2615,
      "▁customer": 2616,
      "ated": 2617,
      "▁Th": 2618,
      "▁Mal": 2619,
      "▁sand": 2620,
      "iardia": 2621,
      "aban": 2622,
      "araang": 2623,
      "aalok": 2624,
      "▁kakay": 2625,
      "▁makab": 2626,
      "▁website": 2627,
      "▁comp": 2628,
      "▁site": 2629,
      "abay": 2630,
      "amant": 2631,
      "▁gaano": 2632,
      "▁makip": 2633,
      "is,": 2634,
      "ld": 2635,
      "iksik": 2636,
      "▁gast": 2637,
      "ram": 2638,
      "▁antas": 2639,
      "▁wrinkles": 2640,
      "▁cont": 2641,
      "▁un": 2642,
      "▁pang-": 2643,
      "▁tumut": 2644,
      "usugan": 2645,
      "san": 2646,
      "oll": 2647,
      "inga": 2648,
      "hanan": 2649,
      "upad": 2650,
      "▁And": 2651,
      "alig": 2652,
      ".\nL": 2653,
      "▁nito.": 2654,
      "▁ilan": 2655,
      "▁bis": 2656,
      "ocial": 2657,
      "ool": 2658,
      "yu": 2659,
      "▁simple": 2660,
      "AM": 2661,
      "onom": 2662,
      "AY": 2663,
      "▁15": 2664,
      "▁from": 2665,
      "al.": 2666,
      "▁Ap": 2667,
      "awang": 2668,
      "▁Kapag": 2669,
      "▁raw": 2670,
      "▁12": 2671,
      "iti": 2672,
      "▁edad": 2673,
      "▁pala": 2674,
      "oby": 2675,
      "▁str": 2676,
      "▁naming": 2677,
      "▁pagkaka": 2678,
      "▁tanong": 2679,
      "anggol": 2680,
      "▁ganitong": 2681,
      "ild": 2682,
      "▁pananal": 2683,
      "olog": 2684,
      "▁pant": 2685,
      "▁asawa": 2686,
      "▁bes": 2687,
      "▁pamahala": 2688,
      "sh": 2689,
      "▁em": 2690,
      "iwasan": 2691,
      "-l": 2692,
      "▁off": 2693,
      "ident": 2694,
      "▁susunod": 2695,
      "▁katoto": 2696,
      "▁Re": 2697,
      "ahulugan": 2698,
      "▁Dr": 2699,
      "▁gumag": 2700,
      "?\n": 2701,
      "▁ev": 2702,
      "▁kaming": 2703,
      "▁$": 2704,
      "▁breast": 2705,
      "ungo": 2706,
      "utin": 2707,
      "ede": 2708,
      "▁nana": 2709,
      "▁muli": 2710,
      "▁paglal": 2711,
      "▁pagpipili": 2712,
      "▁ko,": 2713,
      "▁umano": 2714,
      "irc": 2715,
      "-19": 2716,
      "▁tekn": 2717,
      "apatid": 2718,
      "akatulong": 2719,
      "▁pamum": 2720,
      "ungs": 2721,
      "▁kaibigan": 2722,
      "ibo": 2723,
      "▁magh": 2724,
      "▁dalawa": 2725,
      "awa,": 2726,
      "▁work": 2727,
      "reat": 2728,
      "▁202": 2729,
      "astic": 2730,
      "ugh": 2731,
      "▁maayos": 2732,
      "▁have": 2733,
      "▁harap": 2734,
      "▁lub": 2735,
      "work": 2736,
      "▁u": 2737,
      "▁pagbabago": 2738,
      "apon": 2739,
      "ox": 2740,
      "▁30": 2741,
      "▁karamihan": 2742,
      "uga": 2743,
      "▁ding": 2744,
      "▁bil": 2745,
      "uman": 2746,
      "riend": 2747,
      "ungsod": 2748,
      "VID": 2749,
      "▁pamp": 2750,
      "yadong": 2751,
      "ilos": 2752,
      "alabas": 2753,
      "▁nakaka": 2754,
      "orn": 2755,
      "▁US": 2756,
      "▁hakbang": 2757,
      "usan": 2758,
      "▁200": 2759,
      "▁,": 2760,
      "▁doon": 2761,
      "ics": 2762,
      "ipas": 2763,
      "▁nakita": 2764,
      "▁labas": 2765,
      "ela": 2766,
      "▁diyeta": 2767,
      "▁impl": 2768,
      "▁buhok": 2769,
      "▁pus": 2770,
      "▁tablet": 2771,
      "ash": 2772,
      "▁direk": 2773,
      "▁namang": 2774,
      "▁nagtat": 2775,
      "irang": 2776,
      "▁gagawin": 2777,
      "▁malapit": 2778,
      "▁nal": 2779,
      "▁lit": 2780,
      "\nL": 2781,
      "ansang": 2782,
      "▁muna": 2783,
      "▁naglal": 2784,
      "taas": 2785,
      "eral": 2786,
      "▁ganap": 2787,
      "▁libreng": 2788,
      ".\nHindi": 2789,
      "▁pelik": 2790,
      "▁bik": 2791,
      "rist": 2792,
      "▁Ab": 2793,
      "▁kundi": 2794,
      "inam": 2795,
      "ext": 2796,
      "▁tao,": 2797,
      "ukat": 2798,
      "IL": 2799,
      "▁will": 2800,
      "▁tamang": 2801,
      "....": 2802,
      "cr": 2803,
      "▁disk": 2804,
      "inom": 2805,
      "▁inyong": 2806,
      "▁Fac": 2807,
      "olohiya": 2808,
      "app": 2809,
      "▁magulang": 2810,
      "eryal": 2811,
      "▁pamamaraan": 2812,
      "ugon": 2813,
      "▁Es": 2814,
      "▁Go": 2815,
      "▁#": 2816,
      "▁ah": 2817,
      "\nMga": 2818,
      "▁Kat": 2819,
      "▁langis": 2820,
      "▁pol": 2821,
      "ection": 2822,
      "▁dugo": 2823,
      "▁Mak": 2824,
      "ay.": 2825,
      "agang": 2826,
      "alita": 2827,
      "▁pag-a": 2828,
      "ona": 2829,
      "▁kont": 2830,
      "yo,": 2831,
      "ahagi": 2832,
      "agat": 2833,
      "der": 2834,
      "▁tuw": 2835,
      ";\n-": 2836,
      "▁makapag": 2837,
      "▁hang": 2838,
      "▁go": 2839,
      "▁halimbawa": 2840,
      "tomas": 2841,
      "eto": 2842,
      "gawa": 2843,
      "ahalaga": 2844,
      "yonal": 2845,
      "▁yun": 2846,
      "▁pagkakaroon": 2847,
      "ubuo": 2848,
      "sang": 2849,
      ".\nU": 2850,
      "▁wika": 2851,
      "gin": 2852,
      "▁Dep": 2853,
      "▁trad": 2854,
      "roon": 2855,
      "▁sap": 2856,
      "irst": 2857,
      "▁New": 2858,
      "▁rito": 2859,
      "ownload": 2860,
      "▁gastos": 2861,
      "ya,": 2862,
      "▁palag": 2863,
      "olo": 2864,
      "▁karapat": 2865,
      "▁kur": 2866,
      "alam": 2867,
      "10": 2868,
      "mm": 2869,
      "▁malakas": 2870,
      "alahat": 2871,
      "▁Paano": 2872,
      "areh": 2873,
      "amitan": 2874,
      "▁hinah": 2875,
      "aa": 2876,
      "artment": 2877,
      "inabi": 2878,
      "▁pinaka-": 2879,
      "unin": 2880,
      "▁COVID": 2881,
      "ala,": 2882,
      "▁Hal": 2883,
      "ikang": 2884,
      "▁sumusunod": 2885,
      "▁Fr": 2886,
      "▁hay": 2887,
      "▁Ex": 2888,
      "▁Amer": 2889,
      "▁pamb": 2890,
      "▁pagg": 2891,
      "▁magd": 2892,
      "intay": 2893,
      "▁puso": 2894,
      "▁pis": 2895,
      "▁matatag": 2896,
      "▁mahirap": 2897,
      "untis": 2898,
      "▁se": 2899,
      "▁system": 2900,
      "▁malawak": 2901,
      "IT": 2902,
      "▁Ad": 2903,
      "▁list": 2904,
      "idente": 2905,
      "agandang": 2906,
      "ipe": 2907,
      "▁Car": 2908,
      "▁sangkap": 2909,
      "dagdag": 2910,
      "▁katotohanan": 2911,
      "▁kl": 2912,
      "alang-": 2913,
      "isang": 2914,
      "▁lupa": 2915,
      "id,": 2916,
      "lan": 2917,
      "▁beses": 2918,
      "▁Kan": 2919,
      "ition": 2920,
      "▁publ": 2921,
      "▁laki": 2922,
      "uang": 2923,
      "iwas": 2924,
      "ise": 2925,
      "▁mahalaga": 2926,
      "▁Inter": 2927,
      "isimula": 2928,
      "aso": 2929,
      "▁programa": 2930,
      "ips": 2931,
      "oot": 2932,
      "red": 2933,
      "▁sw": 2934,
      "▁medyo": 2935,
      "▁ngayong": 2936,
      "▁tao.": 2937,
      "▁pagsusuri": 2938,
      "▁naka": 2939,
      ",”": 2940,
      "▁kumain": 2941,
      "aaring": 2942,
      "ner": 2943,
      "aring": 2944,
      "▁our": 2945,
      "▁batas": 2946,
      "imulan": 2947,
      "▁show": 2948,
      "▁sing": 2949,
      "ikular": 2950,
      "▁pun": 2951,
      "oney": 2952,
      "▁katang": 2953,
      "▁madagdagan": 2954,
      "▁panl": 2955,
      "▁layunin": 2956,
      "▁kailan": 2957,
      "▁San": 2958,
      "▁ide": 2959,
      "igan": 2960,
      "▁paghah": 2961,
      "▁tah": 2962,
      "▁kaka": 2963,
      "ayaan": 2964,
      "dic": 2965,
      "unting": 2966,
      "get": 2967,
      "▁kababaihan": 2968,
      "ukod": 2969,
      "▁slot": 2970,
      ".\nW": 2971,
      "oss": 2972,
      "nak": 2973,
      "apang": 2974,
      "▁katulad": 2975,
      "ush": 2976,
      "▁en": 2977,
      "▁Mat": 2978,
      "▁dumating": 2979,
      "uhang": 2980,
      "▁kons": 2981,
      "▁:": 2982,
      "▁lakas": 2983,
      ".\"": 2984,
      "▁muling": 2985,
      "▁card": 2986,
      "akaroon": 2987,
      "▁magpap": 2988,
      "▁nakaraang": 2989,
      "▁huling": 2990,
      "▁kalidad": 2991,
      "to,": 2992,
      "anggit": 2993,
      "▁komun": 2994,
      "▁pagpapat": 2995,
      "▁Ka": 2996,
      "chool": 2997,
      "ph": 2998,
      "▁Co": 2999,
      "anta": 3000,
      "agan": 3001,
      "iyahan": 3002,
      "▁makikita": 3003,
      "▁Si": 3004,
      "▁nakikita": 3005,
      "ous": 3006,
      "▁plat": 3007,
      "▁kabata": 3008,
      "ade": 3009,
      "▁pagpipilian": 3010,
      "▁Ib": 3011,
      "▁sintomas": 3012,
      "▁[": 3013,
      "ene": 3014,
      "alakas": 3015,
      "apan": 3016,
      "ka": 3017,
      "▁dito,": 3018,
      "▁data": 3019,
      "▁halaman": 3020,
      "▁opisyal": 3021,
      "▁papel": 3022,
      "abuti": 3023,
      "▁labis": 3024,
      "▁mapup": 3025,
      "▁0": 3026,
      "▁materyal": 3027,
      "▁Nang": 3028,
      "▁social": 3029,
      "▁sino": 3030,
      "▁form": 3031,
      "▁sistema": 3032,
      "▁industr": 3033,
      "ants": 3034,
      "▁seg": 3035,
      "▁tinatawag": 3036,
      "▁nasabing": 3037,
      "▁magbigay": 3038,
      "NG": 3039,
      "ako": 3040,
      "rat": 3041,
      "arm": 3042,
      "▁una": 3043,
      "igo": 3044,
      "▁mahal": 3045,
      "iwalay": 3046,
      "iramdam": 3047,
      "▁pagsubok": 3048,
      "ipunan": 3049,
      "▁mabuti": 3050,
      "1.": 3051,
      "▁anong": 3052,
      "▁artik": 3053,
      "\n“": 3054,
      "ugat": 3055,
      "▁gawain": 3056,
      "▁Sup": 3057,
      "▁partikular": 3058,
      "udi": 3059,
      "hiya": 3060,
      "▁NG": 3061,
      "▁niya.": 3062,
      "ing.": 3063,
      "igas": 3064,
      "▁nagiging": 3065,
      "▁fe": 3066,
      "▁tang": 3067,
      "li": 3068,
      "▁Le": 3069,
      "▁Ak": 3070,
      "ras": 3071,
      "▁lin": 3072,
      "▁nakal": 3073,
      "▁komp": 3074,
      "▁her": 3075,
      "email": 3076,
      "__": 3077,
      "ric": 3078,
      "▁Sp": 3079,
      "▁SA": 3080,
      "ipat": 3081,
      "▁Dis": 3082,
      "▁Gayunpaman,": 3083,
      "▁salita": 3084,
      "▁pagtit": 3085,
      "▁rep": 3086,
      "erg": 3087,
      "▁Pres": 3088,
      "etro": 3089,
      "▁pangangailangan": 3090,
      "▁pagtaas": 3091,
      "▁madali": 3092,
      "▁inaas": 3093,
      "▁limit": 3094,
      "▁kilala": 3095,
      "▁kol": 3096,
      "ency": 3097,
      "▁ita": 3098,
      "zon": 3099,
      "▁plastic": 3100,
      "▁Upang": 3101,
      "▁nina": 3102,
      "pesyal": 3103,
      "▁proy": 3104,
      "▁plano": 3105,
      "uck": 3106,
      "▁karagdagang": 3107,
      "▁klas": 3108,
      "▁lungsod": 3109,
      "▁pahayag": 3110,
      "uin": 3111,
      "▁mach": 3112,
      "enter": 3113,
      "▁|": 3114,
      "ank": 3115,
      "de": 3116,
      "asak": 3117,
      "▁batay": 3118,
      "▁kasalukuyang": 3119,
      ".\nIto": 3120,
      "ilim": 3121,
      "uon": 3122,
      "ech": 3123,
      "▁organ": 3124,
      "▁itlog": 3125,
      "▁Ag": 3126,
      "atig": 3127,
      "▁kump": 3128,
      "oong": 3129,
      "▁gam": 3130,
      "uksa": 3131,
      "▁sinus": 3132,
      "uwang": 3133,
      "ater": 3134,
      "ode": 3135,
      "embro": 3136,
      "▁hits": 3137,
      "▁mapagk": 3138,
      "▁kapatid": 3139,
      "▁gu": 3140,
      "asyon,": 3141,
      "▁Bilang": 3142,
      "ebook": 3143,
      "iyo": 3144,
      "▁COVID-19": 3145,
      "▁tampok": 3146,
      "ryp": 3147,
      "▁ninyo": 3148,
      "ao": 3149,
      "▁sobrang": 3150,
      "▁pamahalaan": 3151,
      "inar": 3152,
      "land": 3153,
      "akan": 3154,
      "▁kalusugan": 3155,
      "agb": 3156,
      "mat": 3157,
      "▁na,": 3158,
      "▁pag-u": 3159,
      "▁magagamit": 3160,
      "hone": 3161,
      "▁noon": 3162,
      "▁narar": 3163,
      "ormal": 3164,
      "▁halip": 3165,
      "▁18": 3166,
      "\nW": 3167,
      "▁Ed": 3168,
      "▁biktim": 3169,
      "▁&": 3170,
      "ingat": 3171,
      "▁Gr": 3172,
      "▁reh": 3173,
      "▁gaya": 3174,
      "▁Pagkatapos": 3175,
      "oo": 3176,
      "▁kagamitan": 3177,
      "ubong": 3178,
      "any": 3179,
      "enda": 3180,
      "elo": 3181,
      "ES": 3182,
      "▁napap": 3183,
      "▁doktor": 3184,
      "▁circ": 3185,
      "▁Siya": 3186,
      "▁sanggol": 3187,
      "alang-alang": 3188,
      "▁ul": 3189,
      "▁baka": 3190,
      "ising": 3191,
      "asyong": 3192,
      "ivers": 3193,
      "▁time": 3194,
      "ersisyo": 3195,
      "tibo": 3196,
      "itor": 3197,
      "▁mahalagang": 3198,
      "iyembro": 3199,
      "▁X": 3200,
      "esus": 3201,
      "▁maik": 3202,
      "aas": 3203,
      "▁tagapag": 3204,
      "▁tila": 3205,
      "▁hel": 3206,
      "▁pe": 3207,
      "inut": 3208,
      "\nG": 3209,
      "▁mababang": 3210,
      "onus": 3211,
      "ower": 3212,
      "uyo": 3213,
      "50": 3214,
      "▁pelikula": 3215,
      "▁malinaw": 3216,
      "ents": 3217,
      "▁Bl": 3218,
      "▁Me": 3219,
      "▁Ip": 3220,
      "\nC": 3221,
      "▁kapak": 3222,
      "▁tut": 3223,
      "▁malaki": 3224,
      "▁year": 3225,
      "IS": 3226,
      "udy": 3227,
      "▁nag-aalok": 3228,
      "▁int": 3229,
      "▁apat": 3230,
      "embre": 3231,
      "▁pagsasanay": 3232,
      "iver": 3233,
      "▁Walang": 3234,
      "araming": 3235,
      "EN": 3236,
      "▁pakiramdam": 3237,
      "▁simb": 3238,
      "kop": 3239,
      "▁high": 3240,
      "▁mot": 3241,
      "inst": 3242,
      "▁pangkalahat": 3243,
      "uka": 3244,
      "▁On": 3245,
      "▁sery": 3246,
      "ola": 3247,
      "2.": 3248,
      "▁goby": 3249,
      "empre": 3250,
      "▁sagot": 3251,
      "▁kumuha": 3252,
      "▁isyu": 3253,
      "abasa": 3254,
      "▁mob": 3255,
      "▁sasak": 3256,
      "aya,": 3257,
      "loob": 3258,
      "erno": 3259,
      "▁Sec": 3260,
      "▁Ay": 3261,
      "▁100": 3262,
      "ospit": 3263,
      "▁Sam": 3264,
      "▁Filipino": 3265,
      "now": 3266,
      "▁patak": 3267,
      "uwi": 3268,
      "▁tumat": 3269,
      "▁natural": 3270,
      "▁cell": 3271,
      "aser": 3272,
      "▁stor": 3273,
      "▁sitw": 3274,
      "▁nagsas": 3275,
      "arangay": 3276,
      "▁miyembro": 3277,
      "▁mo,": 3278,
      "▁na-": 3279,
      "▁You": 3280,
      "▁tem": 3281,
      "▁ibig": 3282,
      "ahayag": 3283,
      "oul": 3284,
      "▁pumunta": 3285,
      "▁naturang": 3286,
      "ider": 3287,
      "uss": 3288,
      "▁panganib": 3289,
      "ad,": 3290,
      "▁espesyal": 3291,
      "▁hayop": 3292,
      "iwatig": 3293,
      "▁Be": 3294,
      "▁nangyari": 3295,
      "▁masyadong": 3296,
      "ihim": 3297,
      "ty": 3298,
      "▁ika-": 3299,
      "▁Pat": 3300,
      "▁Kar": 3301,
      "▁pop": 3302,
      "▁ipinag": 3303,
      "▁likod": 3304,
      "▁nangangailangan": 3305,
      "▁Pol": 3306,
      "▁dev": 3307,
      "▁day": 3308,
      "▁timbang,": 3309,
      "ibilidad": 3310,
      "rot": 3311,
      "ina,": 3312,
      "▁ulo": 3313,
      "▁machine": 3314,
      "▁gulang": 3315,
      "iliit": 3316,
      "uko": 3317,
      "aut": 3318,
      "▁kabu": 3319,
      "OR": 3320,
      "imbawa,": 3321,
      "▁pet": 3322,
      "▁11": 3323,
      "-g": 3324,
      "▁El": 3325,
      "▁siy": 3326,
      "▁da": 3327,
      "▁ama": 3328,
      "▁git": 3329,
      "ley": 3330,
      "AP": 3331,
      "▁num": 3332,
      "▁kr": 3333,
      "uwa": 3334,
      "igpit": 3335,
      "top": 3336,
      "ily": 3337,
      "lock": 3338,
      "▁simula": 3339,
      "ingi": 3340,
      "▁Nap": 3341,
      "▁media": 3342,
      "▁ener": 3343,
      "▁Kap": 3344,
      "▁magkano": 3345,
      "▁De": 3346,
      "yente": 3347,
      "ekta": 3348,
      "▁mon": 3349,
      ".com": 3350,
      "elf": 3351,
      "ww": 3352,
      "▁ligtas": 3353,
      "▁Kas": 3354,
      "▁(P": 3355,
      "ukuha": 3356,
      ".\nNg": 3357,
      "ahi": 3358,
      "rop": 3359,
      "▁Kahit": 3360,
      "puan": 3361,
      "▁bay": 3362,
      "▁Pas": 3363,
      "▁pulis": 3364,
      "▁platform": 3365,
      "▁For": 3366,
      "▁merk": 3367,
      "▁propes": 3368,
      "os,": 3369,
      "erek": 3370,
      "amatay": 3371,
      "▁mapupuksa": 3372,
      "ikap": 3373,
      "osis": 3374,
      "▁Mah": 3375,
      "▁add": 3376,
      "daan": 3377,
      "▁gin": 3378,
      "▁diet": 3379,
      "insala": 3380,
      "▁matat": 3381,
      "sk": 3382,
      "uya": 3383,
      "▁kapangyar": 3384,
      "akuha": 3385,
      "▁more": 3386,
      "angat": 3387,
      "▁itaas": 3388,
      "ebr": 3389,
      "▁kg": 3390,
      "sy": 3391,
      "rabaho": 3392,
      "▁puno": 3393,
      "akda": 3394,
      "▁ih": 3395,
      "▁vir": 3396,
      "ginip": 3397,
      "▁makap": 3398,
      "urang": 3399,
      "▁tayong": 3400,
      "▁email": 3401,
      "▁Pag-": 3402,
      "▁We": 3403,
      "▁tit": 3404,
      ".\nMay": 3405,
      "▁damit": 3406,
      "ning": 3407,
      "aralan": 3408,
      "▁bibig": 3409,
      "hhhh": 3410,
      "▁kontr": 3411,
      "▁hanay": 3412,
      "usog": 3413,
      "▁fl": 3414,
      "▁gumagawa": 3415,
      "▁natut": 3416,
      "▁maganda": 3417,
      "▁detal": 3418,
      "date": 3419,
      "til": 3420,
      ".\nC": 3421,
      "ath": 3422,
      "▁ben": 3423,
      "▁sec": 3424,
      "ihirap": 3425,
      "▁mobile": 3426,
      "▁minuto": 3427,
      "▁ako.": 3428,
      "▁nakap": 3429,
      "▁sapagk": 3430,
      "usapan": 3431,
      "▁relasyon": 3432,
      "arte": 3433,
      "▁taon,": 3434,
      "▁pakikipag-": 3435,
      "ound": 3436,
      "▁tool": 3437,
      "▁pagdating": 3438,
      "aysayan": 3439,
      "iwa": 3440,
      "▁Sin": 3441,
      "▁dami": 3442,
      "anayan": 3443,
      "▁kond": 3444,
      "AK": 3445,
      "▁ngayon,": 3446,
      "▁maliliit": 3447,
      "▁uma": 3448,
      "ilid": 3449,
      "▁Manila": 3450,
      "ix": 3451,
      "oard": 3452,
      "▁teknolohiya": 3453,
      "yo.": 3454,
      "▁Par": 3455,
      "▁palak": 3456,
      "emento": 3457,
      "anal": 3458,
      "ugali": 3459,
      "yung": 3460,
      "awas": 3461,
      "unawaan": 3462,
      "utas": 3463,
      "▁nung": 3464,
      "▁imb": 3465,
      "▁Inst": 3466,
      "▁real": 3467,
      "▁yan": 3468,
      "▁makipag-": 3469,
      "ser": 3470,
      "▁nai": 3471,
      "▁gayon": 3472,
      "?”": 3473,
      "▁Pl": 3474,
      "▁Giardia": 3475,
      "▁Wh": 3476,
      "▁Pilipino": 3477,
      "OS": 3478,
      "▁carb": 3479,
      "ING": 3480,
      "▁about": 3481,
      "▁proyekto": 3482,
      "▁industriya": 3483,
      "ium": 3484,
      "▁new": 3485,
      "ayagan": 3486,
      "▁sinasabi": 3487,
      "▁minsan": 3488,
      "abag": 3489,
      "err": 3490,
      "orld": 3491,
      "ekonom": 3492,
      "▁nau": 3493,
      "▁resp": 3494,
      "▁tawag": 3495,
      "▁Am": 3496,
      "▁pag-ibig": 3497,
      "uhunan": 3498,
      "▁rem": 3499,
      "▁katangian": 3500,
      "▁mamam": 3501,
      "▁panaginip": 3502,
      "▁umi": 3503,
      "▁mababa": 3504,
      "ita,": 3505,
      "icone": 3506,
      "▁ulat": 3507,
      "angan": 3508,
      "▁tip": 3509,
      "▁suporta": 3510,
      "▁ibaba": 3511,
      "▁ulit": 3512,
      "▁Sal": 3513,
      "ulug": 3514,
      "▁host": 3515,
      "▁hitsura": 3516,
      "awasan": 3517,
      "▁nakapag": 3518,
      "arito": 3519,
      "ations": 3520,
      "▁network": 3521,
      "iban": 3522,
      "▁lokal": 3523,
      "akot": 3524,
      "ton": 3525,
      "▁Pin": 3526,
      "▁kaalaman": 3527,
      "▁mo.": 3528,
      "▁Philippines": 3529,
      "tt": 3530,
      "▁sm": 3531,
      "▁tapos": 3532,
      "▁makuha": 3533,
      "▁Comm": 3534,
      "undin": 3535,
      "▁she": 3536,
      "aganap": 3537,
      "▁Philippine": 3538,
      "ikot": 3539,
      "elop": 3540,
      "uch": 3541,
      "▁atin": 3542,
      "inigay": 3543,
      "▁uod": 3544,
      "▁grupo": 3545,
      "▁tama": 3546,
      "▁isina": 3547,
      "▁nilalaman": 3548,
      "ono": 3549,
      "ings": 3550,
      "arian": 3551,
      "ipis": 3552,
      "▁biktima": 3553,
      "ido": 3554,
      "uran": 3555,
      "uy": 3556,
      "ware": 3557,
      "uriin": 3558,
      "hong": 3559,
      "▁kapalig": 3560,
      "iel": 3561,
      "▁paglil": 3562,
      "▁ginamit": 3563,
      ":\n": 3564,
      "▁lalong": 3565,
      "lex": 3566,
      "▁14": 3567,
      "dig": 3568,
      "dibid": 3569,
      "▁napaka": 3570,
      "▁makakatulong": 3571,
      "▁kalak": 3572,
      "▁bags": 3573,
      "▁solusyon": 3574,
      "▁Or": 3575,
      "uyan": 3576,
      "▁listahan": 3577,
      "alagahan": 3578,
      "ason": 3579,
      "▁maiwasan": 3580,
      "ouse": 3581,
      "ya.": 3582,
      "3.": 3583,
      "▁mismo": 3584,
      "▁lif": 3585,
      "▁50": 3586,
      "▁National": 3587,
      "▁appl": 3588,
      "imulang": 3589,
      "-C": 3590,
      "▁mag-aaral": 3591,
      "unas": 3592,
      "yd": 3593,
      "▁Cr": 3594,
      "awi": 3595,
      "irl": 3596,
      "aks": 3597,
      "▁TV": 3598,
      "agot": 3599,
      "ady": 3600,
      "click": 3601,
      "▁pagpapal": 3602,
      "▁back": 3603,
      "▁Ac": 3604,
      "▁pag-unlad": 3605,
      "ts": 3606,
      "unayan": 3607,
      "▁nagkaroon": 3608,
      "az": 3609,
      "▁ibabaw": 3610,
      "arin": 3611,
      "ann": 3612,
      "inding": 3613,
      "▁sk": 3614,
      "▁Pangino": 3615,
      "▁test": 3616,
      "ihang": 3617,
      "arant": 3618,
      "▁pagbibigay": 3619,
      "aksyon": 3620,
      "▁Ako": 3621,
      "ipon": 3622,
      "▁tur": 3623,
      "▁one": 3624,
      "▁bonus": 3625,
      "▁cal": 3626,
      "ikan": 3627,
      "▁kabila": 3628,
      "lim": 3629,
      "▁sigur": 3630,
      "ustong": 3631,
      "▁nakas": 3632,
      "▁aktib": 3633,
      "-c": 3634,
      "▁indibid": 3635,
      "ize": 3636,
      "▁interes": 3637,
      "▁simpleng": 3638,
      "▁pot": 3639,
      "▁spot": 3640,
      "to.": 3641,
      "alaan": 3642,
      "ject": 3643,
      "edeng": 3644,
      "unti": 3645,
      "▁lumikha": 3646,
      "▁nakab": 3647,
      "law": 3648,
      "EC": 3649,
      "▁mus": 3650,
      "\np": 3651,
      "▁pananaliksik": 3652,
      "▁masaya": 3653,
      "ory": 3654,
      "ict": 3655,
      "▁Mad": 3656,
      "▁may-": 3657,
      "agl": 3658,
      "▁cons": 3659,
      "▁kwento": 3660,
      "ahan,": 3661,
      "install": 3662,
      "▁set": 3663,
      "pirit": 3664,
      "atid": 3665,
      "▁disenyo": 3666,
      "inasyon": 3667,
      "ness": 3668,
      "abilang": 3669,
      "ulasyon": 3670,
      "gen": 3671,
      "▁ok": 3672,
      "▁Department": 3673,
      "pakinabang": 3674,
      "uz": 3675,
      "▁Reg": 3676,
      "ese": 3677,
      "▁kaw": 3678,
      "▁sikat": 3679,
      "▁binab": 3680,
      "▁health": 3681,
      "▁lumabas": 3682,
      "i-pakinabang": 3683,
      "▁niya,": 3684,
      "▁ini": 3685,
      "▁nangyayari": 3686,
      "ebenta": 3687,
      "agumpay": 3688,
      "▁paglalak": 3689,
      "acc": 3690,
      "ukunan": 3691,
      "iliin": 3692,
      "▁mahabang": 3693,
      "▁pagkuha": 3694,
      "▁kinaka": 3695,
      "erv": 3696,
      "30": 3697,
      "ET": 3698,
      "\nHindi": 3699,
      "aril": 3700,
      "ely": 3701,
      "▁matut": 3702,
      "▁live": 3703,
      "▁perpek": 3704,
      "▁nawala": 3705,
      "▁tingin": 3706,
      "▁nangangahulugan": 3707,
      "unc": 3708,
      "▁Facebook": 3709,
      "sw": 3710,
      "▁limang": 3711,
      "▁anim": 3712,
      "▁operasyon": 3713,
      "▁balita": 3714,
      "ber": 3715,
      "▁benep": 3716,
      "utr": 3717,
      "▁1.": 3718,
      "ahah": 3719,
      "▁tim": 3720,
      "▁indibidwal": 3721,
      "▁gumamit": 3722,
      "igdig": 3723,
      "▁recipe": 3724,
      "▁Isa": 3725,
      "▁matagal": 3726,
      "▁Con": 3727,
      "earch": 3728,
      "▁circles": 3729,
      "uterte": 3730,
      "▁him": 3731,
      "▁huli": 3732,
      "patuloy": 3733,
      "▁gobyerno": 3734,
      "ang-": 3735,
      "isk": 3736,
      "ock": 3737,
      "air": 3738,
      "▁keto": 3739,
      "uth": 3740,
      "wit": 3741,
      "▁pagbub": 3742,
      "nam": 3743,
      "▁av": 3744,
      "uit": 3745,
      "ospital": 3746,
      "bing": 3747,
      "awan,": 3748,
      "entr": 3749,
      "▁nakik": 3750,
      "▁palaging": 3751,
      "▁bint": 3752,
      "▁Cas": 3753,
      "▁Euro": 3754,
      "▁All": 3755,
      "irahan": 3756,
      "▁sapagkat": 3757,
      "agram": 3758,
      "isan": 3759,
      "ende": 3760,
      "▁mangg": 3761,
      "▁love": 3762,
      "▁pagkab": 3763,
      "▁24": 3764,
      "alok": 3765,
      "asya": 3766,
      "AH": 3767,
      "▁sex": 3768,
      "▁fr": 3769,
      "▁first": 3770,
      "▁inih": 3771,
      "▁mata,": 3772,
      "fter": 3773,
      "▁und": 3774,
      "▁kondisyon": 3775,
      "ief": 3776,
      "▁araw-araw": 3777,
      "mga": 3778,
      "ior": 3779,
      "▁Wala": 3780,
      "▁kapwa": 3781,
      "▁16": 3782,
      "aliit": 3783,
      "▁pumili": 3784,
      "ody": 3785,
      "abilis": 3786,
      "▁bet": 3787,
      "▁Cl": 3788,
      "▁tuwing": 3789,
      "orp": 3790,
      "vern": 3791,
      "▁ts": 3792,
      "istro": 3793,
      "▁Mayroon": 3794,
      "▁Pa": 3795,
      "ino,": 3796,
      "anggal": 3797,
      "ffect": 3798,
      "amahal": 3799,
      "▁men": 3800,
      "▁maip": 3801,
      "▁Ts": 3802,
      "▁ass": 3803,
      "▁hawak": 3804,
      "▁Bar": 3805,
      "▁sukat": 3806,
      "▁sitwasyon": 3807,
      "inistr": 3808,
      "▁totoo": 3809,
      "▁na.": 3810,
      "aalala": 3811,
      "alala": 3812,
      "▁Gum": 3813,
      "▁met": 3814,
      "▁problem": 3815,
      "▁angkop": 3816,
      "akatuw": 3817,
      "▁Est": 3818,
      "?\nAng": 3819,
      "▁fil": 3820,
      "▁kabataan": 3821,
      "▁Bakit": 3822,
      "ica": 3823,
      "▁mens": 3824,
      "▁dem": 3825,
      "▁malamang": 3826,
      "▁kahulugan": 3827,
      "▁ma-": 3828,
      "ember": 3829,
      "▁pagkawala": 3830,
      "▁soft": 3831,
      "▁pagsis": 3832,
      "▁pond": 3833,
      "ilipat": 3834,
      "▁gumagana": 3835,
      "▁katut": 3836,
      "▁posit": 3837,
      "tok": 3838,
      "▁pinags": 3839,
      "lass": 3840,
      "▁del": 3841,
      "▁Duterte": 3842,
      "pr": 3843,
      "irerek": 3844,
      "▁market": 3845,
      "▁z": 3846,
      "ubo": 3847,
      "▁comm": 3848,
      "▁regular": 3849,
      "\n\"": 3850,
      "erc": 3851,
      "▁kalag": 3852,
      "ther": 3853,
      "▁nagpapah": 3854,
      "▁just": 3855,
      "atagal": 3856,
      "▁pabor": 3857,
      "▁Res": 3858,
      "▁lubos": 3859,
      "▁rate": 3860,
      "▁like": 3861,
      "utang": 3862,
      "▁Jesus": 3863,
      "▁Rep": 3864,
      "▁kapaki-pakinabang": 3865,
      "▁malalaking": 3866,
      "nd": 3867,
      "▁dat": 3868,
      "▁Bag": 3869,
      "ihintay": 3870,
      "roong": 3871,
      "▁hil": 3872,
      ".\nAno": 3873,
      "▁ayaw": 3874,
      "roup": 3875,
      "amay": 3876,
      "-2": 3877,
      "AD": 3878,
      "▁galing": 3879,
      "▁25": 3880,
      "▁buhay.": 3881,
      "aaari": 3882,
      "▁Off": 3883,
      "▁numero": 3884,
      "▁umaga": 3885,
      "-f": 3886,
      "▁gilid": 3887,
      "▁gitna": 3888,
      "▁kalam": 3889,
      "▁—": 3890,
      "ute": 3891,
      ".\nPaano": 3892,
      "en,": 3893,
      "api": 3894,
      "▁enerhiya": 3895,
      "ihinal": 3896,
      "▁apar": 3897,
      "▁rek": 3898,
      "▁nagkak": 3899,
      "▁application": 3900,
      "▁bot": 3901,
      "▁tagumpay": 3902,
      "▁eye": 3903,
      "tat": 3904,
      "▁masas": 3905,
      "▁Gina": 3906,
      "iya,": 3907,
      "▁aktibidad": 3908,
      "▁pakik": 3909,
      "ukasyon": 3910,
      "▁nagbab": 3911,
      "kas": 3912,
      "▁trabah": 3913,
      "ahalagang": 3914,
      "▁matatagpuan": 3915,
      "en.": 3916,
      "we": 3917,
      "ilin": 3918,
      "ions": 3919,
      "aharap": 3920,
      "uridad": 3921,
      "ople": 3922,
      "ets": 3923,
      "▁land": 3924,
      "▁magkakaroon": 3925,
      "ulin": 3926,
      "▁tind": 3927,
      "▁pa.": 3928,
      "▁App": 3929,
      "ux": 3930,
      "▁tahanan": 3931,
      "▁mai": 3932,
      "▁13": 3933,
      "ural": 3934,
      "amo": 3935,
      "▁pagbabayad": 3936,
      "ier": 3937,
      "ortahan": 3938,
      "▁mass": 3939,
      "▁palakihin": 3940,
      "roll": 3941,
      "▁Will": 3942,
      "▁kapangyarihan": 3943,
      "▁naghahanap": 3944,
      "MA": 3945,
      "ful": 3946,
      "▁Maaaring": 3947,
      "▁Ik": 3948,
      "19": 3949,
      "▁Huwag": 3950,
      "▁diskarte": 3951,
      "urr": 3952,
      "▁kult": 3953,
      "▁maikling": 3954,
      "check": 3955,
      "rypto": 3956,
      "▁blog": 3957,
      "▁kasaysayan": 3958,
      "▁bina": 3959,
      "▁bangk": 3960,
      "EL": 3961,
      "▁term": 3962,
      "▁sabay": 3963,
      "ia,": 3964,
      "▁Air": 3965,
      "▁Pangulong": 3966,
      "----": 3967,
      "my": 3968,
      "▁tingnan": 3969,
      "▁Bit": 3970,
      "el,": 3971,
      "▁adv": 3972,
      "▁ako,": 3973,
      "ahok": 3974,
      "angkop": 3975,
      "▁kaganap": 3976,
      "▁sasakyan": 3977,
      "▁Ngayon": 3978,
      "▁Ta": 3979,
      "▁pup": 3980,
      "ety": 3981,
      "utol": 3982,
      "tain": 3983,
      "ass": 3984,
      "▁ideya": 3985,
      "▁spec": 3986,
      "//": 3987,
      "▁bukas": 3988,
      "▁punt": 3989,
      "did": 3990,
      "▁paaralan": 3991,
      "▁isin": 3992,
      "ubuhay": 3993,
      "▁nangung": 3994,
      "▁sul": 3995,
      "ould": 3996,
      "4.": 3997,
      "▁itim": 3998,
      "▁kuwento": 3999,
      "esa": 4000,
      "▁ekonom": 4001,
      "▁pag-i": 4002,
      "ttp": 4003,
      "ino.": 4004,
      "▁honey": 4005,
      "access": 4006,
      "▁araw,": 4007,
      "aranas": 4008,
      "perat": 4009,
      "utok": 4010,
      "agad": 4011,
      "▁dito.": 4012,
      "apekto": 4013,
      "ahal": 4014,
      "▁kumpl": 4015,
      "▁taya": 4016,
      "▁Health": 4017,
      "▁suspek": 4018,
      "US": 4019,
      "▁nagpapakita": 4020,
      "que": 4021,
      "▁ibinigay": 4022,
      "▁Mula": 4023,
      "akain": 4024,
      "▁desisyon": 4025,
      "ina.": 4026,
      "r.": 4027,
      "antong": 4028,
      "▁wikang": 4029,
      "▁kakayahang": 4030,
      "▁Russ": 4031,
      "▁gl": 4032,
      "iral": 4033,
      "▁mapang": 4034,
      "ohn": 4035,
      "▁pig": 4036,
      "ilipinas": 4037,
      "umento": 4038,
      "dor": 4039,
      "▁linya": 4040,
      "▁bers": 4041,
      "els": 4042,
      "▁hinaharap": 4043,
      "▁Se": 4044,
      "uction": 4045,
      "▁Sena": 4046,
      "▁know": 4047,
      "▁they": 4048,
      "\nF": 4049,
      "pos": 4050,
      "▁ehersisyo": 4051,
      "▁propesyonal": 4052,
      "▁his": 4053,
      "enn": 4054,
      "AB": 4055,
      "▁any": 4056,
      "▁merkado": 4057,
      "ED": 4058,
      "▁takot": 4059,
      "antay": 4060,
      "▁bigyan": 4061,
      "▁handa": 4062,
      "://": 4063,
      ".\nR": 4064,
      "▁(C": 4065,
      "UL": 4066,
      "▁daan": 4067,
      "▁palitan": 4068,
      "ugunan": 4069,
      "!”": 4070,
      "ids": 4071,
      "▁program": 4072,
      "▁Sc": 4073,
      "▁naga": 4074,
      "-daan": 4075,
      "▁Mo": 4076,
      "▁alin": 4077,
      "▁gatas": 4078,
      "▁posibilidad": 4079,
      "▁itinut": 4080,
      ".\nAt": 4081,
      "cos": 4082,
      "ited": 4083,
      "▁pumasok": 4084,
      "IC": 4085,
      "ipin": 4086,
      "aliwanag": 4087,
      "▁kakayahan": 4088,
      "fer": 4089,
      "▁benepisyo": 4090,
      "▁paglalaro": 4091,
      "inc": 4092,
      "igtasan": 4093,
      "▁*": 4094,
      "ame": 4095,
      "▁over": 4096,
      "12": 4097,
      "▁Sy": 4098,
      "▁serv": 4099,
      "urs": 4100,
      "-w": 4101,
      "▁mamamayan": 4102,
      "▁makatulong": 4103,
      "▁silicone": 4104,
      "ask": 4105,
      "ones": 4106,
      "▁respons": 4107,
      "▁inst": 4108,
      "▁(D": 4109,
      "▁salitang": 4110,
      "orts": 4111,
      "▁implants": 4112,
      "▁komunidad": 4113,
      "▁school": 4114,
      "▁posibleng": 4115,
      "▁Gusto": 4116,
      "▁bumalik": 4117,
      "untunin": 4118,
      "amig": 4119,
      "▁Dapat": 4120,
      "ister": 4121,
      "itaw": 4122,
      "▁dark": 4123,
      "anood": 4124,
      "▁tagagawa": 4125,
      "nais": 4126,
      "▁Univers": 4127,
      "▁2020": 4128,
      "▁screen": 4129,
      "ayer": 4130,
      "ogle": 4131,
      "▁Bas": 4132,
      "▁hot": 4133,
      "▁Ind": 4134,
      "AC": 4135,
      "▁kina": 4136,
      "aragdag": 4137,
      "oso": 4138,
      "▁tinut": 4139,
      "▁hangga": 4140,
      "▁nakakat": 4141,
      "▁mainit": 4142,
      "▁naglalaman": 4143,
      "▁lunas": 4144,
      "▁Pagb": 4145,
      "▁Red": 4146,
      "orya": 4147,
      "ibre": 4148,
      "▁pagtitist": 4149,
      "▁pors": 4150,
      "▁Online": 4151,
      "▁Mari": 4152,
      "▁leg": 4153,
      "lak": 4154,
      "▁hard": 4155,
      "▁nakuha": 4156,
      "▁hug": 4157,
      "tra": 4158,
      "▁Maraming": 4159,
      "▁Col": 4160,
      "ontrol": 4161,
      "▁dagdag": 4162,
      "ission": 4163,
      "▁pangarap": 4164,
      "uts": 4165,
      "met": 4166,
      "▁char": 4167,
      "▁bisita": 4168,
      "▁link": 4169,
      "ause": 4170,
      "▁Pan": 4171,
      "anaw": 4172,
      "▁what": 4173,
      "▁lipunan": 4174,
      "▁kopo": 4175,
      "▁laging": 4176,
      "▁Ayon": 4177,
      "ektahan": 4178,
      "▁dati": 4179,
      "ukas": 4180,
      "ukl": 4181,
      "ahatid": 4182,
      "▁ilagay": 4183,
      "arto": 4184,
      "▁17": 4185,
      "1,": 4186,
      "▁subukan": 4187,
      "asalamat": 4188,
      "ubay": 4189,
      "5.": 4190,
      "▁prov": 4191,
      "▁estado": 4192,
      "ation,": 4193,
      "▁koponan": 4194,
      "▁if": 4195,
      "▁pananaw": 4196,
      "▁Tum": 4197,
      "BS": 4198,
      "it,": 4199,
      "▁Pags": 4200,
      "▁naa": 4201,
      "ayin": 4202,
      "▁kinakailangang": 4203,
      "tang": 4204,
      "aph": 4205,
      "▁40": 4206,
      "▁manag": 4207,
      "imik": 4208,
      "▁anyo": 4209,
      "akailan": 4210,
      "▁puk": 4211,
      "anda,": 4212,
      "▁Que": 4213,
      "imina": 4214,
      "▁ipinap": 4215,
      "▁tumutulong": 4216,
      "abihin": 4217,
      "ensyal": 4218,
      "▁telep": 4219,
      "vest": 4220,
      "alk": 4221,
      "agh": 4222,
      "▁malusog": 4223,
      "▁samp": 4224,
      ".\nPara": 4225,
      "amantala,": 4226,
      "▁ne": 4227,
      "▁malalim": 4228,
      "▁gas": 4229,
      "▁nakikip": 4230,
      "▁karapatan": 4231,
      ",\"": 4232,
      "va": 4233,
      "ept": 4234,
      "▁So": 4235,
      "▁normal": 4236,
      "▁inf": 4237,
      "▁nawawala": 4238,
      "▁maka": 4239,
      "ungkot": 4240,
      "▁Eng": 4241,
      "▁ig": 4242,
      "▁Habang": 4243,
      "apa": 4244,
      "ull": 4245,
      "▁paa": 4246,
      "▁col": 4247,
      "alawak": 4248,
      "Hindi": 4249,
      "?\"": 4250,
      "▁mapagkukunan": 4251,
      "▁gustong": 4252,
      "▁lahat,": 4253,
      "intindi": 4254,
      "▁bersyon": 4255,
      "▁nagpapat": 4256,
      "▁pir": 4257,
      "yat": 4258,
      "emon": 4259,
      "ador": 4260,
      "araniwang": 4261,
      "▁2019": 4262,
      "▁nakatuon": 4263,
      "atch": 4264,
      "▁kawalan": 4265,
      "▁isda": 4266,
      "uct": 4267,
      "▁emp": 4268,
      "ministr": 4269,
      "18": 4270,
      "oon": 4271,
      "bp": 4272,
      "▁mait": 4273,
      "▁Kailangan": 4274,
      "▁bur": 4275,
      "▁magamit": 4276,
      "▁kadahil": 4277,
      "▁pansin": 4278,
      "▁temperat": 4279,
      "ado,": 4280,
      "▁estudy": 4281,
      "amina": 4282,
      "▁nag-i": 4283,
      "ugto": 4284,
      "natili": 4285,
      "▁suso,": 4286,
      "▁Kal": 4287,
      "▁kaugnay": 4288,
      "▁prof": 4289,
      "retary": 4290,
      "▁produktong": 4291,
      "▁halamang": 4292,
      "PN": 4293,
      "▁Doc": 4294,
      "iting": 4295,
      "umin": 4296,
      "▁bansa.": 4297,
      "▁mom": 4298,
      "Sa": 4299,
      "▁mukhang": 4300,
      "▁pinal": 4301,
      "▁Mag-": 4302,
      "bayan": 4303,
      "▁their": 4304,
      "▁dek": 4305,
      "▁pagtut": 4306,
      "▁Kanyang": 4307,
      "download": 4308,
      "hal": 4309,
      "▁tap": 4310,
      "▁good": 4311,
      "ukan": 4312,
      "adal": 4313,
      "▁posisyon": 4314,
      "▁Ro": 4315,
      "▁Lum": 4316,
      "-up": 4317,
      "ba": 4318,
      "arami": 4319,
      "amot": 4320,
      "▁ANG": 4321,
      "ward": 4322,
      "▁Mart": 4323,
      "▁(M": 4324,
      "kl": 4325,
      "oob": 4326,
      "▁guro": 4327,
      "▁patakaran": 4328,
      "▁Alam": 4329,
      "▁kalik": 4330,
      "▁manipis": 4331,
      "▁kinab": 4332,
      "▁NA": 4333,
      "▁nad": 4334,
      "▁kot": 4335,
      ".\nSi": 4336,
      "▁binubuo": 4337,
      "▁nagsisimula": 4338,
      "eter": 4339,
      "▁siguro": 4340,
      "▁kapaligiran": 4341,
      "yr": 4342,
      "lor": 4343,
      "▁Tag": 4344,
      "ahusay": 4345,
      "usher": 4346,
      "asawa": 4347,
      "▁natatang": 4348,
      "▁tagal": 4349,
      "▁Ant": 4350,
      "▁access": 4351,
      "▁kaligtasan": 4352,
      "vert": 4353,
      "▁...\n": 4354,
      "▁bro": 4355,
      "▁eng": 4356,
      "ilo": 4357,
      "isyong": 4358,
      "▁Kum": 4359,
      "way": 4360,
      "▁Jo": 4361,
      "▁seguridad": 4362,
      "▁tula": 4363,
      "agaling": 4364,
      "▁President": 4365,
      "▁Rom": 4366,
      "▁pangyayari": 4367,
      "bol": 4368,
      "ym": 4369,
      "▁Im": 4370,
      "▁gawing": 4371,
      "▁magagandang": 4372,
      "▁Qu": 4373,
      "coin": 4374,
      "▁pinsala": 4375,
      "imum": 4376,
      "▁pamamahala": 4377,
      "▁Instagram": 4378,
      "ories": 4379,
      "▁nagsimula": 4380,
      "▁gano": 4381,
      "▁Pam": 4382,
      "acy": 4383,
      "**": 4384,
      "▁pagbili": 4385,
      "▁tanging": 4386,
      "▁John": 4387,
      "esto": 4388,
      "▁bec": 4389,
      "▁babaeng": 4390,
      "▁kanya.": 4391,
      "▁pok": 4392,
      "▁likas": 4393,
      "▁who": 4394,
      "national": 4395,
      "inh": 4396,
      "▁(S": 4397,
      "ars": 4398,
      "▁ep": 4399,
      "▁kontrol": 4400,
      "▁pa,": 4401,
      "ments": 4402,
      "anim": 4403,
      "ukol": 4404,
      "▁ham": 4405,
      "▁totoong": 4406,
      "ball": 4407,
      "▁pagtitistis": 4408,
      "▁pad": 4409,
      "ulak": 4410,
      "aloob": 4411,
      ".\nIn": 4412,
      "▁inyo": 4413,
      "▁Sig": 4414,
      "akad": 4415,
      "▁petsa": 4416,
      "indow": 4417,
      "▁kilalang": 4418,
      "GA": 4419,
      "inad": 4420,
      "lish": 4421,
      "NP": 4422,
      "▁makina": 4423,
      "▁2.": 4424,
      "ility": 4425,
      "▁Sl": 4426,
      "▁ob": 4427,
      "ampas": 4428,
      "▁ipinak": 4429,
      "uel": 4430,
      "▁orihinal": 4431,
      "▁taon.": 4432,
      "▁darating": 4433,
      "▁pamil": 4434,
      "pa": 4435,
      "osito": 4436,
      "round": 4437,
      "▁Gu": 4438,
      ".\nSinabi": 4439,
      "▁Bel": 4440,
      "▁sarap": 4441,
      "▁cor": 4442,
      "▁pandem": 4443,
      "▁pinaka": 4444,
      "▁pagbuo": 4445,
      "▁kalahat": 4446,
      "▁pagpapaluwang": 4447,
      "usa": 4448,
      "ers,": 4449,
      "ete": 4450,
      ".\nDahil": 4451,
      "ril": 4452,
      "edy": 4453,
      "uni": 4454,
      "▁manalo": 4455,
      "ahay": 4456,
      "agsak": 4457,
      "▁make": 4458,
      "▁Rob": 4459,
      "▁epektibong": 4460,
      "▁mensahe": 4461,
      "eneral": 4462,
      "▁tar": 4463,
      "▁ibin": 4464,
      "▁pisikal": 4465,
      "ging": 4466,
      "▁klase": 4467,
      "urt": 4468,
      "abet": 4469,
      "dr": 4470,
      "ll": 4471,
      "▁pay": 4472,
      "▁Google": 4473,
      ".\nE": 4474,
      "▁internet": 4475,
      "▁utak": 4476,
      "atandaan": 4477,
      "ading": 4478,
      "▁cap": 4479,
      "▁mabuting": 4480,
      "▁has": 4481,
      "▁pagpili": 4482,
      "away": 4483,
      "ibay": 4484,
      "▁bilis": 4485,
      "▁paglilinis": 4486,
      "▁mabig": 4487,
      "ayayat": 4488,
      "▁pinakamalaking": 4489,
      "▁paghahanap": 4490,
      "usiness": 4491,
      "abol": 4492,
      "▁get": 4493,
      "ura,": 4494,
      "rato": 4495,
      "▁Mayor": 4496,
      "▁maunawaan": 4497,
      "▁Ok": 4498,
      "yc": 4499,
      "▁team": 4500,
      "▁kadalas": 4501,
      "!\n": 4502,
      "ental": 4503,
      "▁lang,": 4504,
      "▁kinal": 4505,
      "ney": 4506,
      "16": 4507,
      "▁hand": 4508,
      "aalam": 4509,
      "ats": 4510,
      "▁black": 4511,
      "▁protina": 4512,
      "erd": 4513,
      "▁Sum": 4514,
      "esis": 4515,
      "ika,": 4516,
      "▁milyong": 4517,
      "▁lap": 4518,
      "▁mapap": 4519,
      "▁bababa": 4520,
      "▁maglaro": 4521,
      "vernment": 4522,
      "ingaw": 4523,
      "▁sens": 4524,
      "▁kalamnan": 4525,
      "atlong": 4526,
      "acter": 4527,
      "ailable": 4528,
      "▁matinding": 4529,
      "▁pondo": 4530,
      "▁suriin": 4531,
      "iliw": 4532,
      "▁paghahanda": 4533,
      "tern": 4534,
      "aganda": 4535,
      "▁kasanayan": 4536,
      "▁ess": 4537,
      "▁Net": 4538,
      "alakal": 4539,
      "▁pagdurog": 4540,
      "host": 4541,
      "▁inaasahan": 4542,
      "▁pwede": 4543,
      "▁act": 4544,
      "▁iyon,": 4545,
      "▁pagtaya": 4546,
      "ugas": 4547,
      "ale": 4548,
      "▁ani": 4549,
      "▁plan": 4550,
      "UR": 4551,
      "ger": 4552,
      "▁To": 4553,
      "at,": 4554,
      "▁them": 4555,
      "▁bayad": 4556,
      "ulangan": 4557,
      "▁Kom": 4558,
      "▁matagumpay": 4559,
      "play": 4560,
      "▁paglalakbay": 4561,
      "▁atbp": 4562,
      "▁pinat": 4563,
      "▁dom": 4564,
      "▁Angel": 4565,
      "▁serye": 4566,
      "▁deal": 4567,
      ".\nO": 4568,
      "▁kaunting": 4569,
      "▁pag-iisip": 4570,
      "▁artikulo": 4571,
      "akay": 4572,
      ".\nAn": 4573,
      "ibers": 4574,
      "▁nararamdaman": 4575,
      "antayan": 4576,
      "▁masamang": 4577,
      "edyo": 4578,
      "▁had": 4579,
      "▁nagawa": 4580,
      ".\nNgunit": 4581,
      "friend": 4582,
      "▁prib": 4583,
      "▁Diyos,": 4584,
      "abagong": 4585,
      "ough": 4586,
      "▁sah": 4587,
      "▁patungo": 4588,
      "intulot": 4589,
      "▁buhay,": 4590,
      "▁Casino": 4591,
      "OT": 4592,
      "▁Te": 4593,
      "▁payo": 4594,
      "▁mais": 4595,
      "▁forum": 4596,
      "ektor": 4597,
      "▁siya.": 4598,
      "ahulug": 4599,
      "IP": 4600,
      "▁kapit": 4601,
      "▁review,": 4602,
      "order": 4603,
      "une": 4604,
      "▁tam": 4605,
      "akap": 4606,
      "awal": 4607,
      "dir": 4608,
      "agalog": 4609,
      "igaw": 4610,
      "nang": 4611,
      "▁galit": 4612,
      "▁pinah": 4613,
      "aral": 4614,
      "▁ung": 4615,
      "▁detalye": 4616,
      "ift": 4617,
      "uwal": 4618,
      "enteng": 4619,
      ".\nPero": 4620,
      "▁mahigit": 4621,
      "▁kaganapan": 4622,
      "▁iyon.": 4623,
      "▁software": 4624,
      ".\nF": 4625,
      "▁tuk": 4626,
      "eep": 4627,
      "▁timbang.": 4628,
      "▁sur": 4629,
      "▁kayang": 4630,
      "-ibang": 4631,
      "▁simulan": 4632,
      "▁modelo": 4633,
      "▁kabuuang": 4634,
      "aalis": 4635,
      "▁effect": 4636,
      "trabaho": 4637,
      "OL": 4638,
      "▁mangayayat": 4639,
      "▁sir": 4640,
      "▁ginagawang": 4641,
      "▁Dr.": 4642,
      "▁China": 4643,
      "akilala": 4644,
      "▁silid": 4645,
      "▁matiyak": 4646,
      "▁tindahan": 4647,
      "\nU": 4648,
      ":00": 4649,
      "gamit": 4650,
      "au": 4651,
      "ather": 4652,
      "▁nagbigay": 4653,
      "▁bigla": 4654,
      "▁mov": 4655,
      "▁friend": 4656,
      "▁Op": 4657,
      "▁sandali": 4658,
      "hel": 4659,
      "▁pagkakaiba": 4660,
      "▁Ing": 4661,
      "▁end": 4662,
      "▁dibdib,": 4663,
      "ven": 4664,
      "▁katutubong": 4665,
      "▁·": 4666,
      "hat": 4667,
      "▁Police": 4668,
      "joy": 4669,
      "▁negat": 4670,
      "▁aniya": 4671,
      "undo": 4672,
      "▁nagsis": 4673,
      "ze": 4674,
      "▁pilipinas": 4675,
      "▁salamat": 4676,
      "▁Lahat": 4677,
      "alayan": 4678,
      "alian": 4679,
      "▁naniniwala": 4680,
      "▁Jan": 4681,
      "▁nauugnay": 4682,
      "tomat": 4683,
      "uyod": 4684,
      "▁niyo": 4685,
      "▁bansang": 4686,
      "▁want": 4687,
      "▁pinan": 4688,
      "aha": 4689,
      "uong": 4690,
      "ansa,": 4691,
      "▁mult": 4692,
      "▁baguhin": 4693,
      "amali": 4694,
      "▁don": 4695,
      "▁tw": 4696,
      "ensyon": 4697,
      "unsad": 4698,
      "roseso": 4699,
      "▁umalis": 4700,
      "kan": 4701,
      "▁mangyari": 4702,
      "▁nabanggit": 4703,
      "us,": 4704,
      "ikit": 4705,
      "as.": 4706,
      "▁panga": 4707,
      "▁bi": 4708,
      "ution": 4709,
      "tot": 4710,
      "▁panahong": 4711,
      "▁itinat": 4712,
      "▁pasyente": 4713,
      "entong": 4714,
      "▁awtor": 4715,
      "ugma": 4716,
      "here": 4717,
      "▁pinag-": 4718,
      "▁meron": 4719,
      "▁AT": 4720,
      "asang": 4721,
      "▁dalaga": 4722,
      "▁food": 4723,
      "sc": 4724,
      "isita": 4725,
      "▁La": 4726,
      "ustuhan": 4727,
      "▁pagmimina": 4728,
      "▁file": 4729,
      "natiling": 4730,
      "\nMay": 4731,
      "▁bituka": 4732,
      "▁aklat": 4733,
      "▁init": 4734,
      "▁Bre": 4735,
      "▁Dav": 4736,
      "▁bumuo": 4737,
      "▁pangkat": 4738,
      "▁puting": 4739,
      "▁kasing": 4740,
      "▁panig": 4741,
      "▁kaagad": 4742,
      "▁baby": 4743,
      "▁user": 4744,
      "▁kalagayan": 4745,
      "▁now": 4746,
      "▁pagganap": 4747,
      "15": 4748,
      "itahin": 4749,
      "▁Pinak": 4750,
      "ters": 4751,
      "imili": 4752,
      "ahulugang": 4753,
      "▁mahigpit": 4754,
      "▁inirerek": 4755,
      "ensiya": 4756,
      "by": 4757,
      "ctor": 4758,
      "igital": 4759,
      "▁istr": 4760,
      "▁natat": 4761,
      "amdamin": 4762,
      "▁Em": 4763,
      "▁laser": 4764,
      "ope": 4765,
      "inala": 4766,
      "ababa": 4767,
      "alapit": 4768,
      "roga": 4769,
      "▁pangkalahatang": 4770,
      "ange": 4771,
      "amahala": 4772,
      "ugal": 4773,
      "▁pint": 4774,
      "ha,": 4775,
      "kod": 4776,
      "nas": 4777,
      "▁pangalawang": 4778,
      "▁crypto": 4779,
      "alataya": 4780,
      "ike": 4781,
      "▁motor": 4782,
      "▁pagka": 4783,
      "▁Pana": 4784,
      "▁fam": 4785,
      "▁palabas": 4786,
      ".\nKaya": 4787,
      "▁kayong": 4788,
      "▁nabubuhay": 4789,
      "nag": 4790,
      "ird": 4791,
      "▁mundo.": 4792,
      "\nAno": 4793,
      "▁Nag-": 4794,
      "▁pinang": 4795,
      "ukha": 4796,
      "▁when": 4797,
      "▁itinuturing": 4798,
      "▁Bul": 4799,
      "▁pans": 4800,
      "▁pamumuhay": 4801,
      "ology": 4802,
      "dang": 4803,
      "▁fre": 4804,
      "▁order": 4805,
      "igilan": 4806,
      "▁produksyon": 4807,
      "▁ref": 4808,
      "▁people": 4809,
      "▁edukasyon": 4810,
      "▁need": 4811,
      "ine,": 4812,
      "utom": 4813,
      "leto": 4814,
      "▁+": 4815,
      "abata": 4816,
      "▁katan": 4817,
      "▁potensyal": 4818,
      "▁nalal": 4819,
      "uff": 4820,
      "▁makamit": 4821,
      "▁sent": 4822,
      "ONG": 4823,
      "asalita": 4824,
      "▁free": 4825,
      "▁biy": 4826,
      "echn": 4827,
      "unity": 4828,
      "omenda": 4829,
      "▁ngayon.": 4830,
      "os.": 4831,
      "▁University": 4832,
      "IG": 4833,
      "ove": 4834,
      "vir": 4835,
      "▁after": 4836,
      "▁kul": 4837,
      "▁pagkakataong": 4838,
      "▁kasong": 4839,
      "▁Sout": 4840,
      "▁marahil": 4841,
      "nila": 4842,
      "▁nalang": 4843,
      "!\"": 4844,
      "▁Tulad": 4845,
      "▁natit": 4846,
      "lease": 4847,
      "▁2018": 4848,
      "▁help": 4849,
      "▁also": 4850,
      "▁bih": 4851,
      "▁pind": 4852,
      "za": 4853,
      "▁hangin": 4854,
      "▁mill": 4855,
      "▁malinis": 4856,
      "akatuwid,": 4857,
      "▁Dire": 4858,
      "▁gus": 4859,
      "pot": 4860,
      "-ta": 4861,
      "▁mano": 4862,
      "▁nyo": 4863,
      "▁kasangk": 4864,
      "peto": 4865,
      "▁Val": 4866,
      "▁Word": 4867,
      "▁Ros": 4868,
      "▁Christ": 4869,
      "▁hugis": 4870,
      "▁kakulangan": 4871,
      "yl": 4872,
      "▁magsimula": 4873,
      "▁ganito": 4874,
      "▁publiko": 4875,
      "▁mabawasan": 4876,
      "pany": 4877,
      "udulot": 4878,
      "▁bata,": 4879,
      "▁makabul": 4880,
      "▁‘yung": 4881,
      "▁Ass": 4882,
      "▁sel": 4883,
      "▁natatanging": 4884,
      "▁nutr": 4885,
      "▁aparato": 4886,
      "ly,": 4887,
      "agd": 4888,
      "▁empley": 4889,
      "AW": 4890,
      "gaw": 4891,
      "▁alak": 4892,
      "▁pinagm": 4893,
      "vers": 4894,
      "▁Part": 4895,
      "ed,": 4896,
      "▁temperatura": 4897,
      "▁kamat": 4898,
      "▁oil": 4899,
      "▁nadagdag": 4900,
      "A,": 4901,
      "ibl": 4902,
      "usang": 4903,
      "▁aso": 4904,
      "ambing": 4905,
      "▁other": 4906,
      "ks": 4907,
      "igma": 4908,
      "unga": 4909,
      "▁Noong": 4910,
      "\nE": 4911,
      "fa": 4912,
      "▁lalaking": 4913,
      "ates": 4914,
      "ideo": 4915,
      "▁item": 4916,
      "▁libro": 4917,
      "▁bus": 4918,
      "▁Rod": 4919,
      "21": 4920,
      "▁magbibigay": 4921,
      "▁modern": 4922,
      "▁pagmamahal": 4923,
      "▁depende": 4924,
      "urn": 4925,
      "ube": 4926,
      "▁Aqu": 4927,
      "▁kailanman": 4928,
      "▁pack": 4929,
      "▁mapanatili": 4930,
      "▁brow": 4931,
      "▁magagawa": 4932,
      "▁anti-": 4933,
      "▁computer": 4934,
      "▁Super": 4935,
      "TI": 4936,
      "BN": 4937,
      "vent": 4938,
      "▁tungk": 4939,
      "▁Mic": 4940,
      "uporta": 4941,
      "agpuan": 4942,
      "▁hanap": 4943,
      "▁apl": 4944,
      "▁nangungunang": 4945,
      "▁piliin": 4946,
      "▁worm,": 4947,
      "▁Act": 4948,
      "▁pagkilos": 4949,
      "ambot": 4950,
      "yn": 4951,
      "▁Ina": 4952,
      "▁may-ari": 4953,
      "▁News": 4954,
      "▁pagbubuntis": 4955,
      "▁iyo.": 4956,
      "▁pagkal": 4957,
      "▁nila.": 4958,
      "▁araw.": 4959,
      "ima": 4960,
      "▁book": 4961,
      "▁feel": 4962,
      "▁saka": 4963,
      "burg": 4964,
      "▁giardia": 4965,
      "▁namatay": 4966,
      "▁girl": 4967,
      "▁facials": 4968,
      "scr": 4969,
      "▁buto": 4970,
      "▁kuko": 4971,
      "▁Bukod": 4972,
      "▁ekonomiya": 4973,
      "ific": 4974,
      "▁unt": 4975,
      "ette": 4976,
      "ole": 4977,
      "▁panahon,": 4978,
      "▁Pinoy": 4979,
      "onood": 4980,
      "reh": 4981,
      "oci": 4982,
      "▁magm": 4983,
      "▁air": 4984,
      "▁biglang": 4985,
      "-3": 4986,
      "▁paghih": 4987,
      "7.": 4988,
      "▁nagtatrabaho": 4989,
      "upa": 4990,
      "-singaw": 4991,
      "▁nangangahulugang": 4992,
      "auty": 4993,
      "alaga,": 4994,
      "▁nagbibigay-daan": 4995,
      "▁rad": 4996,
      "anggi": 4997,
      "osible": 4998,
      "▁paksa": 4999,
      "estiga": 5000,
      "piritu": 5001,
      "▁milyon": 5002,
      "▁pangh": 5003,
      "tock": 5004,
      "▁pahina": 5005,
      "▁gulay": 5006,
      "▁Barangay": 5007,
      "orte": 5008,
      "▁akin.": 5009,
      "▁labi": 5010,
      "tle": 5011,
      "atan": 5012,
      "ika.": 5013,
      "▁maliban": 5014,
      "amangha": 5015,
      "▁dun": 5016,
      "bong": 5017,
      "abayan": 5018,
      "▁feed": 5019,
      "▁Pal": 5020,
      "ogr": 5021,
      "▁eksper": 5022,
      "ikayat": 5023,
      "▁hinih": 5024,
      "2,": 5025,
      "bins": 5026,
      "mang": 5027,
      "-in": 5028,
      "▁rating": 5029,
      "osmet": 5030,
      "▁pagkakas": 5031,
      "▁mahahalagang": 5032,
      "ados": 5033,
      "intindihan": 5034,
      "▁best": 5035,
      "▁result": 5036,
      "ience": 5037,
      "▁milit": 5038,
      "▁wakas": 5039,
      "ious": 5040,
      "t.": 5041,
      "ahilig": 5042,
      "▁bansa,": 5043,
      "▁years": 5044,
      "ungkahi": 5045,
      "▁Secretary": 5046,
      "A)": 5047,
      "anga": 5048,
      "isipan": 5049,
      "▁damdamin": 5050,
      "read": 5051,
      "6.": 5052,
      "ote": 5053,
      "abalik": 5054,
      "pas": 5055,
      "▁kadahilanan": 5056,
      "▁perpektong": 5057,
      "▁usap": 5058,
      "\nIto": 5059,
      "▁crusher": 5060,
      "▁Big": 5061,
      "▁umabot": 5062,
      "▁kasalanan": 5063,
      "▁gay": 5064,
      "▁Nagb": 5065,
      "ubre": 5066,
      "ision": 5067,
      "▁panatil": 5068,
      "▁Cream": 5069,
      "▁very": 5070,
      "iri": 5071,
      "▁magkaka": 5072,
      "▁lumang": 5073,
      "risto": 5074,
      "▁log": 5075,
      "▁World": 5076,
      "▁bitamina": 5077,
      "▁say": 5078,
      "▁hina": 5079,
      "▁kaugnayan": 5080,
      "▁namam": 5081,
      "\nPara": 5082,
      "ida": 5083,
      "▁ipakita": 5084,
      "▁Sk": 5085,
      "▁199": 5086,
      "▁Sar": 5087,
      "ures": 5088,
      "▁halamang-singaw": 5089,
      "istr": 5090,
      "▁Ram": 5091,
      "▁base": 5092,
      "▁tuloy": 5093,
      "empre,": 5094,
      "aktura": 5095,
      "ren": 5096,
      "lano": 5097,
      "▁offic": 5098,
      "anteng": 5099,
      "▁(k": 5100,
      "▁Mus": 5101,
      "▁some": 5102,
      "ny": 5103,
      "umber": 5104,
      "▁mapanganib": 5105,
      "▁Ele": 5106,
      "▁opin": 5107,
      "▁bahay,": 5108,
      "▁manok": 5109,
      "▁uminom": 5110,
      "isasyon": 5111,
      "▁Iyong": 5112,
      "▁sports": 5113,
      "ife": 5114,
      "ms": 5115,
      "▁Don": 5116,
      "▁ilaw": 5117,
      "▁litrato": 5118,
      "▁ABS": 5119,
      "▁droga": 5120,
      "▁Bum": 5121,
      "osyon": 5122,
      "▁magsas": 5123,
      "▁bel": 5124,
      "▁di-": 5125,
      "adali": 5126,
      "▁yugto": 5127,
      "▁available": 5128,
      "go": 5129,
      "irapan": 5130,
      "ollow": 5131,
      "▁manggagawa": 5132,
      "day": 5133,
      "verage": 5134,
      "▁estudyante": 5135,
      "gy": 5136,
      "TO": 5137,
      "agana": 5138,
      "agkatapos": 5139,
      "ames": 5140,
      "▁bukod": 5141,
      "▁tiy": 5142,
      "▁sandaling": 5143,
      "▁namum": 5144,
      "11": 5145,
      "▁et": 5146,
      "▁residente": 5147,
      "▁prem": 5148,
      "et,": 5149,
      "osc": 5150,
      "▁top": 5151,
      "▁lag": 5152,
      "▁kaniya": 5153,
      "izal": 5154,
      "▁bir": 5155,
      "▁dagat": 5156,
      "reg": 5157,
      "yan,": 5158,
      "▁nanin": 5159,
      "▁katawan.": 5160,
      "▁barangay": 5161,
      "▁key": 5162,
      "▁OF": 5163,
      "par": 5164,
      "▁naman,": 5165,
      "rod": 5166,
      "▁Stor": 5167,
      "?\n-": 5168,
      "andar": 5169,
      "▁makilala": 5170,
      "onekta": 5171,
      "ican": 5172,
      "▁Ben": 5173,
      "▁rehiyon": 5174,
      "▁exper": 5175,
      "▁kasiyahan": 5176,
      "annel": 5177,
      "gad": 5178,
      "\nR": 5179,
      "▁masama": 5180,
      "▁mata.": 5181,
      "ektado": 5182,
      ".\nKapag": 5183,
      "si": 5184,
      "upit": 5185,
      "▁pribadong": 5186,
      "▁lumitaw": 5187,
      "3,": 5188,
      "▁kalalak": 5189,
      "▁oras,": 5190,
      "con": 5191,
      "▁chat": 5192,
      "▁Ama": 5193,
      "le,": 5194,
      "▁1,": 5195,
      "▁coun": 5196,
      ".\nIsang": 5197,
      "▁subalit": 5198,
      "▁simbolo": 5199,
      ".\nHow": 5200,
      "▁tinit": 5201,
      "▁Halimbawa,": 5202,
      "▁happ": 5203,
      "ied": 5204,
      "▁kama": 5205,
      "▁Sab": 5206,
      "▁pangung": 5207,
      "kit": 5208,
      "ham": 5209,
      "▁Per": 5210,
      "▁pangangalaga": 5211,
      "▁tandaan": 5212,
      "▁aktr": 5213,
      "abahagi": 5214,
      "usug": 5215,
      "andaigdig": 5216,
      "▁kahalagahan": 5217,
      "elopment": 5218,
      "ities": 5219,
      "▁right": 5220,
      "▁nait": 5221,
      "▁mai-": 5222,
      "▁tunog": 5223,
      "uportahan": 5224,
      "▁Sant": 5225,
      "redit": 5226,
      "▁lokasyon": 5227,
      "▁3.": 5228,
      "▁nadagdagan": 5229,
      "▁mism": 5230,
      "uklasan": 5231,
      "illa": 5232,
      "▁Pet": 5233,
      "▁Diyos.": 5234,
      "▁artikulong": 5235,
      "dical": 5236,
      "▁palatandaan": 5237,
      "▁netiz": 5238,
      "▁labanan": 5239,
      "▁lagi": 5240,
      "▁Narito": 5241,
      "▁larong": 5242,
      "back": 5243,
      "▁Unid": 5244,
      "▁month": 5245,
      "▁Metro": 5246,
      "▁mamb": 5247,
      "▁niy": 5248,
      "▁Dibdib": 5249,
      "▁tauhan": 5250,
      "yun": 5251,
      "▁epektibo": 5252,
      "▁punto": 5253,
      "aryo": 5254,
      "▁import": 5255,
      "▁mangang": 5256,
      "uhit": 5257,
      "▁pagsisikap": 5258,
      "▁mail": 5259,
      "ibigyan": 5260,
      "aramdam": 5261,
      "ado.": 5262,
      "▁PC": 5263,
      "▁kinuha": 5264,
      "eho": 5265,
      "▁eksak": 5266,
      "oke": 5267,
      "▁kada": 5268,
      "orth": 5269,
      "▁prins": 5270,
      "▁Um": 5271,
      "ipid": 5272,
      "▁Nil": 5273,
      "ahan.": 5274,
      "▁Quezon": 5275,
      "▁menu": 5276,
      "▁Jul": 5277,
      "ihan,": 5278,
      "ikadong": 5279,
      "IR": 5280,
      ".\nNang": 5281,
      "anatiling": 5282,
      ".\nNak": 5283,
      "▁(p": 5284,
      "ship": 5285,
      "▁kumpara": 5286,
      "aking": 5287,
      "press": 5288,
      "▁mananal": 5289,
      "▁kultura": 5290,
      "ibili": 5291,
      "ploy": 5292,
      "▁hirap": 5293,
      "▁Sinabi": 5294,
      "▁opsyon": 5295,
      "14": 5296,
      "ungin": 5297,
      "▁cam": 5298,
      "▁positibong": 5299,
      "son": 5300,
      "▁ka,": 5301,
      "▁gusali": 5302,
      "roid": 5303,
      "▁play": 5304,
      "▁iP": 5305,
      "unahan": 5306,
      "▁Panginoon": 5307,
      "▁elemento": 5308,
      "is.": 5309,
      "▁negos": 5310,
      "UN": 5311,
      "unayan,": 5312,
      "▁medikal": 5313,
      "▁Kore": 5314,
      "▁pangm": 5315,
      "▁dah": 5316,
      "mpalataya": 5317,
      "utong": 5318,
      "▁iniisip": 5319,
      "▁karagdagan,": 5320,
      ".\nSamantala,": 5321,
      "▁ter": 5322,
      "▁laman": 5323,
      "▁kalikasan": 5324,
      "isenyo": 5325,
      "▁la": 5326,
      "▁60": 5327,
      "bon": 5328,
      "▁cond": 5329,
      "▁Tagalog": 5330,
      "lamo": 5331,
      "▁pampubl": 5332,
      "▁alas": 5333,
      "▁karaming": 5334,
      "-CBN": 5335,
      "▁ent": 5336,
      "ape": 5337,
      "onic": 5338,
      "▁basta": 5339,
      "▁because": 5340,
      "▁Pak": 5341,
      "▁oras.": 5342,
      "▁nagkakahalaga": 5343,
      "tomatikong": 5344,
      "▁Estados": 5345,
      "▁pareho": 5346,
      "▁materyales": 5347,
      "ed.": 5348,
      "▁bahay.": 5349,
      "▁bilog": 5350,
      "▁Sabi": 5351,
      "▁masarap": 5352,
      "▁game": 5353,
      "▁exc": 5354,
      "nar": 5355,
      "▁bulating": 5356,
      "▁dak": 5357,
      "oda": 5358,
      "phone": 5359,
      "▁Pum": 5360,
      "▁Nov": 5361,
      "ingan": 5362,
      "▁pinakamataas": 5363,
      "▁Office": 5364,
      "▁Lab": 5365,
      "▁gabay": 5366,
      "▁isaalang-alang": 5367,
      "▁pagtatapos": 5368,
      "▁Sub": 5369,
      "▁kals": 5370,
      "▁dalhin": 5371,
      ".\nMaaari": 5372,
      "▁2016": 5373,
      "▁under": 5374,
      "▁boy": 5375,
      "▁pag-iwas": 5376,
      "▁medi": 5377,
      "ites": 5378,
      "omet": 5379,
      "▁pagna": 5380,
      "17": 5381,
      "▁care": 5382,
      "▁Review": 5383,
      "▁relih": 5384,
      "▁kliy": 5385,
      "ply": 5386,
      "▁dry": 5387,
      "▁Tim": 5388,
      "▁isinas": 5389,
      "▁matugunan": 5390,
      "▁head": 5391,
      "▁telepono": 5392,
      "▁buntis": 5393,
      "▁Pe": 5394,
      "▁tatak": 5395,
      "diriwang": 5396,
      "bit": 5397,
      "▁x": 5398,
      "▁piraso": 5399,
      "▁ugat": 5400,
      "org": 5401,
      "▁basahin": 5402,
      "▁binig": 5403,
      "▁pagkat": 5404,
      "▁sumunod": 5405,
      "▁vari": 5406,
      "\nm": 5407,
      "▁gagamit": 5408,
      "ancer": 5409,
      "apal": 5410,
      "-sunod": 5411,
      "▁dug": 5412,
      "cal": 5413,
      "▁nakatira": 5414,
      "▁Black": 5415,
      "of": 5416,
      "▁call": 5417,
      "▁Maynila": 5418,
      "▁katawan,": 5419,
      "ar,": 5420,
      "ule": 5421,
      "▁Timbang": 5422,
      "abog": 5423,
      "ini": 5424,
      "▁ther": 5425,
      "▁panuk": 5426,
      "▁awtoridad": 5427,
      "urity": 5428,
      "▁proteksyon": 5429,
      "ectr": 5430,
      "▁Bitcoin": 5431,
      "▁ABS-CBN": 5432,
      "▁nob": 5433,
      "ubos": 5434,
      "▁press": 5435,
      "▁makas": 5436,
      "▁St.": 5437,
      "▁address": 5438,
      "▁horm": 5439,
      "▁acid": 5440,
      "▁administr": 5441,
      "▁PAG": 5442,
      "▁empleyado": 5443,
      "▁Franc": 5444,
      "osisyon": 5445,
      "▁titi": 5446,
      "▁krim": 5447,
      "▁tabletas": 5448,
      "8.": 5449,
      "h,": 5450,
      "▁aktibong": 5451,
      "▁kahoy": 5452,
      "▁driver": 5453,
      "IM": 5454,
      "▁makabuluhang": 5455,
      "▁taga-": 5456,
      "EP": 5457,
      "ong,": 5458,
      "ion,": 5459,
      "inisin": 5460,
      "▁room": 5461,
      "▁Pinag": 5462,
      "▁Face": 5463,
      "▁binti": 5464,
      "curr": 5465,
      "w.": 5466,
      "▁pong": 5467,
      "▁suppl": 5468,
      "▁(N": 5469,
      "▁tuluyan": 5470,
      "▁che": 5471,
      "le.": 5472,
      "▁panloob": 5473,
      "▁maaring": 5474,
      "▁kotse": 5475,
      "▁paniniwala": 5476,
      "▁lahat.": 5477,
      "▁Marami": 5478,
      "▁pagkas": 5479,
      "▁point": 5480,
      "▁pambansang": 5481,
      "undan": 5482,
      "agpap": 5483,
      "▁pinam": 5484,
      "▁Jos": 5485,
      "▁look": 5486,
      "▁pinagh": 5487,
      "▁there": 5488,
      "▁direktang": 5489,
      "▁dec": 5490,
      "wento": 5491,
      "ikl": 5492,
      "▁matulungan": 5493,
      "▁magsanay": 5494,
      "yento": 5495,
      "isis": 5496,
      "▁Sol": 5497,
      "▁digital": 5498,
      "▁pagbebenta": 5499,
      "ude": 5500,
      "▁liwanag": 5501,
      "▁koneksyon": 5502,
      "▁wall": 5503,
      "▁pwedeng": 5504,
      "▁treat": 5505,
      "▁cle": 5506,
      "▁2017": 5507,
      "wn": 5508,
      "▁tabi": 5509,
      "▁lot": 5510,
      "____": 5511,
      "▁MGA": 5512,
      "▁Dev": 5513,
      "vel": 5514,
      "▁port": 5515,
      "▁Mayroong": 5516,
      "▁news": 5517,
      "IB": 5518,
      "-mang": 5519,
      "IV": 5520,
      "▁paraan,": 5521,
      "▁bakuna": 5522,
      "fe": 5523,
      "▁conc": 5524,
      "orpor": 5525,
      "lin": 5526,
      "▁how": 5527,
      "ester": 5528,
      "▁nakah": 5529,
      "uan,": 5530,
      "▁Mac": 5531,
      "lood": 5532,
      "▁red": 5533,
      "▁ba?": 5534,
      "uthor": 5535,
      "▁its": 5536,
      "▁massage": 5537,
      "iza": 5538,
      "▁mineral": 5539,
      "▁Trans": 5540,
      "▁seks": 5541,
      "isy": 5542,
      "ikano": 5543,
      "unal": 5544,
      "▁High": 5545,
      "▁bumaba": 5546,
      "▁server": 5547,
      "unong": 5548,
      "inese": 5549,
      "lar": 5550,
      "▁sumas": 5551,
      "alagi": 5552,
      "▁lang.": 5553,
      "▁Center": 5554,
      ".\nMas": 5555,
      "▁pinagk": 5556,
      "▁kagand": 5557,
      "▁Tur": 5558,
      "▁bahag": 5559,
      "inggil": 5560,
      "13": 5561,
      "pect": 5562,
      "alawigan": 5563,
      "▁matukoy": 5564,
      "tress": 5565,
      "▁ing": 5566,
      "▁body": 5567,
      "▁binata": 5568,
      "9.": 5569,
      "▁sinumang": 5570,
      "col": 5571,
      "▁katunayan,": 5572,
      "witter": 5573,
      "▁priv": 5574,
      "▁Kasama": 5575,
      "▁every": 5576,
      "amangha-mang": 5577,
      "▁ospital": 5578,
      "gas": 5579,
      "▁larangan": 5580,
      "iko,": 5581,
      "▁makahanap": 5582,
      "rip": 5583,
      "▁last": 5584,
      "ikilala": 5585,
      "Mga": 5586,
      "ibigan": 5587,
      "▁kadalasang": 5588,
      "▁nyang": 5589,
      "▁ord": 5590,
      "▁dulot": 5591,
      "ives": 5592,
      "anggapin": 5593,
      "▁mundo,": 5594,
      "ora": 5595,
      "▁inc": 5596,
      "arry": 5597,
      "z,": 5598,
      "formation": 5599,
      "▁text": 5600,
      "▁humantong": 5601,
      "ilitaw": 5602,
      "ding": 5603,
      "▁nakasal": 5604,
      "▁malamig": 5605,
      "▁Ingles": 5606,
      "light": 5607,
      "▁tapat": 5608,
      "asy": 5609,
      "ping": 5610,
      "▁week": 5611,
      "▁ay,": 5612,
      "▁side": 5613,
      "▁samant": 5614,
      "▁sasabihin": 5615,
      "UM": 5616,
      "▁class": 5617,
      "orin": 5618,
      "irm": 5619,
      "▁nagmula": 5620,
      "apak": 5621,
      "-A": 5622,
      "ient": 5623,
      "ilaw": 5624,
      "aff": 5625,
      "ubog": 5626,
      "▁imahe": 5627,
      "▁Rodr": 5628,
      "na,": 5629,
      "▁vis": 5630,
      "▁Uk": 5631,
      ".\nBilang": 5632,
      "ative": 5633,
      "ces": 5634,
      "▁Mawalan": 5635,
      "rob": 5636,
      "less": 5637,
      "▁Japan": 5638,
      "\nk": 5639,
      "▁prom": 5640,
      "▁panay": 5641,
      "▁Internet": 5642,
      "▁virus": 5643,
      "▁maingat": 5644,
      "▁stress": 5645,
      "▁ey": 5646,
      "▁sarili.": 5647,
      "▁siya,": 5648,
      "▁kumita": 5649,
      "ield": 5650,
      "▁alm": 5651,
      "▁Pangulo": 5652,
      "ke": 5653,
      "▁ukol": 5654,
      "▁iyan": 5655,
      "▁isipin": 5656,
      "imbak": 5657,
      "aysay": 5658,
      "▁pag-inom": 5659,
      "▁Araw": 5660,
      "▁paglul": 5661,
      "▁ana": 5662,
      "▁Cal": 5663,
      "ublic": 5664,
      "ature": 5665,
      "▁magdagdag": 5666,
      "▁Bagong": 5667,
      "▁II": 5668,
      "▁view": 5669,
      "▁batayan": 5670,
      "agtulungan": 5671,
      "▁This": 5672,
      "other": 5673,
      "inawag": 5674,
      "25": 5675,
      "▁Dan": 5676,
      "atuloy": 5677,
      "▁Af": 5678,
      "▁Lingg": 5679,
      "yaring": 5680,
      "ad.": 5681,
      "▁balak": 5682,
      "inahagi": 5683,
      "hindi": 5684,
      "▁(B": 5685,
      "▁which": 5686,
      "or,": 5687,
      "▁group": 5688,
      "▁natagpuan": 5689,
      "rotektahan": 5690,
      "abago": 5691,
      "▁PNP": 5692,
      "egr": 5693,
      "▁kaloob": 5694,
      "▁aplikasyon": 5695,
      "OD": 5696,
      "▁gaanong": 5697,
      "▁filipino": 5698,
      "▁prutas": 5699,
      "▁drug": 5700,
      "▁kasalukuyan": 5701,
      "▁maib": 5702,
      "erk": 5703,
      "▁asuk": 5704,
      "abal": 5705,
      "▁nakalipas": 5706,
      "▁wag": 5707,
      "▁legal": 5708,
      "inter": 5709,
      "▁masus": 5710,
      "▁Art": 5711,
      "▁komento": 5712,
      "rec": 5713,
      "alagaan": 5714,
      "▁My": 5715,
      "▁indi": 5716,
      "▁palagay": 5717,
      "▁karagdagan": 5718,
      "▁pinili": 5719,
      "▁akin,": 5720,
      "sing": 5721,
      "▁put": 5722,
      "▁pagkakak": 5723,
      "▁ganun": 5724,
      "erry": 5725,
      "update": 5726,
      "▁parasito,": 5727,
      "▁tagub": 5728,
      "osto": 5729,
      "▁pagtulog": 5730,
      "▁modernong": 5731,
      "bo": 5732,
      "for": 5733,
      "amas": 5734,
      "▁bo": 5735,
      "▁Marcos": 5736,
      "▁God": 5737,
      "▁sarili,": 5738,
      "▁mangyayari": 5739,
      "bn": 5740,
      "anyag": 5741,
      "a-hang": 5742,
      "save": 5743,
      "ype": 5744,
      "ai": 5745,
      "▁Ong": 5746,
      "uksan": 5747,
      "ave": 5748,
      "▁pang-araw": 5749,
      "▁parasite": 5750,
      "60": 5751,
      "▁nag-a": 5752,
      "▁mamimili": 5753,
      "areho": 5754,
      "-7": 5755,
      "▁maaas": 5756,
      "ify": 5757,
      "▁solong": 5758,
      "▁aktres": 5759,
      "▁komunikasyon": 5760,
      "utulong": 5761,
      "▁kasamang": 5762,
      "▁GMA": 5763,
      "▁Alex": 5764,
      "astos": 5765,
      "\nO": 5766,
      "▁nilal": 5767,
      "▁Kong": 5768,
      "▁sena": 5769,
      "ice,": 5770,
      "▁makakakuha": 5771,
      "▁Iyon": 5772,
      "ubukas": 5773,
      "▁Ir": 5774,
      "▁mukha,": 5775,
      "▁Cana": 5776,
      "▁Er": 5777,
      "▁rito,": 5778,
      "anya": 5779,
      "▁Bibl": 5780,
      "▁maling": 5781,
      "▁YouT": 5782,
      "▁sektor": 5783,
      "▁business": 5784,
      "▁ayusin": 5785,
      "▁kanila.": 5786,
      "▁South": 5787,
      "IY": 5788,
      "▁metal": 5789,
      "ules": 5790,
      "▁pamantayan": 5791,
      "40": 5792,
      "▁Niya": 5793,
      "ubh": 5794,
      "▁katap": 5795,
      "ilanganin": 5796,
      "\nPaano": 5797,
      "▁pampublikong": 5798,
      "▁inaasahang": 5799,
      "▁long": 5800,
      "▁But": 5801,
      "▁Video": 5802,
      "▁Willie": 5803,
      "▁malayo": 5804,
      "▁umiiral": 5805,
      "oper": 5806,
      "▁er": 5807,
      "▁kamangha-mang": 5808,
      "itis": 5809,
      "▁Mab": 5810,
      "▁ibigay": 5811,
      "▁naisip": 5812,
      "▁iyo,": 5813,
      "▁porsyento": 5814,
      "man,": 5815,
      "▁patay": 5816,
      "▁pigment": 5817,
      "▁bata.": 5818,
      "▁panin": 5819,
      "agn": 5820,
      "-S": 5821,
      "ca": 5822,
      "▁Breast": 5823,
      "hip": 5824,
      "orr": 5825,
      "igr": 5826,
      "▁pagpapanatili": 5827,
      "▁Pagl": 5828,
      "▁ikalawang": 5829,
      "istang": 5830,
      "▁nila,": 5831,
      "▁kanya,": 5832,
      "▁unit": 5833,
      "▁down": 5834,
      "olk": 5835,
      "?\nS": 5836,
      "yle": 5837,
      "▁pip": 5838,
      "adem": 5839,
      "ura.": 5840,
      "agawang": 5841,
      "▁pagpasok": 5842,
      "bigay": 5843,
      "amba": 5844,
      "88": 5845,
      "angin": 5846,
      "ination": 5847,
      "▁pinas": 5848,
      "▁pinakabagong": 5849,
      "▁sch": 5850,
      "▁paboritong": 5851,
      "als": 5852,
      "▁cha": 5853,
      "▁Dito": 5854,
      "▁vacc": 5855,
      "ahad": 5856,
      "▁Ko": 5857,
      "alif": 5858,
      "▁pinuno": 5859,
      "▁tay": 5860,
      "ices": 5861,
      "▁ipap": 5862,
      "▁mem": 5863,
      "▁Hun": 5864,
      "▁ipinang": 5865,
      "rew": 5866,
      "ibreng": 5867,
      "▁check": 5868,
      "▁home": 5869,
      "▁pagsasama": 5870,
      ".\nIp": 5871,
      "▁@": 5872,
      "▁International": 5873,
      "▁puke": 5874,
      "▁pag-asa": 5875,
      "▁pag-uugali": 5876,
      "▁Mang": 5877,
      "▁mapabuti": 5878,
      "▁nanal": 5879,
      "▁karne": 5880,
      "▁Vic": 5881,
      "▁takip": 5882,
      "▁ir": 5883,
      "▁Mor": 5884,
      "▁aktor": 5885,
      "\nIsang": 5886,
      "▁pagkain,": 5887,
      "▁government": 5888,
      "▁Aking": 5889,
      "rer": 5890,
      "▁then": 5891,
      "unaw": 5892,
      "▁electr": 5893,
      "ized": 5894,
      "▁bub": 5895,
      "▁Chinese": 5896,
      "▁No": 5897,
      "▁suso.": 5898,
      "▁balans": 5899,
      "The": 5900,
      "omend": 5901,
      "CP": 5902,
      "ia.": 5903,
      "▁panahon.": 5904,
      "▁inspir": 5905,
      "▁tuntunin": 5906,
      "▁paglipat": 5907,
      "▁(t": 5908,
      "▁pandaigdig": 5909,
      "iber": 5910,
      "▁paglago": 5911,
      "eksto": 5912,
      "yado": 5913,
      "▁old": 5914,
      "▁Ikaw": 5915,
      "▁katanungan": 5916,
      "▁manun": 5917,
      "▁Nags": 5918,
      "▁stand": 5919,
      "▁panlabas": 5920,
      "▁sen": 5921,
      "ways": 5922,
      "▁sundin": 5923,
      "▁light": 5924,
      "ol,": 5925,
      "▁Pagpap": 5926,
      ".\nUpang": 5927,
      "▁Juan": 5928,
      "▁2021": 5929,
      "\",": 5930,
      "▁Krist": 5931,
      "▁let": 5932,
      "▁kumb": 5933,
      "▁star": 5934,
      "▁would": 5935,
      "▁dad": 5936,
      "etong": 5937,
      "▁papunta": 5938,
      "▁4.": 5939,
      "umpleto": 5940,
      "▁Isra": 5941,
      "▁Lu": 5942,
      "▁kamatayan": 5943,
      "▁presyon": 5944,
      "▁nilikha": 5945,
      "▁utang": 5946,
      "▁bulak": 5947,
      "▁tulungan": 5948,
      "▁tungkulin": 5949,
      "ayap": 5950,
      "untunan": 5951,
      "asyon.": 5952,
      "▁only": 5953,
      "EM": 5954,
      "▁Kaya,": 5955,
      "▁Mind": 5956,
      "tions": 5957,
      "▁cook": 5958,
      "irma": 5959,
      "▁kunin": 5960,
      "▁pamumuhunan": 5961,
      "▁Bal": 5962,
      "undok": 5963,
      "▁Up": 5964,
      "5,": 5965,
      "awin": 5966,
      "▁cash": 5967,
      "80": 5968,
      "▁report": 5969,
      "▁kahang": 5970,
      "▁paglipas": 5971,
      "▁tugon": 5972,
      "▁Web": 5973,
      "ansya": 5974,
      "genic": 5975,
      "akyat": 5976,
      "▁maaga": 5977,
      "itt": 5978,
      "▁pek": 5979,
      "▁poker": 5980,
      "▁opinyon": 5981,
      "ilidad": 5982,
      "-ulit": 5983,
      "▁mic": 5984,
      "▁water": 5985,
      "▁panalo": 5986,
      "py": 5987,
      "▁Int": 5988,
      "▁kalalakihan": 5989,
      "▁sim": 5990,
      "▁pandurog,": 5991,
      "▁contact": 5992,
      "▁Lun": 5993,
      "ateg": 5994,
      "▁bank": 5995,
      "iro": 5996,
      ".\nNa": 5997,
      "vey": 5998,
      "alitan": 5999,
      "▁max": 6000,
      "▁hap": 6001,
      "ag-ugnayan": 6002,
      "▁inaalok": 6003,
      "▁How": 6004,
      "▁Jose": 6005,
      "uda": 6006,
      "hen": 6007,
      "▁kus": 6008,
      "ation.": 6009,
      "arehistro": 6010,
      "ages": 6011,
      "▁Austr": 6012,
      "uhos": 6013,
      "▁start": 6014,
      "▁napat": 6015,
      "ang-ayon": 6016,
      "▁Ser": 6017,
      "▁linisin": 6018,
      "▁taas": 6019,
      "board": 6020,
      "u,": 6021,
      "ubhang": 6022,
      "aster": 6023,
      "inong": 6024,
      "▁channel": 6025,
      "▁naganap": 6026,
      "▁School": 6027,
      "▁popular": 6028,
      "ikado": 6029,
      "▁VPN": 6030,
      "▁nagpapahiwatig": 6031,
      "ij": 6032,
      "▁pag-alis": 6033,
      "▁think": 6034,
      "alamat": 6035,
      "ttps": 6036,
      "apy": 6037,
      "▁alk": 6038,
      "set": 6039,
      "▁party": 6040,
      "▁haba": 6041,
      "▁mahanap": 6042,
      "▁puwang": 6043,
      "▁Day": 6044,
      "aktan": 6045,
      "▁been": 6046,
      "▁narinig": 6047,
      "IK": 6048,
      "▁photo": 6049,
      "▁Av": 6050,
      "ihan.": 6051,
      "▁Il": 6052,
      "atak": 6053,
      "▁daliri": 6054,
      "itch": 6055,
      "▁kabut": 6056,
      "▁pang-araw-araw": 6057,
      "truk": 6058,
      "▁life": 6059,
      "-host": 6060,
      "▁negatibong": 6061,
      "▁tik": 6062,
      "▁non": 6063,
      "▁control": 6064,
      "▁nanay": 6065,
      "▁(m": 6066,
      "▁Apple": 6067,
      "ane": 6068,
      "▁war": 6069,
      "tract": 6070,
      "▁magka": 6071,
      "▁pakinabang": 6072,
      "▁hinggil": 6073,
      "fac": 6074,
      "▁hy": 6075,
      "rough": 6076,
      "▁pagpup": 6077,
      "▁sayo": 6078,
      "anced": 6079,
      "u-": 6080,
      "▁sis": 6081,
      "▁support": 6082,
      "arilyo": 6083,
      "rub": 6084,
      ".\nThe": 6085,
      "▁Pad": 6086,
      "alakay": 6087,
      "amahan": 6088,
      "▁sik": 6089,
      "amak": 6090,
      "▁nakilala": 6091,
      "▁pagw": 6092,
      "www.": 6093,
      "▁paghahatid": 6094,
      "▁ito?": 6095,
      "alawa": 6096,
      "ilik": 6097,
      "room": 6098,
      "cial": 6099,
      "▁kalusug": 6100,
      "▁pagtingin": 6101,
      "▁sabih": 6102,
      "▁att": 6103,
      "ic,": 6104,
      "jack": 6105,
      "aga,": 6106,
      "ening": 6107,
      "▁stat": 6108,
      "resent": 6109,
      "▁ipinah": 6110,
      "udio": 6111,
      "-P": 6112,
      "▁IN": 6113,
      "igla": 6114,
      "▁project": 6115,
      "▁nasus": 6116,
      "▁break": 6117,
      "aba,": 6118,
      "▁Matapos": 6119,
      "▁prinsip": 6120,
      "put": 6121,
      "▁deposito": 6122,
      "▁leeg": 6123,
      "▁dokumento": 6124,
      "amantalang": 6125,
      "ال": 6126,
      "▁pagtugon": 6127,
      "▁nutrisyon": 6128,
      "▁gen": 6129,
      "▁into": 6130,
      "rek": 6131,
      "ies,": 6132,
      "evel": 6133,
      "ulit-ulit": 6134,
      "▁Star": 6135,
      "ama,": 6136,
      "▁Min": 6137,
      "leg": 6138,
      "▁ret": 6139,
      "▁bulaklak": 6140,
      "DA": 6141,
      "▁“M": 6142,
      "RO": 6143,
      "▁power": 6144,
      "ilikha": 6145,
      "igur": 6146,
      "▁character": 6147,
      "ttps://": 6148,
      "uhan.": 6149,
      "▁ipinakita": 6150,
      "▁Sila": 6151,
      "▁code": 6152,
      "▁websit": 6153,
      "▁Samakatuwid,": 6154,
      "▁lumipat": 6155,
      "▁mag-asawa": 6156,
      "▁Prod": 6157,
      "▁kaso,": 6158,
      "▁konsep": 6159,
      "antad": 6160,
      "erto": 6161,
      "▁Sm": 6162,
      "▁pagsulat": 6163,
      "▁tumulong": 6164,
      "▁pinapayagan": 6165,
      "▁kahanga-hang": 6166,
      "▁suot": 6167,
      "▁Rey": 6168,
      "▁hom": 6169,
      "ukhang": 6170,
      "▁paglikha": 6171,
      "BA": 6172,
      "▁Rec": 6173,
      "▁Ev": 6174,
      "▁langit": 6175,
      "dy": 6176,
      "▁mahilig": 6177,
      "orry": 6178,
      "▁saklaw": 6179,
      "▁Halimbawa": 6180,
      "tubre": 6181,
      "▁nakakaapekto": 6182,
      "▁Progr": 6183,
      "ni": 6184,
      "▁Mon": 6185,
      "▁kumakat": 6186,
      "▁herb": 6187,
      "ugin": 6188,
      "▁page": 6189,
      "ubukang": 6190,
      "▁polit": 6191,
      "▁Rem": 6192,
      "▁kamakailan": 6193,
      "▁gawaing": 6194,
      "▁public": 6195,
      "▁tagubilin": 6196,
      "▁round": 6197,
      "unduan": 6198,
      "▁child": 6199,
      "▁tumingin": 6200,
      "▁Char": 6201,
      "▁Pilipinas.": 6202,
      "▁lalak": 6203,
      "uluhan": 6204,
      "▁aksyon": 6205,
      "▁napansin": 6206,
      "▁mabuhay": 6207,
      "▁kliyente": 6208,
      "▁Gamit": 6209,
      "lalar": 6210,
      "▁Worm": 6211,
      "iguro": 6212,
      "mail": 6213,
      "▁makabagong": 6214,
      "▁Hul": 6215,
      "▁pag-uusap": 6216,
      "100": 6217,
      "▁pagpapas": 6218,
      "▁essay": 6219,
      "▁dila": 6220,
      "▁val": 6221,
      "biz": 6222,
      "▁bagay,": 6223,
      "▁way": 6224,
      "▁isk": 6225,
      "ension": 6226,
      "▁umu": 6227,
      "▁English": 6228,
      "▁kuts": 6229,
      "▁malambot": 6230,
      "▁alter": 6231,
      "itness": 6232,
      "EO": 6233,
      "elle": 6234,
      "bnb": 6235,
      "▁were": 6236,
      "▁pagpapalaki,": 6237,
      "▁ju": 6238,
      "sign": 6239,
      "ayapaan": 6240,
      "▁I’": 6241,
      "▁I-": 6242,
      "▁Gl": 6243,
      "▁babae,": 6244,
      "▁imbestiga": 6245,
      "▁naip": 6246,
      "alon": 6247,
      "ampa": 6248,
      "▁tiwala": 6249,
      "▁natapos": 6250,
      "▁dulo": 6251,
      "▁atay": 6252,
      "▁AN": 6253,
      "▁than": 6254,
      "▁laro,": 6255,
      "into": 6256,
      "elebr": 6257,
      "▁alinman": 6258,
      "24": 6259,
      "tan": 6260,
      "▁dist": 6261,
      "uwento": 6262,
      "arat": 6263,
      "pers": 6264,
      "asahin": 6265,
      "▁dala": 6266,
      "▁shop": 6267,
      "▁sund": 6268,
      "omb": 6269,
      "▁humah": 6270,
      "▁kulang": 6271,
      "▁butas": 6272,
      "▁number": 6273,
      "▁Commission": 6274,
      ".\nBukod": 6275,
      "▁dumi": 6276,
      "▁awtomatikong": 6277,
      ".\nNoong": 6278,
      "▁She": 6279,
      "olekta": 6280,
      "▁Airbnb": 6281,
      "▁unti-": 6282,
      "resyo": 6283,
      "▁smart": 6284,
      "▁family": 6285,
      "▁tagalog": 6286,
      "▁kakaibang": 6287,
      "▁Gay": 6288,
      "▁tubig,": 6289,
      "▁tuktok": 6290,
      "am,": 6291,
      "oko": 6292,
      "▁naglalaro": 6293,
      "▁kinat": 6294,
      "▁service": 6295,
      "▁story": 6296,
      "uhan,": 6297,
      "ustom": 6298,
      "▁trabaho,": 6299,
      "▁Manag": 6300,
      "▁maliwanag": 6301,
      "ahanga": 6302,
      "▁birth": 6303,
      "▁stock": 6304,
      "▁lis": 6305,
      "▁Sil": 6306,
      "▁pumayat": 6307,
      "▁(A": 6308,
      "OH": 6309,
      "▁super": 6310,
      ".\nHabang": 6311,
      "▁tumutukoy": 6312,
      "alan,": 6313,
      "▁produkto,": 6314,
      "99": 6315,
      "▁alok": 6316,
      "▁aspeto": 6317,
      "▁layer": 6318,
      "▁Gar": 6319,
      "▁21": 6320,
      ".\nIsa": 6321,
      "ves": 6322,
      "▁kamangha-manghang": 6323,
      "▁sun": 6324,
      "ilbing": 6325,
      "ubad": 6326,
      "▁bawal": 6327,
      "▁Aquino": 6328,
      "t,": 6329,
      "▁hamon": 6330,
      "▁sugat": 6331,
      "bik": 6332,
      "▁Europe": 6333,
      "▁train": 6334,
      "▁Nab": 6335,
      "▁cryptocurr": 6336,
      "▁=": 6337,
      "▁doc": 6338,
      "▁Mark": 6339,
      "▁pangulo": 6340,
      "▁produc": 6341,
      "''": 6342,
      "ahas": 6343,
      "come": 6344,
      "post": 6345,
      "uary": 6346,
      "▁gel": 6347,
      "ortable": 6348,
      "▁sakaling": 6349,
      "inanong": 6350,
      "▁Bin": 6351,
      "▁panatilihin": 6352,
      "ayaw": 6353,
      "▁pagmaman": 6354,
      "▁manatili": 6355,
      "▁magkas": 6356,
      "▁pabalik": 6357,
      "min": 6358,
      "▁here": 6359,
      "▁mapa": 6360,
      "kat": 6361,
      ".\n“I": 6362,
      "▁Pre": 6363,
      "▁block": 6364,
      "▁reaksyon": 6365,
      "laim": 6366,
      "▁maagang": 6367,
      "▁pulang": 6368,
      "oro": 6369,
      "▁well": 6370,
      "▁ka.": 6371,
      "▁target": 6372,
      "▁eksaktong": 6373,
      "?\nM": 6374,
      "▁“A": 6375,
      "ansin-p": 6376,
      "▁pagkakakilan": 6377,
      "▁Kab": 6378,
      "\nSi": 6379,
      "ers.": 6380,
      "bos": 6381,
      "amis": 6382,
      "▁stre": 6383,
      "▁again": 6384,
      "▁kaunti": 6385,
      "▁bud": 6386,
      "br": 6387,
      "▁hapon": 6388,
      "▁pasah": 6389,
      "▁pagpapatupad": 6390,
      "-akit": 6391,
      "▁“S": 6392,
      "eno": 6393,
      "\nNg": 6394,
      "unction": 6395,
      "akatiwala": 6396,
      "▁film": 6397,
      "▁nagtatag": 6398,
      "\".": 6399,
      "ument": 6400,
      "▁bark": 6401,
      "UT": 6402,
      "▁sistem": 6403,
      "apekt": 6404,
      "usta": 6405,
      "lax": 6406,
      "-to": 6407,
      "uklas": 6408,
      "▁anak.": 6409,
      "hhh": 6410,
      "▁lead": 6411,
      "▁ilog": 6412,
      "▁pagsasa": 6413,
      "irinig": 6414,
      "▁inumin": 6415,
      "iving": 6416,
      "\nang": 6417,
      "▁karanas": 6418,
      "ett": 6419,
      "sp": 6420,
      "▁Mayo": 6421,
      "ttp://": 6422,
      "▁naglalak": 6423,
      "▁lihim": 6424,
      "adalas": 6425,
      "▁heart": 6426,
      "▁kapal": 6427,
      "alahan": 6428,
      "▁Magk": 6429,
      "ersa": 6430,
      "▁pag-check": 6431,
      "anoorin": 6432,
      "Kung": 6433,
      "▁pil": 6434,
      "▁mali": 6435,
      "▁sulat": 6436,
      "att": 6437,
      "▁pagod": 6438,
      "▁Play": 6439,
      "mint": 6440,
      "erya": 6441,
      "▁kahal": 6442,
      "▁Ukra": 6443,
      "xy": 6444,
      "\nKapag": 6445,
      "ycle": 6446,
      "▁hanapin": 6447,
      "iso": 6448,
      "▁maabot": 6449,
      "▁populasyon": 6450,
      "isyonal": 6451,
      "▁national": 6452,
      "▁kumakatawan": 6453,
      "▁limitasyon": 6454,
      "▁world": 6455,
      "▁transport": 6456,
      "ayaran": 6457,
      "▁kababayan": 6458,
      "200": 6459,
      "▁tumaas": 6460,
      "bot": 6461,
      "ense": 6462,
      "aaaring": 6463,
      "et.": 6464,
      "▁pandaigdigang": 6465,
      "▁board": 6466,
      "▁IS": 6467,
      "▁supply": 6468,
      "▁syang": 6469,
      "EC.": 6470,
      "▁komposisyon": 6471,
      "▁Unidos": 6472,
      "▁acne": 6473,
      "▁pagpapa": 6474,
      "▁pagsunod": 6475,
      "▁sumali": 6476,
      "▁bill": 6477,
      "▁Twitter": 6478,
      "▁setting": 6479,
      "▁sure": 6480,
      "▁27": 6481,
      "▁kaya’t": 6482,
      "▁nagdudulot": 6483,
      "▁nagsasabi": 6484,
      "akip": 6485,
      "▁Bago": 6486,
      "ayanan": 6487,
      "▁Liza": 6488,
      "▁kalakalan": 6489,
      "▁kinalaman": 6490,
      "▁humingi": 6491,
      "▁pass": 6492,
      "▁ginawang": 6493,
      "▁most": 6494,
      "▁binuo": 6495,
      "ilalang": 6496,
      "▁alisan": 6497,
      "ibot": 6498,
      "▁narito": 6499,
      "▁“I": 6500,
      "▁nakakakuha": 6501,
      "obyembre": 6502,
      "▁28": 6503,
      "ine.": 6504,
      "▁nakakuha": 6505,
      "▁ibinibigay": 6506,
      "▁two": 6507,
      "iin": 6508,
      "emikal": 6509,
      "book": 6510,
      "▁klin": 6511,
      "▁WordP": 6512,
      "▁magbayad": 6513,
      "▁naramdaman": 6514,
      "awat": 6515,
      "▁halimbawa,": 6516,
      "▁nagdaragdag": 6517,
      "▁York": 6518,
      "ipl": 6519,
      "▁hari": 6520,
      "▁laro.": 6521,
      "otox": 6522,
      "sych": 6523,
      "▁umaasa": 6524,
      "▁pund": 6525,
      "▁itin": 6526,
      "▁ipag": 6527,
      "ibilangan": 6528,
      "eksiyon": 6529,
      "▁gagamitin": 6530,
      "▁Do": 6531,
      "amangan": 6532,
      "▁Nasa": 6533,
      "aaaa": 6534,
      "▁wast": 6535,
      "▁prop": 6536,
      "▁po,": 6537,
      "▁remedyo": 6538,
      "ron": 6539,
      "▁gym": 6540,
      "ecut": 6541,
      "\nPag-": 6542,
      "▁huk": 6543,
      "▁process": 6544,
      "▁kurso": 6545,
      "▁instit": 6546,
      "kin": 6547,
      "ate,": 6548,
      "▁landas": 6549,
      "▁pitong": 6550,
      "ohyd": 6551,
      "▁Oktubre": 6552,
      "RE": 6553,
      "▁madilim": 6554,
      ".com/": 6555,
      "TV": 6556,
      "▁itina": 6557,
      "ender": 6558,
      "▁Enero": 6559,
      "▁quest": 6560,
      "▁Just": 6561,
      "▁babae.": 6562,
      "▁natitirang": 6563,
      "yembre": 6564,
      "▁tinap": 6565,
      ".\n(": 6566,
      "▁pagtuturo": 6567,
      "▁pinagb": 6568,
      "oma": 6569,
      "obal": 6570,
      "▁manlalar": 6571,
      "ef": 6572,
      "▁hotel": 6573,
      "-re": 6574,
      "▁kahina": 6575,
      "lamig": 6576,
      "▁really": 6577,
      "-ari": 6578,
      "▁pagpapabata": 6579,
      "▁2022": 6580,
      "▁transaksyon": 6581,
      "▁pulit": 6582,
      "▁lalawigan": 6583,
      "ekan": 6584,
      "gg": 6585,
      "▁Del": 6586,
      "6,": 6587,
      "▁militar": 6588,
      "ffer": 6589,
      "▁nakasalalay": 6590,
      "ahanda": 6591,
      "▁House": 6592,
      "▁paggalaw": 6593,
      "▁artista": 6594,
      "▁sem": 6595,
      "▁pur": 6596,
      "▁kalahati": 6597,
      "▁tangk": 6598,
      "zing": 6599,
      "ahiwatig": 6600,
      "▁pantay": 6601,
      "akit-akit": 6602,
      "▁calories": 6603,
      "oster": 6604,
      "▁sigurado": 6605,
      "▁Fil": 6606,
      "▁ahensya": 6607,
      "atin": 6608,
      "▁nand": 6609,
      "entral": 6610,
      "▁much": 6611,
      "▁aks": 6612,
      "mo": 6613,
      "▁General": 6614,
      "▁green": 6615,
      "▁Rizal": 6616,
      ")\n-": 6617,
      "▁Laser": 6618,
      "▁Filip": 6619,
      "''t": 6620,
      "”.": 6621,
      "andurog": 6622,
      "ico": 6623,
      "-0": 6624,
      "iang": 6625,
      "aker": 6626,
      "▁Biy": 6627,
      "▁Bayan": 6628,
      "▁lock": 6629,
      "500": 6630,
      "▁Abril": 6631,
      "▁negosy": 6632,
      "▁foot": 6633,
      "▁tumatagal": 6634,
      "▁sila.": 6635,
      "▁kanser": 6636,
      "etyembre": 6637,
      "be": 6638,
      "▁kamalayan": 6639,
      "▁Ge": 6640,
      "▁ketogenic": 6641,
      "lo,": 6642,
      "oy,": 6643,
      "abase": 6644,
      "king": 6645,
      "▁iba.": 6646,
      ".\n“A": 6647,
      "▁akala": 6648,
      "inagdag": 6649,
      "mon": 6650,
      "▁direksyon": 6651,
      "abit": 6652,
      "▁plant": 6653,
      "kre": 6654,
      "”,": 6655,
      "ero,": 6656,
      "daang": 6657,
      "▁kinabibilangan": 6658,
      "▁OFW": 6659,
      "▁paglabag": 6660,
      "▁alagang": 6661,
      "klusyon": 6662,
      "▁murang": 6663,
      "ansa": 6664,
      "iba-": 6665,
      "▁gumana": 6666,
      "\nIn": 6667,
      "▁makaka": 6668,
      "▁Window": 6669,
      "uyang": 6670,
      "▁tangg": 6671,
      "▁imm": 6672,
      "▁Nagk": 6673,
      "4,": 6674,
      "▁Parang": 6675,
      "▁Dec": 6676,
      "undin,": 6677,
      "▁did": 6678,
      "▁sahig": 6679,
      "inggan": 6680,
      "▁kor": 6681,
      "▁Tal": 6682,
      "▁mahihirap": 6683,
      "▁Rodrigo": 6684,
      "▁review.": 6685,
      "jo": 6686,
      "uyong": 6687,
      "erte": 6688,
      "▁magsasaka": 6689,
      "▁cat": 6690,
      "▁Bro": 6691,
      "apasok": 6692,
      ".,": 6693,
      "▁follow": 6694,
      "▁invest": 6695,
      "▁matanda": 6696,
      "▁ton": 6697,
      "▁Nar": 6698,
      "▁ari": 6699,
      "\nAt": 6700,
      "▁kemikal": 6701,
      ":\nAng": 6702,
      "▁Gold": 6703,
      "▁anuman": 6704,
      ".\nJ": 6705,
      "▁Bab": 6706,
      "▁trap": 6707,
      "leng": 6708,
      "-kum": 6709,
      "▁movie": 6710,
      "▁maghanap": 6711,
      "▁pangako": 6712,
      "ials": 6713,
      "▁mayaman": 6714,
      "▁Tom": 6715,
      "▁Francis": 6716,
      "▁22": 6717,
      "▁Napak": 6718,
      "igal": 6719,
      "▁Rich": 6720,
      "▁seksyon": 6721,
      "▁tinawag": 6722,
      "usuri": 6723,
      "▁kasosyo": 6724,
      "▁Vi": 6725,
      "▁pinto": 6726,
      "fl": 6727,
      "▁wa": 6728,
      "▁bahagyang": 6729,
      "-M": 6730,
      "??": 6731,
      "▁Serv": 6732,
      "▁pinans": 6733,
      ".P": 6734,
      "gamot": 6735,
      "▁aling": 6736,
      "▁punong": 6737,
      "▁Disyembre": 6738,
      "▁sa.": 6739,
      "IA": 6740,
      "his": 6741,
      "▁23": 6742,
      "▁roll": 6743,
      "▁(L": 6744,
      "ival": 6745,
      "▁organisasyon": 6746,
      "▁sobra": 6747,
      "ections": 6748,
      "ved": 6749,
      "▁tan": 6750,
      "▁diabet": 6751,
      "▁bumubuo": 6752,
      "PS": 6753,
      "▁Kris": 6754,
      "▁pinakas": 6755,
      "▁sib": 6756,
      "amahusay": 6757,
      "▁Redux": 6758,
      "▁dibdib.": 6759,
      "--------": 6760,
      "▁instr": 6761,
      "▁Tsina": 6762,
      "▁see": 6763,
      "▁dahan": 6764,
      "▁equ": 6765,
      "▁acc": 6766,
      "▁bagay.": 6767,
      "▁self": 6768,
      "▁nagmum": 6769,
      "▁makipag-usap": 6770,
      "▁Ig": 6771,
      "▁Dom": 6772,
      "▁asukal": 6773,
      "ambag": 6774,
      "▁buwan,": 6775,
      "▁bawang": 6776,
      "▁baril": 6777,
      "▁nakip": 6778,
      "last": 6779,
      "▁mismong": 6780,
      "ased": 6781,
      "LE": 6782,
      "▁naninirahan": 6783,
      "atake": 6784,
      "▁nakakatulong": 6785,
      "▁Android": 6786,
      "apektuhan": 6787,
      "▁Work": 6788,
      "▁tumpak": 6789,
      "alimutan": 6790,
      "▁device": 6791,
      "ta.": 6792,
      "▁pagbabalik": 6793,
      "▁layo": 6794,
      "▁masakit": 6795,
      "▁average": 6796,
      "\nNa": 6797,
      "▁hih": 6798,
      "abo": 6799,
      "▁Ilang": 6800,
      ".\n“S": 6801,
      "▁kuryente": 6802,
      "▁law": 6803,
      "▁ID": 6804,
      "▁kuwarto": 6805,
      "▁Israel": 6806,
      "▁pagdiriwang": 6807,
      "▁kakailanganin": 6808,
      "▁special": 6809,
      "▁YouTube": 6810,
      "▁kawan": 6811,
      "▁paulit-ulit": 6812,
      "▁binigyan": 6813,
      "▁Peters": 6814,
      "anch": 6815,
      "▁sinaunang": 6816,
      "▁parasitiko": 6817,
      "▁deb": 6818,
      "▁Live": 6819,
      "▁dahon": 6820,
      "9,": 6821,
      "amanan": 6822,
      "langin": 6823,
      "▁Group": 6824,
      "▁tea": 6825,
      "-B": 6826,
      "▁tumagal": 6827,
      "▁Mags": 6828,
      "▁pagbib": 6829,
      "▁short": 6830,
      "▁local": 6831,
      "▁deg": 6832,
      "▁gul": 6833,
      "▁vol": 6834,
      "▁paliwanag": 6835,
      "▁0.": 6836,
      "▁Sat": 6837,
      "▁magkak": 6838,
      "▁kalsada": 6839,
      "ahinga": 6840,
      "▁Tingnan": 6841,
      "▁Marso": 6842,
      "▁enter": 6843,
      "▁tax": 6844,
      "▁asul": 6845,
      "itikan": 6846,
      "▁pagtanggap": 6847,
      "▁sinasabing": 6848,
      "▁Afric": 6849,
      "▁use": 6850,
      "atagalang": 6851,
      "▁ub": 6852,
      "OM": 6853,
      "▁Nobyembre": 6854,
      "▁inj": 6855,
      "ubot": 6856,
      "▁Lim": 6857,
      "▁lumal": 6858,
      "▁nya.": 6859,
      "hy": 6860,
      "▁“P": 6861,
      ".\nGayunpaman,": 6862,
      "OW": 6863,
      "▁Vill": 6864,
      "▁humigit": 6865,
      "▁lupain": 6866,
      "▁lumaki": 6867,
      "▁tagas": 6868,
      "▁ket": 6869,
      "▁bundok": 6870,
      "▁digma": 6871,
      "▁boses": 6872,
      "▁Sino": 6873,
      "ano,": 6874,
      "▁Paras": 6875,
      "▁puntos": 6876,
      "wan": 6877,
      "umite": 6878,
      "▁ninyong": 6879,
      "▁ipina": 6880,
      "▁naaangkop": 6881,
      "▁lal": 6882,
      "▁magtrabaho": 6883,
      "▁pinagsama": 6884,
      "▁hener": 6885,
      "▁naghihintay": 6886,
      "▁even": 6887,
      "osmetic": 6888,
      "ahirap": 6889,
      "inadala": 6890,
      "▁kampanya": 6891,
      "▁90": 6892,
      "▁koleh": 6893,
      "▁tour": 6894,
      "ova": 6895,
      "▁gamutin": 6896,
      "ST": 6897,
      "▁saloob": 6898,
      "▁Your": 6899,
      "▁sangkata": 6900,
      "▁employ": 6901,
      "pro": 6902,
      "akasama": 6903,
      "▁ipinapakita": 6904,
      "s)": 6905,
      "▁opisina": 6906,
      "........": 6907,
      "uod": 6908,
      "▁magawa": 6909,
      "▁namin.": 6910,
      "▁mekan": 6911,
      "▁kasunod": 6912,
      "-kumulang": 6913,
      "▁kana": 6914,
      ".\n2.": 6915,
      "PA": 6916,
      "▁third": 6917,
      "▁mess": 6918,
      "unuan": 6919,
      "osong": 6920,
      "▁2,": 6921,
      "fore": 6922,
      "▁bato,": 6923,
      "da,": 6924,
      "▁det": 6925,
      "▁Setyembre": 6926,
      "▁proto": 6927,
      "▁paglabas": 6928,
      "▁kapalit": 6929,
      "ilyo": 6930,
      "-st": 6931,
      "▁Imp": 6932,
      "ecial": 6933,
      "icle": 6934,
      "ilig": 6935,
      "▁lemon": 6936,
      "▁manunulat": 6937,
      "ong.": 6938,
      "▁Pac": 6939,
      "led": 6940,
      "ipiko": 6941,
      "ilaan": 6942,
      "▁Pinap": 6943,
      "ced": 6944,
      "point": 6945,
      "▁treatment": 6946,
      "▁Po": 6947,
      "pag": 6948,
      "▁still": 6949,
      "▁balat,": 6950,
      "▁kasabay": 6951,
      "▁lugar.": 6952,
      "▁sinuman": 6953,
      "▁kahirapan": 6954,
      "▁anak,": 6955,
      "▁brand": 6956,
      "▁akt": 6957,
      "▁Oc": 6958,
      "▁daloy": 6959,
      "▁American": 6960,
      "▁said": 6961,
      "▁karera": 6962,
      "▁pamilya.": 6963,
      "\nb": 6964,
      "anang": 6965,
      "▁ganda": 6966,
      "▁pattern": 6967,
      "uan.": 6968,
      "▁Nas": 6969,
      "▁pusa": 6970,
      "▁requ": 6971,
      "▁kateg": 6972,
      "arantine": 6973,
      "▁pagsusugal": 6974,
      "▁unibers": 6975,
      "▁pilipino": 6976,
      "▁80": 6977,
      "▁har": 6978,
      "anao": 6979,
      "ugol": 6980,
      "▁kalamangan": 6981,
      "▁ipinagb": 6982,
      "wagan": 6983,
      "▁Sim": 6984,
      "▁pagkata": 6985,
      "yag": 6986,
      "▁tala": 6987,
      "▁dise": 6988,
      "▁United": 6989,
      "akuna": 6990,
      "▁bent": 6991,
      "sword": 6992,
      "▁ngipin": 6993,
      "ually": 6994,
      "awad": 6995,
      "▁soda": 6996,
      "▁pulisya": 6997,
      "ince": 6998,
      "▁Port": 6999,
      "▁impeksyon": 7000,
      "AMI": 7001,
      "▁Petersburg": 7002,
      "▁hah": 7003,
      "▁gayong": 7004,
      "eta,": 7005,
      "▁Maria": 7006,
      "▁Kam": 7007,
      "ergy": 7008,
      "▁sad": 7009,
      "ugod": 7010,
      "ahalagahan": 7011,
      "▁ibahagi": 7012,
      "▁City,": 7013,
      "▁Kami": 7014,
      "▁carbohyd": 7015,
      "▁hiwalay": 7016,
      "alangkas": 7017,
      "ibe": 7018,
      "▁ling": 7019,
      "▁probins": 7020,
      "ercise": 7021,
      "den": 7022,
      "ues": 7023,
      "amilya": 7024,
      "▁Sur": 7025,
      "otoo": 7026,
      "▁night": 7027,
      "▁Vice": 7028,
      "▁nasas": 7029,
      "▁Magp": 7030,
      "▁impluw": 7031,
      "▁mananaliksik": 7032,
      "▁nai-": 7033,
      "▁dam": 7034,
      "utos": 7035,
      "▁kaakit-akit": 7036,
      "▁malubhang": 7037,
      "▁pag-aari": 7038,
      "-pana": 7039,
      "\ns": 7040,
      "een": 7041,
      "▁magkasama": 7042,
      "ization": 7043,
      "▁kandid": 7044,
      "▁dalaw": 7045,
      "▁paghuh": 7046,
      "umbas": 7047,
      "▁distr": 7048,
      "tainment": 7049,
      "▁tanggapin": 7050,
      "▁pupunta": 7051,
      "▁pag-install": 7052,
      "▁lumalabas": 7053,
      "▁pera.": 7054,
      "!\nAng": 7055,
      "asahan": 7056,
      "▁Salamat": 7057,
      "bah": 7058,
      "▁kanina": 7059,
      "▁War": 7060,
      "▁banda,": 7061,
      "ills": 7062,
      "▁tema": 7063,
      "▁Cor": 7064,
      "aguyod": 7065,
      "raft": 7066,
      "iyas": 7067,
      "▁ist": 7068,
      "▁krit": 7069,
      "▁100%": 7070,
      "▁isama": 7071,
      ".\n“M": 7072,
      "onsum": 7073,
      "▁AS": 7074,
      "▁proper": 7075,
      "▁Pilipinas,": 7076,
      "▁nalaman": 7077,
      "▁Park": 7078,
      "▁Des": 7079,
      "▁salita,": 7080,
      "▁sour": 7081,
      "▁jack": 7082,
      "inda": 7083,
      "▁kabuuan": 7084,
      "▁ginto": 7085,
      "jor": 7086,
      "anata": 7087,
      "amay-ari": 7088,
      "▁Amerikano": 7089,
      "ource": 7090,
      "▁hindi,": 7091,
      "▁activ": 7092,
      "▁Pebr": 7093,
      "▁198": 7094,
      "▁hangga't": 7095,
      "▁panayam": 7096,
      "▁kanang": 7097,
      "▁5.": 7098,
      "▁pagbabagong": 7099,
      "▁Maging": 7100,
      "▁nun": 7101,
      "▁ituring": 7102,
      "▁inilabas": 7103,
      "ingis": 7104,
      "▁magpat": 7105,
      "saalang-alang": 7106,
      "▁okay": 7107,
      "ysay": 7108,
      "ell,": 7109,
      "irt": 7110,
      ".\nMat": 7111,
      "down": 7112,
      "▁grup": 7113,
      "▁kanila,": 7114,
      "alipas": 7115,
      "▁Russia": 7116,
      "ineb": 7117,
      "▁matatanda": 7118,
      "oscow": 7119,
      "▁pagkakakilanlan": 7120,
      "omen": 7121,
      "▁mangyaring": 7122,
      "▁Dios": 7123,
      "!!!": 7124,
      "▁profile": 7125,
      "iam": 7126,
      "ots": 7127,
      "▁kalul": 7128,
      "loud": 7129,
      "atingin": 7130,
      "▁hyd": 7131,
      "▁pelikulang": 7132,
      "▁artist": 7133,
      "▁Cruz": 7134,
      "▁nakad": 7135,
      "mam": 7136,
      "▁isa.": 7137,
      "▁fung": 7138,
      "▁500": 7139,
      "▁samahan": 7140,
      "▁nagsasalita": 7141,
      "▁engine": 7142,
      "▁ganoon": 7143,
      "▁pananampalataya": 7144,
      "nasyonal": 7145,
      "▁Hunyo": 7146,
      "at.": 7147,
      "▁inspirasyon": 7148,
      "▁pagkakamali": 7149,
      "▁las": 7150,
      "▁low": 7151,
      "▁Bor": 7152,
      "▁read": 7153,
      "▁napakalaking": 7154,
      "▁•": 7155,
      "▁regalo": 7156,
      "anda.": 7157,
      "▁Development": 7158,
      "▁pula": 7159,
      "▁trabaho.": 7160,
      "▁fec": 7161,
      "▁folk": 7162,
      "▁bakal": 7163,
      "ards": 7164,
      "▁pag-unawa": 7165,
      "▁magpatuloy": 7166,
      "uhod": 7167,
      "▁tablets": 7168,
      "▁Cha": 7169,
      "ubhasa": 7170,
      "▁Tin": 7171,
      "uce": 7172,
      "▁ala": 7173,
      "uble": 7174,
      "▁kalim": 7175,
      "▁tatlo": 7176,
      "▁dosis": 7177,
      "ol.": 7178,
      "▁full": 7179,
      "▁Reduxine": 7180,
      "itin": 7181,
      "▁worm.": 7182,
      "▁humih": 7183,
      "▁n’": 7184,
      "awid": 7185,
      "▁Cam": 7186,
      "ler": 7187,
      "▁proses": 7188,
      "umpirma": 7189,
      "▁Ba": 7190,
      "▁matuto": 7191,
      "a-s": 7192,
      "▁sentro": 7193,
      "dia,": 7194,
      "upunta": 7195,
      "intul": 7196,
      "▁istraktura": 7197,
      "▁kahil": 7198,
      "▁Ton": 7199,
      "▁lumalaki": 7200,
      ".\nHal": 7201,
      "▁tradisyonal": 7202,
      "alya": 7203,
      "-any": 7204,
      "▁box": 7205,
      "▁Nangang": 7206,
      "▁Eye": 7207,
      "▁should": 7208,
      "ckles": 7209,
      "▁credit": 7210,
      "-4": 7211,
      "▁kid": 7212,
      "▁kalayaan": 7213,
      "▁sekswal": 7214,
      "▁“B": 7215,
      "▁PH": 7216,
      "▁kahih": 7217,
      "▁camera": 7218,
      "angang": 7219,
      "▁nail": 7220,
      "▁tagahanga": 7221,
      "angkin": 7222,
      "▁tagapagt": 7223,
      "uf": 7224,
      "▁alterna": 7225,
      "▁center": 7226,
      "▁Bat": 7227,
      "▁kumilos": 7228,
      "▁nagsabi": 7229,
      "▁cast": 7230,
      "▁Ceb": 7231,
      "▁advanced": 7232,
      "▁tina": 7233,
      "▁cy": 7234,
      "▁natanggap": 7235,
      "▁ikatlong": 7236,
      "▁Bet": 7237,
      "▁Lit": 7238,
      "▁buhangin": 7239,
      "▁eksperto": 7240,
      "▁panuntunan": 7241,
      "▁eksena": 7242,
      "arehong": 7243,
      "▁linggo,": 7244,
      "▁katunayan": 7245,
      "▁tagap": 7246,
      "asaad": 7247,
      "langan": 7248,
      "▁70": 7249,
      "▁itinak": 7250,
      "▁feature": 7251,
      "▁PM": 7252,
      "▁lugar,": 7253,
      "▁tinutukoy": 7254,
      "\n1": 7255,
      "▁metro": 7256,
      "uweb": 7257,
      "▁lamang.": 7258,
      "DI": 7259,
      "▁Sing": 7260,
      "▁minimum": 7261,
      "▁interesado": 7262,
      "▁Cap": 7263,
      "▁Iba": 7264,
      "▁porn": 7265,
      "▁nakakapag": 7266,
      "▁palagi": 7267,
      "akasal": 7268,
      "▁Law": 7269,
      "▁phone": 7270,
      "▁Sana": 7271,
      "ides": 7272,
      "▁kwarto": 7273,
      "▁suliran": 7274,
      "▁mid": 7275,
      "▁Sw": 7276,
      "▁Ger": 7277,
      "▁buksan": 7278,
      "▁mahaba": 7279,
      "▁kalinga": 7280,
      "▁many": 7281,
      "ugust": 7282,
      "adyang": 7283,
      "▁kumik": 7284,
      "▁Yung": 7285,
      "it.": 7286,
      ".\nY": 7287,
      "▁imbestigasyon": 7288,
      "isode": 7289,
      "▁puwedeng": 7290,
      "▁swe": 7291,
      "▁skin": 7292,
      "FP": 7293,
      "▁these": 7294,
      "▁Miss": 7295,
      "▁sampung": 7296,
      "ray": 7297,
      "▁sakin": 7298,
      "▁pag-aalaga": 7299,
      "▁kuya": 7300,
      "adaling": 7301,
      "ugg": 7302,
      "▁Flor": 7303,
      "alingan": 7304,
      "gy.": 7305,
      "▁konsepto": 7306,
      "ua": 7307,
      "alanin": 7308,
      "onz": 7309,
      "▁halagang": 7310,
      "▁buwis": 7311,
      "onavir": 7312,
      "▁Pagt": 7313,
      "insunod": 7314,
      "anggapan": 7315,
      "▁nakar": 7316,
      "▁hawakan": 7317,
      "▁alit": 7318,
      "▁bisitahin": 7319,
      "▁kagandahan": 7320,
      "▁kumbinasyon": 7321,
      "ibr": 7322,
      "ahing": 7323,
      "▁samantalang": 7324,
      "▁sabihin,": 7325,
      "ever": 7326,
      "▁pagpapabuti": 7327,
      "▁daigdig": 7328,
      "▁rekomend": 7329,
      "▁bituin": 7330,
      "▁nakakag": 7331,
      "inhawa": 7332,
      "22": 7333,
      "▁”": 7334,
      "ot,": 7335,
      "▁nawalan": 7336,
      "pp": 7337,
      "▁kumpletong": 7338,
      "▁stud": 7339,
      "▁nagsus": 7340,
      "▁Dum": 7341,
      "resh": 7342,
      "▁ugali": 7343,
      "▁netizens": 7344,
      "aran,": 7345,
      "▁Karamihan": 7346,
      "▁bunga": 7347,
      "▁Biyern": 7348,
      "In": 7349,
      "▁papasok": 7350,
      "aste": 7351,
      "ring": 7352,
      "▁pict": 7353,
      "▁garant": 7354,
      "▁35": 7355,
      "▁pag-aayos": 7356,
      "▁komportable": 7357,
      "▁kapayapaan": 7358,
      "▁Espiritu": 7359,
      "▁jo": 7360,
      "ples": 7361,
      "▁makagawa": 7362,
      "▁karapatang": 7363,
      "▁maximum": 7364,
      "dan": 7365,
      "▁nanalo": 7366,
      "70": 7367,
      "umpit": 7368,
      "▁pamilya,": 7369,
      "▁tahimik": 7370,
      ".\n3.": 7371,
      "ume": 7372,
      "▁apartment": 7373,
      "▁Post": 7374,
      "▁paraan.": 7375,
      "ucky": 7376,
      "▁bol": 7377,
      "▁Moscow": 7378,
      "▁natin,": 7379,
      "▁alarm": 7380,
      "▁puro": 7381,
      "ury": 7382,
      "▁LG": 7383,
      "▁ya": 7384,
      "▁ext": 7385,
      "dies": 7386,
      "▁Kin": 7387,
      "ically": 7388,
      "abaan": 7389,
      "impl": 7390,
      "▁Batang": 7391,
      "▁matigas": 7392,
      "▁Kim": 7393,
      "▁TH": 7394,
      "▁programang": 7395,
      "atory": 7396,
      "off": 7397,
      "icon": 7398,
      "▁resulta,": 7399,
      "▁Kabilang": 7400,
      "▁kasangkapan": 7401,
      "ter,": 7402,
      "▁sila,": 7403,
      "▁tumatakbo": 7404,
      "isi": 7405,
      "▁1:": 7406,
      "-angat": 7407,
      "▁Pagh": 7408,
      "nakaw": 7409,
      "box": 7410,
      "▁table": 7411,
      "▁malalaman": 7412,
      "▁istil": 7413,
      "ilalim": 7414,
      "ud-sunod": 7415,
      "ulas": 7416,
      "▁Higit": 7417,
      "awakan": 7418,
      "▁Linggo": 7419,
      "osit": 7420,
      "▁sariwang": 7421,
      "▁eb": 7422,
      "abae": 7423,
      "▁napakaraming": 7424,
      "▁pinagmulan": 7425,
      "m.": 7426,
      "▁AM": 7427,
      "alidad": 7428,
      "▁record": 7429,
      "try": 7430,
      "▁kompanya": 7431,
      "▁Sinus": 7432,
      "▁hugas": 7433,
      "▁marinig": 7434,
      "▁basura": 7435,
      "▁makik": 7436,
      ".\nPagkatapos": 7437,
      "▁magsagawa": 7438,
      "SA": 7439,
      "osa": 7440,
      "etisyon": 7441,
      "▁Jer": 7442,
      "▁kahapon": 7443,
      "nab": 7444,
      "risis": 7445,
      "aliforn": 7446,
      "▁bust": 7447,
      "▁maglagay": 7448,
      "▁Best": 7449,
      "▁series": 7450,
      "▁lip": 7451,
      "ports": 7452,
      "▁insidente": 7453,
      "▁masayang": 7454,
      "▁kalahok": 7455,
      "loy": 7456,
      "▁bigat": 7457,
      "▁fun": 7458,
      "▁humigit-kumulang": 7459,
      "ending": 7460,
      "▁pagpunta": 7461,
      "agamot": 7462,
      "▁Chief": 7463,
      "ucation": 7464,
      "▁search": 7465,
      "▁Suso": 7466,
      "ag-anak": 7467,
      "ales": 7468,
      "▁kausap": 7469,
      "▁amoy": 7470,
      "wood": 7471,
      "▁Sinas": 7472,
      "▁inirerekomenda": 7473,
      "ani": 7474,
      "▁With": 7475,
      "▁bigyang": 7476,
      "▁nakaraan": 7477,
      "ground": 7478,
      "uturo": 7479,
      "el.": 7480,
      "\nsa": 7481,
      "▁‘di": 7482,
      "ted": 7483,
      "▁One": 7484,
      "conom": 7485,
      "ala.": 7486,
      "▁beauty": 7487,
      "▁helmint": 7488,
      "aaralan": 7489,
      "aniniwala": 7490,
      "▁tig": 7491,
      "ababang": 7492,
      "▁house": 7493,
      "▁If": 7494,
      "▁reb": 7495,
      "▁pinip": 7496,
      "▁simbahan": 7497,
      "▁mabigyan": 7498,
      "uma": 7499,
      "▁thesis": 7500,
      "▁2010": 7501,
      "▁harapan": 7502,
      "▁maprotektahan": 7503,
      "▁nagsimulang": 7504,
      "▁Slimming": 7505,
      "▁yaman": 7506,
      "▁nagbebenta": 7507,
      "▁at,": 7508,
      "▁taasan": 7509,
      "▁abo": 7510,
      "ired": 7511,
      "rik": 7512,
      "ukin": 7513,
      "ober": 7514,
      "▁carbon": 7515,
      "▁\"M": 7516,
      "▁iss": 7517,
      "▁(R": 7518,
      "▁nabuo": 7519,
      "▁pagpapatakbo": 7520,
      "-tuloy": 7521,
      "ubaybay": 7522,
      "▁Nagbibigay": 7523,
      "▁paunang": 7524,
      "S.": 7525,
      "▁ng,": 7526,
      "▁take": 7527,
      "▁nip": 7528,
      "-dapat": 7529,
      "ilbi": 7530,
      "uusapan": 7531,
      "▁puti": 7532,
      "▁kayamanan": 7533,
      "▁Agosto": 7534,
      "▁showbiz": 7535,
      "BET": 7536,
      "▁Nais": 7537,
      "▁KAMI": 7538,
      "23": 7539,
      "apo": 7540,
      "ification": 7541,
      "uld": 7542,
      "▁sining": 7543,
      "▁dumaan": 7544,
      "-20": 7545,
      "▁IP": 7546,
      "▁aral": 7547,
      "ungang": 7548,
      "▁inis": 7549,
      "hanang": 7550,
      "ENT": 7551,
      "▁community": 7552,
      "ingo": 7553,
      "▁freckles": 7554,
      "▁lasa": 7555,
      "▁(T": 7556,
      "▁Inc": 7557,
      "▁pagmam": 7558,
      "▁perpekto": 7559,
      "▁Kumuha": 7560,
      "▁gulong": 7561,
      "uper": 7562,
      "▁tubig.": 7563,
      "draw": 7564,
      "▁Facial": 7565,
      "▁fat": 7566,
      ".\n“N": 7567,
      "asidad": 7568,
      "▁tod": 7569,
      "▁diyos": 7570,
      "▁ste": 7571,
      "umpati": 7572,
      "▁ng.": 7573,
      "▁Buhay": 7574,
      "ure,": 7575,
      "anganak": 7576,
      "ice.": 7577,
      "▁Lang": 7578,
      "▁kapana": 7579,
      "il,": 7580,
      "ektibong": 7581,
      "▁burat": 7582,
      "▁mor": 7583,
      "▁ol": 7584,
      "ukulang": 7585,
      "▁ipinat": 7586,
      ".\nNgayon": 7587,
      "▁Market": 7588,
      "▁bangko": 7589,
      "iko.": 7590,
      ".\nKa": 7591,
      "war": 7592,
      "edit": 7593,
      "▁Rev": 7594,
      "▁(s": 7595,
      "alia": 7596,
      "▁asin": 7597,
      "inisenyo": 7598,
      "▁Hum": 7599,
      "?\nA": 7600,
      "▁Pab": 7601,
      "-libong": 7602,
      "▁Program": 7603,
      "▁lahi": 7604,
      "▁pagkamatay": 7605,
      "ureau": 7606,
      "▁Prov": 7607,
      "▁Hulyo": 7608,
      "olate": 7609,
      "▁balikat": 7610,
      "▁person": 7611,
      "▁conf": 7612,
      "mpanan": 7613,
      "▁through": 7614,
      "▁salamin": 7615,
      "▁nararapat": 7616,
      "▁bra": 7617,
      "▁run": 7618,
      "▁pares": 7619,
      "▁Hanggang": 7620,
      "▁kumakain": 7621,
      "ekl": 7622,
      "▁berd": 7623,
      "▁Siy": 7624,
      "ubig": 7625,
      "▁James": 7626,
      "▁kape": 7627,
      "▁apoy": 7628,
      "▁lupa.": 7629,
      "▁fast": 7630,
      "ulaan": 7631,
      "▁pagluluto": 7632,
      "taff": 7633,
      "▁kaya't": 7634,
      "▁password": 7635,
      "▁subscr": 7636,
      "icip": 7637,
      "▁Kuya": 7638,
      "’re": 7639,
      "▁masasabi": 7640,
      "▁pagpapadala": 7641,
      "▁Windows": 7642,
      "fect": 7643,
      "▁clay": 7644,
      "▁katumbas": 7645,
      "▁develop": 7646,
      "atme": 7647,
      "▁kapansin-p": 7648,
      "▁second": 7649,
      "▁ho": 7650,
      "▁Minsan": 7651,
      "90": 7652,
      "ias": 7653,
      ".\nKahit": 7654,
      "▁nabab": 7655,
      "▁amo": 7656,
      "▁Natural": 7657,
      "▁pamagat": 7658,
      "▁hop": 7659,
      ".\nMaraming": 7660,
      "▁techn": 7661,
      "awalang": 7662,
      "▁sign": 7663,
      "▁lubhang": 7664,
      "▁Are": 7665,
      "amahagi": 7666,
      "angyaring": 7667,
      "▁katapusan": 7668,
      "ban": 7669,
      "ining": 7670,
      "▁Mr.": 7671,
      "osyonal": 7672,
      ")\n": 7673,
      "val": 7674,
      "▁pinab": 7675,
      "▁Anti-": 7676,
      "▁ngang": 7677,
      "enef": 7678,
      "ishing": 7679,
      "▁Mel": 7680,
      "▁Green": 7681,
      "eph": 7682,
      "taur": 7683,
      "▁karak": 7684,
      "▁paglalagay": 7685,
      "▁teknikal": 7686,
      "onavirus": 7687,
      "▁palang": 7688,
      "▁lider": 7689,
      "▁pababa": 7690,
      "▁Distr": 7691,
      "siyon": 7692,
      "▁pinakama": 7693,
      "i-kan": 7694,
      "▁responsable": 7695,
      "▁makakapag": 7696,
      "▁Botox": 7697,
      "▁pera,": 7698,
      "77": 7699,
      "▁lat": 7700,
      "▁window": 7701,
      "▁mode": 7702,
      "▁pag-access": 7703,
      "▁\"A": 7704,
      "▁brok": 7705,
      "ulo,": 7706,
      "▁ibalik": 7707,
      "▁konstruk": 7708,
      "tar": 7709,
      "▁ipat": 7710,
      "inde": 7711,
      "▁sulok": 7712,
      "▁itinatag": 7713,
      "ights": 7714,
      "▁bibigyan": 7715,
      "iba-iba": 7716,
      "alusugan": 7717,
      "unch": 7718,
      "▁Ni": 7719,
      "▁Tang": 7720,
      "▁abot": 7721,
      "▁Jr.": 7722,
      "ultura": 7723,
      "enz": 7724,
      "▁celebr": 7725,
      "▁Boy": 7726,
      "▁mask,": 7727,
      "▁iPhone": 7728,
      "▁blood": 7729,
      "▁Bureau": 7730,
      "▁serbisyong": 7731,
      "▁pisng": 7732,
      "isitahin": 7733,
      "ander": 7734,
      "▁share": 7735,
      "▁content": 7736,
      "▁virt": 7737,
      "▁husto": 7738,
      "ffee": 7739,
      "alagyan": 7740,
      "unsod": 7741,
      "▁utos": 7742,
      "▁parin": 7743,
      "▁Anong": 7744,
      "iyon,": 7745,
      "▁koleksyon": 7746,
      "▁sang": 7747,
      "▁bady": 7748,
      "▁Sus": 7749,
      "umenda": 7750,
      "▁tumigil": 7751,
      "▁kasint": 7752,
      "▁tumawag": 7753,
      "▁lamang,": 7754,
      "▁puwede": 7755,
      "lag": 7756,
      "▁ibinahagi": 7757,
      "▁area": 7758,
      "bahay": 7759,
      "estic": 7760,
      "▁bulate,": 7761,
      "▁parte": 7762,
      "ference": 7763,
      "▁sat": 7764,
      "apply": 7765,
      "▁word": 7766,
      "▁suportahan": 7767,
      "ott": 7768,
      "▁pagkakat": 7769,
      "▁edema": 7770,
      "▁kadal": 7771,
      "▁Kasi": 7772,
      "tol": 7773,
      "oth": 7774,
      "▁tela": 7775,
      "▁atbp.": 7776,
      "af": 7777,
      "ational": 7778,
      "emat": 7779,
      "▁alamin": 7780,
      "▁prinsipyo": 7781,
      "▁always": 7782,
      "▁namin,": 7783,
      "▁porsiy": 7784,
      "▁mister": 7785,
      "akailang": 7786,
      "▁\"S": 7787,
      "▁level": 7788,
      "obo": 7789,
      "aly": 7790,
      "▁kani-kan": 7791,
      "▁Lag": 7792,
      "▁Director": 7793,
      "▁banal": 7794,
      "▁pinakamahalagang": 7795,
      "▁carbohydrat": 7796,
      "▁kuting": 7797,
      "▁though": 7798,
      "▁research": 7799,
      "▁baboy": 7800,
      "▁I'": 7801,
      "trate": 7802,
      "▁walong": 7803,
      "ama’t": 7804,
      "▁halo": 7805,
      "▁AP": 7806,
      "▁mabagal": 7807,
      "▁mukha.": 7808,
      "ologist": 7809,
      "▁aktwal": 7810,
      "usayan": 7811,
      "▁nga,": 7812,
      "▁dy": 7813,
      "▁panlipunan": 7814,
      "▁makukuha": 7815,
      "lo.": 7816,
      "▁somet": 7817,
      "▁Banal": 7818,
      "▁Pebrero": 7819,
      "e-": 7820,
      "▁tans": 7821,
      "▁sensit": 7822,
      "nes": 7823,
      "-sama": 7824,
      "▁Amerika": 7825,
      "ering": 7826,
      "▁pagbisita": 7827,
      "ebisyon": 7828,
      "▁medical": 7829,
      "▁pader": 7830,
      "aliw": 7831,
      "▁isinasagawa": 7832,
      "orma": 7833,
      "-5": 7834,
      "-init": 7835,
      "▁bed": 7836,
      "▁Californ": 7837,
      "▁talah": 7838,
      "▁minam": 7839,
      "eso": 7840,
      "antimp": 7841,
      "▁pagkain.": 7842,
      "▁Diet": 7843,
      "▁Europa": 7844,
      "iona": 7845,
      "▁por": 7846,
      "▁Her": 7847,
      "▁(sa": 7848,
      "CR": 7849,
      "uta": 7850,
      "▁kasamahan": 7851,
      "▁yata": 7852,
      "error": 7853,
      "▁Makat": 7854,
      "ity,": 7855,
      "▁pakikipag-ugnayan": 7856,
      "▁rest": 7857,
      "▁mahina": 7858,
      "alino": 7859,
      "▁kalooban": 7860,
      "alahanin": 7861,
      "▁Je": 7862,
      "k,": 7863,
      "▁Nakat": 7864,
      "▁perform": 7865,
      "ailalim": 7866,
      "aduhin": 7867,
      "▁reklamo": 7868,
      "▁Social": 7869,
      "ihing": 7870,
      "ological": 7871,
      "urse": 7872,
      "epend": 7873,
      "▁Ber": 7874,
      "raz": 7875,
      "C)": 7876,
      "alakayin": 7877,
      "angkot": 7878,
      "yent": 7879,
      "-6": 7880,
      "▁pilit": 7881,
      "▁UP": 7882,
      "ournal": 7883,
      "▁cost": 7884,
      ".\nMak": 7885,
      "▁mawawala": 7886,
      "▁event": 7887,
      "ss": 7888,
      "▁Sir": 7889,
      "▁Gan": 7890,
      "gor": 7891,
      "oice": 7892,
      "worm": 7893,
      "▁bandang": 7894,
      "▁isipan": 7895,
      "▁isa’t": 7896,
      "▁nilalang": 7897,
      "▁kund": 7898,
      "▁Ste": 7899,
      "▁paningin": 7900,
      "▁banyo": 7901,
      "▁Subalit": 7902,
      "▁days": 7903,
      "um,": 7904,
      "▁kalaban": 7905,
      "pekto": 7906,
      "▁tatay": 7907,
      "▁Pamb": 7908,
      "amantala": 7909,
      "▁klima": 7910,
      "▁nagpapahintulot": 7911,
      "▁colle": 7912,
      "▁ilong": 7913,
      "▁Miy": 7914,
      "rehens": 7915,
      "▁Alem": 7916,
      "ji": 7917,
      "uparan": 7918,
      "▁susi": 7919,
      "adya": 7920,
      "dian": 7921,
      "▁pag-ikot": 7922,
      "▁espas": 7923,
      "UE": 7924,
      "abe": 7925,
      "▁magaling": 7926,
      "▁mainam": 7927,
      "▁(na": 7928,
      "igyan": 7929,
      "gar": 7930,
      "ukasan": 7931,
      "▁compl": 7932,
      "▁nananatiling": 7933,
      "▁WordPress": 7934,
      "wa,": 7935,
      "▁incl": 7936,
      "▁musika": 7937,
      "▁answ": 7938,
      "▁lupon": 7939,
      "▁tumit": 7940,
      "▁wastong": 7941,
      "▁Hin": 7942,
      "▁agham": 7943,
      "▁Comp": 7944,
      "▁karapat-dapat": 7945,
      "▁cent": 7946,
      "▁kahon": 7947,
      "▁kahanga-hangang": 7948,
      "▁naiiba": 7949,
      "▁Kag": 7950,
      "▁open": 7951,
      "abawal": 7952,
      "▁saloobin": 7953,
      "▁dinala": 7954,
      "▁Anak": 7955,
      "▁ever": 7956,
      "▁makatanggap": 7957,
      "▁hinahanap": 7958,
      "▁suw": 7959,
      "stit": 7960,
      "▁pagbabasa": 7961,
      "▁pananakit": 7962,
      "▁mg": 7963,
      "▁function": 7964,
      "▁paglaban": 7965,
      "angyarihang": 7966,
      "▁harapin": 7967,
      "inebenta": 7968,
      "▁marketing": 7969,
      "▁next": 7970,
      "arth": 7971,
      "▁Ukraine": 7972,
      "▁“N": 7973,
      "ffic": 7974,
      "▁before": 7975,
      "-sh": 7976,
      "▁timog": 7977,
      "usal": 7978,
      "▁own": 7979,
      "▁fitness": 7980,
      "▁gayundin": 7981,
      "age,": 7982,
      "▁basket": 7983,
      "▁Ginagamit": 7984,
      "▁don’t": 7985,
      "▁senador": 7986,
      "▁sa,": 7987,
      "itiz": 7988,
      "andom": 7989,
      "okes": 7990,
      "▁Home": 7991,
      "▁ال": 7992,
      "▁Pap": 7993,
      "iwalang": 7994,
      "▁tumayo": 7995,
      "▁editor": 7996,
      "▁ilipat": 7997,
      "▁King": 7998,
      "▁Associ": 7999,
      "▁prakt": 8000,
      "lash": 8001,
      "▁model": 8002,
      "C,": 8003,
      "lav": 8004,
      "▁matalin": 8005,
      "▁pangmatagalang": 8006,
      ".\nV": 8007,
      "▁nag-u": 8008,
      "▁pasilidad": 8009,
      "win": 8010,
      "▁Author": 8011,
      "idong": 8012,
      "▁Ra": 8013,
      "▁UN": 8014,
      "▁kapan": 8015,
      "▁dealer": 8016,
      "od,": 8017,
      "▁Ol": 8018,
      "▁dekada": 8019,
      "face": 8020,
      "▁kapasidad": 8021,
      "▁beach": 8022,
      "▁ipinanganak": 8023,
      "▁gag": 8024,
      "▁find": 8025,
      "action": 8026,
      "▁kanta": 8027,
      "▁Tapos": 8028,
      "▁kasunduan": 8029,
      "ector": 8030,
      "▁lumapit": 8031,
      "▁mant": 8032,
      "▁it’s": 8033,
      "▁kamag-anak": 8034,
      "ecutive": 8035,
      "▁Tha": 8036,
      "▁responsibilidad": 8037,
      "▁Loc": 8038,
      "▁Rel": 8039,
      "▁metabol": 8040,
      "▁mangangalakal": 8041,
      "▁Network": 8042,
      "▁Muslim": 8043,
      "▁pasahero": 8044,
      "▁umanong": 8045,
      "▁kontrata": 8046,
      "enjoy": 8047,
      "▁try": 8048,
      "▁kompl": 8049,
      "▁tungo": 8050,
      "▁prog": 8051,
      "aglaban": 8052,
      "cer": 8053,
      "▁(b": 8054,
      "alal": 8055,
      "▁CH": 8056,
      "▁Hapon": 8057,
      "araniwan": 8058,
      "char": 8059,
      "▁2015": 8060,
      "rel": 8061,
      "▁Hot": 8062,
      "▁protektahan": 8063,
      "▁cur": 8064,
      "▁Jess": 8065,
      "ead": 8066,
      "▁sumasak": 8067,
      "▁\"P": 8068,
      "▁Micha": 8069,
      "apatan": 8070,
      "▁budget": 8071,
      "A.": 8072,
      "OO": 8073,
      "▁tanggapan": 8074,
      "▁pagkilala": 8075,
      "▁roul": 8076,
      "\nWalang": 8077,
      "▁System": 8078,
      "\nJ": 8079,
      "atanda": 8080,
      "▁parmas": 8081,
      "▁labor": 8082,
      "...”": 8083,
      "▁ate": 8084,
      "▁makikip": 8085,
      "▁)": 8086,
      "▁nagaganap": 8087,
      "▁2023": 8088,
      "▁kawani": 8089,
      "ii": 8090,
      "▁rebol": 8091,
      "inay": 8092,
      "▁higa": 8093,
      "tom": 8094,
      "▁UK": 8095,
      "▁pangangalakal": 8096,
      "▁tinig": 8097,
      "▁buwan.": 8098,
      "ares": 8099,
      "▁matibay": 8100,
      "▁def": 8101,
      "▁Naging": 8102,
      "▁tumakbo": 8103,
      "▁pamilyar": 8104,
      "▁esk": 8105,
      "▁PR": 8106,
      "▁mura": 8107,
      "▁Hol": 8108,
      "▁pamamalagi": 8109,
      ".\nNag": 8110,
      "▁desk": 8111,
      "word": 8112,
      "▁win": 8113,
      "▁Cristo": 8114,
      "▁trip": 8115,
      "▁tanda": 8116,
      "▁karamdaman": 8117,
      "ohan": 8118,
      "-anyos": 8119,
      "▁misis": 8120,
      "▁nagkakaroon": 8121,
      "olohikal": 8122,
      "▁mabigat": 8123,
      "▁ibat": 8124,
      "ayuan": 8125,
      "ilyong": 8126,
      "taurant": 8127,
      "▁present": 8128,
      "▁pangungusap": 8129,
      "-8": 8130,
      "▁tanyag": 8131,
      "adu": 8132,
      "▁SM": 8133,
      "▁Tungkol": 8134,
      "▁mo?": 8135,
      "orial": 8136,
      "▁rekomendasyon": 8137,
      "▁lear": 8138,
      "▁North": 8139,
      "i-pan": 8140,
      "agsapal": 8141,
      "▁Russian": 8142,
      "intulutan": 8143,
      "itional": 8144,
      "▁internasyonal": 8145,
      "nel": 8146,
      "▁kala": 8147,
      "▁hiling": 8148,
      "▁Luc": 8149,
      "▁kaligay": 8150,
      "with": 8151,
      "▁sunog": 8152,
      "ulator": 8153,
      "▁45": 8154,
      "▁uli": 8155,
      "▁iba,": 8156,
      "▁casino,": 8157,
      "▁represent": 8158,
      "▁protocol": 8159,
      "▁iw": 8160,
      "▁teksto": 8161,
      "untahan": 8162,
      "▁advert": 8163,
      "▁band": 8164,
      "igure": 8165,
      "▁SS": 8166,
      "▁kalahating": 8167,
      "-D": 8168,
      "▁name": 8169,
      "▁paghihirap": 8170,
      "▁natuklasan": 8171,
      "▁pagsisimula": 8172,
      "▁pag-andar": 8173,
      "▁lupa,": 8174,
      "▁nalalaman": 8175,
      "okontrol": 8176,
      "▁gaming": 8177,
      "▁mabisang": 8178,
      "ienc": 8179,
      "▁kagamit": 8180,
      "▁spe": 8181,
      "▁karakter": 8182,
      "45": 8183,
      "oid": 8184,
      "ahimik": 8185,
      "asiwa": 8186,
      "▁PO": 8187,
      "▁cosmetic": 8188,
      "▁iwasan": 8189,
      "▁auto": 8190,
      "▁Mach": 8191,
      "▁panganganak": 8192,
      "ilinis": 8193,
      "▁sakit,": 8194,
      "utusan": 8195,
      "▁kagustuhan": 8196,
      "▁diyan": 8197,
      "▁does": 8198,
      "us.": 8199,
      "▁fram": 8200,
      ".\nMal": 8201,
      "▁never": 8202,
      "▁Of": 8203,
      "thing": 8204,
      "▁fans": 8205,
      "▁palad,": 8206,
      "▁tick": 8207,
      "▁being": 8208,
      "accarat": 8209,
      "cast": 8210,
      "arb": 8211,
      "▁paglalarawan": 8212,
      "▁pindutan": 8213,
      "▁magsuot": 8214,
      "▁luya": 8215,
      "▁Simb": 8216,
      "ic.": 8217,
      "▁Text": 8218,
      "over": 8219,
      "▁tanaw": 8220,
      "▁meet": 8221,
      "▁Pamp": 8222,
      "olina": 8223,
      "▁Tel": 8224,
      "▁eh.": 8225,
      "▁download": 8226,
      "▁lalaki,": 8227,
      "iram": 8228,
      "ehersisyo": 8229,
      "atmeal": 8230,
      "▁pow": 8231,
      "▁lola": 8232,
      "▁estilo": 8233,
      "▁analy": 8234,
      "self": 8235,
      "▁same": 8236,
      "▁bigas": 8237,
      "olf": 8238,
      "▁makakat": 8239,
      "▁Superhost": 8240,
      "▁presyo,": 8241,
      "▁imposible": 8242,
      "▁human": 8243,
      "▁supl": 8244,
      "ahati": 8245,
      "ublish": 8246,
      "▁weight": 8247,
      "▁lamb": 8248,
      "usahan": 8249,
      "▁libog": 8250,
      "▁porsiyento": 8251,
      "is-": 8252,
      "ilangan,": 8253,
      "▁pangkalahatan,": 8254,
      "iks": 8255,
      "▁games": 8256,
      "inatnan": 8257,
      "▁espirit": 8258,
      "▁virtual": 8259,
      "-O": 8260,
      "▁pananalapi": 8261,
      "▁First": 8262,
      "▁nakatanggap": 8263,
      "▁siyent": 8264,
      "▁magkakaibang": 8265,
      "lit": 8266,
      "▁Cont": 8267,
      "▁kaliwang": 8268,
      "▁balat.": 8269,
      "▁Paul": 8270,
      ":||": 8271,
      "la,": 8272,
      "itim": 8273,
      "▁Mc": 8274,
      "erbisyo": 8275,
      "▁hayaan": 8276,
      "▁ika": 8277,
      "\nUpang": 8278,
      "▁kapani-pan": 8279,
      "ilingkod": 8280,
      "▁isinasaalang-alang": 8281,
      "yin": 8282,
      "▁alituntunin": 8283,
      "iyahe": 8284,
      "▁Pers": 8285,
      "▁gutom": 8286,
      "▁cre": 8287,
      "▁babalik": 8288,
      "▁management": 8289,
      "iption": 8290,
      "▁lam": 8291,
      "▁upuan": 8292,
      "▁impormasyong": 8293,
      "iday": 8294,
      "▁isla": 8295,
      "▁pinaka-m": 8296,
      "▁kapaligir": 8297,
      "▁boyfriend": 8298,
      "abait": 8299,
      "reso": 8300,
      ".\nBakit": 8301,
      "isyunal": 8302,
      "cent": 8303,
      "▁hous": 8304,
      "egosyo": 8305,
      "▁“T": 8306,
      "▁Nakak": 8307,
      "▁pagpupulong": 8308,
      "ja": 8309,
      "▁gayunpaman,": 8310,
      "encryp": 8311,
      "▁kahilingan": 8312,
      "UP": 8313,
      "mote": 8314,
      "▁pharm": 8315,
      "ota": 8316,
      "▁Gre": 8317,
      "▁front": 8318,
      "▁pipili": 8319,
      "▁ST": 8320,
      "mitte": 8321,
      "mark": 8322,
      "umer": 8323,
      "▁Pok": 8324,
      "amahalaan": 8325,
      "▁https://": 8326,
      "▁telebisyon": 8327,
      "y:": 8328,
      "▁baterya": 8329,
      "▁direkta": 8330,
      "▁bintana": 8331,
      "▁Sand": 8332,
      "▁yog": 8333,
      "ago,": 8334,
      "aya.": 8335,
      "▁pandemya": 8336,
      "▁masusing": 8337,
      "▁track": 8338,
      "▁differ": 8339,
      "▁Food": 8340,
      "obrang": 8341,
      "▁sanaysay": 8342,
      "isiyahan": 8343,
      "▁TO": 8344,
      "▁26": 8345,
      "▁actor": 8346,
      "eld": 8347,
      "uhayan": 8348,
      ".\nKas": 8349,
      "HH": 8350,
      "\nPag": 8351,
      "▁signal": 8352,
      "▁iniwan": 8353,
      "▁datos": 8354,
      "olar": 8355,
      "\n20": 8356,
      "▁hig": 8357,
      "▁inilagay": 8358,
      "▁Indones": 8359,
      "igayang": 8360,
      "▁Cebu": 8361,
      "▁banta": 8362,
      "▁din.": 8363,
      "▁trav": 8364,
      "▁sinis": 8365,
      "▁perman": 8366,
      "▁kongkre": 8367,
      "\nDahil": 8368,
      "▁kahusayan": 8369,
      "▁Ins": 8370,
      "▁nagdadala": 8371,
      ".\nIs": 8372,
      "▁security": 8373,
      "anto": 8374,
      "rogen": 8375,
      "oman": 8376,
      "▁kabal": 8377,
      ".\nIt": 8378,
      "▁million": 8379,
      "▁sa’": 8380,
      "ayunman,": 8381,
      ".\nMula": 8382,
      "▁pangkaraniwang": 8383,
      "▁bola": 8384,
      "▁hita": 8385,
      "analo": 8386,
      "▁RE": 8387,
      "hank": 8388,
      "▁imah": 8389,
      "▁gumaganap": 8390,
      "▁hol": 8391,
      "igm": 8392,
      "ate.": 8393,
      "▁European": 8394,
      "iya-s": 8395,
      "▁No.": 8396,
      "▁natutunan": 8397,
      "\n\n": 8398,
      "▁Ob": 8399,
      "▁i-download": 8400,
      "▁tamb": 8401,
      "▁EU": 8402,
      "▁300": 8403,
      "▁I’m": 8404,
      "▁pagbabahagi": 8405,
      "▁West": 8406,
      "▁paglaki": 8407,
      "▁pasasalamat": 8408,
      "▁Sea": 8409,
      "▁kinatawan": 8410,
      "ikling": 8411,
      "▁Bay": 8412,
      "▁tuluyang": 8413,
      "▁sop": 8414,
      "alista": 8415,
      "▁yon": 8416,
      "▁What": 8417,
      "onsumo": 8418,
      "iyong": 8419,
      "▁isa,": 8420,
      "▁nakasulat": 8421,
      "ability": 8422,
      "▁(o": 8423,
      "▁Win": 8424,
      "chain": 8425,
      "▁yunit": 8426,
      "▁3,": 8427,
      "▁larawan,": 8428,
      "-di": 8429,
      "▁inv": 8430,
      ".\nNarito": 8431,
      "▁manager": 8432,
      "▁miss": 8433,
      "uhing": 8434,
      "▁quarantine": 8435,
      "26": 8436,
      "▁club": 8437,
      "IO": 8438,
      "▁dol": 8439,
      "time": 8440,
      "▁tumataas": 8441,
      ".\nKin": 8442,
      "▁Human": 8443,
      "▁“K": 8444,
      "▁Halos": 8445,
      "▁puntong": 8446,
      "▁Bank": 8447,
      "▁kagaya": 8448,
      "examp": 8449,
      "uncil": 8450,
      "▁mamatay": 8451,
      "▁malay": 8452,
      "▁Us": 8453,
      "▁...\n-": 8454,
      "▁line": 8455,
      "ether": 8456,
      "▁Book": 8457,
      "▁kop": 8458,
      "▁pagpatay": 8459,
      "ression": 8460,
      "akatuwid": 8461,
      "▁cancer": 8462,
      "▁kasamaang": 8463,
      "▁pare": 8464,
      "▁problemang": 8465,
      "▁lalake": 8466,
      "▁(h": 8467,
      "▁lalaki.": 8468,
      "abin": 8469,
      ".\nDagdag": 8470,
      "ro,": 8471,
      "▁Rad": 8472,
      "aga.": 8473,
      "▁lalabas": 8474,
      "▁assist": 8475,
      "▁krimen": 8476,
      "▁Hesus": 8477,
      "2)": 8478,
      "▁great": 8479,
      "▁(E": 8480,
      "iqu": 8481,
      "▁pagtulong": 8482,
      "▁karaniwan": 8483,
      "▁magdulot": 8484,
      "cel": 8485,
      "olution": 8486,
      "▁Patrol": 8487,
      "▁balanse": 8488,
      "▁stick": 8489,
      "▁tinukoy": 8490,
      "▁nakaupo": 8491,
      "ahaha": 8492,
      "MM": 8493,
      "aliz": 8494,
      "▁idinisenyo": 8495,
      "mar": 8496,
      "▁Arab": 8497,
      "▁naglalayong": 8498,
      "▁past": 8499,
      "▁finan": 8500,
      "ibigyang": 8501,
      "aras": 8502,
      ".\nTulad": 8503,
      "@examp": 8504,
      "▁video,": 8505,
      "▁condition": 8506,
      "amt": 8507,
      ".\n3": 8508,
      ".\n4.": 8509,
      "ies.": 8510,
      "▁mina": 8511,
      "▁bun": 8512,
      "▁planta": 8513,
      "▁cut": 8514,
      "▁Kay": 8515,
      "▁(O": 8516,
      "inger": 8517,
      "▁laptop": 8518,
      "▁psych": 8519,
      "otos": 8520,
      "▁Top": 8521,
      "▁Tao": 8522,
      "inago": 8523,
      "▁William": 8524,
      "▁mapat": 8525,
      "▁sunod": 8526,
      "▁libong": 8527,
      "▁cm": 8528,
      "▁Game": 8529,
      "▁diin": 8530,
      "ok,": 8531,
      "▁kilos": 8532,
      "▁Wikang": 8533,
      "▁sinubukan": 8534,
      "▁sinusubukan": 8535,
      "▁Gayundin,": 8536,
      "inip": 8537,
      "ungg": 8538,
      "▁David": 8539,
      "?!": 8540,
      "atawan": 8541,
      "▁Pangk": 8542,
      "▁Card": 8543,
      "▁(I": 8544,
      "head": 8545,
      "▁dress": 8546,
      "▁Mom": 8547,
      "araan,": 8548,
      "▁taglamig": 8549,
      "yak": 8550,
      "▁ngiti": 8551,
      "isa,": 8552,
      "oli": 8553,
      "▁domain": 8554,
      "abat": 8555,
      "▁contin": 8556,
      "▁mans": 8557,
      "▁Phil": 8558,
      "imento": 8559,
      "▁sumis": 8560,
      "▁where": 8561,
      "▁actress": 8562,
      "▁type": 8563,
      "ocus": 8564,
      "iger": 8565,
      "astik": 8566,
      "▁Lunes": 8567,
      "ulation": 8568,
      "▁makinis": 8569,
      "aliksik": 8570,
      "▁kono": 8571,
      "▁man,": 8572,
      "▁Cour": 8573,
      "uild": 8574,
      "▁inal": 8575,
      "▁shoot": 8576,
      "▁graph": 8577,
      "▁partido": 8578,
      "▁Nangangahulugan": 8579,
      "egal": 8580,
      "▁ugnayan": 8581,
      "▁parasito.": 8582,
      "▁ganoong": 8583,
      "▁benta": 8584,
      "▁Brgy.": 8585,
      "▁Garc": 8586,
      "isa.": 8587,
      "ulate": 8588,
      "▁siglo": 8589,
      "agon": 8590,
      "▁nakukuha": 8591,
      "▁Wr": 8592,
      "epresyo": 8593,
      "▁umuwi": 8594,
      "▁blackjack": 8595,
      "7,": 8596,
      "0.": 8597,
      "cy": 8598,
      "▁lu": 8599,
      "▁Ped": 8600,
      "▁malayang": 8601,
      "▁henerasyon": 8602,
      "▁Baka": 8603,
      "▁pamayanan": 8604,
      "▁nakatayo": 8605,
      "▁Direk": 8606,
      "▁Pay": 8607,
      "▁rin.": 8608,
      "ibusyon": 8609,
      "ulture": 8610,
      "yas": 8611,
      "▁tirahan": 8612,
      "▁binili": 8613,
      "▁emosyonal": 8614,
      "▁bagaman": 8615,
      "alarawan": 8616,
      "\nMask": 8617,
      "▁Islam": 8618,
      "▁season": 8619,
      "\nna": 8620,
      "▁reading": 8621,
      "▁since": 8622,
      ".\nWalang": 8623,
      "▁Mukha": 8624,
      "▁Lib": 8625,
      "▁pagpapakita": 8626,
      "▁comment": 8627,
      "▁nangg": 8628,
      "▁kasiya-s": 8629,
      "▁Elec": 8630,
      "▁buy": 8631,
      "key": 8632,
      "urong": 8633,
      "▁ito:": 8634,
      "▁Bo": 8635,
      "ihimok": 8636,
      "wede": 8637,
      "▁Mod": 8638,
      "uturing": 8639,
      "ag-usap": 8640,
      "▁trading": 8641,
      "▁may-akda": 8642,
      "▁money": 8643,
      "ally": 8644,
      "ungan,": 8645,
      "ements": 8646,
      "▁recip": 8647,
      "kaw": 8648,
      "▁palakas": 8649,
      "ada,": 8650,
      "▁ibibigay": 8651,
      "▁those": 8652,
      "▁Lalo": 8653,
      "ante,": 8654,
      ".\nMatapos": 8655,
      "▁tumaya": 8656,
      "▁buo": 8657,
      "▁disc": 8658,
      "-una": 8659,
      "eth": 8660,
      "▁\"Ang": 8661,
      "▁tsa": 8662,
      "ektong": 8663,
      "ikas": 8664,
      "▁Mer": 8665,
      "▁Ul": 8666,
      "▁napakahusay": 8667,
      "ihirapan": 8668,
      "▁kamay,": 8669,
      "▁Show": 8670,
      "▁negosyo,": 8671,
      "▁micro": 8672,
      "ipad": 8673,
      "inaliwanag": 8674,
      ".\n\"A": 8675,
      "\n(": 8676,
      "28": 8677,
      "say": 8678,
      "wel": 8679,
      "▁Att": 8680,
      "▁nakakap": 8681,
      "▁regulasyon": 8682,
      "▁gener": 8683,
      "▁kn": 8684,
      "▁nakakah": 8685,
      "▁pag-atake": 8686,
      ".”\n“": 8687,
      "▁Madalas": 8688,
      "▁negosyante": 8689,
      "▁nakakita": 8690,
      "▁pagsusulit": 8691,
      "▁talahanayan": 8692,
      "zh": 8693,
      "etic": 8694,
      "▁abs": 8695,
      "▁Daniel": 8696,
      "▁Cav": 8697,
      "▁pagbubukas": 8698,
      "▁nagpakita": 8699,
      "▁kapanganak": 8700,
      "▁Alamin": 8701,
      "▁2012": 8702,
      "▁domestic": 8703,
      "▁Good": 8704,
      "▁player": 8705,
      "yp": 8706,
      "▁maih": 8707,
      "▁pag-aalis": 8708,
      "▁panaginip,": 8709,
      "▁happy": 8710,
      "▁relihiyon": 8711,
      "▁III": 8712,
      "\nMas": 8713,
      "▁kuk": 8714,
      "▁manatiling": 8715,
      "▁Mata": 8716,
      "▁Pagp": 8717,
      "▁Nilalaman": 8718,
      "▁magas": 8719,
      "urance": 8720,
      "comm": 8721,
      "▁provider": 8722,
      "▁pintuan": 8723,
      "▁ahente": 8724,
      "▁sert": 8725,
      "igi": 8726,
      "▁yogurt": 8727,
      "or.": 8728,
      "▁natin.": 8729,
      "▁tiyakin": 8730,
      "▁idinagdag": 8731,
      "▁pahintulot": 8732,
      "print": 8733,
      "▁Sarah": 8734,
      "▁misyon": 8735,
      "▁Rock": 8736,
      "▁Canada": 8737,
      "▁transl": 8738,
      "▁bilyon": 8739,
      "eposito": 8740,
      "?\nN": 8741,
      "▁Div": 8742,
      "▁―": 8743,
      "▁pagproseso": 8744,
      "-time": 8745,
      "▁2:": 8746,
      "▁baga": 8747,
      "▁katagal": 8748,
      "▁bad": 8749,
      "▁luha": 8750,
      "ession": 8751,
      "ograp": 8752,
      "▁Miyerk": 8753,
      "ot.": 8754,
      "▁cellphone": 8755,
      "ubaybayan": 8756,
      "▁sumusuporta": 8757,
      "lear": 8758,
      "▁Love": 8759,
      "▁sakit.": 8760,
      "amam": 8761,
      "▁Can": 8762,
      "▁Cast": 8763,
      "▁cool": 8764,
      "▁Prot": 8765,
      "▁nakapagpap": 8766,
      "▁Kristiy": 8767,
      "▁nagw": 8768,
      "weet": 8769,
      "▁IG": 8770,
      "▁could": 8771,
      "▁kusina": 8772,
      "unidad": 8773,
      "▁Nakita": 8774,
      "▁Eth": 8775,
      "▁pagkaing": 8776,
      "▁eyel": 8777,
      "▁pagwawas": 8778,
      "▁coll": 8779,
      "▁Lo": 8780,
      "▁panel": 8781,
      "▁Santos": 8782,
      "▁squ": 8783,
      "▁arm": 8784,
      "▁background": 8785,
      "▁panukalang": 8786,
      "band": 8787,
      "▁Public": 8788,
      "▁ito’y": 8789,
      "▁pool": 8790,
      "inawakan": 8791,
      "▁director": 8792,
      "5%": 8793,
      "▁ibinab": 8794,
      "▁nagulat": 8795,
      "▁ganyan": 8796,
      "▁berdeng": 8797,
      "▁Island": 8798,
      "▁negosyo.": 8799,
      "ashion": 8800,
      "▁Power": 8801,
      "▁Wika": 8802,
      "iano": 8803,
      "▁bagyo": 8804,
      "ros": 8805,
      "▁praktikal": 8806,
      "▁Mabilis": 8807,
      "▁ask": 8808,
      "▁nagbago": 8809,
      "umi": 8810,
      "etnam": 8811,
      "▁information": 8812,
      "FA": 8813,
      "▁itat": 8814,
      "▁“Ang": 8815,
      "▁2013": 8816,
      "iyal": 8817,
      "▁kumpir": 8818,
      "▁ginanap": 8819,
      "▁bawasan": 8820,
      "▁Libreng": 8821,
      "-10": 8822,
      "▁Ngayon,": 8823,
      "▁thank": 8824,
      "oco": 8825,
      "▁esp": 8826,
      "abawasan": 8827,
      "▁kaluluwa": 8828,
      "▁pataas": 8829,
      "▁kahinaan": 8830,
      "n’t": 8831,
      "▁Tra": 8832,
      "▁ari-": 8833,
      "▁makipag-ugnayan": 8834,
      "▁isinulat": 8835,
      "uwid": 8836,
      "▁coronavirus": 8837,
      "▁Produk": 8838,
      "▁less": 8839,
      "▁design": 8840,
      "▁Nag-aalok": 8841,
      "▁flo": 8842,
      "▁dumad": 8843,
      "noy": 8844,
      "▁ma-access": 8845,
      "▁(H": 8846,
      "▁case": 8847,
      "▁tanungin": 8848,
      "eline": 8849,
      "▁gabi,": 8850,
      "▁balita.": 8851,
      "▁tanggalin": 8852,
      "-download": 8853,
      "▁pindutin": 8854,
      "zar": 8855,
      "▁staff": 8856,
      "▁Mig": 8857,
      "ainit": 8858,
      "▁build": 8859,
      "incial": 8860,
      "▁Ep": 8861,
      "▁paborito": 8862,
      "▁kani-kanilang": 8863,
      "zer": 8864,
      "▁durog": 8865,
      "▁Cat": 8866,
      "▁makarating": 8867,
      "▁katas": 8868,
      "▁pagbawas": 8869,
      "▁pray": 8870,
      "O,": 8871,
      "▁tinanong": 8872,
      "▁susp": 8873,
      "apagkat": 8874,
      "▁dinisenyo": 8875,
      "▁makipag-ugnay": 8876,
      "onment": 8877,
      "esery": 8878,
      "ili-w": 8879,
      "▁kaibigan,": 8880,
      "▁feeling": 8881,
      "▁kaisipan": 8882,
      "angguni": 8883,
      "▁remed": 8884,
      "los": 8885,
      "agu": 8886,
      "ialam": 8887,
      "acu": 8888,
      "\nBawal": 8889,
      "u-libong": 8890,
      "▁mes": 8891,
      "▁found": 8892,
      "▁mark": 8893,
      "pris": 8894,
      "▁Map": 8895,
      "▁Lungsod": 8896,
      "▁paper": 8897,
      "▁rock": 8898,
      "athala": 8899,
      "▁Allah": 8900,
      "▁kumpirm": 8901,
      "▁Str": 8902,
      "▁alinsunod": 8903,
      "▁pagtugon:": 8904,
      "▁pagkatao": 8905,
      "▁company": 8906,
      "▁tinatanggap": 8907,
      ".ph": 8908,
      "hain": 8909,
      "▁saya": 8910,
      "▁krisis": 8911,
      "isturi": 8912,
      "edyul": 8913,
      "UNG": 8914,
      "▁semento": 8915,
      "▁president": 8916,
      "▁pagtatasa": 8917,
      "▁mall": 8918,
      "merce": 8919,
      "▁nakam": 8920,
      "▁\"I": 8921,
      "▁That": 8922,
      "▁pansamantalang": 8923,
      "▁Bibliya": 8924,
      "▁juice": 8925,
      "http://": 8926,
      "▁crush": 8927,
      "▁matamis": 8928,
      "▁\"p": 8929,
      "unsyo": 8930,
      "▁kumak": 8931,
      "dom": 8932,
      "▁Ana": 8933,
      "ukay": 8934,
      "angka": 8935,
      "\npara": 8936,
      "▁plastik": 8937,
      "▁used": 8938,
      "▁nagbabago": 8939,
      "▁manana": 8940,
      "▁nagmam": 8941,
      "▁memb": 8942,
      "ality": 8943,
      "▁magsalita": 8944,
      "▁...\nAng": 8945,
      "▁problema.": 8946,
      "orasyon": 8947,
      "▁ipaalam": 8948,
      "\nt": 8949,
      "▁counter": 8950,
      "AAN": 8951,
      "▁kilo": 8952,
      "▁lisensya": 8953,
      "akin": 8954,
      "▁Laro": 8955,
      "▁Enter": 8956,
      "inaryong": 8957,
      "abayad": 8958,
      "▁kauna": 8959,
      "▁‘yun": 8960,
      "▁malawakang": 8961,
      "▁kulubot": 8962,
      "▁cryptocurrency": 8963,
      "WD": 8964,
      "abihan": 8965,
      "ista,": 8966,
      "▁wel": 8967,
      "▁nagpasya": 8968,
      "▁hour": 8969,
      "▁ear": 8970,
      "▁hangganan": 8971,
      "▁trapiko": 8972,
      "CH": 8973,
      "RT": 8974,
      "ises": 8975,
      "▁kamakailang": 8976,
      "▁PD": 8977,
      "▁exp": 8978,
      "klus": 8979,
      "esta": 8980,
      "▁Organ": 8981,
      "▁direktor": 8982,
      "?\nSa": 8983,
      "iksyon": 8984,
      "▁halik": 8985,
      "▁single": 8986,
      "▁birthday": 8987,
      "era,": 8988,
      "▁while": 8989,
      "▁mambabasa": 8990,
      "urch": 8991,
      ".\nPag": 8992,
      "▁Anton": 8993,
      "▁braso": 8994,
      "mittee": 8995,
      "▁manl": 8996,
      "▁doon.": 8997,
      "▁kolehiyo": 8998,
      "▁bayaran": 8999,
      "▁Da": 9000,
      "▁kaal": 9001,
      "▁vers": 9002,
      "▁produkto.": 9003,
      "▁limitado": 9004,
      "▁Def": 9005,
      ".\nWala": 9006,
      "▁poss": 9007,
      "▁emerg": 9008,
      "▁isinagawa": 9009,
      "▁Techn": 9010,
      "▁Huweb": 9011,
      "▁Eh": 9012,
      "▁pumapasok": 9013,
      "▁espiritu": 9014,
      "▁pang-a": 9015,
      "▁unti-unting": 9016,
      "tso": 9017,
      "▁pag-download": 9018,
      "▁suport": 9019,
      "▁Amazon": 9020,
      "▁update": 9021,
      "▁turn": 9022,
      "▁browser": 9023,
      "▁pagsasaayos": 9024,
      "is-nais": 9025,
      "TP": 9026,
      "▁mesa": 9027,
      "inin": 9028,
      "▁Ur": 9029,
      "▁kilalanin": 9030,
      "▁gumagalaw": 9031,
      "gement": 9032,
      "▁amb": 9033,
      "▁pagbabawas": 9034,
      "▁makabuo": 9035,
      "ulite": 9036,
      "▁(ang": 9037,
      "epektibong": 9038,
      "▁pagdaragdag": 9039,
      "▁Read": 9040,
      "▁fire": 9041,
      "▁Har": 9042,
      "\nMaaari": 9043,
      "▁emosyon": 9044,
      "▁tangh": 9045,
      "▁kategorya": 9046,
      "ungong": 9047,
      "▁oatmeal": 9048,
      "▁stay": 9049,
      "▁gobyern": 9050,
      "▁dest": 9051,
      "▁Tips": 9052,
      "▁pasok": 9053,
      "ugasan": 9054,
      "vironment": 9055,
      "▁kaarawan": 9056,
      "ambuhay": 9057,
      "▁Kh": 9058,
      "▁tren": 9059,
      "▁binibigyan": 9060,
      "▁jeep": 9061,
      "▁young": 9062,
      "▁nilag": 9063,
      "▁paghihiwalay": 9064,
      "itten": 9065,
      ".\nAl": 9066,
      "▁magpadala": 9067,
      "ingisda": 9068,
      "eta.": 9069,
      "ersyal": 9070,
      "insan,": 9071,
      "ariling": 9072,
      "▁ito.\nAng": 9073,
      "▁karbon": 9074,
      "ble": 9075,
      "▁6.": 9076,
      "ula,": 9077,
      "ihis": 9078,
      "ipag": 9079,
      "ive,": 9080,
      "▁months": 9081,
      "Date": 9082,
      "▁naunang": 9083,
      "isay": 9084,
      "▁Hel": 9085,
      "▁i-c": 9086,
      "abuso": 9087,
      ".\nSin": 9088,
      "erald": 9089,
      "▁(at": 9090,
      "▁Fer": 9091,
      "▁“p": 9092,
      "indigan": 9093,
      "!\nS": 9094,
      "awanan": 9095,
      "▁masa": 9096,
      "▁nagpapas": 9097,
      "\nAn": 9098,
      "▁kritikal": 9099,
      "▁Ne": 9100,
      "da.": 9101,
      "uming": 9102,
      "ella": 9103,
      "▁(G": 9104,
      "▁matulog": 9105,
      "▁Panahon": 9106,
      "▁magsisimula": 9107,
      "▁naririnig": 9108,
      "▁templ": 9109,
      "▁istilo": 9110,
      "▁random": 9111,
      "▁Om": 9112,
      "▁noon,": 9113,
      "older": 9114,
      "-on": 9115,
      "▁mau": 9116,
      "▁aparat": 9117,
      "▁tiket": 9118,
      "salita": 9119,
      "▁patatas": 9120,
      "▁spots": 9121,
      "1)": 9122,
      "iation": 9123,
      ".\nBag": 9124,
      "hern": 9125,
      "ils": 9126,
      "▁Management": 9127,
      "35": 9128,
      "▁alalahanin": 9129,
      "change": 9130,
      "▁papaano": 9131,
      "▁marka": 9132,
      "▁Heart": 9133,
      "ufact": 9134,
      "▁District": 9135,
      "▁Tiyak": 9136,
      "▁Unang": 9137,
      "rib": 9138,
      "▁sakop": 9139,
      "▁tumatanggap": 9140,
      "▁Richard": 9141,
      "▁Asya": 9142,
      "▁format": 9143,
      "▁halip,": 9144,
      "▁ros": 9145,
      "obile": 9146,
      "oph": 9147,
      "▁Cent": 9148,
      "▁iba''t": 9149,
      "▁libr": 9150,
      "▁Nagt": 9151,
      "▁Get": 9152,
      "▁palay": 9153,
      "▁hist": 9154,
      "▁taglay": 9155,
      "▁3:": 9156,
      "\nBilang": 9157,
      "▁pinaka-k": 9158,
      "LO": 9159,
      "▁kami.": 9160,
      "▁litrat": 9161,
      "▁give": 9162,
      "iwan,": 9163,
      "essional": 9164,
      "▁napatunayan": 9165,
      "▁disease": 9166,
      "▁talumpati": 9167,
      "▁maghintay": 9168,
      "▁Christmas": 9169,
      "▁sugar": 9170,
      "alde": 9171,
      "▁damo": 9172,
      "▁‘yan": 9173,
      "▁yum": 9174,
      "▁de-k": 9175,
      "ION": 9176,
      "ended": 9177,
      "▁\"m": 9178,
      "▁sport": 9179,
      "\nTulad": 9180,
      "▁imin": 9181,
      "▁tiyan,": 9182,
      "agsapalaran": 9183,
      "vin": 9184,
      "itna": 9185,
      "▁tits": 9186,
      "▁drive": 9187,
      "▁magpapadala": 9188,
      "▁nagmumula": 9189,
      "leep": 9190,
      "▁Tip": 9191,
      "▁Inil": 9192,
      "▁Ate": 9193,
      "▁magsis": 9194,
      "▁tinanggap": 9195,
      "name": 9196,
      "▁binat": 9197,
      ".\nKasama": 9198,
      "▁State": 9199,
      "ihinto": 9200,
      "▁sweet": 9201,
      "▁pisngi": 9202,
      "▁final": 9203,
      "opy": 9204,
      "▁allow": 9205,
      "ipsip": 9206,
      "▁mamah": 9207,
      "▁hep": 9208,
      "irman": 9209,
      "▁restaurant": 9210,
      "▁likido": 9211,
      "▁partner": 9212,
      "▁magkat": 9213,
      "C.": 9214,
      "▁pagka-": 9215,
      "▁pagkakaiba-iba": 9216,
      "▁(F": 9217,
      "▁marunong": 9218,
      "▁pulong": 9219,
      "ibilang": 9220,
      "▁patungkol": 9221,
      "▁panitikan": 9222,
      "▁amin.": 9223,
      "▁office": 9224,
      "▁something": 9225,
      "▁kanl": 9226,
      ".\n“P": 9227,
      "▁caps": 9228,
      "▁experience": 9229,
      "▁panoorin": 9230,
      "▁sinimulan": 9231,
      "▁nagsasabing": 9232,
      "ektr": 9233,
      "drol": 9234,
      "unication": 9235,
      "▁Batas": 9236,
      "▁erop": 9237,
      "▁katao": 9238,
      "▁inihayag": 9239,
      "▁Bang": 9240,
      "▁29": 9241,
      "▁ipasok": 9242,
      "▁kitang": 9243,
      "▁nut": 9244,
      "grade": 9245,
      "▁phys": 9246,
      "aron": 9247,
      "uwede": 9248,
      "▁Nagpap": 9249,
      "▁Siguro": 9250,
      "eme": 9251,
      "▁Jack": 9252,
      "▁lov": 9253,
      "▁dugo,": 9254,
      "▁po.": 9255,
      "▁baso": 9256,
      "▁Bata": 9257,
      "▁operator": 9258,
      "AA": 9259,
      "▁Davao": 9260,
      ".\nIb": 9261,
      "▁carbohydrates": 9262,
      "▁makapal": 9263,
      "▁exercise": 9264,
      "▁kurs": 9265,
      "hih": 9266,
      "orie": 9267,
      "▁MO": 9268,
      "▁pagsasal": 9269,
      "akop": 9270,
      "▁kasalukuyan,": 9271,
      "▁klasikong": 9272,
      "\nPag-check": 9273,
      "apital": 9274,
      "▁inilalagay": 9275,
      "resyon": 9276,
      ".\n“W": 9277,
      "▁jackpot": 9278,
      "▁main": 9279,
      "▁wika.": 9280,
      "▁kawili-w": 9281,
      "wiran": 9282,
      "alleng": 9283,
      "iham": 9284,
      "▁pagtanggal": 9285,
      "▁contr": 9286,
      "anti": 9287,
      "▁pagpapahalaga": 9288,
      "▁apektado": 9289,
      "▁Marahil": 9290,
      "▁Administr": 9291,
      "▁German": 9292,
      "▁siyam": 9293,
      "▁episode": 9294,
      "8,": 9295,
      "o-host": 9296,
      "ivate": 9297,
      "▁pumasa": 9298,
      "▁Prof": 9299,
      "▁pangg": 9300,
      "UG": 9301,
      "igger": 9302,
      ".\nLum": 9303,
      "▁Sigur": 9304,
      "▁diabetes": 9305,
      "▁espasyo": 9306,
      "erve": 9307,
      "▁Ann": 9308,
      "Ed": 9309,
      "ungat": 9310,
      "ners": 9311,
      "▁gantimp": 9312,
      "▁Tor": 9313,
      "abasan": 9314,
      "iglang": 9315,
      "▁adult": 9316,
      "):": 9317,
      "?\nP": 9318,
      "▁ped": 9319,
      "▁ginag": 9320,
      "▁hair": 9321,
      "-9": 9322,
      "▁Cons": 9323,
      "▁thread": 9324,
      "▁kabataang": 9325,
      "▁therapy": 9326,
      "▁gagawa": 9327,
      "▁traff": 9328,
      "▁kumplikadong": 9329,
      "oble": 9330,
      "▁“m": 9331,
      "27": 9332,
      "inic": 9333,
      "▁Kras": 9334,
      "▁Girl": 9335,
      "▁stop": 9336,
      "umikap": 9337,
      "inary": 9338,
      "▁MAG": 9339,
      "i-m": 9340,
      "▁March": 9341,
      ".\n“T": 9342,
      "▁award": 9343,
      "▁kandidato": 9344,
      "▁matalinong": 9345,
      "unyag": 9346,
      "antala": 9347,
      "▁mapan": 9348,
      ".\nPang": 9349,
      "▁pros": 9350,
      "▁kapakanan": 9351,
      "TM": 9352,
      "▁bubel": 9353,
      "▁yun.": 9354,
      "▁cer": 9355,
      "ires": 9356,
      "▁lumilikha": 9357,
      "▁kalimutan": 9358,
      "PR": 9359,
      "lap": 9360,
      "arl": 9361,
      "▁Industr": 9362,
      "▁usapin": 9363,
      "▁job": 9364,
      "▁magtat": 9365,
      "-a": 9366,
      "rest": 9367,
      "▁“H": 9368,
      "rika": 9369,
      "iser": 9370,
      "▁nagpat": 9371,
      "▁Gumawa": 9372,
      "largement": 9373,
      "ulf": 9374,
      "▁Instit": 9375,
      "▁kabaligt": 9376,
      "▁Bi": 9377,
      "▁Hall": 9378,
      "▁nakakaranas": 9379,
      "▁Sabado": 9380,
      "▁Out": 9381,
      "▁butil": 9382,
      "s:": 9383,
      "▁halalan": 9384,
      "▁Senador": 9385,
      "▁pagnanais": 9386,
      "tery": 9387,
      "▁Jun": 9388,
      "▁nasusunog": 9389,
      "▁AL": 9390,
      "▁Hil": 9391,
      "▁kasapi": 9392,
      "hehe": 9393,
      "▁pamilyang": 9394,
      "▁kontra": 9395,
      "▁suc": 9396,
      "isc": 9397,
      "▁during": 9398,
      "▁hindi.": 9399,
      "▁international": 9400,
      "▁bumagsak": 9401,
      "▁remedyong": 9402,
      "ago.": 9403,
      "iki": 9404,
      "▁Bon": 9405,
      "▁2014": 9406,
      "yayaring": 9407,
      "▁subukang": 9408,
      "▁Sept": 9409,
      "▁Dagdag": 9410,
      "▁action": 9411,
      "▁bote": 9412,
      "▁benef": 9413,
      "▁Bud": 9414,
      "▁Kinak": 9415,
      "▁pagpapalaki.": 9416,
      "▁iisang": 9417,
      "▁telepon": 9418,
      "VPN": 9419,
      "ped": 9420,
      "▁Lin": 9421,
      "▁Fre": 9422,
      "▁operation": 9423,
      "▁football": 9424,
      ".\nTum": 9425,
      "▁iba’t-ibang": 9426,
      "iness": 9427,
      "▁197": 9428,
      "gado": 9429,
      "▁Kah": 9430,
      "▁Dat": 9431,
      "▁karun": 9432,
      "▁plac": 9433,
      "udyo": 9434,
      "▁casino.": 9435,
      "angyarihan": 9436,
      "▁humahantong": 9437,
      "At": 9438,
      "▁paw": 9439,
      "▁manonood": 9440,
      "impleng": 9441,
      "impluw": 9442,
      "\nng": 9443,
      "ian,": 9444,
      "▁eksklus": 9445,
      "usyong": 9446,
      "▁Pagd": 9447,
      "▁kanais-nais": 9448,
      "withdraw": 9449,
      "-T": 9450,
      "▁alaga": 9451,
      "▁veg": 9452,
      "▁why": 9453,
      "▁itinakda": 9454,
      "▁Nagp": 9455,
      "▁Pasko": 9456,
      "▁survey": 9457,
      "▁gaganap": 9458,
      "urfac": 9459,
      "▁Cla": 9460,
      "▁pananag": 9461,
      "serb": 9462,
      "aramihan": 9463,
      "▁kinikilala": 9464,
      "▁magdala": 9465,
      "awit": 9466,
      "▁unibersidad": 9467,
      "atagan": 9468,
      "▁Magandang": 9469,
      "▁pagtatrabaho": 9470,
      "▁pakikipag-usap": 9471,
      "inung": 9472,
      "ismo,": 9473,
      "▁nananatili": 9474,
      "▁singil": 9475,
      "▁maaasahang": 9476,
      "ench": 9477,
      "ili,": 9478,
      "INDI": 9479,
      "▁suliranin": 9480,
      "agis": 9481,
      "▁puso,": 9482,
      "▁pinakasikat": 9483,
      "ihi": 9484,
      "▁Jeh": 9485,
      "stos": 9486,
      ".\nSabi": 9487,
      "ambo": 9488,
      "▁enjoy": 9489,
      "▁Sen": 9490,
      "▁idagdag": 9491,
      "▁Plus": 9492,
      "▁ordinaryong": 9493,
      "▁digmaan": 9494,
      "itungo": 9495,
      "▁gayon,": 9496,
      "▁diskart": 9497,
      "▁seryosong": 9498,
      "▁kalakal": 9499,
      "▁Pinakamahusay": 9500,
      "▁natatakot": 9501,
      "▁kalaunan": 9502,
      "▁DOH": 9503,
      "inarya": 9504,
      "▁Beauty": 9505,
      "rad": 9506,
      "▁Bill": 9507,
      "irit": 9508,
      "▁kumalat": 9509,
[...]
