{
  "version": "1.0",
  "truncation": null,
  "padding": null,
  "added_tokens": [
    {
      "id": 0,
      "content": "<unk>",
      "single_word": false,
      "lstrip": false,
      "rstrip": false,
      "normalized": false,
      "special": true
    },
    {
      "id": 1,
      "content": "<s>",
      "single_word": false,
      "lstrip": false,
      "rstrip": false,
      "normalized": false,
      "special": true
    },
    {
      "id": 2,
      "content": "</s>",
      "single_word": false,
      "lstrip": false,
      "rstrip": false,
      "normalized": false,
      "special": true
    }
  ],
  "normalizer": {
    "type": "Sequence",
    "normalizers": [
      {
        "type": "Nmt"
      },
      {
        "type": "NFKC"
      },
      {
        "type": "Replace",
        "pattern": {
          "Regex": " {2,}"
        },
        "content": " "
      }
    ]
  },
  "pre_tokenizer": {
    "type": "Metaspace",
    "replacement": "▁",
    "prepend_scheme": "always",
    "split": true
  },
  "post_processor": null,
  "decoder": {
    "type": "Metaspace",
    "replacement": "▁",
    "prepend_scheme": "always",
    "split": true
  },
  "model": {
    "type": "Unigram",
    "unk_id": 0,
    "vocab": [
      [
        "<unk>",
        0.0
      ],
      [
        "<s>",
        0.0
      ],
      [
        "</s>",
        0.0
      ],
      [
        "▁sa",
        -3.1391822670095486
      ],
      [
        "▁ng",
        -3.196556370384606
      ],
      [
        "▁na",
        -3.3422271716815857
      ],
      [
        "▁ang",
        -3.571500358241545
      ],
      [
        ".",
        -3.666247409756723
      ],
      [
        "▁",
        -3.707590401193574
      ],
      [
        ",",
        -3.7933483713970055
      ],
      [
        "▁mga",
        -3.829368104991433
      ],
      [
        "▁at",
        -4.232344433428258
      ],
      [
        "▁ay",
        -4.274683762904351
      ],
      [
        "s",
        -4.495146342149692
      ],
      [
        "a",
        -4.546455051996764
      ],
      [
        "o",
        -4.860793566383922
      ],
      [
        "g",
        -4.860829422062054
      ],
      [
        "ng",
        -4.935687960420774
      ],
      [
        "▁isang",
        -4.946616817689588
      ],
      [
        "▁para",
        -5.270791972747338
      ],
      [
        "n",
        -5.280986997549327
      ],
      [
        "▁Ang",
        -5.294682745765906
      ],
      [
        "t",
        -5.486690777468761
      ],
      [
        "▁ito",
        -5.501245378227598
      ],
      [
        "▁kung",
        -5.5040993974454935
      ],
      [
        "▁hindi",
        -5.5688071411296605
      ],
      [
        "▁pa",
        -5.574164435692795
      ],
      [
        "-",
        -5.607191968148388
      ],
      [
        "y",
        -5.658227771176822
      ],
      [
        "▁may",
        -5.690322639965471
      ],
      [
        "i",
        -5.730341129139852
      ],
      [
        "▁ni",
        -5.778738554072962
      ],
      [
        "▁upang",
        -5.829885092225396
      ],
      [
        "▁-",
        -5.845123771607454
      ],
      [
        "▁ka",
        -5.870217968254005
      ],
      [
        "▁ko",
        -5.909548618781258
      ],
      [
        "e",
        -5.978820816027145
      ],
      [
        ":",
        -5.992680413482132
      ],
      [
        "▁si",
        -6.060634380897486
      ],
      [
        "in",
        -6.062618746955277
      ],
      [
        "▁Sa",
        -6.069564095580338
      ],
      [
        "▁mo",
        -6.128549626371626
      ],
      [
        "▁iyong",
        -6.1318921007688285
      ],
      [
        "▁ma",
        -6.132674249646195
      ],
      [
        "d",
        -6.157864897120929
      ],
      [
        "▁mula",
        -6.283908219291712
      ],
      [
        "m",
        -6.302707327576034
      ],
      [
        "ing",
        -6.334042826059161
      ],
      [
        "k",
        -6.350501232138852
      ],
      [
        "▁pag",
        -6.367875337520342
      ],
      [
        "▁mas",
        -6.412557830712977
      ],
      [
        "?",
        -6.420415239322157
      ],
      [
        "▁kanyang",
        -6.461642501816458
      ],
      [
        "▁the",
        -6.4960138177259275
      ],
      [
        "▁ako",
        -6.518983492917444
      ],
      [
        "▁nang",
        -6.5200126338430735
      ],
      [
        ")",
        -6.540597515729212
      ],
      [
        "▁dahil",
        -6.550280992106407
      ],
      [
        "▁niya",
        -6.593247316580072
      ],
      [
        "▁kanilang",
        -6.5960473413873935
      ],
      [
        "na",
        -6.598846540148973
      ],
      [
        "▁siya",
        -6.613997517947681
      ],
      [
        "u",
        -6.623330696485759
      ],
      [
        "▁rin",
        -6.63516387069264
      ],
      [
        "▁in",
        -6.635384582675954
      ],
      [
        "▁naman",
        -6.635794984964729
      ],
      [
        "▁pang",
        -6.65306672952898
      ],
      [
        "▁lang",
        -6.659426630573671
      ],
      [
        "▁lahat",
        -6.660707760496409
      ],
      [
        "▁to",
        -6.664362098201854
      ],
      [
        "▁of",
        -6.673186404968973
      ],
      [
        "▁I",
        -6.687198591414683
      ],
      [
        "on",
        -6.688968400699759
      ],
      [
        "▁mag",
        -6.712956586770263
      ],
      [
        "▁maaaring",
        -6.720412152307905
      ],
      [
        "sa",
        -6.722901607589572
      ],
      [
        "▁and",
        -6.726587029486101
      ],
      [
        "p",
        -6.727981016832835
      ],
      [
        "▁din",
        -6.734356684099602
      ],
      [
        "▁paano",
        -6.757356602955081
      ],
      [
        "ang",
        -6.764103944707125
      ],
      [
        "l",
        -6.777151803071465
      ],
      [
        "al",
        -6.786105688462133
      ],
      [
        "!",
        -6.790244643256367
      ],
      [
        "▁tao",
        -6.836472813630801
      ],
      [
        "ed",
        -6.8448946511329805
      ],
      [
        "▁A",
        -6.868183573288546
      ],
      [
        "▁Kung",
        -6.879877398718207
      ],
      [
        "▁lamang",
        -6.887596532616518
      ],
      [
        "▁timbang",
        -6.903968396157973
      ],
      [
        "▁ba",
        -6.9116037939305865
      ],
      [
        "▁walang",
        -6.9254760135676925
      ],
      [
        "▁dibdib",
        -6.933191559412501
      ],
      [
        "▁bilang",
        -6.940028069963857
      ],
      [
        "▁(",
        -6.961566184602555
      ],
      [
        "▁po",
        -6.9681509708963905
      ],
      [
        "r",
        -6.974049805694229
      ],
      [
        "er",
        -6.9985402898217455
      ],
      [
        "▁Mga",
        -7.000319976952261
      ],
      [
        "▁iba",
        -7.013061987656194
      ],
      [
        "▁mong",
        -7.028545574690334
      ],
      [
        "▁sila",
        -7.029349097245721
      ],
      [
        "▁nito",
        -7.033104087653205
      ],
      [
        "▁isa",
        -7.033521005672798
      ],
      [
        "▁Na",
        -7.045901131911883
      ],
      [
        "▁Ma",
        -7.065032837888944
      ],
      [
        "▁S",
        -7.070879389084855
      ],
      [
        "▁pamamagitan",
        -7.076996460874424
      ],
      [
        "▁nila",
        -7.136666226063115
      ],
      [
        "ma",
        -7.140148416446566
      ],
      [
        "▁tungkol",
        -7.1481415990841555
      ],
      [
        "▁ilang",
        -7.157890492517634
      ],
      [
        "▁Hindi",
        -7.167525417699103
      ],
      [
        "▁P",
        -7.1795915898410545
      ],
      [
        "ra",
        -7.179806467654798
      ],
      [
        "la",
        -7.184132515869452
      ],
      [
        "▁mask",
        -7.1989930851664035
      ],
      [
        "▁mata",
        -7.1997983792651254
      ],
      [
        "▁ibang",
        -7.202682024419879
      ],
      [
        "▁saan",
        -7.203757039339681
      ],
      [
        "▁dapat",
        -7.2095763825426005
      ],
      [
        "ka",
        -7.2144130684336005
      ],
      [
        "▁ano",
        -7.224393417980888
      ],
      [
        "c",
        -7.233592041186034
      ],
      [
        "b",
        -7.234929520420595
      ],
      [
        "▁maaari",
        -7.238920881588372
      ],
      [
        "to",
        -7.242195097379716
      ],
      [
        "re",
        -7.266673108815725
      ],
      [
        "h",
        -7.278817311217944
      ],
      [
        "▁ngunit",
        -7.2812343116862035
      ],
      [
        "▁Ito",
        -7.283625061364516
      ],
      [
        "▁kaya",
        -7.295092852841433
      ],
      [
        "▁naka",
        -7.299893558630847
      ],
      [
        "▁maging",
        -7.3014813308079205
      ],
      [
        "▁maraming",
        -7.304647660447397
      ],
      [
        "at",
        -7.305226849078254
      ],
      [
        "▁kay",
        -7.307061858483751
      ],
      [
        "▁tulad",
        -7.30751830165835
      ],
      [
        "han",
        -7.349799897080178
      ],
      [
        "li",
        -7.35456822107038
      ],
      [
        "f",
        -7.3888586075266645
      ],
      [
        "▁di",
        -7.389974744830871
      ],
      [
        "▁noong",
        -7.407767633921283
      ],
      [
        ";",
        -7.410942966305752
      ],
      [
        "▁is",
        -7.415174645344958
      ],
      [
        "or",
        -7.420887401093491
      ],
      [
        "▁worm",
        -7.421871802748965
      ],
      [
        "▁namin",
        -7.432375822024401
      ],
      [
        "pa",
        -7.440000801212134
      ],
      [
        "▁aking",
        -7.444651714440692
      ],
      [
        "▁pagkatapos",
        -7.444652673892815
      ],
      [
        "▁B",
        -7.448249814844326
      ],
      [
        "le",
        -7.449761770205292
      ],
      [
        "▁hanggang",
        -7.453292004423014
      ],
      [
        "▁C",
        -7.4658039134721115
      ],
      [
        "▁kapag",
        -7.488911707945283
      ],
      [
        "▁E",
        -7.489253638366392
      ],
      [
        "▁bawat",
        -7.489389905953127
      ],
      [
        "▁aming",
        -7.495123755203828
      ],
      [
        "▁maliit",
        -7.503612897384096
      ],
      [
        "▁At",
        -7.513400602139349
      ],
      [
        "▁natin",
        -7.513673699519133
      ],
      [
        "”",
        -7.516971389409871
      ],
      [
        "▁for",
        -7.520077000439425
      ],
      [
        "ly",
        -7.528717209874484
      ],
      [
        "▁ilalim",
        -7.531697695538869
      ],
      [
        "▁nasa",
        -7.531918226566855
      ],
      [
        "lo",
        -7.538919708470589
      ],
      [
        "▁araw",
        -7.539923986278765
      ],
      [
        "▁pagbaba",
        -7.544381220677167
      ],
      [
        "▁kang",
        -7.5649360059772
      ],
      [
        "▁“",
        -7.578774056288912
      ],
      [
        "▁kami",
        -7.579564374124141
      ],
      [
        "▁kahit",
        -7.582319912552803
      ],
      [
        "▁1",
        -7.584558723516382
      ],
      [
        "▁Ka",
        -7.589699382688986
      ],
      [
        "ay",
        -7.59226401134751
      ],
      [
        "▁habang",
        -7.596103187849964
      ],
      [
        "ri",
        -7.598906918747378
      ],
      [
        "▁loob",
        -7.6000914528526895
      ],
      [
        "ro",
        -7.6003451227641055
      ],
      [
        "▁mukha",
        -7.600760461759892
      ],
      [
        "▁suso",
        -7.614252211814145
      ],
      [
        "▁bagay",
        -7.61529013097325
      ],
      [
        "▁kailangan",
        -7.620275157213236
      ],
      [
        "▁oras",
        -7.625048390684125
      ],
      [
        "...",
        -7.626536466278241
      ],
      [
        "▁ating",
        -7.6347692078841085
      ],
      [
        "▁\"",
        -7.6417405152113815
      ],
      [
        "▁Pa",
        -7.64561267034475
      ],
      [
        "▁you",
        -7.647247303728461
      ],
      [
        "▁ngayon",
        -7.6500468853766925
      ],
      [
        "\"",
        -7.6515210082243446
      ],
      [
        "▁taong",
        -7.6523821465120285
      ],
      [
        "▁Pag",
        -7.655859780272332
      ],
      [
        "▁paraan",
        -7.656663695360852
      ],
      [
        "▁buhay",
        -7.662589814432092
      ],
      [
        "▁wala",
        -7.662787041435811
      ],
      [
        "▁pag-",
        -7.676584348851533
      ],
      [
        "▁bata",
        -7.676909668369737
      ],
      [
        "▁itong",
        -7.6776937584660665
      ],
      [
        "▁T",
        -7.678088388609034
      ],
      [
        "w",
        -7.697261745939601
      ],
      [
        "▁uri",
        -7.701349210481617
      ],
      [
        "▁G",
        -7.702117817049874
      ],
      [
        "is",
        -7.7041501441561415
      ],
      [
        "es",
        -7.710457139199569
      ],
      [
        "▁bagong",
        -7.716338195076968
      ],
      [
        "▁de",
        -7.718857609787486
      ],
      [
        "▁buong",
        -7.7199540255279935
      ],
      [
        "▁panahon",
        -7.72064027569499
      ],
      [
        "▁pina",
        -7.7217002383945434
      ],
      [
        "x",
        -7.724243083917008
      ],
      [
        "▁higit",
        -7.732016550975738
      ],
      [
        "▁bago",
        -7.732347186409671
      ],
      [
        "te",
        -7.7405270207556285
      ],
      [
        "▁Si",
        -7.740625263945267
      ],
      [
        "▁re",
        -7.747550756433016
      ],
      [
        "▁man",
        -7.749831093269128
      ],
      [
        "th",
        -7.751453492913541
      ],
      [
        "▁kong",
        -7.764970811856129
      ],
      [
        "/",
        -7.766285373801853
      ],
      [
        "▁bahagi",
        -7.770812792948641
      ],
      [
        "▁O",
        -7.771778706258333
      ],
      [
        "▁kasama",
        -7.772512077279844
      ],
      [
        "me",
        -7.776564865183246
      ],
      [
        "si",
        -7.777767071364504
      ],
      [
        "it",
        -7.779921609688769
      ],
      [
        "de",
        -7.780948384083825
      ],
      [
        "▁anumang",
        -7.7829615679541195
      ],
      [
        "▁dito",
        -7.784334468558232
      ],
      [
        "ko",
        -7.785814496560629
      ],
      [
        "▁pero",
        -7.790667846274195
      ],
      [
        "man",
        -7.791860380872706
      ],
      [
        "wa",
        -7.79978333022226
      ],
      [
        "▁M",
        -7.800595318389785
      ],
      [
        "▁–",
        -7.8042424552033545
      ],
      [
        "P",
        -7.806389576652757
      ],
      [
        "▁ito.",
        -7.806422994784549
      ],
      [
        "▁2",
        -7.80831131766336
      ],
      [
        "se",
        -7.819460529637864
      ],
      [
        "▁dalawang",
        -7.822980858666575
      ],
      [
        "▁iyo",
        -7.825523572078781
      ],
      [
        "▁maka",
        -7.828746460317655
      ],
      [
        "B",
        -7.831014116815378
      ],
      [
        "▁yung",
        -7.833639985216378
      ],
      [
        "▁lugar",
        -7.834325300501646
      ],
      [
        "▁K",
        -7.837830433216773
      ],
      [
        "▁mahusay",
        -7.84790437559594
      ],
      [
        "di",
        -7.850912316572497
      ],
      [
        "▁F",
        -7.851604914091514
      ],
      [
        "▁online",
        -7.853522104807354
      ],
      [
        "hin",
        -7.855724782453953
      ],
      [
        "ha",
        -7.855996510106742
      ],
      [
        "▁mag-",
        -7.8620944467137885
      ],
      [
        "ni",
        -7.869429829507441
      ],
      [
        "▁niyang",
        -7.871489003548614
      ],
      [
        "S",
        -7.872335442685397
      ],
      [
        "▁unang",
        -7.873468361024097
      ],
      [
        "▁taon",
        -7.874843809875214
      ],
      [
        "▁D",
        -7.878922965805536
      ],
      [
        "▁gawin",
        -7.881605253686139
      ],
      [
        "▁katawan",
        -7.882412476233062
      ],
      [
        "▁parasito",
        -7.895048794549226
      ],
      [
        "bu",
        -7.897107104015161
      ],
      [
        "▁gusto",
        -7.897242417475303
      ],
      [
        "mo",
        -7.905435374609347
      ],
      [
        "▁kasi",
        -7.9071872515670325
      ],
      [
        "▁3",
        -7.909438642297525
      ],
      [
        "▁naging",
        -7.910559414990853
      ],
      [
        "▁...",
        -7.915455467297603
      ],
      [
        "▁pagka",
        -7.916022844430671
      ],
      [
        "el",
        -7.918187944188643
      ],
      [
        "▁siyang",
        -7.918374611552501
      ],
      [
        "▁alam",
        -7.918390297803818
      ],
      [
        "▁pagpapalaki",
        -7.933439772385045
      ],
      [
        "▁be",
        -7.935043461698822
      ],
      [
        "▁sarili",
        -7.938814754511286
      ],
      [
        "▁Para",
        -7.9521706878641645
      ],
      [
        "▁bulate",
        -7.953229539695204
      ],
      [
        "▁May",
        -7.953246793003757
      ],
      [
        "ation",
        -7.956188268845841
      ],
      [
        "▁tayo",
        -7.960218941517633
      ],
      [
        "▁Ano",
        -7.9648488071207595
      ],
      [
        "ic",
        -7.972637932695802
      ],
      [
        "▁bahay",
        -7.974784222938657
      ],
      [
        "et",
        -7.976599297902595
      ],
      [
        "il",
        -7.983607944811984
      ],
      [
        "ter",
        -7.9866074000924865
      ],
      [
        "ve",
        -7.992289311736698
      ],
      [
        "▁akong",
        -7.993013016736462
      ],
      [
        "▁ito,",
        -7.9973464767341955
      ],
      [
        "id",
        -7.999158074732984
      ],
      [
        "▁me",
        -8.000547548234175
      ],
      [
        "▁babae",
        -8.00187773221897
      ],
      [
        "hi",
        -8.00916808087838
      ],
      [
        "▁anak",
        -8.011508906211615
      ],
      [
        "▁pandurog",
        -8.015160666896646
      ],
      [
        "ar",
        -8.023878076124241
      ],
      [
        "K",
        -8.025248419892415
      ],
      [
        "▁review",
        -8.026554254223111
      ],
      [
        "bi",
        -8.02861400396575
      ],
      [
        "▁malaking",
        -8.02910914258184
      ],
      [
        "▁In",
        -8.03312957780796
      ],
      [
        "▁mayroon",
        -8.033723417475011
      ],
      [
        "▁p",
        -8.034563951537416
      ],
      [
        "▁The",
        -8.037409026871533
      ],
      [
        "ba",
        -8.038276990886997
      ],
      [
        "▁talaga",
        -8.044306872084649
      ],
      [
        "▁La",
        -8.04463868016828
      ],
      [
        "D",
        -8.053424797719169
      ],
      [
        "▁Nag",
        -8.054878252719437
      ],
      [
        "G",
        -8.055143664225847
      ],
      [
        "ce",
        -8.055178334179642
      ],
      [
        ").",
        -8.057233953629757
      ],
      [
        "▁matapos",
        -8.06048348809986
      ],
      [
        "▁pagpapa",
        -8.062965342176499
      ],
      [
        "▁mataas",
        -8.064433729999987
      ],
      [
        "▁10",
        -8.067533329318954
      ],
      [
        "ment",
        -8.071724429142296
      ],
      [
        "▁5",
        -8.07213854028309
      ],
      [
        "▁|",
        -8.0739789011334
      ],
      [
        "▁that",
        -8.075024494043916
      ],
      [
        ".”",
        -8.075739816274986
      ],
      [
        "▁Kaya",
        -8.07723627574504
      ],
      [
        "▁nakaka",
        -8.078915080012283
      ],
      [
        "lu",
        -8.082460250664958
      ],
      [
        "z",
        -8.086588607552649
      ],
      [
        "▁mawalan",
        -8.089164294827242
      ],
      [
        "▁mai",
        -8.093532936680525
      ],
      [
        "▁presyo",
        -8.094236586145223
      ],
      [
        "C",
        -8.094412138124051
      ],
      [
        "▁facial",
        -8.096120729217306
      ],
      [
        "▁k",
        -8.099394367005829
      ],
      [
        "▁ina",
        -8.101548431439127
      ],
      [
        "▁parasites",
        -8.103524105624432
      ],
      [
        "▁L",
        -8.105855514212726
      ],
      [
        "us",
        -8.106165524016186
      ],
      [
        "▁laban",
        -8.108831157960582
      ],
      [
        "▁with",
        -8.111408256166252
      ],
      [
        "'",
        -8.114540741332789
      ],
      [
        "▁mabilis",
        -8.117109735456038
      ],
      [
        "yan",
        -8.121599184993231
      ],
      [
        "▁laro",
        -8.123334898850127
      ],
      [
        "▁iyon",
        -8.132397769953384
      ],
      [
        "▁epekto",
        -8.13577535620914
      ],
      [
        "▁video",
        -8.13675120651979
      ],
      [
        "▁sinabi",
        -8.137765341755141
      ],
      [
        "▁gumawa",
        -8.138727027063766
      ],
      [
        "▁produkto",
        -8.139075951748756
      ],
      [
        "T",
        -8.140116894916344
      ],
      [
        "▁bansa",
        -8.140358681999407
      ],
      [
        "▁paggamit",
        -8.145625106872656
      ],
      [
        "▁silang",
        -8.147283720601031
      ],
      [
        "▁Ayon",
        -8.148136861756416
      ],
      [
        "ur",
        -8.148447267087898
      ],
      [
        "▁pangunahing",
        -8.153314003835058
      ],
      [
        "▁Maaari",
        -8.16154433502087
      ],
      [
        "▁sakit",
        -8.16210194150334
      ],
      [
        "ck",
        -8.16434568555235
      ],
      [
        "▁kanya",
        -8.165875109489376
      ],
      [
        "▁ikaw",
        -8.166985258873098
      ],
      [
        "▁Ngunit",
        -8.16814079841188
      ],
      [
        "▁Ta",
        -8.168326740094003
      ],
      [
        "nd",
        -8.169120356995261
      ],
      [
        "▁kaysa",
        -8.171482513351439
      ],
      [
        "▁pagkain",
        -8.172626014732291
      ],
      [
        "bo",
        -8.180456111918186
      ],
      [
        "F",
        -8.182158371565373
      ],
      [
        "▁De",
        -8.185222164236938
      ],
      [
        "▁'",
        -8.191174172913616
      ],
      [
        "▁it",
        -8.193808599778658
      ],
      [
        "▁Re",
        -8.196969204018634
      ],
      [
        "▁sina",
        -8.206032243859138
      ],
      [
        "do",
        -8.208858696093545
      ],
      [
        "’",
        -8.210542525401987
      ],
      [
        "▁nya",
        -8.213082879673811
      ],
      [
        "▁bato",
        -8.225149657774764
      ],
      [
        "▁gamit",
        -8.22533544312745
      ],
      [
        "▁so",
        -8.231017179912453
      ],
      [
        "▁alisin",
        -8.235458163914215
      ],
      [
        "ine",
        -8.237614804695989
      ],
      [
        "▁nais",
        -8.238816308598727
      ],
      [
        "▁lalo",
        -8.241398738397274
      ],
      [
        "▁bakit",
        -8.245219271076389
      ],
      [
        "▁19",
        -8.246179912033245
      ],
      [
        "▁Diyos",
        -8.250094660319151
      ],
      [
        "▁4",
        -8.251934006787899
      ],
      [
        "▁larawan",
        -8.253140414050177
      ],
      [
        "▁Paano",
        -8.253340627176017
      ],
      [
        "▁sabi",
        -8.258642756476094
      ],
      [
        "co",
        -8.260363556508283
      ],
      [
        "pe",
        -8.260777670327004
      ],
      [
        "2",
        -8.261004334788524
      ],
      [
        "▁W",
        -8.263839333620218
      ],
      [
        "▁R",
        -8.265450401379168
      ],
      [
        "▁nito.",
        -8.266034289792595
      ],
      [
        "▁c",
        -8.27004590471753
      ],
      [
        "un",
        -8.27376968705528
      ],
      [
        "▁Isang",
        -8.275727188568236
      ],
      [
        "▁or",
        -8.277066522963267
      ],
      [
        "▁Di",
        -8.277662569912199
      ],
      [
        "▁bu",
        -8.281916765026606
      ],
      [
        "▁Li",
        -8.285953779949939
      ],
      [
        "▁Dahil",
        -8.286599003679186
      ],
      [
        "▁N",
        -8.289289554083519
      ],
      [
        "he",
        -8.291801465434157
      ],
      [
        "▁U",
        -8.291833554625141
      ],
      [
        "▁la",
        -8.294213091879461
      ],
      [
        "▁pera",
        -8.29582967018885
      ],
      [
        "M",
        -8.295927531279773
      ],
      [
        "▁ring",
        -8.297902337457238
      ],
      [
        "ll",
        -8.298354909562995
      ],
      [
        "▁gamitin",
        -8.299301082086552
      ],
      [
        "▁gamot",
        -8.299724082486168
      ],
      [
        "▁daw",
        -8.303986474637089
      ],
      [
        "▁ginawa",
        -8.307810785080639
      ],
      [
        "▁pinakamahusay",
        -8.308306133519231
      ],
      [
        "▁magiging",
        -8.30867494843216
      ],
      [
        "ry",
        -8.312053719678753
      ],
      [
        "ke",
        -8.314447260862462
      ],
      [
        "▁Mag",
        -8.317161496997093
      ],
      [
        "▁H",
        -8.317723988940996
      ],
      [
        "▁Pero",
        -8.319793413168796
      ],
      [
        "▁parehong",
        -8.325985866498355
      ],
      [
        "▁magkaroon",
        -8.327491970080363
      ],
      [
        "▁balat",
        -8.327706795750505
      ],
      [
        "▁Kapag",
        -8.32800199246
      ],
      [
        "ran",
        -8.329949008483753
      ],
      [
        "▁pinag",
        -8.330589243135968
      ],
      [
        "▁mawala",
        -8.332035963728714
      ],
      [
        "ol",
        -8.336389924470556
      ],
      [
        "▁pagiging",
        -8.336869523584484
      ],
      [
        "▁madaling",
        -8.337482933895693
      ],
      [
        "▁Al",
        -8.338009862458987
      ],
      [
        "▁kaso",
        -8.339241330014698
      ],
      [
        "▁cream",
        -8.340016846625213
      ],
      [
        "▁Ba",
        -8.34334448460512
      ],
      [
        "ling",
        -8.345550307354676
      ],
      [
        "▁dahilan",
        -8.346207684837845
      ],
      [
        "▁nag-",
        -8.346424657303753
      ],
      [
        "ho",
        -8.350093047748093
      ],
      [
        "▁face",
        -8.350688657744382
      ],
      [
        ",”",
        -8.351070447186531
      ],
      [
        "▁akin",
        -8.352485320963138
      ],
      [
        "▁gumagamit",
        -8.353100942626051
      ],
      [
        "▁ginagamit",
        -8.355655420891676
      ],
      [
        "I",
        -8.363170688958814
      ],
      [
        "||",
        -8.366422926582462
      ],
      [
        "L",
        -8.368368320545605
      ],
      [
        "▁mapa",
        -8.369797122963018
      ],
      [
        "H",
        -8.374024994362506
      ],
      [
        "tor",
        -8.374470022073528
      ],
      [
        "▁taba",
        -8.375876034805925
      ],
      [
        "▁tiyan",
        -8.376823154124475
      ],
      [
        "▁pati",
        -8.381382028800408
      ],
      [
        "▁nilang",
        -8.381623337816844
      ],
      [
        "ku",
        -8.381813505237401
      ],
      [
        "▁kaniyang",
        -8.383503745832751
      ],
      [
        "▁problema",
        -8.387229203301873
      ],
      [
        "▁tubig",
        -8.389591999527495
      ],
      [
        "V",
        -8.390175233589167
      ],
      [
        "▁nitong",
        -8.391484106167546
      ],
      [
        "▁ini",
        -8.392545019949731
      ],
      [
        "▁are",
        -8.395676027903932
      ],
      [
        "▁pangalan",
        -8.40057541372206
      ],
      [
        "A",
        -8.403768406490995
      ],
      [
        "▁marami",
        -8.41536370162873
      ],
      [
        "▁lalaki",
        -8.418924993257576
      ],
      [
        "ent",
        -8.421795836773805
      ],
      [
        "▁paggamot",
        -8.427926655378315
      ],
      [
        "wi",
        -8.427986777992448
      ],
      [
        "ch",
        -8.428139753685048
      ],
      [
        "▁kamay",
        -8.42895244592743
      ],
      [
        "▁serbisyo",
        -8.4296683048768
      ],
      [
        "ir",
        -8.429786126540598
      ],
      [
        "▁pag-aaral",
        -8.432114457794128
      ],
      [
        "▁nagbibigay",
        -8.433350312850733
      ],
      [
        "▁kabilang",
        -8.43589704148334
      ],
      [
        "▁buwan",
        -8.43734192722869
      ],
      [
        "▁halaga",
        -8.43808519976676
      ],
      [
        "▁mundo",
        -8.443837653494171
      ],
      [
        "N",
        -8.448113112081007
      ],
      [
        "▁ha",
        -8.449207226763887
      ],
      [
        "▁kanila",
        -8.450009048940347
      ],
      [
        "▁magandang",
        -8.45049426970596
      ],
      [
        "|",
        -8.45059852803207
      ],
      [
        "▁batang",
        -8.451282622204195
      ],
      [
        "▁So",
        -8.456236394942371
      ],
      [
        "▁makita",
        -8.456391907369433
      ],
      [
        "5",
        -8.45640925821205
      ],
      [
        "▁kumpanya",
        -8.456633622748996
      ],
      [
        "um",
        -8.45688800708833
      ],
      [
        "▁pala",
        -8.462041551352778
      ],
      [
        "be",
        -8.46322058397421
      ],
      [
        "W",
        -8.463419787004481
      ],
      [
        "▁he",
        -8.470112046985035
      ],
      [
        "ki",
        -8.470141947527562
      ],
      [
        "▁Mo",
        -8.473519946758541
      ],
      [
        "▁paligid",
        -8.473898144509409
      ],
      [
        "▁my",
        -8.474805837668331
      ],
      [
        "▁sya",
        -8.475566799959608
      ],
      [
        "▁tunay",
        -8.475686209724266
      ],
      [
        "tal",
        -8.47760415876247
      ],
      [
        "▁‘",
        -8.478819102870222
      ],
      [
        "▁/",
        -8.478856989330504
      ],
      [
        "▁up",
        -8.479784444539636
      ],
      [
        "▁ginagawa",
        -8.483975954438986
      ],
      [
        "▁impormasyon",
        -8.486413423784695
      ],
      [
        "),",
        -8.487569631250613
      ],
      [
        "▁sabihin",
        -8.488607547302598
      ],
      [
        "▁pro",
        -8.490301582485346
      ],
      [
        "▁halos",
        -8.490537261677504
      ],
      [
        "▁malaman",
        -8.491356212409677
      ],
      [
        "▁napaka",
        -8.492310091919025
      ],
      [
        "▁iba't",
        -8.49255149728928
      ],
      [
        "▁kayo",
        -8.492724780491526
      ],
      [
        "▁by",
        -8.492910392109044
      ],
      [
        "pi",
        -8.492915328556942
      ],
      [
        "▁your",
        -8.498704543988868
      ],
      [
        "min",
        -8.499245270726862
      ],
      [
        "▁this",
        -8.50045224405118
      ],
      [
        "v",
        -8.500829361291558
      ],
      [
        "▁J",
        -8.50128602413756
      ],
      [
        "▁ayon",
        -8.501330983429407
      ],
      [
        "▁an",
        -8.503372149048827
      ],
      [
        "pan",
        -8.505885552627436
      ],
      [
        "▁Mask",
        -8.506330953955828
      ],
      [
        "▁patuloy",
        -8.508341620496834
      ],
      [
        "▁karanasan",
        -8.510521870959625
      ],
      [
        "▁dating",
        -8.514552844547872
      ],
      [
        "tion",
        -8.51490561366536
      ],
      [
        "▁proseso",
        -8.514956477384143
      ],
      [
        "Y",
        -8.516149840022258
      ],
      [
        "ist",
        -8.519498477417986
      ],
      [
        "3",
        -8.520164518184643
      ],
      [
        "▁pagitan",
        -8.520483946141596
      ],
      [
        "▁we",
        -8.521734129136048
      ],
      [
        "▁not",
        -8.525343184602981
      ],
      [
        "lan",
        -8.525983090317105
      ],
      [
        "ers",
        -8.526302028464814
      ],
      [
        "age",
        -8.528882456718096
      ],
      [
        "▁Bu",
        -8.531240830701194
      ],
      [
        "▁tulong",
        -8.53224934470131
      ],
      [
        "▁i-",
        -8.534438491805588
      ],
      [
        "▁pamilya",
        -8.534542151676064
      ],
      [
        "od",
        -8.534767814157453
      ],
      [
        "an.",
        -8.53492483907958
      ],
      [
        "▁To",
        -8.540061530912377
      ],
      [
        "▁puso",
        -8.541801632101835
      ],
      [
        "▁talagang",
        -8.541984948241623
      ],
      [
        "▁ko.",
        -8.543638614610243
      ],
      [
        "ina",
        -8.544399997970354
      ],
      [
        "▁Ha",
        -8.547451104445615
      ],
      [
        "▁trabaho",
        -8.551235417026309
      ],
      [
        "ate",
        -8.551368838087505
      ],
      [
        "▁can",
        -8.55308013418391
      ],
      [
        "▁kinakailangan",
        -8.55419968651902
      ],
      [
        "R",
        -8.555813658585272
      ],
      [
        "▁pagkakataon",
        -8.558486088931161
      ],
      [
        "▁co",
        -8.559632818515231
      ],
      [
        "▁Upang",
        -8.561626739337814
      ],
      [
        "▁slimming",
        -8.561980879731754
      ],
      [
        "est",
        -8.565334201069755
      ],
      [
        "▁V",
        -8.567153146878512
      ],
      [
        "▁casino",
        -8.57092525046738
      ],
      [
        "▁kita",
        -8.572600595125685
      ],
      [
        "▁nagpapa",
        -8.572980475607515
      ],
      [
        "per",
        -8.573265267765159
      ],
      [
        "▁bumili",
        -8.573732801389383
      ],
      [
        "’y",
        -8.575800623942333
      ],
      [
        "ting",
        -8.575870610083983
      ],
      [
        "▁mayroong",
        -8.578670203702899
      ],
      [
        "1",
        -8.579146048064482
      ],
      [
        ".\"",
        -8.579795923283072
      ],
      [
        "▁se",
        -8.581711850400973
      ],
      [
        "▁resulta",
        -8.582539892187713
      ],
      [
        "▁tatlong",
        -8.585003373031077
      ],
      [
        "▁dagdagan",
        -8.586173863920184
      ],
      [
        "ul",
        -8.587503116716292
      ],
      [
        "▁m",
        -8.587771843905365
      ],
      [
        "▁b",
        -8.588234681679756
      ],
      [
        "▁bi",
        -8.590135704240453
      ],
      [
        "▁7",
        -8.591674574140336
      ],
      [
        "▁bang",
        -8.597949996675
      ],
      [
        "▁site",
        -8.599699540949333
      ],
      [
        "▁pagbabago",
        -8.60027681034732
      ],
      [
        "▁Pilipinas",
        -8.600822527635861
      ],
      [
        "▁asawa",
        -8.601119814385294
      ],
      [
        "▁6",
        -8.601943259603821
      ],
      [
        "▁manlalaro",
        -8.603128969496252
      ],
      [
        "▁Lo",
        -8.605626709672316
      ],
      [
        "▁surgery",
        -8.606297626457225
      ],
      [
        "▁sariling",
        -8.607481379063053
      ],
      [
        "▁madalas",
        -8.608218782679105
      ],
      [
        "'y",
        -8.608824472448545
      ],
      [
        "▁Bilang",
        -8.610073631561672
      ],
      [
        "ion",
        -8.61144351699592
      ],
      [
        "U",
        -8.611610873460103
      ],
      [
        "▁app",
        -8.614077047357815
      ],
      [
        "po",
        -8.616715908824121
      ],
      [
        "▁karaniwang",
        -8.621214821633146
      ],
      [
        "ung",
        -8.623188194678743
      ],
      [
        "▁out",
        -8.62510426238473
      ],
      [
        "▁dugo",
        -8.625157524765436
      ],
      [
        "res",
        -8.625177060294964
      ],
      [
        "du",
        -8.626672947199364
      ],
      [
        "▁website",
        -8.633729205798137
      ],
      [
        "▁niya.",
        -8.634663297052537
      ],
      [
        "▁sanhi",
        -8.635635122568752
      ],
      [
        "▁pamamaraan",
        -8.63637208868341
      ],
      [
        "▁pinaka",
        -8.638237272294688
      ],
      [
        "▁Ng",
        -8.640563317834557
      ],
      [
        "syon",
        -8.64172130271393
      ],
      [
        "▁makakuha",
        -8.641958710331998
      ],
      [
        "▁pamamaga",
        -8.64310608964796
      ],
      [
        "]",
        -8.64451407008307
      ],
      [
        "▁paggawa",
        -8.64594991417679
      ],
      [
        "les",
        -8.650465053831676
      ],
      [
        "▁agad",
        -8.651025617353639
      ],
      [
        "▁Ga",
        -8.651340247212596
      ],
      [
        "▁kaibigan",
        -8.651556682122004
      ],
      [
        "▁nating",
        -8.654313091736196
      ],
      [
        "E",
        -8.658536402269823
      ],
      [
        "▁gagawin",
        -8.660201157778294
      ],
      [
        "▁do",
        -8.665232305177705
      ],
      [
        "▁diyeta",
        -8.668242236292144
      ],
      [
        "▁linggo",
        -8.675957736043026
      ],
      [
        "4",
        -8.677600394147222
      ],
      [
        "▁kailangang",
        -8.67890117790792
      ],
      [
        "’s",
        -8.679078928877512
      ],
      [
        "0",
        -8.679741424090885
      ],
      [
        "son",
        -8.683457943318647
      ],
      [
        "▁huwag",
        -8.684896065039373
      ],
      [
        "▁amin",
        -8.686599942692613
      ],
      [
        "▁Pro",
        -8.687358700478775
      ],
      [
        "an,",
        -8.687731570109932
      ],
      [
        "▁Ni",
        -8.68905068584266
      ],
      [
        "▁post",
        -8.689527076235953
      ],
      [
        "▁programa",
        -8.689564261857468
      ],
      [
        "▁Co",
        -8.693833573066902
      ],
      [
        "▁con",
        -8.696351590184841
      ],
      [
        "▁Naka",
        -8.698725444381015
      ],
      [
        "ber",
        -8.701574973344947
      ],
      [
        "sh",
        -8.701890084629433
      ],
      [
        "▁ilan",
        -8.702946211907864
      ],
      [
        "▁antas",
        -8.704984304592026
      ],
      [
        "▁su",
        -8.708149467704859
      ],
      [
        "▁pagkaka",
        -8.708380137464816
      ],
      [
        "pag",
        -8.709174491150188
      ],
      [
        "▁Isa",
        -8.712248598642852
      ],
      [
        "▁time",
        -8.7175928828645
      ],
      [
        "▁kulay",
        -8.71886651476736
      ],
      [
        "▁8",
        -8.71894525893316
      ],
      [
        "asyon",
        -8.722381463729192
      ],
      [
        "▁muna",
        -8.723346707501618
      ],
      [
        "lang",
        -8.724032023107078
      ],
      [
        "ary",
        -8.726534928346402
      ],
      [
        "▁was",
        -8.728156727318542
      ],
      [
        "▁kababaihan",
        -8.73319377979834
      ],
      [
        "▁umano",
        -8.733498730108535
      ],
      [
        "▁kina",
        -8.738680783271512
      ],
      [
        "▁gaano",
        -8.739409984098035
      ],
      [
        "up",
        -8.739889624993875
      ],
      [
        "ster",
        -8.740765650967715
      ],
      [
        "las",
        -8.741583251483172
      ],
      [
        "able",
        -8.743257153273875
      ],
      [
        "▁account",
        -8.74341245333487
      ],
      [
        "kan",
        -8.745698998024722
      ],
      [
        "'s",
        -8.747014427033687
      ],
      [
        "▁Se",
        -8.747579712380748
      ],
      [
        "▁12",
        -8.748265315986528
      ],
      [
        "▁negosyo",
        -8.749222423058447
      ],
      [
        "ita",
        -8.749236002253927
      ],
      [
        "▁parang",
        -8.749508987541203
      ],
      [
        "▁20",
        -8.750268133253888
      ],
      [
        "▁wrinkles",
        -8.75192553348398
      ],
      [
        "▁doon",
        -8.751970812779426
      ],
      [
        "▁Walang",
        -8.752074191943391
      ],
      [
        "▁Jo",
        -8.754651203199902
      ],
      [
        "▁sapat",
        -8.755723257592956
      ],
      [
        "▁tao.",
        -8.757376847834209
      ],
      [
        "▁nito,",
        -8.757412648247948
      ],
      [
        "▁Gayunpaman,",
        -8.757425447038258
      ],
      [
        "▁from",
        -8.760411256175828
      ],
      [
        "▁Pagkatapos",
        -8.761025762736423
      ],
      [
        "O",
        -8.761622574756178
      ],
      [
        "▁halaman",
        -8.762851002522046
      ],
      [
        "▁He",
        -8.765495238346862
      ],
      [
        "▁noon",
        -8.769998847704116
      ],
      [
        "▁karamihan",
        -8.770063676679285
      ],
      [
        "▁edad",
        -8.774386352240787
      ],
      [
        "▁raw",
        -8.77496898608448
      ],
      [
        "▁nakita",
        -8.778673156462629
      ],
      [
        "▁layunin",
        -8.779162406626963
      ],
      [
        "▁tanong",
        -8.7793511103379
      ],
      [
        "▁have",
        -8.779611518004065
      ],
      [
        "▁ganitong",
        -8.782681508956868
      ],
      [
        "▁9",
        -8.783762716471676
      ],
      [
        "▁pamahalaan",
        -8.783859344348084
      ],
      [
        "ive",
        -8.784359277273765
      ],
      [
        "▁susunod",
        -8.787768377672025
      ],
      [
        "▁muli",
        -8.789334708188258
      ],
      [
        "▁gabi",
        -8.790081708441155
      ],
      [
        "lay",
        -8.795057879474149
      ],
      [
        "▁langis",
        -8.795784172767544
      ],
      [
        "▁Su",
        -8.798111692502529
      ],
      [
        "rap",
        -8.798153075392348
      ],
      [
        "ie",
        -8.798471726872366
      ],
      [
        "tic",
        -8.799412334476692
      ],
      [
        "▁li",
        -8.801417967764687
      ],
      [
        "▁pagpipilian",
        -8.802297296539692
      ],
      [
        "▁Mas",
        -8.802682602373878
      ],
      [
        "▁gawain",
        -8.8038379043054
      ],
      [
        "▁pre",
        -8.804667642626194
      ],
      [
        "▁katotohanan",
        -8.807087689416969
      ],
      [
        "▁Da",
        -8.80716998568229
      ],
      [
        "kin",
        -8.808605234455241
      ],
      [
        "▁magpa",
        -8.812764224200928
      ],
      [
        "▁maayos",
        -8.813820517082847
      ],
      [
        "ver",
        -8.814294771748083
      ],
      [
        "▁nagpa",
        -8.815851059787477
      ],
      [
        "▁naming",
        -8.816836209046889
      ],
      [
        "ok",
        -8.817571253342786
      ],
      [
        "▁kaming",
        -8.820032570365976
      ],
      [
        "ity",
        -8.820453715343579
      ],
      [
        "▁halimbawa",
        -8.822388519621983
      ],
      [
        "ru",
        -8.822765125357455
      ],
      [
        "kas",
        -8.823150668544512
      ],
      [
        "▁wika",
        -8.825870022343974
      ],
      [
        "lin",
        -8.827654568693752
      ],
      [
        "▁baka",
        -8.82804210142618
      ],
      [
        "▁hakbang",
        -8.829165486502372
      ],
      [
        "▁Ar",
        -8.830814211835788
      ],
      [
        "va",
        -8.830945836085242
      ],
      [
        "▁beses",
        -8.832159584555631
      ],
      [
        "▁Kahit",
        -8.832483331912032
      ],
      [
        "▁tiyak",
        -8.834744131814928
      ],
      [
        "▁breast",
        -8.835308176969184
      ],
      [
        "▁malapit",
        -8.83675281733334
      ],
      [
        "▁personal",
        -8.837562477608396
      ],
      [
        "▁laki",
        -8.83921195606077
      ],
      [
        "▁kagamitan",
        -8.840956007090012
      ],
      [
        "▁iba’t",
        -8.841170143837465
      ],
      [
        "▁buhok",
        -8.841780097882891
      ],
      [
        "▁kundi",
        -8.843192510706452
      ],
      [
        "▁customer",
        -8.846858343356601
      ],
      [
        "uan",
        -8.84713832008963
      ],
      [
        "▁bayan",
        -8.847856040621323
      ],
      [
        "▁Ro",
        -8.848682075841767
      ],
      [
        "▁libreng",
        -8.850708868754374
      ],
      [
        "▁nakikita",
        -8.851028399061972
      ],
      [
        "▁Bi",
        -8.851531583921503
      ],
      [
        "▁30",
        -8.851843245320941
      ],
      [
        "lit",
        -8.85217380269546
      ],
      [
        "’t",
        -8.854220140273517
      ],
      [
        "▁nangangahulugan",
        -8.854860721184274
      ],
      [
        "▁mismo",
        -8.854893356585674
      ],
      [
        "▁Nang",
        -8.85612071832087
      ],
      [
        "▁magka",
        -8.856122343363031
      ],
      [
        "▁ganap",
        -8.856567039527407
      ],
      [
        "▁will",
        -8.857177740192023
      ],
      [
        "▁sino",
        -8.857248376688988
      ],
      [
        "▁da",
        -8.859028775583162
      ],
      [
        "▁City",
        -8.859785853703611
      ],
      [
        "▁ex",
        -8.860914722456537
      ],
      [
        "▁$",
        -8.861975909203402
      ],
      [
        "▁Pina",
        -8.862381147417985
      ],
      [
        "lik",
        -8.862812342871504
      ],
      [
        "▁tamang",
        -8.864356385992957
      ],
      [
        "mit",
        -8.864465204700299
      ],
      [
        "▁mahalaga",
        -8.865076676361044
      ],
      [
        "ado",
        -8.866042831721073
      ],
      [
        "▁magulang",
        -8.867119623639212
      ],
      [
        "▁sistema",
        -8.867849519888846
      ],
      [
        "▁inyong",
        -8.868812868660983
      ],
      [
        "▁SA",
        -8.86912007569102
      ],
      [
        "ano",
        -8.86997043409793
      ],
      [
        "▁data",
        -8.870330381839679
      ],
      [
        "IN",
        -8.870564313681452
      ],
      [
        "▁dalawa",
        -8.871252722435667
      ],
      [
        "ven",
        -8.871774931143609
      ],
      [
        "▁Bo",
        -8.876050690351377
      ],
      [
        "▁gastos",
        -8.878174515039584
      ],
      [
        "wal",
        -8.879271833111318
      ],
      [
        "▁pi",
        -8.88073216645798
      ],
      [
        "tong",
        -8.882147466568629
      ],
      [
        "baba",
        -8.883113978806644
      ],
      [
        "▁lupa",
        -8.883359682857598
      ],
      [
        "em",
        -8.884181709067402
      ],
      [
        "ista",
        -8.884230781841309
      ],
      [
        "▁Filipino",
        -8.886015601787355
      ],
      [
        "▁her",
        -8.886144749867714
      ],
      [
        "gal",
        -8.886540503181278
      ],
      [
        "▁batas",
        -8.887165036319862
      ],
      [
        "pit",
        -8.889387342325788
      ],
      [
        "▁pagkakaroon",
        -8.889759637181431
      ],
      [
        "▁napa",
        -8.893307507921085
      ],
      [
        "mon",
        -8.89576049302892
      ],
      [
        "▁Siya",
        -8.895994173367725
      ],
      [
        "wang",
        -8.898418038796398
      ],
      [
        "yon",
        -8.899213182451803
      ],
      [
        "▁malakas",
        -8.902737806807167
      ],
      [
        "▁15",
        -8.904725063985953
      ],
      [
        "rin",
        -8.90663039224815
      ],
      [
        "J",
        -8.908751019577856
      ],
      [
        "ph",
        -8.908867077081597
      ],
      [
        "▁makikita",
        -8.911964766244138
      ],
      [
        "tas",
        -8.912169757931002
      ],
      [
        "▁media",
        -8.913019917108146
      ],
      [
        "▁makaka",
        -8.91386559637215
      ],
      [
        "▁labas",
        -8.917476309884393
      ],
      [
        "▁posible",
        -8.919045750280779
      ],
      [
        "▁system",
        -8.919447758891852
      ],
      [
        "way",
        -8.91967076650395
      ],
      [
        "▁Do",
        -8.920037802835319
      ],
      [
        "▁card",
        -8.925396197131146
      ],
      [
        "▁ulo",
        -8.926966143398898
      ],
      [
        "▁pagsusuri",
        -8.927434792213177
      ],
      [
        "▁sangkap",
        -8.927764681681486
      ],
      [
        "line",
        -8.930539558464782
      ],
      [
        "▁plano",
        -8.932233681387917
      ],
      [
        "▁pangangailangan",
        -8.932388213987895
      ],
      [
        "una",
        -8.933165592472903
      ],
      [
        "der",
        -8.936720614683475
      ],
      [
        "▁1.",
        -8.939407691806805
      ],
      [
        "▁medyo",
        -8.940169724054313
      ],
      [
        "▁Ca",
        -8.940325949929118
      ],
      [
        "▁mahirap",
        -8.940762381776421
      ],
      [
        "▁malaki",
        -8.942523854607394
      ],
      [
        "▁madagdagan",
        -8.944084310743662
      ],
      [
        "▁namang",
        -8.944643842272807
      ],
      [
        "lot",
        -8.94513404666966
      ],
      [
        "tutu",
        -8.945923101431637
      ],
      [
        "che",
        -8.946756244998825
      ],
      [
        "hu",
        -8.947100704240103
      ],
      [
        "▁kumain",
        -8.948991764192291
      ],
      [
        "▁Ako",
        -8.952360990742596
      ],
      [
        "▁mababa",
        -8.953309483516076
      ],
      [
        "▁mahal",
        -8.953405693203443
      ],
      [
        "alam",
        -8.953597911928817
      ],
      [
        "▁kalusugan",
        -8.954799320808721
      ],
      [
        "▁tu",
        -8.956023439644804
      ],
      [
        "▁Mi",
        -8.958849843852837
      ],
      [
        "▁#",
        -8.958969864834753
      ],
      [
        "▁Me",
        -8.959250917036563
      ],
      [
        "pu",
        -8.959387894477741
      ],
      [
        "▁our",
        -8.961197965154314
      ],
      [
        "▁ku",
        -8.96193723491733
      ],
      [
        "▁Sinabi",
        -8.963828989136788
      ],
      [
        "▁Bakit",
        -8.965628943779896
      ],
      [
        "▁ama",
        -8.966086803093374
      ],
      [
        "▁slot",
        -8.966282221963178
      ],
      [
        "▁Pi",
        -8.966339833846408
      ],
      [
        "ut",
        -8.96644083779098
      ],
      [
        "▁ninyo",
        -8.96707675902011
      ],
      [
        "▁katulad",
        -8.967406248045362
      ],
      [
        "▁bansa.",
        -8.96868993111726
      ],
      [
        "▁dumating",
        -8.968909032941042
      ],
      [
        "▁all",
        -8.969627963541974
      ],
      [
        "log",
        -8.97184106117953
      ],
      [
        "▁ti",
        -8.972487629880789
      ],
      [
        "▁ngayong",
        -8.974981331893602
      ],
      [
        "▁Le",
        -8.97537167982142
      ],
      [
        "▁kalidad",
        -8.97684503104294
      ],
      [
        "—",
        -8.978458189919346
      ],
      [
        "▁grupo",
        -8.978657135829089
      ],
      [
        "lim",
        -8.979265847669467
      ],
      [
        "▁nakaraang",
        -8.980665032356557
      ],
      [
        "▁huling",
        -8.980869058208075
      ],
      [
        "▁muling",
        -8.98087749829763
      ],
      [
        "▁Vi",
        -8.984834802824519
      ],
      [
        "labas",
        -8.985153197540738
      ],
      [
        "▁Ra",
        -8.985405435965728
      ],
      [
        "ud",
        -8.988112449690721
      ],
      [
        "▁sintomas",
        -8.988933622674224
      ],
      [
        "▁lakas",
        -8.989161825069107
      ],
      [
        "▁ipina",
        -8.989497881258846
      ],
      [
        "▁pinakama",
        -8.989503154630578
      ],
      [
        "▁labis",
        -8.989718170979346
      ],
      [
        "▁opisyal",
        -8.99226565022641
      ],
      [
        "ner",
        -8.993589995318114
      ],
      [
        "▁papel",
        -8.993786974006822
      ],
      [
        "▁ipa",
        -8.99391146734609
      ],
      [
        "▁magbigay",
        -8.996579895661586
      ],
      [
        "▁social",
        -8.997514636526217
      ],
      [
        "▁Habang",
        -8.998635788941835
      ],
      [
        "▁mabuti",
        -8.998877902168491
      ],
      [
        "ction",
        -8.999955523423017
      ],
      [
        "▁nasabing",
        -9.00073469176003
      ],
      [
        "▁bo",
        -9.001260982606993
      ],
      [
        "yong",
        -9.002258985657473
      ],
      [
        "▁No",
        -9.002291714878742
      ],
      [
        "▁tinatawag",
        -9.002903496011363
      ],
      [
        "isa",
        -9.003787088022968
      ],
      [
        "▁Con",
        -9.003953344657639
      ],
      [
        "▁[",
        -9.006922393830653
      ],
      [
        "▁Pang",
        -9.007983077767861
      ],
      [
        "▁pagsubok",
        -9.008206723528133
      ],
      [
        "▁gaya",
        -9.008286009732217
      ],
      [
        "▁simula",
        -9.008945994445677
      ],
      [
        "▁salita",
        -9.009270102654959
      ],
      [
        "▁eh",
        -9.011277632129342
      ],
      [
        "▁un",
        -9.01328933433056
      ],
      [
        "▁pagtaas",
        -9.013923182796866
      ],
      [
        "▁partikular",
        -9.015276601723532
      ],
      [
        "▁katangian",
        -9.017983366023778
      ],
      [
        "vi",
        -9.018367379286277
      ],
      [
        "▁nagiging",
        -9.020233500228326
      ],
      [
        "▁Car",
        -9.022538821946098
      ],
      [
        "▁yan",
        -9.023203826863664
      ],
      [
        "tra",
        -9.025395458613586
      ],
      [
        "▁Mula",
        -9.025488457461854
      ],
      [
        "▁madali",
        -9.0256455763752
      ],
      [
        "▁hu",
        -9.027550410639206
      ],
      [
        "alis",
        -9.02837342359455
      ],
      [
        "▁dito.",
        -9.030043730237253
      ],
      [
        "ring",
        -9.030247440102366
      ],
      [
        "20",
        -9.031458440615182
      ],
      [
        "▁ibaba",
        -9.032167660310181
      ],
      [
        "iwan",
        -9.03232935605992
      ],
      [
        "▁Maraming",
        -9.03257155890658
      ],
      [
        "▁San",
        -9.034201231667288
      ],
      [
        "▁plastic",
        -9.036073564768527
      ],
      [
        "▁love",
        -9.036098454145101
      ],
      [
        "▁lungsod",
        -9.038185664031952
      ],
      [
        "▁kilala",
        -9.039097755073811
      ],
      [
        "▁Giardia",
        -9.039565979995976
      ],
      [
        "▁nangyari",
        -9.04074368704428
      ],
      [
        "▁Hi",
        -9.04147253535407
      ],
      [
        "▁anong",
        -9.04167364534627
      ],
      [
        "▁minsan",
        -9.042157159403352
      ],
      [
        "▁naka-",
        -9.042319821637175
      ],
      [
        "▁karagdagang",
        -9.04404832122492
      ],
      [
        "▁Wala",
        -9.044764656183943
      ],
      [
        "▁kasalukuyang",
        -9.046557320614538
      ],
      [
        "▁gawa",
        -9.047811581318344
      ],
      [
        "▁Y",
        -9.048043921574829
      ],
      [
        "▁itlog",
        -9.048956772486308
      ],
      [
        "▁itaas",
        -9.049264713212203
      ],
      [
        "▁tao,",
        -9.053148185120817
      ],
      [
        "▁kapatid",
        -9.054598335733099
      ],
      [
        "▁Pilipino",
        -9.055435455365185
      ],
      [
        "X",
        -9.056384996732719
      ],
      [
        "▁sobrang",
        -9.057352316453184
      ],
      [
        "▁batay",
        -9.057741308678915
      ],
      [
        "▁Mayroon",
        -9.05774476242835
      ],
      [
        "▁tampok",
        -9.05789559738381
      ],
      [
        "▁magagamit",
        -9.061819923761867
      ],
      [
        "▁tila",
        -9.062449499341064
      ],
      [
        "ture",
        -9.063309475589122
      ],
      [
        "▁natural",
        -9.063604169439948
      ],
      [
        "▁Mar",
        -9.06369663266592
      ],
      [
        "▁buhay.",
        -9.06517925695109
      ],
      [
        "▁&",
        -9.066018426632002
      ],
      [
        "▁relasyon",
        -9.067129019956951
      ],
      [
        "mu",
        -9.067665849013657
      ],
      [
        "▁Gu",
        -9.067868789910056
      ],
      [
        "▁dito,",
        -9.068384204912114
      ],
      [
        "ice",
        -9.06852389878058
      ],
      [
        "let",
        -9.0686031485796
      ],
      [
        "▁halip",
        -9.068854132080178
      ],
      [
        "▁hitsura",
        -9.068909978948062
      ],
      [
        "ance",
        -9.071355936902183
      ],
      [
        "▁NG",
        -9.072327294855647
      ],
      [
        "▁biktima",
        -9.074271113403134
      ],
      [
        "▁maganda",
        -9.076620902525839
      ],
      [
        "▁ding",
        -9.082407421512606
      ],
      [
        "▁puno",
        -9.083191894214679
      ],
      [
        "za",
        -9.083262447510618
      ],
      [
        "▁una",
        -9.083468366315143
      ],
      [
        "▁doktor",
        -9.083860141197244
      ],
      [
        "ther",
        -9.084569832872788
      ],
      [
        "▁sanggol",
        -9.084586134632621
      ],
      [
        "▁teknolohiya",
        -9.084677205660922
      ],
      [
        "▁Po",
        -9.085017187132443
      ],
      [
        "ten",
        -9.086203062760623
      ],
      [
        "▁Ho",
        -9.087010883725485
      ],
      [
        "▁machine",
        -9.089216901202107
      ],
      [
        "ow",
        -9.089678883989333
      ],
      [
        "▁yun",
        -9.08985139646353
      ],
      [
        "uhan",
        -9.091598759495172
      ],
      [
        "▁18",
        -9.09492902112502
      ],
      [
        "▁tama",
        -9.09554885972509
      ],
      [
        "land",
        -9.096675058253279
      ],
      [
        "▁pelikula",
        -9.09683057823736
      ],
      [
        "wan",
        -9.09780210788241
      ],
      [
        "unan",
        -9.09785856786345
      ],
      [
        "▁mahalagang",
        -9.099912115584251
      ],
      [
        "▁dami",
        -9.099944450321916
      ],
      [
        "ANG",
        -9.100141802266066
      ],
      [
        "▁Lu",
        -9.101136185724195
      ],
      [
        "▁ligtas",
        -9.101425603701658
      ],
      [
        "▁US",
        -9.102994006403778
      ],
      [
        "lam",
        -9.10371275223617
      ],
      [
        "one",
        -9.103819202165694
      ],
      [
        "gra",
        -9.105074870494967
      ],
      [
        "▁St",
        -9.10535528992747
      ],
      [
        "▁malinaw",
        -9.105381091001448
      ],
      [
        "▁malawak",
        -9.105649130954946
      ],
      [
        "▁kaalaman",
        -9.108269252556143
      ],
      [
        "▁mababang",
        -9.109343938963447
      ],
      [
        "▁pakiramdam",
        -9.110340130140672
      ],
      [
        "▁pumunta",
        -9.110636281525284
      ],
      [
        "▁11",
        -9.110890751818243
      ],
      [
        "uk",
        -9.110917051033228
      ],
      [
        "▁kumuha",
        -9.111285534192106
      ],
      [
        "▁pagsasanay",
        -9.11136138997269
      ],
      [
        "▁nag-aalok",
        -9.111555578432986
      ],
      [
        "AL",
        -9.112202331664248
      ],
      [
        "unt",
        -9.112840834680092
      ],
      [
        "abot",
        -9.114130911655801
      ],
      [
        "▁isyu",
        -9.115718476170956
      ],
      [
        "AN",
        -9.115861296787937
      ],
      [
        "▁miyembro",
        -9.116287625901833
      ],
      [
        "▁recipe",
        -9.116288603787199
      ],
      [
        "idad",
        -9.116892733605528
      ],
      [
        "ff",
        -9.120147451960174
      ],
      [
        "tch",
        -9.120238128390291
      ],
      [
        "lak",
        -9.120821361127447
      ],
      [
        "▁umaga",
        -9.121062848067224
      ],
      [
        "▁2.",
        -9.12211587178382
      ],
      [
        "▁apat",
        -9.12290873879565
      ],
      [
        "▁gobyerno",
        -9.124674675207219
      ],
      [
        "▁live",
        -9.125387277432317
      ],
      [
        "▁nina",
        -9.125985758317492
      ],
      [
        "▁sumusunod",
        -9.12688338903639
      ],
      [
        "▁Maaaring",
        -9.127465102730692
      ],
      [
        "bit",
        -9.12784105976313
      ],
      [
        "we",
        -9.12794362931179
      ],
      [
        "▁nangangailangan",
        -9.128305938844026
      ],
      [
        "▁Ay",
        -9.131235428279643
      ],
      [
        "iba",
        -9.132059044947281
      ],
      [
        "▁Huwag",
        -9.133783733463314
      ],
      [
        "+",
        -9.133971698045197
      ],
      [
        "kita",
        -9.134458181268773
      ],
      [
        "▁more",
        -9.135182234143857
      ],
      [
        "▁Tu",
        -9.135795292949343
      ],
      [
        "▁Noong",
        -9.136042844960965
      ],
      [
        "▁sitwasyon",
        -9.136069394006363
      ],
      [
        "▁We",
        -9.136222344205517
      ],
      [
        "▁anyo",
        -9.136942823962961
      ],
      [
        "sama",
        -9.137376522708808
      ],
      [
        "▁naturang",
        -9.139967111960734
      ],
      [
        "▁Pu",
        -9.140319252211674
      ],
      [
        "▁panganib",
        -9.14123568922478
      ],
      [
        "▁Kailangan",
        -9.141420350645948
      ],
      [
        "▁hayop",
        -9.142785427618723
      ],
      [
        "men",
        -9.143243442161548
      ],
      [
        "▁ibig",
        -9.143320543801412
      ],
      [
        "▁suporta",
        -9.144143855930636
      ],
      [
        "▁NA",
        -9.144493770934881
      ],
      [
        "yu",
        -9.144775897598118
      ],
      [
        "▁masyadong",
        -9.145774427002538
      ],
      [
        "▁mobile",
        -9.145964397538975
      ],
      [
        "▁nilalaman",
        -9.146111060692295
      ],
      [
        "▁For",
        -9.146173063561156
      ],
      [
        "ld",
        -9.146276728666656
      ],
      [
        "▁taga",
        -9.148282617642668
      ],
      [
        "▁likod",
        -9.14899339546508
      ],
      [
        "▁bar",
        -9.149600237023131
      ],
      [
        "▁sagot",
        -9.150684639115989
      ],
      [
        "▁Philippines",
        -9.151769967779844
      ],
      [
        "▁gulang",
        -9.153846058742372
      ],
      [
        "▁industriya",
        -9.15389005297714
      ],
      [
        "bay",
        -9.156252249385803
      ],
      [
        "awa",
        -9.156728825874845
      ],
      [
        "▁taon.",
        -9.158318824237606
      ],
      [
        "▁bina",
        -9.160870837774464
      ],
      [
        "mer",
        -9.161415886943242
      ],
      [
        "▁magkano",
        -9.161664352164753
      ],
      [
        "▁totoo",
        -9.162500774317571
      ],
      [
        "gen",
        -9.162674442696344
      ],
      [
        "▁Ngayon",
        -9.163994077567217
      ],
      [
        "▁pahayag",
        -9.164118952457745
      ],
      [
        "ili",
        -9.165132908533854
      ],
      [
        "▁eye",
        -9.165429438089676
      ],
      [
        "pang",
        -9.165845886924558
      ],
      [
        "pon",
        -9.167138218614442
      ],
      [
        ",\"",
        -9.16741682662865
      ],
      [
        "▁kabataan",
        -9.168811439819416
      ],
      [
        "▁maiwasan",
        -9.169801979518004
      ],
      [
        "▁mapupuksa",
        -9.170109096183129
      ],
      [
        "ayos",
        -9.171787116078539
      ],
      [
        "port",
        -9.17459510444001
      ],
      [
        "▁listahan",
        -9.174663130215194
      ],
      [
        "▁And",
        -9.17487545266362
      ],
      [
        "lakas",
        -9.175226889278823
      ],
      [
        "alala",
        -9.1758403345603
      ],
      [
        "fe",
        -9.176697105181969
      ],
      [
        "lat",
        -9.17679079672747
      ],
      [
        "▁platform",
        -9.176847139233319
      ],
      [
        "▁du",
        -9.17828878663689
      ],
      [
        "▁numero",
        -9.178687985052226
      ],
      [
        "Tulad",
        -9.180835125172319
      ],
      [
        "▁merkado",
        -9.180975324604681
      ],
      [
        "▁kanya.",
        -9.181038297869945
      ],
      [
        "▁diet",
        -9.181157636025334
      ],
      [
        "ismo",
        -9.181629389395871
      ],
      [
        "▁ika",
        -9.1820012424332
      ],
      [
        "7",
        -9.183510874158094
      ],
      [
        "▁X",
        -9.184023269707408
      ],
      [
        "▁sasakyan",
        -9.185137831255254
      ],
      [
        "▁kapangyarihan",
        -9.186240942730683
      ],
      [
        "▁gumagawa",
        -9.187187226717834
      ],
      [
        "ci",
        -9.187646271746063
      ],
      [
        "▁but",
        -9.188774158191983
      ],
      [
        "taas",
        -9.19005003738896
      ],
      [
        "▁hina",
        -9.190240616390035
      ],
      [
        "los",
        -9.19052107787755
      ],
      [
        "▁Ko",
        -9.191382724788504
      ],
      [
        "▁Pag-",
        -9.1943255364131
      ],
      [
        "▁Manila",
        -9.195140971532249
      ],
      [
        "▁El",
        -9.195369692447883
      ],
      [
        "▁one",
        -9.195497829053684
      ],
      [
        "sya",
        -9.195969978135146
      ],
      [
        "ze",
        -9.196024250357075
      ],
      [
        "▁TV",
        -9.197208481149637
      ],
      [
        "▁damit",
        -9.198190582080976
      ],
      [
        "▁hanay",
        -9.198423941937444
      ],
      [
        "▁makuha",
        -9.198466320432694
      ],
      [
        "▁Dapat",
        -9.198542592205241
      ],
      [
        "bong",
        -9.198847862231958
      ],
      [
        "▁sinasabi",
        -9.201980609318671
      ],
      [
        "▁masaya",
        -9.202929137543538
      ],
      [
        "▁Alam",
        -9.202953780700687
      ],
      [
        "ino",
        -9.203044292814257
      ],
      [
        "▁tina",
        -9.204194548428443
      ],
      [
        "▁isip",
        -9.205226225521935
      ],
      [
        "▁ginamit",
        -9.205334788686654
      ],
      [
        "6",
        -9.206300621831161
      ],
      [
        "▁pagdating",
        -9.207168062094189
      ],
      [
        "000",
        -9.207597442004271
      ],
      [
        "▁An",
        -9.210114427928303
      ],
      [
        "▁lokal",
        -9.210679991720585
      ],
      [
        "▁Pan",
        -9.210721449108147
      ],
      [
        "ies",
        -9.211323737756489
      ],
      [
        "▁maliliit",
        -9.21191715257031
      ],
      [
        "▁tool",
        -9.212120754847637
      ],
      [
        "gar",
        -9.212249597572166
      ],
      [
        "▁Te",
        -9.212520782749344
      ],
      [
        "8",
        -9.213040612510392
      ],
      [
        "▁sp",
        -9.213742475778117
      ],
      [
        "▁operasyon",
        -9.21419334188951
      ],
      [
        "▁Bukod",
        -9.214262720035487
      ],
      [
        "con",
        -9.21449427807734
      ],
      [
        "▁nung",
        -9.214534959285348
      ],
      [
        "▁gayon",
        -9.215237866898365
      ],
      [
        "▁Gusto",
        -9.215240695014236
      ],
      [
        "▁proyekto",
        -9.215912328317277
      ],
      [
        "ahan",
        -9.216015453878946
      ],
      [
        "tin",
        -9.216325473584845
      ],
      [
        "▁tayong",
        -9.216823987073989
      ],
      [
        "▁diskarte",
        -9.217163177823627
      ],
      [
        "laan",
        -9.218135093721315
      ],
      [
        "balik",
        -9.219635935776614
      ],
      [
        "▁You",
        -9.219927255061748
      ],
      [
        "sin",
        -9.222156832192612
      ],
      [
        "ite",
        -9.222184323162425
      ],
      [
        "▁gitna",
        -9.223999793708442
      ],
      [
        "▁ika-",
        -9.22532470724643
      ],
      [
        "▁about",
        -9.225914744180445
      ],
      [
        "lar",
        -9.226058786412985
      ],
      [
        "▁like",
        -9.226314950128042
      ],
      [
        "▁paaralan",
        -9.227729359836063
      ],
      [
        "iya",
        -9.227912951172943
      ],
      [
        "king",
        -9.22835771194149
      ],
      [
        "ted",
        -9.230202117507295
      ],
      [
        "▁Hu",
        -9.230752104418261
      ],
      [
        "▁per",
        -9.232028737441924
      ],
      [
        "lig",
        -9.232642168775643
      ],
      [
        "ER",
        -9.233468467082545
      ],
      [
        "▁pag-ibig",
        -9.235132048136752
      ],
      [
        "ban",
        -9.236903478090317
      ],
      [
        "▁panaginip",
        -9.237086919027828
      ],
      [
        "10",
        -9.238038622383252
      ],
      [
        "ex",
        -9.239736852018684
      ],
      [
        "buti",
        -9.24020756451854
      ],
      [
        "dali",
        -9.24052961755271
      ],
      [
        "▁Philippine",
        -9.240655277451701
      ],
      [
        "ulong",
        -9.2407991534745
      ],
      [
        "▁ideya",
        -9.242907250935893
      ],
      [
        "▁Ti",
        -9.24314976339924
      ],
      [
        "▁email",
        -9.243820213205002
      ],
      [
        "ulat",
        -9.245806547957242
      ],
      [
        "▁makina",
        -9.24818884396212
      ],
      [
        "▁pe",
        -9.248484279879257
      ],
      [
        "▁ho",
        -9.249224974280846
      ],
      [
        "▁network",
        -9.249352518515844
      ],
      [
        "▁solusyon",
        -9.249637418928176
      ],
      [
        "que",
        -9.249718336680706
      ],
      [
        "tro",
        -9.250549283748533
      ],
      [
        "▁kahulugan",
        -9.251841576205349
      ],
      [
        "titi",
        -9.253678459200447
      ],
      [
        "▁Duterte",
        -9.254353453052836
      ],
      [
        "▁rito",
        -9.254409213408813
      ],
      [
        "▁tapos",
        -9.2555189065549
      ],
      [
        "ja",
        -9.257124197911747
      ],
      [
        "tak",
        -9.257635609773494
      ],
      [
        "akit",
        -9.259136450629935
      ],
      [
        "▁pinapa",
        -9.259721333998952
      ],
      [
        "?”",
        -9.259983488939394
      ],
      [
        "▁hi",
        -9.261947564562377
      ],
      [
        "gawa",
        -9.261972618244107
      ],
      [
        "▁anim",
        -9.262190614392319
      ],
      [
        "▁uod",
        -9.262791508989322
      ],
      [
        "▁ulat",
        -9.262824977667536
      ],
      [
        "▁bag",
        -9.263833442132341
      ],
      [
        "▁COVID-19",
        -9.264082066494977
      ],
      [
        "act",
        -9.264543422257033
      ],
      [
        "▁As",
        -9.268107187721059
      ],
      [
        "▁kapaligiran",
        -9.268725534799179
      ],
      [
        "Ma",
        -9.271157914123746
      ],
      [
        "ek",
        -9.271994829992432
      ],
      [
        "▁National",
        -9.272460774501432
      ],
      [
        "▁makakatulong",
        -9.272505866422865
      ],
      [
        "▁Fa",
        -9.27258144290764
      ],
      [
        "▁ulit",
        -9.273092956347615
      ],
      [
        "▁inyo",
        -9.276786330064356
      ],
      [
        "▁kondisyon",
        -9.276867010983704
      ],
      [
        "ger",
        -9.279261740598065
      ],
      [
        "▁espesyal",
        -9.280113914433107
      ],
      [
        "▁mag-aaral",
        -9.280609399939145
      ],
      [
        "ero",
        -9.280619086014351
      ],
      [
        "▁tingin",
        -9.280854577752676
      ],
      [
        "ial",
        -9.28089310943322
      ],
      [
        "▁mamamayan",
        -9.281453328394067
      ],
      [
        "▁nawala",
        -9.28323804278154
      ],
      [
        "mas",
        -9.283635685722777
      ],
      [
        "▁karagdagan",
        -9.28374127949021
      ],
      [
        "▁linya",
        -9.284651550597108
      ],
      [
        "ali",
        -9.284872583991014
      ],
      [
        "long",
        -9.286369639633339
      ],
      [
        "▁nangyayari",
        -9.286820031608563
      ],
      [
        "▁nagkaroon",
        -9.287572324468169
      ],
      [
        "▁Ne",
        -9.288179953626171
      ],
      [
        "▁mapag",
        -9.288541063458332
      ],
      [
        "▁pag-unlad",
        -9.288566799331871
      ],
      [
        "▁huli",
        -9.288714032290596
      ],
      [
        "▁*",
        -9.289328402592089
      ],
      [
        "▁pagbibigay",
        -9.291486234287717
      ],
      [
        "▁kabila",
        -9.291683664910316
      ],
      [
        "▁—",
        -9.29658825493231
      ],
      [
        "▁disenyo",
        -9.296718948390401
      ],
      [
        "ika",
        -9.296727704224434
      ],
      [
        "▁14",
        -9.296969245943691
      ],
      [
        "▁Facebook",
        -9.297191363644636
      ],
      [
        "▁matagal",
        -9.297399765920716
      ],
      [
        "▁ibabaw",
        -9.297571005932982
      ],
      [
        "▁lumikha",
        -9.297754719167544
      ],
      [
        "▁taon,",
        -9.29809502484177
      ],
      [
        "▁isda",
        -9.298204106269647
      ],
      [
        "▁pagkuha",
        -9.299118869214384
      ],
      [
        "ens",
        -9.299123159104477
      ],
      [
        "▁bonus",
        -9.299184947364093
      ],
      [
        "j",
        -9.300858733511753
      ],
      [
        "day",
        -9.30190602833718
      ],
      [
        "▁labi",
        -9.302002930641526
      ],
      [
        "▁luma",
        -9.303156800532797
      ],
      [
        "▁paglalaro",
        -9.307207273809196
      ],
      [
        "▁estado",
        -9.307945969516268
      ],
      [
        "▁simpleng",
        -9.308781527470224
      ],
      [
        "▁kwento",
        -9.309407020859034
      ],
      [
        "▁pananaliksik",
        -9.310340675251549
      ],
      [
        "ila",
        -9.311209667156541
      ],
      [
        "▁um",
        -9.315196027241564
      ],
      [
        "▁Department",
        -9.316516551233864
      ],
      [
        "bal",
        -9.31788515885187
      ],
      [
        "▁makapag",
        -9.318577220703636
      ],
      [
        "▁suma",
        -9.321393863274107
      ],
      [
        "▁kapwa",
        -9.32153685579852
      ],
      [
        "▁lumabas",
        -9.321551975617592
      ],
      [
        "▁ngayon,",
        -9.322329192434477
      ],
      [
        "▁3.",
        -9.32256735033892
      ],
      [
        "kay",
        -9.322685033605852
      ],
      [
        "▁lalong",
        -9.323166861373776
      ],
      [
        "nal",
        -9.323559678116574
      ],
      [
        "▁kuwento",
        -9.324129488021978
      ],
      [
        "paki-pakinabang",
        -9.325668501061427
      ],
      [
        "e.",
        -9.32603360184568
      ],
      [
        "▁sikat",
        -9.326334792093293
      ],
      [
        "▁atin",
        -9.326519541741517
      ],
      [
        "mba",
        -9.327803119056826
      ],
      [
        "▁balita",
        -9.327818331638333
      ],
      [
        "tawa",
        -9.328268089748983
      ],
      [
        "▁pu",
        -9.328852006016627
      ],
      [
        "▁tula",
        -9.329660467165999
      ],
      [
        "ness",
        -9.32994205588774
      ],
      [
        "▁bags",
        -9.33047560048303
      ],
      [
        "▁kasaysayan",
        -9.331051083019979
      ],
      [
        "tayo",
        -9.332954360359858
      ],
      [
        "▁mahabang",
        -9.334301217550255
      ],
      [
        "AR",
        -9.335080793203193
      ],
      [
        "▁limang",
        -9.33531546477604
      ],
      [
        "sti",
        -9.336483127940506
      ],
      [
        "amp",
        -9.336571650882307
      ],
      [
        "nya",
        -9.33753853053294
      ],
      [
        "tri",
        -9.338377859697278
      ],
      [
        "▁gumamit",
        -9.338571267467286
      ],
      [
        "▁indibidwal",
        -9.339120511872325
      ],
      [
        "'t",
        -9.339170956356861
      ],
      [
        "▁Man",
        -9.339273549208016
      ],
      [
        "▁nawawala",
        -9.340004201092341
      ],
      [
        "▁minuto",
        -9.340632871639317
      ],
      [
        "▁base",
        -9.341294802818938
      ],
      [
        "and",
        -9.34166236462513
      ],
      [
        "▁rate",
        -9.34222222994161
      ],
      [
        "▁patakaran",
        -9.34298451687335
      ],
      [
        "▁klase",
        -9.343000688220679
      ],
      [
        "▁ani",
        -9.34417058381584
      ],
      [
        "▁taya",
        -9.344548899519557
      ],
      [
        "sik",
        -9.345493509626435
      ],
      [
        "basa",
        -9.34552081128625
      ],
      [
        "▁circles",
        -9.345852445907486
      ],
      [
        "▁gilid",
        -9.346232904173712
      ],
      [
        "9",
        -9.346868058892516
      ],
      [
        "ard",
        -9.346963898027216
      ],
      [
        "▁mo.",
        -9.34786852260332
      ],
      [
        "iti",
        -9.348918675851564
      ],
      [
        "▁13",
        -9.351128533725946
      ],
      [
        "▁sapagkat",
        -9.351247190843756
      ],
      [
        "ler",
        -9.351698711320356
      ],
      [
        "▁ako.",
        -9.351940337448028
      ],
      [
        "kal",
        -9.352523144984097
      ],
      [
        "bin",
        -9.35305184560947
      ],
      [
        "▁pang-",
        -9.353532553678821
      ],
      [
        "▁niyo",
        -9.353564041842185
      ],
      [
        "▁Narito",
        -9.353842353748258
      ],
      [
        "▁palaging",
        -9.353908821146286
      ],
      [
        "▁Ja",
        -9.35529200090332
      ],
      [
        "▁tagumpay",
        -9.357113038904778
      ],
      [
        "▁gumagana",
        -9.357550772653422
      ],
      [
        "▁show",
        -9.358076221875068
      ],
      [
        "▁pagkawala",
        -9.361407814030137
      ],
      [
        "▁How",
        -9.361616674615352
      ],
      [
        "▁pumili",
        -9.361955361033184
      ],
      [
        "alaga",
        -9.362788018905107
      ],
      [
        "▁harap",
        -9.36303047328634
      ],
      [
        "lad",
        -9.363398431909708
      ],
      [
        "▁dati",
        -9.36343306396682
      ],
      [
        "▁araw-araw",
        -9.363941515990689
      ],
      [
        "ence",
        -9.364457212096605
      ],
      [
        "nong",
        -9.364474269981507
      ],
      [
        "wag",
        -9.364589596959284
      ],
      [
        "▁tuwing",
        -9.364721112398612
      ],
      [
        "▁Go",
        -9.364832151688754
      ],
      [
        "ble",
        -9.364994920492709
      ],
      [
        "▁Z",
        -9.366059475400442
      ],
      [
        "punta",
        -9.367223799342213
      ],
      [
        "ous",
        -9.369003006422558
      ],
      [
        "likha",
        -9.369749124085438
      ],
      [
        "gana",
        -9.36988600713231
      ],
      [
        "got",
        -9.370542496532556
      ],
      [
        "▁uma",
        -9.370688374672515
      ],
      [
        "e,",
        -9.371771393177049
      ],
      [
        "ding",
        -9.372544353728514
      ],
      [
        "end",
        -9.372604281667208
      ],
      [
        "cu",
        -9.378810783077833
      ],
      [
        "Ang",
        -9.379500569085758
      ],
      [
        "▁sukat",
        -9.381349495823919
      ],
      [
        "▁gatas",
        -9.381703680109359
      ],
      [
        "ub",
        -9.381734242992277
      ],
      [
        "ill",
        -9.384148463921768
      ],
      [
        "ante",
        -9.385149258084752
      ],
      [
        "▁tawag",
        -9.385250306865222
      ],
      [
        "▁ko,",
        -9.38532284037991
      ],
      [
        "▁angkop",
        -9.38662481914734
      ],
      [
        "ser",
        -9.38730629596761
      ],
      [
        "ste",
        -9.388897244056603
      ],
      [
        "TO",
        -9.389552241279581
      ],
      [
        "▁Jesus",
        -9.390753742071418
      ],
      [
        "lic",
        -9.392349174727146
      ],
      [
        "▁iyon.",
        -9.39304650266184
      ],
      [
        "▁timbang,",
        -9.393297872319973
      ],
      [
        "ari",
        -9.393896756205836
      ],
      [
        "law",
        -9.393976443073628
      ],
      [
        "▁regular",
        -9.394431529751598
      ],
      [
        "▁lubos",
        -9.394438291194165
      ],
      [
        "▁le",
        -9.394638917308633
      ],
      [
        "▁timbang.",
        -9.394853710126041
      ],
      [
        "bra",
        -9.395641076052875
      ],
      [
        "▁just",
        -9.397013393473944
      ],
      [
        "uri",
        -9.397214471241634
      ],
      [
        "▁bukas",
        -9.398334823604262
      ],
      [
        "▁16",
        -9.39836680328049
      ],
      [
        "ual",
        -9.399138538067385
      ],
      [
        "pin",
        -9.39939265428173
      ],
      [
        "▁enerhiya",
        -9.4003477195172
      ],
      [
        "ure",
        -9.400662374600625
      ],
      [
        "▁araw.",
        -9.400702920024269
      ],
      [
        "▁she",
        -9.400735719964763
      ],
      [
        "▁malalaking",
        -9.403841265894227
      ],
      [
        "hiya",
        -9.405193967046145
      ],
      [
        "▁fa",
        -9.405294401616954
      ],
      [
        "▁malamang",
        -9.405309540965778
      ],
      [
        "IT",
        -9.405816187625996
      ],
      [
        "▁matatagpuan",
        -9.40602048768185
      ],
      [
        "sabi",
        -9.408873062003304
      ],
      [
        "▁tagagawa",
        -9.409894616768604
      ],
      [
        "▁pangyayari",
        -9.410225276598325
      ],
      [
        "▁New",
        -9.410277458205583
      ],
      [
        "▁patungo",
        -9.41189177055486
      ],
      [
        "▁nakuha",
        -9.412280094657966
      ],
      [
        "sion",
        -9.412963527414606
      ],
      [
        "▁tip",
        -9.417457471303607
      ],
      [
        "▁tahanan",
        -9.41891234175608
      ],
      [
        "▁hangin",
        -9.41971599720079
      ],
      [
        "▁mundo.",
        -9.419742272651382
      ],
      [
        "▁bisita",
        -9.419756294275853
      ],
      [
        "▁normal",
        -9.420101521576488
      ],
      [
        "▁aso",
        -9.4201448915029
      ],
      [
        "▁ayaw",
        -9.420388438317561
      ],
      [
        "▁application",
        -9.421843381867689
      ],
      [
        "▁Per",
        -9.423899922395707
      ],
      [
        "▁implants",
        -9.424138635935051
      ],
      [
        "Z",
        -9.42466695155089
      ],
      [
        "▁aktibidad",
        -9.426171422920355
      ],
      [
        "▁Ri",
        -9.426513644423956
      ],
      [
        "bel",
        -9.42679463685522
      ],
      [
        "▁kakayahan",
        -9.427696817894057
      ],
      [
        "▁ca",
        -9.42779973265863
      ],
      [
        "uwi",
        -9.42836254906257
      ],
      [
        "▁galing",
        -9.429006010120466
      ],
      [
        "bigay",
        -9.429176496275263
      ],
      [
        "▁China",
        -9.42924275003303
      ],
      [
        "▁work",
        -9.42942238998268
      ],
      [
        "▁mensahe",
        -9.42956603063081
      ],
      [
        "nte",
        -9.429952171840277
      ],
      [
        "▁magkakaroon",
        -9.430405726004237
      ],
      [
        "▁2020",
        -9.432041952624424
      ],
      [
        "▁Ku",
        -9.43319233312321
      ],
      [
        "may",
        -9.433612571142342
      ],
      [
        "▁Pe",
        -9.433970654832514
      ],
      [
        "▁benepisyo",
        -9.434474178843436
      ],
      [
        "▁palakihin",
        -9.435296176681755
      ],
      [
        "_",
        -9.435746847842456
      ],
      [
        "▁tagapag",
        -9.436227454903324
      ],
      [
        "▁ibinigay",
        -9.436252567202796
      ],
      [
        "ated",
        -9.436790617437087
      ],
      [
        "bago",
        -9.436878296504599
      ],
      [
        "▁24",
        -9.437027170990985
      ],
      [
        "▁pagbabayad",
        -9.438233912147583
      ],
      [
        "jo",
        -9.438307586085566
      ],
      [
        "▁lipunan",
        -9.438819320204239
      ],
      [
        "nom",
        -9.439039201641647
      ],
      [
        "▁us",
        -9.43913879177225
      ],
      [
        "▁maikling",
        -9.43945115670132
      ],
      [
        "▁Lahat",
        -9.439768764416502
      ],
      [
        "▁ngayon.",
        -9.440787604468266
      ],
      [
        "▁naghahanap",
        -9.441860178357867
      ],
      [
        "ara",
        -9.442267745324752
      ],
      [
        "▁desisyon",
        -9.442744065427311
      ],
      [
        "▁lunas",
        -9.44457279926902
      ],
      [
        "▁(P",
        -9.444629813118288
      ],
      [
        "▁host",
        -9.447409910314931
      ],
      [
        "bre",
        -9.44742122611233
      ],
      [
        "▁tingnan",
        -9.447880040922826
      ],
      [
        "▁kaligtasan",
        -9.448102625476793
      ],
      [
        "▁kama",
        -9.448701686422867
      ],
      [
        "saya",
        -9.448915177153351
      ],
      [
        "▁Health",
        -9.449347282756184
      ],
      [
        "row",
        -9.45086927799659
      ],
      [
        ".com",
        -9.451077904778721
      ],
      [
        "ndi",
        -9.45280066300678
      ],
      [
        "tatag",
        -9.452903628528643
      ],
      [
        "▁Pangulong",
        -9.452989818309852
      ],
      [
        "▁over",
        -9.454744814644744
      ],
      [
        "▁kultura",
        -9.455755508898315
      ],
      [
        "ach",
        -9.456037166532143
      ],
      [
        "▁kaganapan",
        -9.456469327109582
      ],
      [
        "▁nagpapakita",
        -9.456925529735468
      ],
      [
        "tuwa",
        -9.4571076500763
      ],
      [
        "ost",
        -9.457494792073573
      ],
      [
        "▁handa",
        -9.458649180727637
      ],
      [
        "▁Be",
        -9.46021935914574
      ],
      [
        "net",
        -9.460750931263703
      ],
      [
        "▁what",
        -9.461223666280162
      ],
      [
        "▁silicone",
        -9.462331033811013
      ],
      [
        "▁itim",
        -9.464442735266736
      ],
      [
        "den",
        -9.46484680227005
      ],
      [
        "▁pasyente",
        -9.465437751720302
      ],
      [
        "ON",
        -9.466447695730004
      ],
      [
        "▁Mayroong",
        -9.466882233524752
      ],
      [
        "▁aparato",
        -9.466979903416862
      ],
      [
        "by",
        -9.469105069235273
      ],
      [
        "▁honey",
        -9.469158275240828
      ],
      [
        "aw",
        -9.469965136302356
      ],
      [
        "▁Sabi",
        -9.470001647690454
      ],
      [
        "kuha",
        -9.470502271945621
      ],
      [
        "▁pondo",
        -9.470798898294204
      ],
      [
        "AY",
        -9.47105740803895
      ],
      [
        "▁know",
        -9.471937226618483
      ],
      [
        "▁tra",
        -9.472026944666316
      ],
      [
        "▁Online",
        -9.472557335759017
      ],
      [
        "ral",
        -9.472917796945952
      ],
      [
        "▁karapatan",
        -9.47375500933265
      ],
      [
        "▁protina",
        -9.474040650778864
      ],
      [
        "ala",
        -9.474284653839938
      ],
      [
        "▁suspek",
        -9.475059877212743
      ],
      [
        "ron",
        -9.475415490313535
      ],
      [
        "▁palitan",
        -9.475682295626537
      ],
      [
        "▁4.",
        -9.475812349775591
      ],
      [
        "utan",
        -9.476405035067458
      ],
      [
        "▁iyo.",
        -9.476592832270962
      ],
      [
        "ide",
        -9.476758693501507
      ],
      [
        "▁kasanayan",
        -9.477365032812248
      ],
      [
        "bahagi",
        -9.477884761930582
      ],
      [
        "▁paksa",
        -9.47880501867882
      ],
      [
        "pat",
        -9.479150834664864
      ],
      [
        "rian",
        -9.479756512682831
      ],
      [
        "▁pansin",
        -9.480095761958676
      ],
      [
        "▁lo",
        -9.480487978273644
      ],
      [
        "▁mapagkukunan",
        -9.48063616027175
      ],
      [
        "▁Sp",
        -9.480962958359699
      ],
      [
        "▁Dr",
        -9.481248848428644
      ],
      [
        "ndo",
        -9.482047827438237
      ],
      [
        "ful",
        -9.48233508354961
      ],
      [
        "▁free",
        -9.48265448576285
      ],
      [
        "▁ANG",
        -9.483084123162328
      ],
      [
        "▁lu",
        -9.483197028116033
      ],
      [
        "out",
        -9.483262493130649
      ],
      [
        "AT",
        -9.483451752474569
      ],
      [
        "▁manalo",
        -9.48362119603536
      ],
      [
        "▁propesyonal",
        -9.484054313941371
      ],
      [
        "▁ehersisyo",
        -9.484841866054184
      ],
      [
        "▁kakayahang",
        -9.486910877049125
      ],
      [
        "rami",
        -9.488115424625818
      ],
      [
        "▁his",
        -9.488356658212593
      ],
      [
        "▁first",
        -9.488685340208443
      ],
      [
        "▁high",
        -9.488953135539175
      ],
      [
        "yaw",
        -9.489755551535868
      ],
      [
        "syo",
        -9.490113780930093
      ],
      [
        "▁·",
        -9.49048169692939
      ],
      [
        "▁wikang",
        -9.490967905600966
      ],
      [
        "▁kawalan",
        -9.491177162877726
      ],
      [
        "▁banda",
        -9.491696996769537
      ],
      [
        "▁mali",
        -9.491780107009193
      ],
      [
        "▁Marami",
        -9.49281748581367
      ],
      [
        "laki",
        -9.49286550827191
      ],
      [
        "▁subukan",
        -9.49291067684866
      ],
      [
        "▁Du",
        -9.493111304008634
      ],
      [
        "▁bigyan",
        -9.493591565802285
      ],
      [
        "▁pinsala",
        -9.494208394901268
      ],
      [
        "▁papa",
        -9.494654608813939
      ],
      [
        "▁nagsisimula",
        -9.495365755916705
      ],
      [
        "▁gu",
        -9.496002668692698
      ],
      [
        "▁tuma",
        -9.496448288972262
      ],
      [
        "▁Instagram",
        -9.49649644879846
      ],
      [
        "▁25",
        -9.496736689554504
      ],
      [
        "▁user",
        -9.496824572789356
      ],
      [
        "OR",
        -9.49711066487923
      ],
      [
        "▁50",
        -9.497151994466522
      ],
      [
        "▁Ru",
        -9.497733740648536
      ],
      [
        "▁pumasok",
        -9.498406779689525
      ],
      [
        "▁file",
        -9.498835765624198
      ],
      [
        "lili",
        -9.499272047818584
      ],
      [
        "▁posibilidad",
        -9.499846844368308
      ],
      [
        "daan",
        -9.500128577759256
      ],
      [
        "▁takot",
        -9.50074239355958
      ],
      [
        "▁magsimula",
        -9.500935083993468
      ],
      [
        "pos",
        -9.501721036342467
      ],
      [
        "hal",
        -9.501840418967245
      ],
      [
        "▁modelo",
        -9.504361533276962
      ],
      [
        "▁screen",
        -9.505057051367665
      ],
      [
        "bayan",
        -9.506100110195773
      ],
      [
        "▁day",
        -9.50742158123143
      ],
      [
        "uni",
        -9.507544649458413
      ],
      [
        "red",
        -9.50834091948627
      ],
      [
        "▁pahina",
        -9.508478627432128
      ],
      [
        "DA",
        -9.50901713033848
      ],
      [
        "ship",
        -9.509131517094248
      ],
      [
        "▁makatulong",
        -9.509339256524191
      ],
      [
        "kap",
        -9.510615418464448
      ],
      [
        "▁Kasama",
        -9.510869125904465
      ],
      [
        "Matapos",
        -9.510955260094764
      ],
      [
        "ries",
        -9.511520600734354
      ],
      [
        "ight",
        -9.511988511666855
      ],
      [
        "▁bumalik",
        -9.512110101108437
      ],
      [
        "▁komunidad",
        -9.512179285126683
      ],
      [
        "▁nagawa",
        -9.51302962545134
      ],
      [
        "ING",
        -9.513540986833739
      ],
      [
        "rit",
        -9.513956190101565
      ],
      [
        "▁detalye",
        -9.514397316955774
      ],
      [
        "▁Iba",
        -9.515736648307092
      ],
      [
        "▁school",
        -9.51598125183177
      ],
      [
        "▁aniya",
        -9.516317948652617
      ],
      [
        "tok",
        -9.517289504465602
      ],
      [
        "▁Q",
        -9.517415537441904
      ],
      [
        "▁dark",
        -9.51758956322544
      ],
      [
        "ip",
        -9.518672134899715
      ],
      [
        "▁naglalaman",
        -9.519479410418374
      ],
      [
        "amba",
        -9.520074812395972
      ],
      [
        "kit",
        -9.52026343285687
      ],
      [
        "▁sub",
        -9.520585255682668
      ],
      [
        "!”",
        -9.522110202007157
      ],
      [
        "lock",
        -9.522696332581768
      ],
      [
        "▁salitang",
        -9.522987644374371
      ],
      [
        "▁2019",
        -9.524015696307941
      ],
      [
        "▁who",
        -9.52418027062264
      ],
      [
        "IS",
        -9.524684897544882
      ],
      [
        "lawak",
        -9.525144735853395
      ],
      [
        "sen",
        -9.525235761070858
      ],
      [
        "▁petsa",
        -9.526201227250889
      ],
      [
        "▁sc",
        -9.526223200571321
      ],
      [
        "▁pagtitistis",
        -9.526311957262324
      ],
      [
        "▁posibleng",
        -9.526607254086427
      ],
      [
        "▁Is",
        -9.527568182974017
      ],
      [
        "▁Panginoon",
        -9.52852249850328
      ],
      [
        "galing",
        -9.52902238403812
      ],
      [
        "▁siguro",
        -9.529774914624483
      ],
      [
        "iyak",
        -9.53034082927734
      ],
      [
        "▁software",
        -9.531870863952502
      ],
      [
        "▁pangarap",
        -9.532203266458795
      ],
      [
        "▁manipis",
        -9.532503854525565
      ],
      [
        "▁nakatuon",
        -9.532659118520348
      ],
      [
        "▁computer",
        -9.532795201650508
      ],
      [
        "bili",
        -9.533155834340539
      ],
      [
        "lab",
        -9.534653006464982
      ],
      [
        "com",
        -9.534659787854187
      ],
      [
        "▁koponan",
        -9.534900360041437
      ],
      [
        "▁ilagay",
        -9.535116530319073
      ],
      [
        "▁Pin",
        -9.535560932255544
      ],
      [
        "ire",
        -9.53560304742196
      ],
      [
        "▁It",
        -9.536379706543165
      ],
      [
        "▁materyal",
        -9.537413765436272
      ],
      [
        "LI",
        -9.538083111027492
      ],
      [
        "ism",
        -9.538192898355348
      ],
      [
        "ust",
        -9.538498054009873
      ],
      [
        "tar",
        -9.540214775499884
      ],
      [
        "▁laging",
        -9.540289528510772
      ],
      [
        "▁bibig",
        -9.540496911769795
      ],
      [
        "▁artikulo",
        -9.540761569222372
      ],
      [
        "▁katawan.",
        -9.540981645526836
      ],
      [
        "ulan",
        -9.541498220831922
      ],
      [
        "▁“A",
        -9.541900604165507
      ],
      [
        "▁pinaka-",
        -9.541936629951767
      ],
      [
        "▁serye",
        -9.542018661393769
      ],
      [
        "▁posisyon",
        -9.544791926487717
      ],
      [
        "▁Ad",
        -9.545620263892326
      ],
      [
        "▁litrato",
        -9.546024332295714
      ],
      [
        "▁Fi",
        -9.546630275478702
      ],
      [
        "▁pananaw",
        -9.547223974967082
      ],
      [
        "▁link",
        -9.547359919821378
      ],
      [
        "pot",
        -9.547836802756954
      ],
      [
        "▁health",
        -9.549201873525217
      ],
      [
        "bor",
        -9.549650214436623
      ],
      [
        "▁meron",
        -9.550020813243512
      ],
      [
        "dge",
        -9.550233959820858
      ],
      [
        "▁100",
        -9.550503843231079
      ],
      [
        "▁they",
        -9.551210453288103
      ],
      [
        "ugnay",
        -9.551521739815662
      ],
      [
        "▁if",
        -9.552905271269983
      ],
      [
        "▁dagdag",
        -9.55301445625639
      ],
      [
        "qui",
        -9.553060142650432
      ],
      [
        "▁tumu",
        -9.553190435243186
      ],
      [
        "▁Casino",
        -9.553808658352683
      ],
      [
        "▁Fe",
        -9.554560192555742
      ],
      [
        "ating",
        -9.554699266286567
      ],
      [
        "▁bersyon",
        -9.554740642011172
      ],
      [
        "▁tumutulong",
        -9.555085362870248
      ],
      [
        "▁Col",
        -9.555143112658856
      ],
      [
        "(",
        -9.55610712213839
      ],
      [
        "lagay",
        -9.557272777098081
      ],
      [
        "nce",
        -9.557289317613256
      ],
      [
        "hanga",
        -9.557346176413814
      ],
      [
        "ee",
        -9.558390757215733
      ],
      [
        "▁malusog",
        -9.559635863421278
      ],
      [
        "itan",
        -9.560078334512939
      ],
      [
        "▁daan",
        -9.560337342184397
      ],
      [
        "ving",
        -9.560379103585355
      ],
      [
        "▁kailanman",
        -9.560497838454395
      ],
      [
        "▁ipag",
        -9.561515600359435
      ],
      [
        "▁pagmamahal",
        -9.561992043692461
      ],
      [
        "bis",
        -9.562042424754324
      ],
      [
        "▁malalim",
        -9.562221274309817
      ],
      [
        "▁order",
        -9.56390226193163
      ],
      [
        "▁edukasyon",
        -9.564331808788271
      ],
      [
        "▁17",
        -9.56487353878397
      ],
      [
        "▁baby",
        -9.564970697513438
      ],
      [
        "▁buto",
        -9.56513039899738
      ],
      [
        "▁fl",
        -9.565462908567739
      ],
      [
        "▁bahay.",
        -9.565858681450628
      ],
      [
        "form",
        -9.566681593610921
      ],
      [
        "▁guro",
        -9.56768620129128
      ],
      [
        "▁dalaga",
        -9.567909609392169
      ],
      [
        "tim",
        -9.568299807323681
      ],
      [
        "▁kinakailangang",
        -9.568676419365625
      ],
      [
        "▁Face",
        -9.568676446067425
      ],
      [
        "ene",
        -9.56913578425926
      ],
      [
        "mis",
        -9.570870211812293
      ],
      [
        "aryo",
        -9.571150459180785
      ],
      [
        "▁Pre",
        -9.571414078707981
      ],
      [
        "bang",
        -9.57156305580457
      ],
      [
        "▁other",
        -9.572608602625229
      ],
      [
        "▁Ex",
        -9.572809676211392
      ],
      [
        "init",
        -9.573018495404026
      ],
      [
        "ito",
        -9.575110824263199
      ],
      [
        "▁publiko",
        -9.576488576361422
      ],
      [
        "ez",
        -9.57668112106417
      ],
      [
        "▁Bago",
        -9.57672784120153
      ],
      [
        "▁good",
        -9.577022433343533
      ],
      [
        "pre",
        -9.577587311616869
      ],
      [
        "▁40",
        -9.577618996788045
      ],
      [
        "kilala",
        -9.578423229569063
      ],
      [
        "▁John",
        -9.57860745159088
      ],
      [
        "▁magamit",
        -9.579759280190956
      ],
      [
        "TA",
        -9.579778480712916
      ],
      [
        "▁pagtaya",
        -9.580096066180861
      ],
      [
        "▁inaasahan",
        -9.580558371533655
      ],
      [
        "▁kadahilanan",
        -9.580807941849502
      ],
      [
        "▁paghahanda",
        -9.580872189412164
      ],
      [
        "▁“I",
        -9.581718188968138
      ],
      [
        "▁rehiyon",
        -9.581918324740105
      ],
      [
        "▁mata.",
        -9.582043726655684
      ],
      [
        "▁estudyante",
        -9.58223288390171
      ],
      [
        "▁mata,",
        -9.582394999377719
      ],
      [
        "lon",
        -9.582430253493932
      ],
      [
        "▁com",
        -9.582443174988166
      ],
      [
        "▁maglaro",
        -9.582656520067669
      ],
      [
        "pp",
        -9.58283962375066
      ],
      [
        "▁2021",
        -9.582965361343527
      ],
      [
        "bak",
        -9.584547772710712
      ],
      [
        "cent",
        -9.585393425261191
      ],
      [
        "▁mainit",
        -9.5866605383292
      ],
      [
        "▁Dibdib",
        -9.5868382722691
      ],
      [
        "rate",
        -9.587184955078428
      ],
      [
        "▁ipinag",
        -9.587439305769811
      ],
      [
        "▁part",
        -9.588407980209261
      ],
      [
        "▁Kanyang",
        -9.589566379910403
      ],
      [
        "es,",
        -9.590340697164885
      ],
      [
        "▁kaugnay",
        -9.590530109280072
      ],
      [
        "ear",
        -9.591227263814659
      ],
      [
        "▁telepono",
        -9.591625201972278
      ],
      [
        "▁tindahan",
        -9.591635700228796
      ],
      [
        "▁maunawaan",
        -9.592898495020917
      ],
      [
        "▁their",
        -9.59316549305176
      ],
      [
        "▁binubuo",
        -9.593867830204037
      ],
      [
        "▁pagmimina",
        -9.594669174174292
      ],
      [
        "lap",
        -9.594802125914992
      ],
      [
        "gad",
        -9.594836135574273
      ],
      [
        "▁2018",
        -9.594952616390307
      ],
      [
        "▁Min",
        -9.594953917537039
      ],
      [
        "▁magpapa",
        -9.5956927367543
      ],
      [
        "▁pulis",
        -9.596891221754086
      ],
      [
        "can",
        -9.597606445034618
      ],
      [
        "▁paglalakbay",
        -9.597721703965343
      ],
      [
        "LO",
        -9.600765179571598
      ],
      [
        "tes",
        -9.600809592623953
      ],
      [
        "lip",
        -9.601183680111072
      ],
      [
        "▁pagbili",
        -9.603679724306359
      ],
      [
        "▁kalagayan",
        -9.60373031178685
      ],
      [
        "50",
        -9.60515876990997
      ],
      [
        "▁gustong",
        -9.606358107051785
      ],
      [
        "▁Samantala,",
        -9.606622229584024
      ],
      [
        "ult",
        -9.607056757262292
      ],
      [
        "husay",
        -9.607363837659967
      ],
      [
        "▁program",
        -9.6078770845415
      ],
      [
        "para",
        -9.60875989704144
      ],
      [
        "▁nagsimula",
        -9.610167860717958
      ],
      [
        "RE",
        -9.610336649575274
      ],
      [
        "▁Wa",
        -9.61146313460743
      ],
      [
        "▁bumaba",
        -9.61152935173411
      ],
      [
        "▁web",
        -9.611561616719221
      ],
      [
        "▁nararamdaman",
        -9.611819616756149
      ],
      [
        "▁has",
        -9.61225143706547
      ],
      [
        "ksyon",
        -9.61253064985631
      ],
      [
        "▁pamamahala",
        -9.613152243999737
      ],
      [
        "ise",
        -9.613263666433946
      ],
      [
        "▁sinu",
        -9.613445020751609
      ],
      [
        "*",
        -9.613762791273517
      ],
      [
        "bil",
        -9.613997663659088
      ],
      [
        "?\"",
        -9.614131299000228
      ],
      [
        "▁seguridad",
        -9.614761314075327
      ],
      [
        "▁form",
        -9.614766024402273
      ],
      [
        "▁produktong",
        -9.615540949752225
      ],
      [
        "▁mala",
        -9.615724783829636
      ],
      [
        "▁him",
        -9.616163030549002
      ],
      [
        "AP",
        -9.616421945371314
      ],
      [
        "▁pagdurog",
        -9.617093172066868
      ],
      [
        "▁manggagawa",
        -9.617422454288665
      ],
      [
        "▁nila.",
        -9.618092733689288
      ],
      [
        "▁magagandang",
        -9.618208901511306
      ],
      [
        "▁likas",
        -9.618455602198894
      ],
      [
        "len",
        -9.618528994725263
      ],
      [
        "ksi",
        -9.618627942361913
      ],
      [
        "iko",
        -9.6192039440157
      ],
      [
        "▁kasal",
        -9.61925070651947
      ],
      [
        "ren",
        -9.619268051692915
      ],
      [
        "▁tanging",
        -9.61957187064792
      ],
      [
        "▁pagkakaiba",
        -9.619740108468598
      ],
      [
        "ves",
        -9.620289898831805
      ],
      [
        "▁kalikasan",
        -9.620342753289487
      ],
      [
        "▁pagbuo",
        -9.620416664607575
      ],
      [
        "▁simple",
        -9.620919969069814
      ],
      [
        "▁interes",
        -9.621940157646373
      ],
      [
        "▁Tina",
        -9.623339556347963
      ],
      [
        "▁pwede",
        -9.62405682417034
      ],
      [
        "▁pagpili",
        -9.624194996213197
      ],
      [
        "▁Ini",
        -9.624316784661705
      ],
      [
        "▁Cha",
        -9.624559907757789
      ],
      [
        "▁akin.",
        -9.626545837930436
      ],
      [
        "ue",
        -9.627570907538146
      ],
      [
        "▁blog",
        -9.627859039820306
      ],
      [
        "▁Ju",
        -9.628325945226434
      ],
      [
        "▁Mon",
        -9.629918979403762
      ],
      [
        "▁Cu",
        -9.630596162964471
      ],
      [
        "▁nagka",
        -9.63094426617184
      ],
      [
        "pul",
        -9.631145794978542
      ],
      [
        "▁titi",
        -9.631573906595326
      ],
      [
        "▁temperatura",
        -9.631597561390523
      ],
      [
        "hel",
        -9.634442225806213
      ],
      [
        "nyo",
        -9.635117240270398
      ],
      [
        "▁pagsa",
        -9.635131703178416
      ],
      [
        "▁oras.",
        -9.635566526270416
      ],
      [
        "▁dala",
        -9.635658533485216
      ],
      [
        "▁yugto",
        -9.636102853328385
      ],
      [
        "▁tablet",
        -9.63620976839216
      ],
      [
        "▁Je",
        -9.637264051668728
      ],
      [
        "▁kanila.",
        -9.637705074627352
      ],
      [
        "▁suriin",
        -9.637959020889502
      ],
      [
        "umi",
        -9.638057914478834
      ],
      [
        "▁mukhang",
        -9.63826729722269
      ],
      [
        "▁damdamin",
        -9.638615249248257
      ],
      [
        "isip",
        -9.6387316453179
      ],
      [
        "▁makipag",
        -9.63893250251367
      ],
      [
        "▁Google",
        -9.6397875275161
      ],
      [
        "▁araw,",
        -9.639950568628752
      ],
      [
        "▁orihinal",
        -9.640123197672605
      ],
      [
        "▁iyan",
        -9.640557630994799
      ],
      [
        "▁darating",
        -9.641260116605403
      ],
      [
        "▁totoong",
        -9.64153002275153
      ],
      [
        "bol",
        -9.643024807931118
      ],
      [
        "▁car",
        -9.643243269636992
      ],
      [
        "mal",
        -9.643368408450984
      ],
      [
        "mun",
        -9.643544639322508
      ],
      [
        "rot",
        -9.643546855938189
      ],
      [
        "▁libro",
        -9.644080544903547
      ],
      [
        "▁want",
        -9.644166517298366
      ],
      [
        "uma",
        -9.644482220655911
      ],
      [
        "lulu",
        -9.644570286189255
      ],
      [
        "▁comp",
        -9.644637749021605
      ],
      [
        "mark",
        -9.645266721263809
      ],
      [
        "▁trans",
        -9.645341806054944
      ],
      [
        "▁matagumpay",
        -9.645419224673189
      ],
      [
        "▁Ki",
        -9.64552626867864
      ],
      [
        "ami",
        -9.645897387562087
      ],
      [
        "▁spot",
        -9.64604422030627
      ],
      [
        "ikot",
        -9.64709120527255
      ],
      [
        "the",
        -9.647463965822789
      ],
      [
        "pasok",
        -9.647671986078345
      ],
      [
        "ever",
        -9.648020333343911
      ],
      [
        "▁libre",
        -9.648228391555099
      ],
      [
        "▁pagpapaluwang",
        -9.648553019558328
      ],
      [
        "▁pisikal",
        -9.648894329671267
      ],
      [
        "▁nyo",
        -9.649297330182897
      ],
      [
        "▁(S",
        -9.649343164775544
      ],
      [
        "er,",
        -9.649572913217114
      ],
      [
        "▁bituka",
        -9.650588052910656
      ],
      [
        "oc",
        -9.650768625191132
      ],
      [
        "▁kilalang",
        -9.650840259218038
      ],
      [
        "▁internet",
        -9.651338015828319
      ],
      [
        "▁init",
        -9.651394855701984
      ],
      [
        "▁vi",
        -9.651483625552608
      ],
      [
        "▁Mayor",
        -9.652164823788365
      ],
      [
        "▁gulay",
        -9.652273124760564
      ],
      [
        "ris",
        -9.652665200773178
      ],
      [
        "ramdam",
        -9.652895872006141
      ],
      [
        "▁This",
        -9.653098636921582
      ],
      [
        "▁pagbubuntis",
        -9.65316610344243
      ],
      [
        "win",
        -9.653351676109116
      ],
      [
        "▁Police",
        -9.654201173782894
      ],
      [
        "▁Th",
        -9.654697004591085
      ],
      [
        "cre",
        -9.655979896258284
      ],
      [
        "loob",
        -9.65605604143173
      ],
      [
        "▁pampa",
        -9.656367153781103
      ],
      [
        "▁utak",
        -9.656613304276613
      ],
      [
        "dya",
        -9.65681068935719
      ],
      [
        "▁giardia",
        -9.657566477106508
      ],
      [
        "▁epektibong",
        -9.658045022312255
      ],
      [
        "des",
        -9.658922193120663
      ],
      [
        "▁babaeng",
        -9.659273339953687
      ],
      [
        "▁paglilinis",
        -9.659297797326861
      ],
      [
        "▁My",
        -9.659341087178221
      ],
      [
        "▁pinakamalaking",
        -9.659620496070344
      ],
      [
        "AS",
        -9.66130673650614
      ],
      [
        "▁matinding",
        -9.661515880152995
      ],
      [
        "dal",
        -9.661536605596906
      ],
      [
        "▁paghahanap",
        -9.661795556654639
      ],
      [
        "nder",
        -9.66205005901649
      ],
      [
        "▁ma-",
        -9.6636603003701
      ],
      [
        "▁team",
        -9.66371857713441
      ],
      [
        "▁imp",
        -9.663898621616735
      ],
      [
        "▁bababa",
        -9.663903698797366
      ],
      [
        "ras",
        -9.664390402430367
      ],
      [
        "▁gawing",
        -9.664514504930716
      ],
      [
        "ec",
        -9.66453344254234
      ],
      [
        "time",
        -9.664649303507582
      ],
      [
        "pili",
        -9.665056629380464
      ],
      [
        "▁naniniwala",
        -9.665638620218811
      ],
      [
        "▁acid",
        -9.666321451817732
      ],
      [
        "▁Mu",
        -9.666400476034145
      ],
      [
        "▁kalamnan",
        -9.668387741677428
      ],
      [
        "EN",
        -9.669335469753067
      ],
      [
        "lala",
        -9.669587737296256
      ],
      [
        "▁Bar",
        -9.66993695359373
      ],
      [
        "▁mabuting",
        -9.670641520935751
      ],
      [
        "qu",
        -9.670843888592785
      ],
      [
        "siya",
        -9.670913325378757
      ],
      [
        "▁Halimbawa,",
        -9.671143979303517
      ],
      [
        "und",
        -9.672081093538134
      ],
      [
        "▁Or",
        -9.672847422050877
      ],
      [
        "hihi",
        -9.67293510618506
      ],
      [
        "mula",
        -9.673299577295525
      ],
      [
        "tulog",
        -9.67330474654115
      ],
      [
        "▁milyong",
        -9.673306862435739
      ],
      [
        "wala",
        -9.6740964230747
      ],
      [
        "ming",
        -9.674312980409747
      ],
      [
        "ril",
        -9.674381800325712
      ],
      [
        "ini",
        -9.674422249256017
      ],
      [
        "fi",
        -9.676106600506658
      ],
      [
        "vo",
        -9.67673290121963
      ],
      [
        "▁make",
        -9.676984387085843
      ],
      [
        "▁pangangalaga",
        -9.677940352561334
      ],
      [
        "dala",
        -9.6781935666434
      ],
      [
        "▁kotse",
        -9.678358379478338
      ],
      [
        "▁kar",
        -9.679090864427277
      ],
      [
        "▁simulan",
        -9.679934975754243
      ],
      [
        "lum",
        -9.67993777603386
      ],
      [
        "▁bilis",
        -9.679978573923826
      ],
      [
        "▁ekonomiya",
        -9.681599445527953
      ],
      [
        "▁pin",
        -9.683002694007751
      ],
      [
        "ging",
        -9.68324694086624
      ],
      [
        "tre",
        -9.684094190726663
      ],
      [
        "▁sports",
        -9.684827420608096
      ],
      [
        "▁Una",
        -9.685222325022082
      ],
      [
        "nes",
        -9.686580398079423
      ],
      [
        "▁bigla",
        -9.687142982066273
      ],
      [
        "▁•",
        -9.687635610579182
      ],
      [
        "11",
        -9.68771154298483
      ],
      [
        "▁years",
        -9.688011648732026
      ],
      [
        "RI",
        -9.689069026563551
      ],
      [
        "▁nag-a",
        -9.68939184613465
      ],
      [
        "▁Dr.",
        -9.689417706177556
      ],
      [
        "kaka",
        -9.68946883132178
      ],
      [
        "▁baguhin",
        -9.689603691372696
      ],
      [
        "▁kuko",
        -9.689905991028425
      ],
      [
        "▁bayad",
        -9.69049220895963
      ],
      [
        "▁kailan",
        -9.690723833592134
      ],
      [
        "gulo",
        -9.690950319407136
      ],
      [
        "▁Mari",
        -9.691018716274693
      ],
      [
        "lapit",
        -9.691181891000387
      ],
      [
        "▁pag-iisip",
        -9.691334661638852
      ],
      [
        "▁panalo",
        -9.69174823947794
      ],
      [
        "▁kaunting",
        -9.69299342882385
      ],
      [
        "▁materyales",
        -9.694689267129485
      ],
      [
        "▁game",
        -9.695242209819233
      ],
      [
        "our",
        -9.696044132522957
      ],
      [
        "▁address",
        -9.697475962157569
      ],
      [
        "▁home",
        -9.697556417443133
      ],
      [
        "▁kaagad",
        -9.697863454073707
      ],
      [
        "▁masamang",
        -9.698114021708534
      ],
      [
        "▁Ab",
        -9.698887338606669
      ],
      [
        "▁forum",
        -9.699077966499848
      ],
      [
        "▁mapanatili",
        -9.699078662432548
      ],
      [
        "▁Cream",
        -9.699796380839866
      ],
      [
        "▁mahigit",
        -9.70027459968275
      ],
      [
        "fer",
        -9.700638129836
      ],
      [
        "▁Her",
        -9.700762268098638
      ],
      [
        "▁pangkat",
        -9.701989431494622
      ],
      [
        "▁salamat",
        -9.702226527962022
      ],
      [
        "pro",
        -9.70230395589568
      ],
      [
        "ukan",
        -9.703533770615989
      ],
      [
        "▁Nasa",
        -9.70463810011772
      ],
      [
        "laman",
        -9.704860321946265
      ],
      [
        "▁sandali",
        -9.706235165660452
      ],
      [
        "tigil",
        -9.706287454335564
      ],
      [
        "▁Cor",
        -9.707409029475155
      ],
      [
        "aral",
        -9.707969179412771
      ],
      [
        "rma",
        -9.708072566389673
      ],
      [
        "▁Pinoy",
        -9.708236694575827
      ],
      [
        "▁tauhan",
        -9.709279906152029
      ],
      [
        "tik",
        -9.709556130645803
      ],
      [
        "hen",
        -9.70980483194801
      ],
      [
        "ect",
        -9.709891709592053
      ],
      [
        "▁Nakaka",
        -9.710483437158018
      ],
      [
        "▁laser",
        -9.710490820792533
      ],
      [
        "low",
        -9.712017508604816
      ],
      [
        "▁galit",
        -9.712818023497261
      ],
      [
        "▁kabuuang",
        -9.713141225289357
      ],
      [
        "▁Mag-",
        -9.713559953070773
      ],
      [
        "▁pinili",
        -9.713892318021488
      ],
      [
        "sunod",
        -9.714080666784087
      ],
      [
        "q",
        -9.714088210252271
      ],
      [
        "▁mangayayat",
        -9.714328023959782
      ],
      [
        "▁when",
        -9.714702063718294
      ],
      [
        "lok",
        -9.714735470442736
      ],
      [
        "▁matiyak",
        -9.715245330832566
      ],
      [
        "▁nagbigay",
        -9.715593823413217
      ],
      [
        "kala",
        -9.716213849228387
      ],
      [
        "anak",
        -9.716862746145313
      ],
      [
        "▁suso.",
        -9.717299659877305
      ],
      [
        "stra",
        -9.717318326575391
      ],
      [
        "laban",
        -9.718105307715964
      ],
      [
        "▁super",
        -9.718489783494082
      ],
      [
        "▁help",
        -9.719007606897662
      ],
      [
        "ium",
        -9.719676574439196
      ],
      [
        "ew",
        -9.72024460762386
      ],
      [
        "ES",
        -9.72031436921717
      ],
      [
        "▁access",
        -9.721069360736308
      ],
      [
        "▁pilipinas",
        -9.721586980217063
      ],
      [
        "▁mangyari",
        -9.722070131247067
      ],
      [
        "▁katutubong",
        -9.722080929964902
      ],
      [
        "IL",
        -9.722272128300096
      ],
      [
        "-up",
        -9.722283014998494
      ],
      [
        "▁depende",
        -9.722561526741956
      ],
      [
        "utang",
        -9.723077433670282
      ],
      [
        "15",
        -9.723509593297814
      ],
      [
        "PA",
        -9.72371410440928
      ],
      [
        "wer",
        -9.724068270554012
      ],
      [
        "▁bumuo",
        -9.724150875770654
      ],
      [
        "▁nauugnay",
        -9.72492540618157
      ],
      [
        "▁pagtata",
        -9.724955579506666
      ],
      [
        "RO",
        -9.725788718449152
      ],
      [
        ":00",
        -9.726077682256417
      ],
      [
        "OS",
        -9.726227619394011
      ],
      [
        "▁min",
        -9.726409550882659
      ],
      [
        "▁She",
        -9.726457929495687
      ],
      [
        "een",
        -9.72702703174635
      ],
      [
        "por",
        -9.727103860196756
      ],
      [
        "▁kaniya",
        -9.72799086926953
      ],
      [
        "▁umalis",
        -9.72837636710028
      ],
      [
        "load",
        -9.728397997615936
      ],
      [
        "▁Am",
        -9.728621088284658
      ],
      [
        "▁bra",
        -9.728626152120185
      ],
      [
        "▁sarap",
        -9.72874752585369
      ],
      [
        "▁pagpa",
        -9.729527493306747
      ],
      [
        "hatid",
        -9.730211958921187
      ],
      [
        "rry",
        -9.730799772304294
      ],
      [
        "nti",
        -9.731124242326773
      ],
      [
        "ized",
        -9.731504093777591
      ],
      [
        "▁driver",
        -9.73156168539702
      ],
      [
        "▁+",
        -9.73270502404247
      ],
      [
        "▁Napa",
        -9.733016924037592
      ],
      [
        "▁ch",
        -9.7341940610723
      ],
      [
        "▁binti",
        -9.73556556099722
      ],
      [
        "▁cor",
        -9.735685248866742
      ],
      [
        "▁service",
        -9.736452287558214
      ],
      [
        "tibo",
        -9.736844961432157
      ],
      [
        "▁food",
        -9.736851224786657
      ],
      [
        "▁aklat",
        -9.737006906493193
      ],
      [
        "▁News",
        -9.73746037307681
      ],
      [
        "▁imahe",
        -9.737560555807482
      ],
      [
        "▁sarili.",
        -9.737591136663758
      ],
      [
        "▁ginagawang",
        -9.737902997896834
      ],
      [
        "side",
        -9.737907921898971
      ],
      [
        "huli",
        -9.73991012121934
      ],
      [
        "tol",
        -9.739999024573448
      ],
      [
        "▁pag-asa",
        -9.740199682193799
      ],
      [
        "anta",
        -9.740985966529772
      ],
      [
        "▁En",
        -9.741476223401065
      ],
      [
        "▁kakulangan",
        -9.742011345175472
      ],
      [
        "cur",
        -9.74216282942752
      ],
      [
        "▁now",
        -9.743086699370576
      ],
      [
        "▁panig",
        -9.743241611945612
      ],
      [
        "alan",
        -9.74415791907319
      ],
      [
        "▁life",
        -9.744275024352742
      ],
      [
        "▁itina",
        -9.744571580111236
      ],
      [
        "▁pagganap",
        -9.744946194265031
      ],
      [
        "▁mahigpit",
        -9.74528885682968
      ],
      [
        "▁anti",
        -9.74589080083303
      ],
      [
        "cc",
        -9.746072749578294
      ],
      [
        "▁Center",
        -9.746302017415355
      ],
      [
        "▁puting",
        -9.746541794655652
      ],
      [
        "▁tea",
        -9.747788215926617
      ],
      [
        "kausap",
        -9.747972132180337
      ],
      [
        "▁pangalawang",
        -9.747985119223426
      ],
      [
        "▁cell",
        -9.748010223625698
      ],
      [
        "▁ospital",
        -9.748111350038329
      ],
      [
        "▁barangay",
        -9.748352575084043
      ],
      [
        "▁Dito",
        -9.748356564324858
      ],
      [
        "buhay",
        -9.748388133318898
      ],
      [
        "▁people",
        -9.748539006198508
      ],
      [
        "▁dumi",
        -9.748712652805906
      ],
      [
        "▁nabanggit",
        -9.750102375086222
      ],
      [
        "ida",
        -9.750249809989613
      ],
      [
        "▁pangkalahatang",
        -9.750488612912402
      ],
      [
        "▁facials",
        -9.751301050810175
      ],
      [
        "▁namatay",
        -9.751788180084084
      ],
      [
        "▁malayo",
        -9.751947442030415
      ],
      [
        "▁piliin",
        -9.752445965122968
      ],
      [
        "▁back",
        -9.752689363273355
      ],
      [
        "▁produksyon",
        -9.75285107431113
      ],
      [
        "▁mo,",
        -9.753057360410708
      ],
      [
        "RA",
        -9.753152384977069
      ],
      [
        "▁also",
        -9.753455646562793
      ],
      [
        "laga",
        -9.754121209187561
      ],
      [
        "▁hugis",
        -9.754372033460935
      ],
      [
        "▁Tri",
        -9.754387749385284
      ],
      [
        "▁bitamina",
        -9.755485838003153
      ],
      [
        "ica",
        -9.755770475482061
      ],
      [
        "▁bata.",
        -9.755805824155173
      ],
      [
        "rd",
        -9.755983707328138
      ],
      [
        "▁Napaka",
        -9.756512083361148
      ],
      [
        "▁itinuturing",
        -9.757382394585118
      ],
      [
        "▁nagtatrabaho",
        -9.757446520239188
      ],
      [
        "bon",
        -9.75812162629556
      ],
      [
        "baw",
        -9.758452831747414
      ],
      [
        "late",
        -9.75870295820667
      ],
      [
        "▁pamumuhay",
        -9.758926971600715
      ],
      [
        "▁inter",
        -9.759054787352984
      ],
      [
        "▁suso,",
        -9.759118820147199
      ],
      [
        "▁residente",
        -9.759275505372267
      ],
      [
        "bul",
        -9.759481928860335
      ],
      [
        "▁empleyado",
        -9.759828242383085
      ],
      [
        "▁bansang",
        -9.759922227274044
      ],
      [
        "▁niya,",
        -9.759947633734592
      ],
      [
        "▁MA",
        -9.760690953380514
      ],
      [
        "Na",
        -9.760834456176193
      ],
      [
        "▁Bitcoin",
        -9.761532977226217
      ],
      [
        "▁palabas",
        -9.761726801837389
      ],
      [
        "dan",
        -9.76183233791573
      ],
      [
        "▁sex",
        -9.762009738117193
      ],
      [
        "uhin",
        -9.762595548323217
      ],
      [
        "▁need",
        -9.762676974965336
      ],
      [
        "▁simbolo",
        -9.763703092169004
      ],
      [
        "▁gabay",
        -9.763714732435949
      ],
      [
        "▁nabubuhay",
        -9.764005048959623
      ],
      [
        "▁epektibo",
        -9.764047619516091
      ],
      [
        "ulit",
        -9.764202779755228
      ],
      [
        "▁crusher",
        -9.764909993711065
      ],
      [
        "▁chat",
        -9.765336212623021
      ],
      [
        "▁pareho",
        -9.765400998182042
      ],
      [
        "▁sabay",
        -9.765436906894127
      ],
      [
        "▁Pilipinas.",
        -9.766946890876548
      ],
      [
        "▁potensyal",
        -9.767045141010199
      ],
      [
        "ulo",
        -9.767399109321207
      ],
      [
        "▁University",
        -9.76742634124977
      ],
      [
        "▁magagawa",
        -9.767510747752391
      ],
      [
        "ST",
        -9.76791297450182
      ],
      [
        "▁oil",
        -9.768275765642162
      ],
      [
        "▁makamit",
        -9.768613532008597
      ],
      [
        "▁mar",
        -9.768718012030094
      ],
      [
        "▁panahon.",
        -9.768795539859978
      ],
      [
        "▁kasiyahan",
        -9.769249767114509
      ],
      [
        "▁21",
        -9.769477323750467
      ],
      [
        "hiwalay",
        -9.769514800879644
      ],
      [
        "▁sh",
        -9.769851600164149
      ],
      [
        "▁maaga",
        -9.770001415837177
      ],
      [
        "van",
        -9.770181729191124
      ],
      [
        "ham",
        -9.770447498032134
      ],
      [
        "▁Star",
        -9.771038271126486
      ],
      [
        "▁any",
        -9.771495443740042
      ],
      [
        "▁punto",
        -9.771687899903073
      ],
      [
        "▁siya.",
        -9.77168973538476
      ],
      [
        "▁Oo",
        -9.771693843382545
      ],
      [
        "press",
        -9.772307004828626
      ],
      [
        "▁marahil",
        -9.772589702472226
      ],
      [
        "▁fo",
        -9.77341783753605
      ],
      [
        "▁keto",
        -9.773625269660155
      ],
      [
        "car",
        -9.773971790848847
      ],
      [
        "▁katanungan",
        -9.774122374247305
      ],
      [
        "▁Video",
        -9.774515751308922
      ],
      [
        "▁But",
        -9.77468247521242
      ],
      [
        "▁wakas",
        -9.775379623099726
      ],
      [
        "▁lokasyon",
        -9.77585658747535
      ],
      [
        "cal",
        -9.775935898417782
      ],
      [
        "▁Diyos.",
        -9.776084856301278
      ],
      [
        "▁ginto",
        -9.776279532314252
      ],
      [
        "▁masama",
        -9.776445129280152
      ],
      [
        "▁KA",
        -9.77690868543371
      ],
      [
        "apat",
        -9.776914218548635
      ],
      [
        "ish",
        -9.777170551735752
      ],
      [
        "00",
        -9.777254361446102
      ],
      [
        "-A",
        -9.777337590449426
      ],
      [
        "▁bini",
        -9.777518136250894
      ],
      [
        "▁ganito",
        -9.777526083665181
      ],
      [
        "rating",
        -9.777860992565532
      ],
      [
        "0%",
        -9.777963842972337
      ],
      [
        "▁mabawasan",
        -9.778161783042957
      ],
      [
        "▁get",
        -9.778258668876886
      ],
      [
        "▁natatanging",
        -9.77844363358373
      ],
      [
        "mor",
        -9.778814874795431
      ],
      [
        "▁tri",
        -9.778937811598324
      ],
      [
        "iwas",
        -9.779574663007322
      ],
      [
        "▁iyon,",
        -9.780333272273012
      ],
      [
        "12",
        -9.78043135106818
      ],
      [
        "utin",
        -9.78051204785701
      ],
      [
        "▁gina",
        -9.780792499306294
      ],
      [
        "▁Sino",
        -9.780801031318724
      ],
      [
        "▁malinis",
        -9.781802738515275
      ],
      [
        "igi",
        -9.782459842899499
      ],
      [
        "▁wo",
        -9.782641648155566
      ],
      [
        "▁kasing",
        -9.783052724275858
      ],
      [
        "▁ja",
        -9.783181532119626
      ],
      [
        "▁test",
        -9.783726047694497
      ],
      [
        "▁cons",
        -9.784244448699086
      ],
      [
        "kul",
        -9.784804657410424
      ],
      [
        "nut",
        -9.785689636723239
      ],
      [
        "▁tatak",
        -9.785807439746193
      ],
      [
        "haha",
        -9.786667776014829
      ],
      [
        "▁papunta",
        -9.787027420508224
      ],
      [
        "gagawa",
        -9.788353719033628
      ],
      [
        "▁kayong",
        -9.788428533089323
      ],
      [
        "kikipag-ugnayan",
        -9.788925905702728
      ],
      [
        "SI",
        -9.788993358258686
      ],
      [
        "▁opsyon",
        -9.789029341593888
      ],
      [
        "rus",
        -9.789685338783713
      ],
      [
        "▁panahong",
        -9.790197153320916
      ],
      [
        "▁Diyos,",
        -9.79044194077628
      ],
      [
        "book",
        -9.791428640711157
      ],
      [
        "lor",
        -9.791747261115418
      ],
      [
        "▁mineral",
        -9.791825903500564
      ],
      [
        "lia",
        -9.792721554883359
      ],
      [
        "▁kurso",
        -9.79307965817016
      ],
      [
        "umu",
        -9.793299649117309
      ],
      [
        "yer",
        -9.794642423342387
      ],
      [
        "▁Ilang",
        -9.794667732319434
      ],
      [
        "▁alak",
        -9.795517406180418
      ],
      [
        "gising",
        -9.795930786264693
      ],
      [
        "▁gas",
        -9.796686445874336
      ],
      [
        "tam",
        -9.797390495822619
      ],
      [
        "usap",
        -9.79781844155313
      ],
      [
        "▁fi",
        -9.798015202004033
      ],
      [
        "▁mu",
        -9.798132075219296
      ],
      [
        "▁cr",
        -9.798680207868648
      ],
      [
        "▁star",
        -9.79910633176754
      ],
      [
        "amin",
        -9.799179096584204
      ],
      [
        "tle",
        -9.799220647476508
      ],
      [
        "▁maki",
        -9.799365066794635
      ],
      [
        "▁massage",
        -9.800071058634694
      ],
      [
        "▁pagkakataong",
        -9.800817495119663
      ],
      [
        "▁Niya",
        -9.800911421280768
      ],
      [
        "▁item",
        -9.801604233782477
      ],
      [
        "▁kasalanan",
        -9.802550458001683
      ],
      [
        "▁em",
        -9.802707027484102
      ],
      [
        "▁anak.",
        -9.802878199942034
      ],
      [
        "▁Office",
        -9.80318652764302
      ],
      [
        "▁maliban",
        -9.803347834258958
      ],
      [
        "nap",
        -9.804616068132422
      ],
      [
        "▁pagsasa",
        -9.805150999713184
      ],
      [
        "ize",
        -9.805196509264261
      ],
      [
        "!\"",
        -9.805523814463276
      ],
      [
        "▁pagbebenta",
        -9.805972466945219
      ],
      [
        "▁Pri",
        -9.806814859390421
      ],
      [
        "▁kayang",
        -9.806912595213722
      ],
      [
        "▁piraso",
        -9.807500257465458
      ],
      [
        "▁Barangay",
        -9.808690180315955
      ],
      [
        "pansin",
        -9.808879792240946
      ],
      [
        "▁cat",
        -9.809555881681773
      ],
      [
        "▁kada",
        -9.809656711072554
      ],
      [
        "▁Pagka",
        -9.80980095773199
      ],
      [
        "til",
        -9.810062516806557
      ],
      [
        "▁binata",
        -9.810158251272528
      ],
      [
        "ef",
        -9.811223468267173
      ],
      [
        "uro",
        -9.811521808513438
      ],
      [
        "tanggap",
        -9.811677792808883
      ],
      [
        "▁(A",
        -9.811809391003907
      ],
      [
        "▁review.",
        -9.812000685425375
      ],
      [
        "▁pri",
        -9.812301755558392
      ],
      [
        "SO",
        -9.812447602710126
      ],
      [
        "▁5.",
        -9.812563093023915
      ],
      [
        "dong",
        -9.813043600232744
      ],
      [
        "▁nangungunang",
        -9.81355647578034
      ],
      [
        "▁may-ari",
        -9.813889347707867
      ],
      [
        "▁tandaan",
        -9.813959390528272
      ],
      [
        "talo",
        -9.814178265730556
      ],
      [
        "▁larangan",
        -9.814475084291422
      ],
      [
        "▁pagkilos",
        -9.814535666986568
      ],
      [
        "set",
        -9.81475019172554
      ],
      [
        "less",
        -9.815165985048907
      ],
      [
        "hing",
        -9.815449171088709
      ],
      [
        "mag",
        -9.815548017266542
      ],
      [
        "▁Iyon",
        -9.815599529274664
      ],
      [
        "▁Sta",
        -9.816974309422998
      ],
      [
        "val",
        -9.81702688821927
      ],
      [
        "▁World",
        -9.817270856119064
      ],
      [
        "bag",
        -9.817398269222718
      ],
      [
        "▁\"A",
        -9.817818798587007
      ],
      [
        "har",
        -9.819025836202513
      ],
      [
        "for",
        -9.819634843203183
      ],
      [
        "med",
        -9.82011120332974
      ],
      [
        "▁Mawalan",
        -9.820153345792171
      ],
      [
        "▁kanina",
        -9.820415065544823
      ],
      [
        "ento",
        -9.821715951436962
      ],
      [
        "tter",
        -9.822647498984942
      ],
      [
        "▁Samakatuwid",
        -9.822696604366682
      ],
      [
        "%",
        -9.823387271984643
      ],
      [
        "tur",
        -9.823449130238906
      ],
      [
        "▁dun",
        -9.824294880501
      ],
      [
        "▁Breast",
        -9.824310385522555
      ],
      [
        "ama",
        -9.824375048109934
      ],
      [
        "lakad",
        -9.824597942308102
      ],
      [
        "▁Kabilang",
        -9.824938031387067
      ],
      [
        "ib",
        -9.824977226701291
      ],
      [
        "▁MGA",
        -9.825166352047432
      ],
      [
        "▁them",
        -9.826191015480335
      ],
      [
        "▁biglang",
        -9.826436219560906
      ],
      [
        "▁Quezon",
        -9.826734980481755
      ],
      [
        "saktan",
        -9.827177297591572
      ],
      [
        "▁kin",
        -9.827498549509665
      ],
      [
        "▁hinaharap",
        -9.828076249461981
      ],
      [
        "▁Ya",
        -9.8281451771066
      ],
      [
        "hanap",
        -9.828332402103817
      ],
      [
        "hod",
        -9.828556544841211
      ],
      [
        "▁review,",
        -9.828725596082684
      ],
      [
        "▁kaugnayan",
        -9.829037335221702
      ],
      [
        "▁karne",
        -9.829254335856596
      ],
      [
        "▁2016",
        -9.829319332490792
      ],
      [
        "▁lalaking",
        -9.829319384065284
      ],
      [
        "▁Doc",
        -9.829475645278924
      ],
      [
        "▁haba",
        -9.829724086879999
      ],
      [
        "▁essay",
        -9.831213520898237
      ],
      [
        "bukas",
        -9.831884151648195
      ],
      [
        "▁lugar.",
        -9.832124732192167
      ],
      [
        "pak",
        -9.83218445336968
      ],
      [
        "▁palatandaan",
        -9.833027584097664
      ],
      [
        "▁nagbibigay-daan",
        -9.833077715650354
      ],
      [
        "▁some",
        -9.833644958368028
      ],
      [
        "adong",
        -9.83371661456194
      ],
      [
        "zz",
        -9.833926824736505
      ],
      [
        "▁silid",
        -9.834551297827762
      ],
      [
        "▁Gra",
        -9.834898061252364
      ],
      [
        "▁ipakita",
        -9.834904891104909
      ],
      [
        "▁ilaw",
        -9.83647370838157
      ],
      [
        "hina",
        -9.836866806226645
      ],
      [
        "▁poker",
        -9.837921288372169
      ],
      [
        "dad",
        -9.838529586493094
      ],
      [
        "▁Iyong",
        -9.838887004872367
      ],
      [
        "▁best",
        -9.838908046309301
      ],
      [
        "lle",
        -9.838989240805171
      ],
      [
        "pol",
        -9.839313657645812
      ],
      [
        "rge",
        -9.840547567434111
      ],
      [
        "▁mahahalagang",
        -9.84058872077066
      ],
      [
        "rehistro",
        -9.840685460239536
      ],
      [
        "▁mag-asawa",
        -9.84078913408971
      ],
      [
        "▁Tsina",
        -9.841242331656055
      ],
      [
        "▁Secretary",
        -9.842270973816106
      ],
      [
        "▁side",
        -9.844117152468165
      ],
      [
        "ward",
        -9.844700149183872
      ],
      [
        "▁Ikaw",
        -9.844771840097135
      ],
      [
        "30",
        -9.846147081542734
      ],
      [
        "▁batayan",
        -9.847363037473738
      ],
      [
        "▁elemento",
        -9.847381768000991
      ],
      [
        "▁Worm",
        -9.847802978843024
      ],
      [
        "▁pamantayan",
        -9.84903562226116
      ],
      [
        "ump",
        -9.849265651222467
      ],
      [
        "▁pakikipag",
        -9.84969981413635
      ],
      [
        "▁PAG",
        -9.850111103980467
      ],
      [
        "▁tabi",
        -9.850149128867095
      ],
      [
        "▁umabot",
        -9.85035291584937
      ],
      [
        "dor",
        -9.850951085609493
      ],
      [
        "▁Halimbawa",
        -9.851253949591934
      ],
      [
        "isan",
        -9.851482228403839
      ],
      [
        "▁very",
        -9.851801640567931
      ],
      [
        "▁panatilihin",
        -9.851948444438944
      ],
      [
        "▁Ke",
        -9.852522240880534
      ],
      [
        "rado",
        -9.852556069969637
      ],
      [
        "s)",
        -9.852913964659074
      ],
      [
        "▁perpektong",
        -9.853244632013638
      ],
      [
        "▁paniniwala",
        -9.854011418458798
      ],
      [
        "anya",
        -9.855799754210699
      ],
      [
        "ugo",
        -9.85589162291838
      ],
      [
        "ative",
        -9.856425055495858
      ],
      [
        "▁Cal",
        -9.856514775498898
      ],
      [
        "▁off",
        -9.85688701167577
      ],
      [
        "▁kinuha",
        -9.85705433808943
      ],
      [
        "▁after",
        -9.857555210026723
      ],
      [
        "▁nadagdagan",
        -9.857617448774329
      ],
      [
        "ple",
        -9.857739778506572
      ],
      [
        "▁halamang-singaw",
        -9.85797145922954
      ],
      [
        "▁droga",
        -9.858389663737967
      ],
      [
        "▁2017",
        -9.859782556546117
      ],
      [
        "▁Day",
        -9.85993019929302
      ],
      [
        "over",
        -9.860583680918895
      ],
      [
        "▁under",
        -9.860738980268819
      ],
      [
        "ell",
        -9.861477582368604
      ],
      [
        "IC",
        -9.861787256900637
      ],
      [
        "▁laman",
        -9.862046714276874
      ],
      [
        "▁gusali",
        -9.862792901652087
      ],
      [
        "ker",
        -9.86293998202089
      ],
      [
        "pad",
        -9.863044042758553
      ],
      [
        "▁Tagalog",
        -9.86318779158299
      ],
      [
        "▁mapanganib",
        -9.863223446988284
      ],
      [
        "▁matatanda",
        -9.864275737661695
      ],
      [
        "▁device",
        -9.86530834042356
      ],
      [
        "▁lumang",
        -9.865377674507181
      ],
      [
        "hat",
        -9.86538026211741
      ],
      [
        "▁filipino",
        -9.86552215012385
      ],
      [
        "▁Act",
        -9.865575837212718
      ],
      [
        "▁uminom",
        -9.865625236187116
      ],
      [
        "▁duma",
        -9.866188392869393
      ],
      [
        "▁manok",
        -9.867117378643703
      ],
      [
        "▁rating",
        -9.867416804813553
      ],
      [
        "zon",
        -9.867456673538008
      ],
      [
        "▁bukod",
        -9.867596550401386
      ],
      [
        "ros",
        -9.86784430726529
      ],
      [
        "▁Bri",
        -9.868019175813988
      ],
      [
        "▁Pangulo",
        -9.86829710626879
      ],
      [
        "▁Eye",
        -9.868613111287454
      ],
      [
        "▁lagi",
        -9.869969534776237
      ],
      [
        "▁kahalagahan",
        -9.870365620081538
      ],
      [
        "▁buntis",
        -9.870539505523466
      ],
      [
        "▁available",
        -9.870575344174156
      ],
      [
        "▁tabletas",
        -9.87102206584374
      ],
      [
        "▁sumi",
        -9.871093723006238
      ],
      [
        "use",
        -9.871614407620678
      ],
      [
        "▁prutas",
        -9.87163302692014
      ],
      [
        "kata",
        -9.871869433173547
      ],
      [
        "▁mini",
        -9.871899901534167
      ],
      [
        "ally",
        -9.872100693811339
      ],
      [
        "▁there",
        -9.872104656776063
      ],
      [
        "▁nakatira",
        -9.872716970286843
      ],
      [
        "▁Ina",
        -9.872882748365456
      ],
      [
        "á",
        -9.87311529680273
      ],
      [
        "ula",
        -9.873359462676069
      ],
      [
        "lima",
        -9.87389275004322
      ],
      [
        "18",
        -9.874079749395806
      ],
      [
        "▁Ipina",
        -9.875204327976306
      ],
      [
        "ations",
        -9.875274770802108
      ],
      [
        "xi",
        -9.875524819860022
      ],
      [
        "▁tungkulin",
        -9.876299369066146
      ],
      [
        "▁hawak",
        -9.87662256244163
      ],
      [
        "ration",
        -9.877569922389574
      ],
      [
        "▁metal",
        -9.877907501280744
      ],
      [
        "▁patay",
        -9.877981928637935
      ],
      [
        "▁“Ma",
        -9.87832025265331
      ],
      [
        "kapag",
        -9.878414868115668
      ],
      [
        "▁buhay,",
        -9.87887009929546
      ],
      [
        "▁dagat",
        -9.8792144277689
      ],
      [
        "▁milyon",
        -9.879749979204322
      ],
      [
        "Tungkol",
        -9.880592214419455
      ],
      [
        "▁Chi",
        -9.882118623723676
      ],
      [
        "▁ba?",
        -9.88290181779746
      ],
      [
        "susu",
        -9.884221863351785
      ],
      [
        "▁sandaling",
        -9.88443410695848
      ],
      [
        "▁nalang",
        -9.885124171331615
      ],
      [
        "pet",
        -9.885545145475483
      ],
      [
        "▁makilala",
        -9.885547873407184
      ],
      [
        "▁payo",
        -9.885555374880372
      ],
      [
        "ganda",
        -9.885637071278502
      ],
      [
        "panood",
        -9.885909052493833
      ],
      [
        "▁matatag",
        -9.886448266163764
      ],
      [
        "vin",
        -9.886701043724504
      ],
      [
        "▁inumin",
        -9.887273678148821
      ],
      [
        "wel",
        -9.887279225574549
      ],
      [
        "▁see",
        -9.887677005888431
      ],
      [
        "▁subalit",
        -9.888495828413571
      ],
      [
        "hay",
        -9.888537733196392
      ],
      [
        "ligtas",
        -9.888687003798985
      ],
      [
        "▁Review",
        -9.889898731833618
      ],
      [
        "▁Juan",
        -9.889927050664449
      ],
      [
        "▁basahin",
        -9.890193750901084
      ],
      [
        "▁pribadong",
        -9.890271073811574
      ],
      [
        "▁lumitaw",
        -9.89089708570299
      ],
      [
        "ities",
        -9.891479759103277
      ],
      [
        "16",
        -9.892586120176883
      ],
      [
        "ensya",
        -9.893053531486022
      ],
      [
        "TI",
        -9.893662811419873
      ],
      [
        "Mga",
        -9.89438681091703
      ],
      [
        "▁fe",
        -9.89445894883999
      ],
      [
        "SA",
        -9.894607688872446
      ],
      [
        "cha",
        -9.894778826271827
      ],
      [
        "▁magkaka",
        -9.895188170159877
      ],
      [
        "▁fr",
        -9.895869685175176
      ],
      [
        "▁Facial",
        -9.895883445435743
      ],
      [
        "ical",
        -9.895990148350416
      ],
      [
        "▁kalalakihan",
        -9.896054530248428
      ],
      [
        "▁bakuna",
        -9.89632989971107
      ],
      [
        "ept",
        -9.896744863185075
      ],
      [
        "▁Maynila",
        -9.896918941807106
      ],
      [
        "ikal",
        -9.89706267129779
      ],
      [
        "upo",
        -9.89734064833975
      ],
      [
        "tibay",
        -9.898146509113097
      ],
      [
        "▁menu",
        -9.898203928565708
      ],
      [
        "tika",
        -9.898611113191924
      ],
      [
        "▁aktres",
        -9.898876098925623
      ],
      [
        "▁kala",
        -9.898984296323862
      ],
      [
        "serv",
        -9.899044731349337
      ],
      [
        "▁hand",
        -9.89908853194042
      ],
      [
        "▁pagsisikap",
        -9.89909401882402
      ],
      [
        "▁pamilya.",
        -9.899111187928973
      ],
      [
        "▁pagta",
        -9.899351277013025
      ],
      [
        "lata",
        -9.900062226636306
      ],
      [
        "zo",
        -9.9001277146129
      ],
      [
        "▁tunog",
        -9.900183741214606
      ],
      [
        "sulat",
        -9.900455573858627
      ],
      [
        "ular",
        -9.90059242763774
      ],
      [
        "▁“B",
        -9.900770887155383
      ],
      [
        "▁virus",
        -9.901800157270932
      ],
      [
        "ley",
        -9.901823936939872
      ],
      [
        "▁ganun",
        -9.90346514604656
      ],
      [
        "Q",
        -9.903629905948765
      ],
      [
        "AM",
        -9.903668981362452
      ],
      [
        "▁wa",
        -9.904607444762496
      ],
      [
        "ute",
        -9.90488382122942
      ],
      [
        "▁report",
        -9.905282897381092
      ],
      [
        "99",
        -9.905304872734717
      ],
      [
        "▁body",
        -9.906311341287227
      ],
      [
        "▁end",
        -9.906545134036906
      ],
      [
        "tulong",
        -9.907350504611914
      ],
      [
        "▁Dagdag",
        -9.907420105348335
      ],
      [
        "zi",
        -9.907510213019982
      ],
      [
        "▁labanan",
        -9.907864160799049
      ],
      [
        "▁head",
        -9.90829949242136
      ],
      [
        "raan",
        -9.908791685635626
      ],
      [
        "▁set",
        -9.908835925145237
      ],
      [
        "sil",
        -9.909580048897714
      ],
      [
        "rr",
        -9.909693901667184
      ],
      [
        "ile",
        -9.910375539322963
      ],
      [
        "▁right",
        -9.9104424700357
      ],
      [
        "▁Marcos",
        -9.910732318183756
      ],
      [
        "▁photo",
        -9.910853732861638
      ],
      [
        "layo",
        -9.911099363304242
      ],
      [
        "▁plan",
        -9.911119258772626
      ],
      [
        "play",
        -9.911124197860051
      ],
      [
        "▁Ben",
        -9.911564581119125
      ],
      [
        "▁Unidos",
        -9.911569607072716
      ],
      [
        "▁Sila",
        -9.912114124592067
      ],
      [
        "bata",
        -9.912610679242412
      ],
      [
        "▁PA",
        -9.912651793485121
      ],
      [
        "▁Bagong",
        -9.912667387534693
      ],
      [
        "▁nagkakahalaga",
        -9.914252663942053
      ],
      [
        "sanay",
        -9.915220660898534
      ],
      [
        "▁artikulong",
        -9.915596564101309
      ],
      [
        "▁South",
        -9.91576163651378
      ],
      [
        "▁Tingnan",
        -9.915943169919023
      ],
      [
        "turo",
        -9.916341931194125
      ],
      [
        "tindi",
        -9.916556566844967
      ],
      [
        "tawan",
        -9.91660609505828
      ],
      [
        "▁High",
        -9.917099470137282
      ],
      [
        "pus",
        -9.917159527168167
      ],
      [
        "▁kumpara",
        -9.917837713804474
      ],
      [
        "upa",
        -9.919023332700965
      ],
      [
        "papa",
        -9.919241802532554
      ],
      [
        "▁parasite",
        -9.91929491558182
      ],
      [
        "▁sha",
        -9.919445204679077
      ],
      [
        "▁house",
        -9.920137935346183
      ],
      [
        "▁market",
        -9.920226079139251
      ],
      [
        "▁pag-iwas",
        -9.92033624796323
      ],
      [
        "chi",
        -9.920844131387119
      ],
      [
        "▁dalhin",
        -9.920877022579981
      ],
      [
        "▁alas",
        -9.920914641165577
      ],
      [
        "ev",
        -9.921203585130097
      ],
      [
        "es.",
        -9.921648979398224
      ],
      [
        "▁militar",
        -9.921758437709574
      ],
      [
        "▁matanda",
        -9.922155139111851
      ],
      [
        "▁sta",
        -9.923430268070739
      ],
      [
        "▁22",
        -9.924144780354228
      ],
      [
        "▁because",
        -9.924425325766403
      ],
      [
        "uga",
        -9.924762508071884
      ],
      [
        "▁positibong",
        -9.925349984689534
      ],
      [
        "▁isipin",
        -9.925963290770845
      ],
      [
        "▁mayaman",
        -9.926567476476809
      ],
      [
        "▁medikal",
        -9.9275560823023
      ],
      [
        "▁iniisip",
        -9.928954908095477
      ],
      [
        "not",
        -9.929214834663531
      ],
      [
        "▁huma",
        -9.929376169520635
      ],
      [
        "tura",
        -9.929979262759401
      ],
      [
        "▁Un",
        -9.930032322035965
      ],
      [
        "▁kontrol",
        -9.930850215346055
      ],
      [
        "▁Timbang",
        -9.931113380740609
      ],
      [
        "▁hapon",
        -9.931667423579006
      ],
      [
        "▁party",
        -9.932181014386408
      ],
      [
        "▁digital",
        -9.932939098590866
      ],
      [
        "▁pinuno",
        -9.933190496840385
      ],
      [
        "▁Estados",
        -9.933282337449192
      ],
      [
        "▁Jose",
        -9.933738341082435
      ],
      [
        "▁Pinag",
        -9.933997954934956
      ],
      [
        "▁natagpuan",
        -9.934167173949263
      ],
      [
        "▁karaming",
        -9.934331675001667
      ],
      [
        "▁Minsan",
        -9.93438964973549
      ],
      [
        "usan",
        -9.935102758558916
      ],
      [
        "▁kaba",
        -9.935687307977775
      ],
      [
        "▁year",
        -9.935871259157542
      ],
      [
        "list",
        -9.936172505106864
      ],
      [
        "osis",
        -9.936260058328685
      ],
      [
        "▁masarap",
        -9.936379388053993
      ],
      [
        "nel",
        -9.936706749833606
      ],
      [
        "▁magbibigay",
        -9.937317171142006
      ],
      [
        "▁kaka",
        -9.938151518172901
      ],
      [
        "kol",
        -9.93834021897162
      ],
      [
        "▁water",
        -9.938930491940923
      ],
      [
        "▁bilog",
        -9.939325329345285
      ],
      [
        "LE",
        -9.939468223203377
      ],
      [
        "▁new",
        -9.94105109369927
      ],
      [
        "▁Ph",
        -9.941304118979444
      ],
      [
        "tukoy",
        -9.941630979367744
      ],
      [
        "▁pag-a",
        -9.942134694570594
      ],
      [
        "▁hirap",
        -9.943208737912842
      ],
      [
        "▁pinakamataas",
        -9.94383588704576
      ],
      [
        "▁kamatayan",
        -9.943851892838014
      ],
      [
        "▁isaalang-alang",
        -9.943946044053646
      ],
      [
        "Higit",
        -9.94418273852609
      ],
      [
        "ess",
        -9.94518065307358
      ],
      [
        "cho",
        -9.945503148558192
      ],
      [
        "▁pagtatapos",
        -9.945504827919367
      ],
      [
        "bulating",
        -9.94589225369532
      ],
      [
        "▁Art",
        -9.946059030408886
      ],
      [
        "▁proteksyon",
        -9.948129209350578
      ],
      [
        "\".",
        -9.948988533476404
      ],
      [
        "▁Karamihan",
        -9.949043209682028
      ],
      [
        "print",
        -9.949279799463113
      ],
      [
        "▁2022",
        -9.949843465908918
      ],
      [
        "▁larong",
        -9.94995249536007
      ],
      [
        "linaw",
        -9.950127136217196
      ],
      [
        "ED",
        -9.950147377554195
      ],
      [
        "▁kliyente",
        -9.950873606865033
      ],
      [
        "▁nagta",
        -9.952216038051782
      ],
      [
        "▁“Ang",
        -9.952270112359466
      ],
      [
        "▁sini",
        -9.952576651383096
      ],
      [
        "▁point",
        -9.952611790877508
      ],
      [
        "ology",
        -9.953172826694226
      ],
      [
        "▁matugunan",
        -9.953191427562594
      ],
      [
        "▁nakalipas",
        -9.954279684862152
      ],
      [
        "▁sasabihin",
        -9.954370038248245
      ],
      [
        "▁Sina",
        -9.95453160155338
      ],
      [
        "▁ABS-CBN",
        -9.954545352985514
      ],
      [
        "▁matulungan",
        -9.955358735945863
      ],
      [
        "25",
        -9.955858636723567
      ],
      [
        "▁sumunod",
        -9.955926788111585
      ],
      [
        "▁win",
        -9.956198836733464
      ],
      [
        "▁th",
        -9.956676605135797
      ],
      [
        "▁class",
        -9.956781071147303
      ],
      [
        "▁tuluyan",
        -9.95696081020931
      ],
      [
        "nic",
        -9.957329474320778
      ],
      [
        "▁way",
        -9.957476707578529
      ],
      [
        "▁Can",
        -9.957575755545555
      ],
      [
        "▁code",
        -9.957691058103904
      ],
      [
        "▁trabaho.",
        -9.95779326474309
      ],
      [
        "gue",
        -9.958172966231462
      ],
      [
        "sisi",
        -9.958287321910511
      ],
      [
        "ipin",
        -9.958732627127187
      ],
      [
        "▁Pam",
        -9.95875062030302
      ],
      [
        "sala",
        -9.958837932984004
      ],
      [
        "LA",
        -9.959104585622079
      ],
      [
        "qua",
        -9.959134223168926
      ],
      [
        "▁kalsada",
        -9.959847353466067
      ],
      [
        "ses",
        -9.960469539510848
      ],
      [
        "▁dry",
        -9.960686830493128
      ],
      [
        "tupad",
        -9.96085050935382
      ],
      [
        "▁pagha",
        -9.961142817588808
      ],
      [
        "▁daliri",
        -9.962204627689253
      ],
      [
        "▁pangulo",
        -9.962578305537669
      ],
      [
        "▁effect",
        -9.962697891063645
      ],
      [
        "langan",
        -9.962722813053219
      ],
      [
        "▁laro.",
        -9.96274054366805
      ],
      [
        "bat",
        -9.962878694158228
      ],
      [
        "▁awtoridad",
        -9.963320378573128
      ],
      [
        "▁Angel",
        -9.96337688786622
      ],
      [
        "niwala",
        -9.964313098797463
      ],
      [
        "lamig",
        -9.964332069109297
      ],
      [
        "ome",
        -9.96486064097373
      ],
      [
        "▁ugat",
        -9.96543681103585
      ],
      [
        "▁call",
        -9.965637094301247
      ],
      [
        "ram",
        -9.966132915482206
      ],
      [
        "▁humi",
        -9.966520058442628
      ],
      [
        "▁kuwarto",
        -9.966805625584577
      ],
      [
        "ets",
        -9.968172740868848
      ],
      [
        "liwanag",
        -9.968572920098202
      ],
      [
        "▁All",
        -9.969326249283634
      ],
      [
        "▁matu",
        -9.969594964880853
      ],
      [
        "▁kahoy",
        -9.969651870766683
      ],
      [
        "▁makabuluhang",
        -9.971343473617745
      ],
      [
        "song",
        -9.971962810987256
      ],
      [
        "▁wag",
        -9.972307790191051
      ],
      [
        "▁aktibong",
        -9.972678793188136
      ],
      [
        "▁panloob",
        -9.973611029016205
      ],
      [
        "▁Apple",
        -9.974357970103359
      ],
      [
        "take",
        -9.9745282013899
      ],
      [
        "▁maaring",
        -9.974713565947791
      ],
      [
        "▁Internet",
        -9.97529231696248
      ],
      [
        "▁puke",
        -9.975552347583774
      ],
      [
        "▁pinto",
        -9.975941562073018
      ],
      [
        "▁Ed",
        -9.97616741624927
      ],
      [
        "▁paglago",
        -9.976398177150344
      ],
      [
        "▁artista",
        -9.976818183188474
      ],
      [
        "▁atbp.",
        -9.977019990379004
      ],
      [
        "cle",
        -9.977664903960815
      ],
      [
        "tanda",
        -9.977818365633096
      ],
      [
        "▁pambansang",
        -9.97802780007045
      ],
      [
        "TE",
        -9.978803694499499
      ],
      [
        "▁server",
        -9.978810379009785
      ],
      [
        "▁Salamat",
        -9.979223712019873
      ],
      [
        "▁koneksyon",
        -9.979228105417357
      ],
      [
        "▁how",
        -9.97992532290051
      ],
      [
        "▁dulo",
        -9.979950358230008
      ],
      [
        "▁di-",
        -9.980493344014832
      ],
      [
        "▁story",
        -9.980995331578058
      ],
      [
        "‘yung",
        -9.981108867419056
      ],
      [
        "oot",
        -9.981146832561821
      ],
      [
        "”.",
        -9.981229548899417
      ],
      [
        "tiko",
        -9.981992896835852
      ],
      [
        "▁ru",
        -9.982067719215165
      ],
      [
        "tions",
        -9.982189288468614
      ],
      [
        "▁tema",
        -9.982310501546111
      ],
      [
        "▁center",
        -9.98252553561021
      ],
      [
        "▁Em",
        -9.982779018275172
      ],
      [
        "vel",
        -9.982994249522443
      ],
      [
        "▁number",
        -9.982995545417715
      ],
      [
        "laya",
        -9.983218184480908
      ],
      [
        "hit",
        -9.983360311624821
      ],
      [
        "▁magsanay",
        -9.983378025135492
      ],
      [
        "▁direktang",
        -9.98393355610637
      ],
      [
        "▁jo",
        -9.984098395897112
      ],
      [
        "▁room",
        -9.984779868427042
      ],
      [
        "er.",
        -9.985197005704759
      ],
      [
        "▁support",
        -9.985364257957132
      ],
      [
        "iling",
        -9.985609514232925
      ],
      [
        "sakit",
        -9.985837554464242
      ],
      [
        "▁(D",
        -9.98603176005385
      ],
      [
        "lyn",
        -9.98653912047178
      ],
      [
        "hintay",
        -9.987800189966611
      ],
      [
        "mar",
        -9.988323589006074
      ],
      [
        "▁nakikipag",
        -9.988359700385567
      ],
      [
        "▁President",
        -9.98842771394919
      ],
      [
        "▁chi",
        -9.988539469725549
      ],
      [
        "hil",
        -9.989110243435608
      ],
      [
        "▁pagsusugal",
        -9.989402976006279
      ],
      [
        "dic",
        -9.989899145395981
      ],
      [
        "▁week",
        -9.990003482991094
      ],
      [
        "bar",
        -9.990328718207126
      ],
      [
        "▁manga",
        -9.990998052943604
      ],
      [
        "wis",
        -9.99141460830336
      ],
      [
        "▁AT",
        -9.991778520163702
      ],
      [
        "gram",
        -9.99244884445137
      ],
      [
        "▁alinman",
        -9.993013865459469
      ],
      [
        "▁bansa,",
        -9.993089861192507
      ],
      [
        "▁pagpapanatili",
        -9.993660113833363
      ],
      [
        "▁kumita",
        -9.9938869453781
      ],
      [
        "▁ikina",
        -9.99431771700232
      ],
      [
        "▁kum",
        -9.994444702132359
      ],
      [
        "▁pwedeng",
        -9.994527995307385
      ],
      [
        "▁St.",
        -9.994656086211654
      ],
      [
        "▁Sh",
        -9.995293025847326
      ],
      [
        "hirap",
        -9.99539639520558
      ],
      [
        "14",
        -9.995922411416673
      ],
      [
        "uu",
        -9.99595395474082
      ],
      [
        "bog",
        -9.996062245666222
      ],
      [
        "bilang",
        -9.996230253442759
      ],
      [
        "َ",
        -9.996406658984055
      ],
      [
        "▁legal",
        -9.996521130532061
      ],
      [
        "▁umiiral",
        -9.996588389330213
      ],
      [
        "▁23",
        -9.996977163046855
      ],
      [
        "▁Bina",
        -9.9974052455494
      ],
      [
        "▁pant",
        -9.997727057530241
      ],
      [
        "▁200",
        -9.997778821354476
      ],
      [
        "ele",
        -9.998101672340605
      ],
      [
        "▁power",
        -9.9982159262737
      ],
      [
        "▁Aquino",
        -9.99873145779544
      ],
      [
        "▁Luma",
        -9.998875049647307
      ],
      [
        "ONG",
        -9.999469289056687
      ],
      [
        "▁kuryente",
        -9.999942588494385
      ],
      [
        "▁col",
        -10.000532774375197
      ],
      [
        "▁ari",
        -10.001334479110053
      ],
      [
        "mahal",
        -10.002358904310457
      ],
      [
        "▁bunga",
        -10.002647456090306
      ],
      [
        "-C",
        -10.002705165966521
      ],
      [
        "tawag",
        -10.00311476279817
      ],
      [
        "▁here",
        -10.003274141234217
      ],
      [
        "▁matukoy",
        -10.003680297383955
      ],
      [
        "ox",
        -10.004002760964232
      ],
      [
        "▁real",
        -10.004593027858887
      ],
      [
        "▁Maging",
        -10.005238049444142
      ],
      [
        "▁60",
        -10.00550555756297
      ],
      [
        "▁Char",
        -10.005528377513372
      ],
      [
        "▁last",
        -10.00582981749732
      ],
      [
        "▁Mang",
        -10.006033109732547
      ],
      [
        "▁tinu",
        -10.006093353024776
      ],
      [
        "isyon",
        -10.006408719678703
      ],
      [
        "stro",
        -10.006517767741267
      ],
      [
        "▁nagmula",
        -10.006592064614813
      ],
      [
        "lus",
        -10.007318147642325
      ],
      [
        "▁organisasyon",
        -10.007692734043719
      ],
      [
        "▁liwanag",
        -10.008202451916823
      ],
      [
        "▁What",
        -10.008221362788392
      ],
      [
        "sign",
        -10.008379211566803
      ],
      [
        "isang",
        -10.008445425482732
      ],
      [
        "▁\"S",
        -10.00853141386661
      ],
      [
        "▁makahanap",
        -10.008626698747658
      ],
      [
        "▁family",
        -10.009117261950992
      ],
      [
        "▁channel",
        -10.009361230486556
      ],
      [
        "▁sinumang",
        -10.009406398119115
      ],
      [
        "01",
        -10.010279610955305
      ],
      [
        "▁tuntunin",
        -10.010575158041204
      ],
      [
        "▁hamon",
        -10.011156600612876
      ],
      [
        "ory",
        -10.011387996999778
      ],
      [
        "▁Ingles",
        -10.011594777901673
      ],
      [
        "▁langit",
        -10.01208058073202
      ],
      [
        "wit",
        -10.01252613036467
      ],
      [
        "▁movie",
        -10.012866713190999
      ],
      [
        "▁Metro",
        -10.012973795536524
      ],
      [
        "patay",
        -10.013154859420382
      ],
      [
        "▁Mac",
        -10.013607346636482
      ],
      [
        "▁kababayan",
        -10.01382730468606
      ],
      [
        "▁kasalukuyan",
        -10.014108639119753
      ],
      [
        "é",
        -10.014229217035885
      ],
      [
        "▁kadalasang",
        -10.014579538147846
      ],
      [
        "▁bata,",
        -10.01458694533414
      ],
      [
        "[",
        -10.01503640818124
      ],
      [
        "▁babae.",
        -10.015156115875255
      ],
      [
        "aba",
        -10.0153533433627
      ],
      [
        "▁dulot",
        -10.015607784018929
      ],
      [
        "▁humantong",
        -10.015799972478193
      ],
      [
        "mbo",
        -10.015932273114775
      ],
      [
        "▁pra",
        -10.016018205999977
      ],
      [
        "▁dokumento",
        -10.016183547246612
      ],
      [
        "▁mangyayari",
        -10.016433149515576
      ],
      [
        "▁Hanggang",
        -10.016553780659944
      ],
      [
        "▁malamig",
        -10.016768510007568
      ],
      [
        "▁kontra",
        -10.016885932034434
      ],
      [
        "ako",
        -10.017646014546811
      ],
      [
        "▁cash",
        -10.017689823998857
      ],
      [
        "MA",
        -10.017708108826914
      ],
      [
        "mpi",
        -10.017750925766036
      ],
      [
        "put",
        -10.01825427143808
      ],
      [
        "fo",
        -10.01830543915897
      ],
      [
        "▁kuma",
        -10.01846073185658
      ],
      [
        "lampas",
        -10.018463157801055
      ],
      [
        "▁(C",
        -10.018528722992626
      ],
      [
        "▁Rizal",
        -10.018878863575376
      ],
      [
        "▁kabuuan",
        -10.019019598220165
      ],
      [
        "▁Chinese",
        -10.019368243641694
      ],
      [
        "mok",
        -10.019688929056276
      ],
      [
        "loy",
        -10.020102220364022
      ],
      [
        "17",
        -10.020361281233466
      ],
      [
        "▁Che",
        -10.02065517989948
      ],
      [
        "▁katunayan,",
        -10.020750396024086
      ],
      [
        "▁basa",
        -10.02078458175161
      ],
      [
        "▁nanay",
        -10.020845703386456
      ],
      [
        "▁@",
        -10.020990923197957
      ],
      [
        "▁palagay",
        -10.021114100887079
      ],
      [
        "mic",
        -10.02120069387883
      ],
      [
        "yal",
        -10.021244634087399
      ],
      [
        "▁napaka-",
        -10.021257079331452
      ],
      [
        "▁aspeto",
        -10.02157775355644
      ],
      [
        "▁“S",
        -10.021829638547828
      ],
      [
        "13",
        -10.022006781910603
      ],
      [
        "▁God",
        -10.022114273769848
      ],
      [
        "▁tag",
        -10.02348964683036
      ],
      [
        "▁Don",
        -10.02382378292621
      ],
      [
        "▁Gen",
        -10.023853634084697
      ],
      [
        "gala",
        -10.024005954230653
      ],
      [
        "▁banta",
        -10.024561376983186
      ],
      [
        "▁bahay,",
        -10.024565021428641
      ],
      [
        "bot",
        -10.024930510063696
      ],
      [
        "▁tugon",
        -10.025291023705531
      ],
      [
        "▁panahon,",
        -10.025701875089243
      ],
      [
        "▁control",
        -10.025865595860296
      ],
      [
        "ney",
        -10.02685139032643
      ],
      [
        "kaya",
        -10.02696871381589
      ],
      [
        "▁ki",
        -10.026998346539534
      ],
      [
        "▁komento",
        -10.02721680294913
      ],
      [
        "kain",
        -10.027459500751878
      ],
      [
        "▁maingat",
        -10.027871898681578
      ],
      [
        "▁basta",
        -10.027882359843995
      ],
      [
        "sigla",
        -10.027942631116051
      ],
      [
        "tuto",
        -10.028018703850568
      ],
      [
        "▁share",
        -10.028200672794668
      ],
      [
        "▁layer",
        -10.028305555013269
      ],
      [
        "▁tapat",
        -10.028406417571514
      ],
      [
        "▁Kum",
        -10.028664434259884
      ],
      [
        "▁palad",
        -10.02898598591272
      ],
      [
        "▁ukol",
        -10.029030483223277
      ],
      [
        "abang",
        -10.02911892218927
      ],
      [
        "▁PC",
        -10.029191698992515
      ],
      [
        "▁Russia",
        -10.029230194508951
      ],
      [
        "tain",
        -10.029308978144337
      ],
      [
        "▁ayusin",
        -10.029894414032572
      ],
      [
        "PH",
        -10.030042156202025
      ],
      [
        "BI",
        -10.030608375739694
      ],
      [
        "▁bagyo",
        -10.030745349044857
      ],
      [
        "▁nakaraan",
        -10.031022244188371
      ],
      [
        "cer",
        -10.031216494489021
      ],
      [
        "▁magdagdag",
        -10.031477243228087
      ],
      [
        "▁pag-inom",
        -10.031667223480074
      ],
      [
        "halaga",
        -10.031852374020382
      ],
      [
        "▁law",
        -10.031860384483688
      ],
      [
        "ilang",
        -10.03196875384292
      ],
      [
        "▁Nagpa",
        -10.033189415054602
      ],
      [
        "▁sayo",
        -10.033529049494527
      ],
      [
        "▁stress",
        -10.033636230675398
      ],
      [
        "▁va",
        -10.033637441224839
      ],
      [
        "inta",
        -10.033726316805492
      ],
      [
        "▁guma",
        -10.033738158169472
      ],
      [
        "▁Pagpapa",
        -10.034025616416347
      ],
      [
        "▁“T",
        -10.034167627334536
      ],
      [
        "▁aplikasyon",
        -10.034232946315994
      ],
      [
        "▁solong",
        -10.03429737914798
      ],
      [
        "▁Aking",
        -10.034619916336265
      ],
      [
        "▁which",
        -10.034693962174819
      ],
      [
        "▁taas",
        -10.034952579989227
      ],
      [
        "▁kaunti",
        -10.03530386693517
      ],
      [
        "AD",
        -10.03584798986183
      ],
      [
        "▁Um",
        -10.036328484096655
      ],
      [
        "▁porsyento",
        -10.036438643205804
      ],
      [
        "PS",
        -10.036518675655126
      ],
      [
        "19",
        -10.036764874599662
      ],
      [
        "▁kahirapan",
        -10.036947801579544
      ],
      [
        "▁hotel",
        -10.03703436248271
      ],
      [
        "▁PNP",
        -10.037514715505042
      ],
      [
        "HA",
        -10.037630558975682
      ],
      [
        ">",
        -10.037936957726258
      ],
      [
        "▁drug",
        -10.038505922995968
      ],
      [
        "gil",
        -10.038586191306301
      ],
      [
        "▁pangako",
        -10.039339031719273
      ],
      [
        "▁\"I",
        -10.040004697796627
      ],
      [
        "wat",
        -10.04034944380579
      ],
      [
        "▁group",
        -10.040439531154956
      ],
      [
        "▁YouTube",
        -10.040940357070983
      ],
      [
        "▁nya.",
        -10.041110353110014
      ],
      [
        "ov",
        -10.041664330957587
      ],
      [
        "ungan",
        -10.041860257187619
      ],
      [
        "▁komunikasyon",
        -10.04235497937685
      ],
      [
        "▁basura",
        -10.043072041060423
      ],
      [
        "▁teksto",
        -10.043200178124172
      ],
      [
        "ions",
        -10.043240814411739
      ],
      [
        "▁War",
        -10.043643084788618
      ],
      [
        "▁public",
        -10.043701737904
      ],
      [
        "▁Linggo",
        -10.043705013776542
      ],
      [
        "▁nilikha",
        -10.04449966153149
      ],
      [
        "▁pera.",
        -10.045090091567301
      ],
      [
        "rito",
        -10.045124316482202
      ],
      [
        "DO",
        -10.045424057603146
      ],
      [
        "▁Sana",
        -10.04570567230921
      ],
      [
        "▁pakiki",
        -10.0463257953759
      ],
      [
        "ubos",
        -10.046911867203384
      ],
      [
        "▁Ber",
        -10.047100794422612
      ],
      [
        "SS",
        -10.047398937112181
      ],
      [
        "ganap",
        -10.047655425380576
      ],
      [
        "▁Bel",
        -10.047774662254067
      ],
      [
        "blo",
        -10.048473846274623
      ],
      [
        "▁asukal",
        -10.048741983106218
      ],
      [
        "bibi",
        -10.048799766623464
      ],
      [
        "nood",
        -10.049061991598391
      ],
      [
        "▁modernong",
        -10.049269942380075
      ],
      [
        "ose",
        -10.049328289727816
      ],
      [
        "▁makakakuha",
        -10.049481164220563
      ],
      [
        "vit",
        -10.049714831312373
      ],
      [
        "▁Dan",
        -10.049991096238296
      ],
      [
        "ipon",
        -10.050079590865158
      ],
      [
        "ahas",
        -10.050139668296687
      ],
      [
        "▁Dios",
        -10.05031566658486
      ],
      [
        "▁sundin",
        -10.050568477484013
      ],
      [
        "▁acne",
        -10.050764195040989
      ],
      [
        "▁mamimili",
        -10.050765147644348
      ],
      [
        "lian",
        -10.051558506148451
      ],
      [
        "▁nyang",
        -10.051931404826046
      ],
      [
        "▁Dis",
        -10.051988498905065
      ],
      [
        "▁Ver",
        -10.053237960353098
      ],
      [
        "▁project",
        -10.053425047320173
      ],
      [
        "▁tagubilin",
        -10.053806329923896
      ],
      [
        "dama",
        -10.054441058627063
      ],
      [
        "stan",
        -10.054814157747051
      ],
      [
        "handa",
        -10.05490032182923
      ],
      [
        "▁film",
        -10.054922916800459
      ],
      [
        "vis",
        -10.055125108707466
      ],
      [
        "▁Willie",
        -10.055152093057632
      ],
      [
        "▁tata",
        -10.055929066012128
      ],
      [
        "US",
        -10.05652181769741
      ],
      [
        "benta",
        -10.05652529166247
      ],
      [
        "▁bus",
        -10.056728600498857
      ],
      [
        "▁Japan",
        -10.057238037528919
      ],
      [
        "pag-",
        -10.05724543862325
      ],
      [
        "cul",
        -10.057767026398247
      ],
      [
        "▁short",
        -10.057909724875163
      ],
      [
        "▁pagtulog",
        -10.058257557558704
      ],
      [
        "▁karera",
        -10.058260168036766
      ],
      [
        "ments",
        -10.058438760000193
      ],
      [
        "▁balak",
        -10.058575677817148
      ],
      [
        "▁Kami",
        -10.059191966565013
      ],
      [
        "anti",
        -10.059333451043834
      ],
      [
        "▁simbahan",
        -10.059412908208136
      ],
      [
        "▁news",
        -10.059675849631152
      ],
      [
        "▁Nag-",
        -10.059960811612237
      ],
      [
        "▁lalawigan",
        -10.060941028140826
      ],
      [
        "EL",
        -10.061088423798079
      ],
      [
        "▁Gayundin",
        -10.061452598570229
      ],
      [
        "▁taga-",
        -10.061542339356748
      ],
      [
        "▁Har",
        -10.062116729632745
      ],
      [
        "▁pag-i",
        -10.064252669281599
      ],
      [
        "tina",
        -10.0658632487036
      ],
      [
        "▁unit",
        -10.067555417612303
      ],
      [
        "▁business",
        -10.068127742743318
      ],
      [
        "▁sektor",
        -10.068788021007384
      ],
      [
        "▁Mark",
        -10.068911014904621
      ],
      [
        "bahay",
        -10.069061761549857
      ],
      [
        "▁pinapayagan",
        -10.069205602674815
      ],
      [
        "▁Bata",
        -10.069262587812593
      ],
      [
        "▁Ama",
        -10.069339082027705
      ],
      [
        "▁Super",
        -10.069588716399375
      ],
      [
        "▁baba",
        -10.069668213905324
      ],
      [
        "era",
        -10.070216520139464
      ],
      [
        "ric",
        -10.070356237817588
      ],
      [
        "▁yaman",
        -10.070687855510167
      ],
      [
        "▁butas",
        -10.07091835418629
      ],
      [
        "▁App",
        -10.071224328371356
      ],
      [
        "▁gaanong",
        -10.071281259794812
      ],
      [
        "sagot",
        -10.071469202611695
      ],
      [
        "▁musika",
        -10.071581091245584
      ],
      [
        "alagang",
        -10.071588478464818
      ],
      [
        "▁ibigay",
        -10.072245105936366
      ],
      [
        "▁nagsabi",
        -10.072337641984241
      ],
      [
        "▁pag-uugali",
        -10.072515327630851
      ],
      [
        "▁pampublikong",
        -10.072561665464415
      ],
      [
        "▁paghahatid",
        -10.07271710242691
      ],
      [
        "mili",
        -10.073608507701868
      ],
      [
        "back",
        -10.07400262253405
      ],
      [
        "▁Nais",
        -10.074154065207976
      ],
      [
        "▁kanta",
        -10.074853112902195
      ],
      [
        "▁House",
        -10.074993239461875
      ],
      [
        "▁kamangha-mangha",
        -10.075883960269241
      ],
      [
        "▁kagandahan",
        -10.075886703549848
      ],
      [
        "▁tulungan",
        -10.075949697602782
      ],
      [
        "punan",
        -10.076019961383958
      ],
      [
        "▁Gi",
        -10.07699489967478
      ],
      [
        "vers",
        -10.077281085831094
      ],
      [
        "taw",
        -10.077536688178787
      ],
      [
        "▁Sha",
        -10.078087893264225
      ],
      [
        "▁bakal",
        -10.078583002329626
      ],
      [
        "▁Inter",
        -10.078590357442543
      ],
      [
        ".Ang",
        -10.078868570763692
      ],
      [
        "▁saka",
        -10.078935891074453
      ],
      [
        "▁\"Ang",
        -10.079428928134613
      ],
      [
        "▁ikalawang",
        -10.080046360725584
      ],
      [
        "▁Kris",
        -10.080263773055256
      ],
      [
        "▁International",
        -10.080306504166579
      ],
      [
        "▁add",
        -10.080366646273205
      ],
      [
        "▁kalakalan",
        -10.08080529714725
      ],
      [
        "▁(B",
        -10.081034351611205
      ],
      [
        "▁tum",
        -10.081727490755771
      ],
      [
        "▁nagkaka",
        -10.081731105987183
      ],
      [
        "kasal",
        -10.081762401235299
      ],
      [
        "▁Laser",
        -10.082577005817006
      ],
      [
        "▁Win",
        -10.082657844531068
      ],
      [
        "tive",
        -10.083083576698693
      ],
      [
        "NE",
        -10.083384700178648
      ],
      [
        "▁big",
        -10.083641834302888
      ],
      [
        "▁Suma",
        -10.083666882779807
      ],
      [
        "▁government",
        -10.083963233077174
      ],
      [
        "IA",
        -10.0844265848874
      ],
      [
        "▁opisina",
        -10.084748619395242
      ],
      [
        "▁limitasyon",
        -10.084907256729974
      ],
      [
        "▁(N",
        -10.085334643415601
      ],
      [
        "▁light",
        -10.085489437324805
      ],
      [
        "▁maling",
        -10.085617640926829
      ],
      [
        "▁pagpasok",
        -10.085690590961658
      ],
      [
        "▁magsasaka",
        -10.085714820300167
      ],
      [
        "▁inaasahang",
        -10.08572369846242
      ],
      [
        "▁pinakabagong",
        -10.085799117230852
      ],
      [
        "mama",
        -10.085989996437043
      ],
      [
        "▁ipinakita",
        -10.086505441345624
      ],
      [
        "▁Tuma",
        -10.086906083547786
      ],
      [
        "▁I-",
        -10.087053581742527
      ],
      [
        "▁nakilala",
        -10.087175752759865
      ],
      [
        "▁mode",
        -10.087989929435151
      ],
      [
        "▁magawa",
        -10.088202620329085
      ],
      [
        "▁ngipin",
        -10.088670415111059
      ],
      [
        "▁katapusan",
        -10.088947702203017
      ],
      [
        "ibig",
        -10.08906735611412
      ],
      [
        "art",
        -10.089382424772136
      ],
      [
        "▁pusa",
        -10.089581936150493
      ],
      [
        ".com/",
        -10.089696588228914
      ],
      [
        "led",
        -10.089740171776423
      ],
      [
        "ID",
        -10.089785211395323
      ],
      [
        "▁kunin",
        -10.089799879477473
      ],
      [
        "FA",
        -10.089999798279969
      ],
      [
        "60",
        -10.090152435420567
      ],
      [
        "▁Mayo",
        -10.090473595237945
      ],
      [
        "puno",
        -10.090817341933747
      ],
      [
        "▁paboritong",
        -10.09104930604836
      ],
      [
        "21",
        -10.091163001083933
      ],
      [
        "▁tuloy",
        -10.091269071052329
      ],
      [
        "▁check",
        -10.091873091652298
      ],
      [
        "igan",
        -10.091877277918382
      ],
      [
        "▁lumalaki",
        -10.092820081215415
      ],
      [
        "▁bala",
        -10.092947449720809
      ],
      [
        "▁binigyan",
        -10.093689549642308
      ],
      [
        "▁buwan.",
        -10.093896203750676
      ],
      [
        "kumpleto",
        -10.094538486399681
      ],
      [
        "ente",
        -10.094619097735047
      ],
      [
        "▁down",
        -10.094639394237698
      ],
      [
        "▁tala",
        -10.094665647315644
      ],
      [
        "!!",
        -10.095260448455042
      ],
      [
        "▁pulisya",
        -10.095667492734194
      ],
      [
        "▁war",
        -10.0958582143739
      ],
      [
        "▁linisin",
        -10.096387018060758
      ],
      [
        "▁mapabuti",
        -10.097413762426383
      ],
      [
        "▁siglo",
        -10.098127016764792
      ],
      [
        "▁dahon",
        -10.098851938667288
      ],
      [
        "▁pagtingin",
        -10.099158168847838
      ],
      [
        "tun",
        -10.099236133429317
      ],
      [
        "▁aktor",
        -10.0994589171906
      ],
      [
        "ova",
        -10.10036264096854
      ],
      [
        "▁area",
        -10.10037580399133
      ],
      [
        "▁pupunta",
        -10.100510744217662
      ],
      [
        "lie",
        -10.1007379633914
      ],
      [
        "▁ako,",
        -10.100783318815788
      ],
      [
        "CE",
        -10.101352608405797
      ],
      [
        "▁lahat,",
        -10.101463349103971
      ],
      [
        "▁only",
        -10.102082054817556
      ],
      [
        "ore",
        -10.102086043402108
      ],
      [
        "▁lumi",
        -10.102285489450292
      ],
      [
        "mga",
        -10.102457517705355
      ],
      [
        "kikita",
        -10.103707206796484
      ],
      [
        "▁Tin",
        -10.103825214874634
      ],
      [
        "▁uli",
        -10.104338882325738
      ],
      [
        "ping",
        -10.104490718343387
      ],
      [
        "rant",
        -10.104975520954358
      ],
      [
        "▁paglipat",
        -10.105072548216096
      ],
      [
        "▁pandemya",
        -10.105654353284143
      ],
      [
        "▁Sea",
        -10.106393554030419
      ],
      [
        "▁panlabas",
        -10.106548632183117
      ],
      [
        "pr",
        -10.106767661567941
      ],
      [
        "▁buma",
        -10.106901160856097
      ],
      [
        "▁regalo",
        -10.10700661420552
      ],
      [
        "▁camera",
        -10.107264566262192
      ],
      [
        "ient",
        -10.107267225373546
      ],
      [
        "▁pilipino",
        -10.10735121232208
      ],
      [
        "▁landas",
        -10.107917946313428
      ],
      [
        "▁Israel",
        -10.109406198535261
      ],
      [
        "olohiya",
        -10.10969371609997
      ],
      [
        "▁kanser",
        -10.109716336570498
      ],
      [
        "▁Reg",
        -10.110072062537355
      ],
      [
        "▁opinyon",
        -10.110210890316688
      ],
      [
        "▁would",
        -10.11021151797982
      ],
      [
        "▁balanse",
        -10.110285638143461
      ],
      [
        "▁Amerika",
        -10.110309148237455
      ],
      [
        "▁umaasa",
        -10.110517202001644
      ],
      [
        "dam",
        -10.110647046630463
      ],
      [
        "ya,",
        -10.110731780662201
      ],
      [
        "▁Enero",
        -10.111726822303837
      ],
      [
        "mbi",
        -10.112275396293128
      ],
      [
        "pupu",
        -10.11231675420715
      ],
      [
        "▁kamakailan",
        -10.112976195265487
      ],
      [
        "siyahan",
        -10.113238285503915
      ],
      [
        "lug",
        -10.113323501797577
      ],
      [
        "▁rito,",
        -10.113351575719923
      ],
      [
        "▁Es",
        -10.113394815268265
      ],
      [
        "tel",
        -10.113993874420679
      ],
      [
        "sco",
        -10.114454549708896
      ],
      [
        "▁pamumuhunan",
        -10.114518331249913
      ],
      [
        "▁kahapon",
        -10.115063765513655
      ],
      [
        "80",
        -10.115404579620021
      ],
      [
        "▁pla",
        -10.115914253796765
      ],
      [
        "iisip",
        -10.116077587558793
      ],
      [
        "▁populasyon",
        -10.11640935844718
      ],
      [
        "▁kalayaan",
        -10.116726723875043
      ],
      [
        "▁air",
        -10.117168510711755
      ],
      [
        "▁pagpapabata",
        -10.117343105491843
      ],
      [
        "tanggal",
        -10.117370683967096
      ],
      [
        "▁contact",
        -10.117492667015735
      ],
      [
        "▁Air",
        -10.117808231402002
      ],
      [
        "tasan",
        -10.11791920291572
      ],
      [
        "▁Europa",
        -10.118573828797535
      ],
      [
        "▁English",
        -10.118847261147602
      ],
      [
        "▁old",
        -10.119330977091145
      ],
      [
        "wak",
        -10.119465021416918
      ],
      [
        "bad",
        -10.119492024142529
      ],
      [
        "▁Tra",
        -10.119492223999963
      ],
      [
        "▁By",
        -10.11975362407231
      ],
      [
        "▁paglipas",
        -10.119829594720969
      ],
      [
        "▁Home",
        -10.119923525897592
      ],
      [
        "kum",
        -10.119993641008273
      ],
      [
        "▁ito?",
        -10.120157836669405
      ],
      [
        "▁Parang",
        -10.120177370737121
      ],
      [
        "meter",
        -10.120300162441502
      ],
      [
        "mple",
        -10.120453458716021
      ],
      [
        "▁feature",
        -10.12047314968431
      ],
      [
        "▁read",
        -10.120825764399452
      ],
      [
        "▁Ser",
        -10.121161295932817
      ],
      [
        "▁sobra",
        -10.121456234022776
      ],
      [
        "▁cha",
        -10.121662348459505
      ],
      [
        "▁nakapa",
        -10.12178283923951
      ],
      [
        "▁naglalaro",
        -10.122796653866011
      ],
      [
        "▁popular",
        -10.123464423541991
      ],
      [
        "sca",
        -10.12392211477232
      ],
      [
        "▁1,",
        -10.124043039408788
      ],
      [
        "UM",
        -10.124046592526142
      ],
      [
        "ugan",
        -10.124597699463546
      ],
      [
        "▁parasitiko",
        -10.124828275294679
      ],
      [
        "gap",
        -10.124941863067281
      ],
      [
        "▁School",
        -10.125369788164573
      ],
      [
        "▁Maria",
        -10.1263868082812
      ],
      [
        "▁(M",
        -10.12650471055127
      ],
      [
        "▁vo",
        -10.126890331065908
      ],
      [
        "▁seksyon",
        -10.127009815888794
      ],
      [
        "▁Tan",
        -10.127120275285433
      ],
      [
        "▁nagla",
        -10.127606083938286
      ],
      [
        "▁deposito",
        -10.12771964592915
      ],
      [
        "isipan",
        -10.128067656695338
      ],
      [
        "hid",
        -10.128255654752218
      ],
      [
        "▁pong",
        -10.129085804004202
      ],
      [
        "dra",
        -10.129331759169949
      ],
      [
        "▁inaalok",
        -10.129474941562494
      ],
      [
        "▁gagamitin",
        -10.12961550708272
      ],
      [
        "▁hin",
        -10.129998863823335
      ],
      [
        "▁long",
        -10.13013470947397
      ],
      [
        "puri",
        -10.130473029134542
      ],
      [
        "▁been",
        -10.130476928687049
      ],
      [
        "tigas",
        -10.130579785123308
      ],
      [
        "▁tubig.",
        -10.130607249841582
      ],
      [
        "palitan",
        -10.131158646156797
      ],
      [
        "▁had",
        -10.131335877986073
      ],
      [
        "▁Program",
        -10.13159203147265
      ],
      [
        "▁VPN",
        -10.131768476858296
      ],
      [
        "40",
        -10.131901930039525
      ],
      [
        "▁anti-",
        -10.131952419562918
      ],
      [
        "ALA",
        -10.132157211061712
      ],
      [
        "▁naisip",
        -10.132182437353102
      ],
      [
        "ark",
        -10.132341632346698
      ],
      [
        "▁pagtugon",
        -10.132502427589417
      ],
      [
        "▁br",
        -10.132655615500127
      ],
      [
        "▁mundo,",
        -10.133209934598788
      ],
      [
        "daanan",
        -10.133255346696117
      ],
      [
        "▁presyon",
        -10.133256473199257
      ],
      [
        "MP",
        -10.133316060545443
      ],
      [
        "▁Ong",
        -10.133522578910208
      ],
      [
        "▁aksyon",
        -10.133736253633124
      ],
      [
        "....",
        -10.133903323296256
      ],
      [
        "▁Tandaan",
        -10.133937501900487
      ],
      [
        "▁samahan",
        -10.13427752089844
      ],
      [
        "▁think",
        -10.134455533977475
      ],
      [
        "▁nagpapahiwatig",
        -10.134824819102096
      ],
      [
        "▁tumingin",
        -10.135256293482406
      ],
      [
        "▁oras,",
        -10.135411157474257
      ],
      [
        "tad",
        -10.135421697809877
      ],
      [
        "▁tr",
        -10.135694252166296
      ],
      [
        "▁phone",
        -10.136313973935769
      ],
      [
        "▁kasamang",
        -10.136554564977835
      ],
      [
        "▁puwang",
        -10.136941799355096
      ],
      [
        "▁utang",
        -10.137212882003736
      ],
      [
        "▁start",
        -10.137604979971547
      ],
      [
        "▁pag-alis",
        -10.13769063621927
      ],
      [
        "▁buhangin",
        -10.137718338653809
      ],
      [
        "cel",
        -10.137948255385043
      ],
      [
        "ilan",
        -10.138369581100253
      ],
      [
        "went",
        -10.138585621301901
      ],
      [
        "▁napapa",
        -10.138740402701487
      ],
      [
        "▁puro",
        -10.1388817573664
      ],
      [
        "▁Op",
        -10.139161572769813
      ],
      [
        "-3",
        -10.140191507675716
      ],
      [
        "▁pang-araw-araw",
        -10.14020621894589
      ],
      [
[...]
